#version: 0.2
Ġ t
h e
Ġ a
i n
r e
Ġt he
o n
e r
i s
Ġ s
h a
n d
Ġ w
e d
e n
Ġ c
Ġ o
Ġ f
e s
a t
i t
Ġ b
Ġ p
o r
a n
Ġ in
a r
a l
in g
Ġo f
Ġ d
o u
Ġt o
Ġ m
i l
a s
i c
Ġa nd
T he
i on
l e
r o
en t
Ġ is
Ġ ha
i d
Ġb e
Ġ n
Ġ re
Ġ S
v e
Ġ l
c t
o t
o m
s t
a m
a d
Ġ M
v er
Ġ g
h is
Ġ e
ha t
o l
Ġ C
Ġ R
e t
e l
a y
u t
i m
Ġ on
i r
Ġ A
Ġ P
u r
Ġf or
o w
t er
r a
Ġ I
l y
u s
il l
at ion
Ġs t
Ġ he
Ġa l
Ġ h
c e
Ġa re
Ġ B
a k
re s
i g
o d
Ġha s
Ġw as
e re
Ġ K
Ġt hat
Ġ T
m ent
u l
it h
r i
er s
h i
Ġ y
u n
Ġ it
o s
c h
Ġa n
es t
a b
is t
Ġ G
he r
Ġ N
i a
Ġp ro
Ġb y
Ġw ith
Ġ D
Ġha ve
p p
Ġd e
Ġc on
Ġn ot
Ġa s
H e
Ġw ill
Ġt his
a nd
Ġa t
" "
ic e
Ġf il
a in
Ġs e
u m
at e
a g
n t
Ġc om
o p
Ġ 1
l d
ar t
ou r
Ġ v
Ġfil m
i f
t h
e m
I t
Ġt h
Ġ J
ĠI nd
Ġs a
i es
ha n
Ġn e
Ġg o
Ġw h
s o
a c
or t
Ġ H
on g
ro m
Ġ le
s e
Ġm o
Ġbe en
p e
Ġ r
Ġ 2
re d
Ġ u
Ġs u
an t
Ġ k
Ġw ere
i v
Ġf rom
Ġsa id
Ġal so
u d
h t
is ter
Ġy ou
es s
Ġ his
Ġe x
i al
ct ion
it y
in ister
i ve
ol ice
id ent
Ġd o
q u
' s
Ġp l
ha r
o k
c c
Ġw or
res s
Ġin c
o c
T his
ĠR a
Ġ L
Ġ V
Ġal l
ĠR s
ou ld
Ġ (
i e
t her
im e
r ic
u st
0 0
B ut
i re
Ġs h
om e
r y
ver n
as e
on e
ver y
ar d
as t
i an
at ed
a p
ĠInd ia
w o
g e
e f
i k
ĠM inister
d u
ou s
Ġ F
Ġha d
a v
Ġ E
vern ment
ig ht
Ġm e
l l
a re
Ġ j
ou t
Ġre s
Ġa b
Ġw e
ct ed
Ġp e
W hat
ct or
Ġ U
Ġcom p
H ow
in d
Ġo r
op le
Ġa g
ĠP r
o re
an g
al l
Ġp olice
u re
id e
el l
Ġp art
nd er
The re
e p
ou nt
Ġ W
Ġc an
am e
Ġof f
o st
e ver
Ġu p
Ġa r
Ġc ro
Ġ im
f f
u e
. .
Ġle ad
Ġm an
Ġn o
u g
Ġs o
p ort
Ġthe m
ak e
Ġthe ir
Ġin t
The y
he d
t ed
I n
Ġo ther
Ġpe ople
Ġon e
ar y
in e
Ġ ro
Ġo ut
Ġs p
J P
v ie
Ġgo vernment
ag e
a il
"" "
es h
Ġp er
Ġa d
is h
Ġre g
a ce
Ġa cc
ay s
ere d
an s
re e
ation s
t e
Ġ us
at er
ul t
Ġ un
hi ef
Ġthe y
Ġt wo
Ġthe re
b le
ou g
Ġd is
Ġl o
e ar
a h
ion s
Ġh im
Ġcon t
or m
ac k
Ġ O
ic al
Ġab out
f ter
ic h
at h
Ġt r
i p
Ġ 3
am il
Ġu nder
d er
Ġwor k
Ġag ain
ong ress
h o
Ġwh o
en ce
he n
ir st
p er
it al
ou nd
n ow
Ġne w
b er
l o
ad e
Ġ en
Ġ Y
Ġc ase
Ġo ver
Ġa m
c ed
Ġa pp
Ġs c
nd ra
h il
e w
Ġre c
l i
an a
Ġt ime
on d
p t
Ġt e
l es
od i
Ġhe r
Ġmo vie
an k
it ion
W e
Ġinc ident
Ġd id
ĠB JP
on s
. "
Ġ2 0
Ġst ate
Ġf irst
Ġd ire
at es
an ce
ol l
o g
Ġ qu
a ch
k et
ĠS t
as s
ab le
or d
al ly
Ġc l
ĠRa j
Ġit s
Ġwh ich
Ġc ount
w e
Ġin v
ing s
el y
i ed
h y
on t
os e
Ġk now
Ġan y
u b
a w
o in
a j
as ed
ĠInd ian
How ever
en s
ig n
ak h
ĠC ongress
if e
os p
Ġcro re
ĠT el
r u
re at
Ġs er
ĠM odi
ĠC h
Ġp res
Ġbe ing
m it
Ġha pp
a i
r it
Ġw hat
ol d
S he
e ct
ve l
i ous
Ġe le
v en
Ġde c
Ġd ist
i z
Ġl ik
ric t
m er
p le
d y
g ed
T hat
Ġsh ould
Ġagain st
osp ital
or y
Ġpro du
v ed
ation al
Ġmo re
Ġ ra
Ġt ak
Ġ very
Ġa fter
Ġs pe
ig h
Ġl akh
Ġm ar
Ġy our
Ġint o
oug h
m ed
re n
Ġm ed
il e
as h
s s
f orm
Ġ 5
Ġw ould
e c
ot h
our t
Ġs ha
Ġm ade
Ġne ed
el hi
ĠR ed
Ġp re
Ġ 4
Ġse c
ou n
c es
m e
ab ad
ĠC ha
c ial
u red
k ed
I nd
Ġpl ay
em b
Ġbe t
Ġf ar
Ġbe c
Ġoff ic
ction s
u res
ar n
ĠRed dy
it ies
Ġman y
Ġinv est
k s
m a
ĠG o
u p
Ġc ent
Ġin j
l ic
Ġp r
ad esh
m an
ot her
ĠI n
Ġh ospital
hil d
is s
Ġg et
Ġcount ry
Ġre le
as es
ent s
Ġf e
if f
Ġp ers
Ġgo od
it u
Ġre m
Ġt ra
Ġa c
n e
Ġs ome
is e
ĠD elhi
ĠS ing
P olice
.. .
Ġd ay
ĠG od
Ġm at
t ain
ĠC hief
al th
Ġthe se
Ġo ur
it e
a us
Ġe very
g et
od y
Ġdist rict
ur ing
ic t
y a
Ġh ow
r am
Y ou
he s
l ud
ĠSing h
Ġd iff
Ġlik e
um ar
ĠR am
Ġa ct
ver s
Ġ -
w ard
Ġt han
ĠPr adesh
ĠM a
Ġc hild
he re
Ġth ree
ow n
Ġb o
at ing
ĠA r
Ġme et
ment s
w ay
ter n
2 0
It s
n a
Ġs he
Ġat t
Ġw ell
Ġpl ace
Ġf amil
Ġb ut
d ay
Ġsu ch
en g
ar s
Ġad d
Ġn um
N o
Ġc o
ur n
Ġhe l
Ġtak en
S o
a ct
ow er
ang ana
Ġinc lud
al s
we en
Ġhapp en
re ad
y der
i ble
Ġm inister
Ġc han
f ul
Ġreg ist
Ġdo es
yder abad
o h
Ġto ok
Ġin d
A nd
Ġbet ween
Ġl oc
' t
re st
ĠU n
Ġpart y
Ġm y
Ġp os
Ġre l
Ġis s
Ġex p
Ġc ha
Ġto o
Ġinvest ig
Ġy ear
Ġp ol
are ndra
Ġon ly
nd ed
in k
Ġw om
hi p
c y
Ġ 6
Ġre port
al a
e v
Ġregist ered
ĠA n
Ġan n
Ġwor ld
Ġc ases
j ay
i x
m p
A s
Ġw ater
u nd
t s
Ġw hen
an y
Ġoffic ial
Ġt ake
Ġs oc
at i
Ġp ost
e ep
ĠN arendra
ĠPr ime
Ġinj ured
el f
is ed
Ġthe n
Ġar rest
Ġst ud
pp ort
at s
a ug
Ġcom e
1 9
Ġas s
n ess
Ġhel p
ĠG and
ĠK umar
Ġdis c
us ed
v ent
t ing
ug u
Ġl ife
Ġdire cted
an n
Ġ ent
Ġg iv
e nd
or s
ent ly
Ind ia
ĠC om
w n
Ġd et
Ġb r
Ġf l
pe ct
Ġst art
Ġwh ile
Ġth r
at a
Ġs ay
A n
oll ow
Ġ The
o od
u ch
it ed
Ġg r
k ar
vel op
Ġ1 9
ĠGand hi
is ion
Ġ 7
n g
Ġc hief
Ġde ath
Ġmed ia
Ġpro v
Ġso on
Ġcom m
Ġfamil y
ĠS ha
e ho
Ġk ill
Ġf in
Ġ ""
ist an
Ġhe re
Ġnum ber
Ġj ust
f ore
Ġlo ok
v ah
m s
eho vah
it s
Ġgo ing
A ll
at her
W hy
Ġcon s
Ġs ame
Ġlead ers
um b
Ġdiff ere
Ġde m
Ġc ar
Ġres p
ab u
) ,
Ġw ant
r al
Ġc ap
o ol
c k
ĠS h
Ġs et
ĠTel ugu
res ident
Ġd ied
Ġse e
ar i
ĠTel angana
a id
in s
re t
00 0
Ġw on
j ect
ĠT amil
O n
u k
Ġarrest ed
Ġ1 0
ut ion
T h
Ġchild ren
ĠA nd
Ġim p
aus e
Ġ 8
Ġann oun
x t
Ġc or
ic s
ri b
l ed
Ġsoc ial
Ġm on
o b
Ġro le
Ġhe alth
a ve
Ġpol it
Ġcro res
F or
f t
Ġpro ble
Ġinc re
Ġb l
Ġa v
o ot
c i
Ġd uring
Ġcon f
I s
ak istan
S t
ĠJ ehovah
iss ion
if ic
Ġsp ot
ou se
Ġcon st
ul ar
ar li
Ġf ollow
Ġo cc
l ain
en er
Ġim port
Ġin form
ri v
ctor s
Ġy et
u al
Ġs m
Ġthr ough
Ġpres ent
Ġc ol
Ġc all
Ġbe l
Ġh igh
Ġs ur
a red
D o
Ġb ack
Ġmeet ing
Ġpers on
Ġf our
ri ed
Ġs itu
us ic
Ġl ast
ĠSt ate
at ely
Ġ if
c ess
Ġp ass
g an
Ġm ake
et h
m ers
oug ht
ter s
Ġmo st
wo od
Ġqu est
h ra
u es
r an
Ġ He
i b
ol ly
e g
5 0
o v
o ve
ĠC ourt
ĠS ab
Ġacc used
ut h
us s
os ed
c er
o y
Ġp h
i jay
in ist
Ġe ven
Ġ20 1
Ġcomp le
a x
D P
Ġt er
Ġte am
Ġc ould
ĠH yderabad
Ġc ourt
Ġre ce
olly wood
Ġha nd
Ġother s
Ġser v
am p
in ce
Ġth ose
Ġsec ond
in es
al e
ag es
id ed
t y
Ġd own
a un
Ġb u
Ġr ight
ĠA s
iv ed
ĠP resident
Ġt em
Ġ '
ro l
read y
Ġm uch
e le
Ġcont in
ro w
. """
t al
iv es
ol og
Ġgiv en
Ġs y
Ġv ide
Ġsha ll
ĠGo vernment
Ġd es
Ġj oin
ak ing
Ġd ont
Ġde velop
Ġele ctions
emb ly
Ġr un
Ġrele ased
Ġdiffere nt
Ġb oth
Ġsu b
j e
Ġre p
Ġfilm s
Ġre as
o or
Ġpres ident
ri es
ic es
aug h
e y
umb ai
ĠS har
n ing
ĠM an
Ġb us
ir us
Ġd one
Ġkill ed
ĠM o
at ive
Ġe ff
ist s
ĠSab ha
Ġlo ve
Ġfe at
Ġw ay
Ġlead er
E very
Ġreg ard
Ġal ready
Ġprodu ced
ĠA d
Ġmat ter
Ġw in
c hed
Ġ 9
k ing
ail s
ur al
Ġv is
Ġbe fore
Ġs on
Ġg ot
i red
an i
Ġin st
ar a
Ġcon d
Ġg reat
Ġb ro
Ġsitu ation
emb ers
il ity
Ġfor mer
Ġimport ant
med i
im es
Ġam ong
ic ip
ric ket
th ing
Ġl ar
ĠC ent
r ish
Ġp ower
Ġd ue
Ġav ail
Ġtr ans
um p
Ġd ays
ĠI s
r ong
Ġres ult
Ġc ur
Ġmon th
ch ool
ĠM L
ĠB ank
Ġh ome
Ġw here
Ġan other
Ġvide o
Ġl ong
Ġreport ed
That s
Ġhappen ed
Ġsu pport
ĠRa o
Ġcomp lain
cc ess
Ġwom en
Ġse ats
ant s
Ġb en
v es
Ġex am
ĠRa h
i or
ha l
lo y
ub lic
ĠK han
Ġatt ack
u ed
ĠP akistan
a ir
ĠP ro
Ġde p
ac hed
Ġm ust
g es
Ġ1 2
pp ed
ro ss
ir l
Ġt est
ag ar
Ġt reat
Ġ ve
Ġo p
Ġse ver
g est
Ġm embers
ra ct
Ġe ach
c on
Ġse en
The se
Ġc ame
c om
Ġne xt
r is
B I
art y
Ġb ig
Ġin f
Ġsever al
Ġl aun
Ġm usic
Ġde f
Ġt al
Ġf ac
N ew
ĠA ss
t en
Ġim medi
Ġb ody
and s
H is
Ġd augh
ĠAnd hra
Ġw ife
Ġapp ro
in a
Ġha r
Ġl ot
A l
u c
ic k
Ġfar mers
er ing
w ays
B JP
v ing
Ġat te
r ist
os s
re nt
Ġre qu
Ġacc ident
st em
ret ary
Ġsu ccess
Ġmar ket
us h
Ġcom mit
one y
Ġh ouse
ĠS ec
) .
Ġhe ad
m ission
ut e
Ġre ad
as ht
ad a
I D
Ġo b
ĠT r
ch n
Ġdire ctor
Ġrem ain
Ġf ew
and id
Ġl ater
ĠRah ul
ĠShar ma
Ġin ter
ak a
Ġa ctor
am ent
in ess
Ġe nd
ĠV ijay
ri end
Ġhe ld
Ġs im
ou th
Ġc are
Ġf ound
ĠM P
il d
Ġ &
Ġto tal
ĠU S
Ġas ked
Ġp ric
Ġpro g
Ġavail able
ĠH ind
Ġdec ision
Ġofficial s
, ""
Ġannoun ced
Ġsh ow
Ġun t
Ġw rit
Ġyear s
ĠD e
Ġrec ently
Ġc ity
al y
Ġdet ails
oc k
t he
ha s
ere st
aj or
ic ket
are nt
Ġn ame
Ġst ill
Ġs l
S ome
Ġw ent
Ġth ings
Ġv ill
e k
Ġspe cial
p ur
Ġen g
ord ing
ash m
Ġre t
ud i
Ġm ay
Ġs ent
Ġstart ed
Ġb ank
Ġin s
Ġrele ase
eng al
ul l
Ġbe g
Ġl aw
ĠL ok
em ber
at ch
s w
Ġs k
Ġne ver
ĠG u
Ġ1 5
A fter
Ġre f
i vers
id es
ress ed
Ġpro ject
Ġtreat ment
ĠM ar
Ġa ction
r ime
asht ra
ad u
Ġpro t
ang u
W ho
Ġc le
I f
Ġdem and
Ġp oin
ĠS u
ir d
Ġac ross
Ġpro m
t t
Ġe mp
ĠCh rist
Ġwh y
Ġm ain
Ġcall ed
ou p
ot e
Ġro les
M any
Ġv ict
Ġstud ents
Ġ .
Ġm od
pt ion
t le
ĠN ational
Ġa way
Ġf ather
oh li
O V
Ġp op
is hed
Ġro ad
Ġhow ever
re me
Ġne ar
a ut
Ġcomplain t
rish na
ĠUn ion
en cy
Ġ ed
Ġc andid
Ġar ound
el s
ĠP arty
ar ious
Ġc ricket
ill ion
Ġfor m
Ġimmedi ately
our s
inist ry
ĠA m
Ġ2 00
arn at
ur ity
ward s
w al
T R
Ġal le
con om
Ġsh oot
ur ther
Ġquest ion
us hed
The n
av irus
m i
s elf
pe cted
Ġinclud ing
Ġwor d
Ġa ff
Ġbec ome
ĠSha h
on avirus
Ġknow n
Ġd el
Ġus ed
OV ID
Ġpos s
iz ed
Ġ1 4
Ġre ached
et s
Ġint erest
Ġst ates
Ġc h
v i
arnat aka
ĠN ew
S R
pp os
Ġal ong
Ġinvestig ation
Ġg u
Ġf ive
Ġg irl
ĠM umbai
Ġo wn
Ġ Z
Ġre al
b ody
Ġs chool
if ied
Ġben ef
Ġc rit
o ok
Ġf a
Ġp oll
Ġst ar
lo od
Ġs ince
ener al
ĠW or
ĠT DP
Ġst ory
Ġsy stem
a z
Ġm ajor
Ġiss ue
is m
P e
ff ic
ĠCha ndra
es us
w it
Ġs hi
ra p
ĠM ad
ic le
Ġpers ons
e ad
ar am
ĠC OVID
N ot
r in
Ġth ink
Ġnew s
ĠT e
Ġ1 1
u ally
ha m
Ġf riend
Ġe vent
Ġn ow
har ashtra
ĠB engal
ĠSh ri
Ġe v
Ġl and
Ġbel ie
Ġc re
Ġs ays
Ġm in
en a
Ġe as
ĠK ap
j un
ĠPr as
Ġle t
C ongress
pe nd
Ġad v
Ġpro cess
tern ational
Ġm et
Ġrec ord
d d
arent s
Ġp et
g ar
B oth
Ġv ir
Ġt imes
ro du
Ġl ist
et y
ĠM al
ĠS hi
it ive
ĠS ri
c ing
Ġs ign
b abu
Ġv arious
Ġan sw
Ġplay ing
l ine
Ġa ir
Ġf r
ashm ir
Ġh um
ĠHind i
a im
Ġare a
Ġl it
n er
Ġhis t
olog y
el d
u ge
C P
ĠP M
Ġpolit ical
p l
W hen
ar k
Ġdaugh ter
What s
T wo
Ġc har
Ġrece ived
Ġf ore
Ġbo ok
Ġg row
Ġop en
Ġr ushed
Ġf ire
Ġtr ue
Ġh it
Ġinform ation
Ġproble m
Ġdisc uss
Ġto get
Ġtoget her
Ġocc as
vie w
O ne
Ġcur rent
Ġfeat ures
hil e
Ġus e
A t
ĠE ng
en ior
Ġt urn
in ation
re en
Ġto p
Ġc ost
Ġbec ause
Ġpric es
Ġre st
ĠT est
Ġind ust
Ġcol le
Ġd r
Ġm oney
ĠP ra
Ġtem ple
Ġm en
Ġhe art
Ġf ood
1 0
Ġacc ount
ĠJ ag
Ġst ars
l and
ĠK ohli
ĠK ashmir
g y
ĠC M
Ġex per
ĠC or
Ġl angu
Ġg ive
Ġl ost
Pe ople
Ġ1 8
ĠA b
ĠA ct
ĠB abu
Ġdo ing
e al
Ġs al
w ar
Ġshi f
er v
Ġb est
ak s
arli ament
i eld
ĠAss embly
Ġo per
ele b
C C
ĠK arnataka
up reme
ĠH igh
Ġproble ms
Ġprot est
Ġ20 20
r or
Ġpart icip
r at
R s
h ing
st and
a it
e e
Ġe conom
j a
Ġvis it
in ed
ĠA ll
Ġde b
Ġex t
Ġcount ries
uth or
a pp
Ġn ational
ha nd
Ġr ul
Ġoccas ion
Ġt re
g o
Ġw ar
e h
Ġm other
Ġloc al
Ġde ad
Ġto day
Ġdevelop ment
b e
Ġ1 3
ir at
art h
Ġk eep
ur y
am m
ĠE x
c ent
Ġinvestig ating
Ġshif ted
Ġcon du
g ing
ĠJ esus
Ġwom an
orm er
Ġh ig
Ġf urther
aw an
wit ter
ĠK aly
Ġp ublic
ĠV en
Ġele ction
Ġp ut
Ġs us
Ġs ing
n ce
ĠA mit
D ont
Ġplay ed
Ġser ious
arli er
Ġth ing
Ġreas on
ĠWor ld
hes h
ĠP at
Ġb at
ud get
pe cial
Ġres pect
st it
m on
Ġ1 6
ar at
am s
iv ing
Ġp arents
ĠP un
en se
on se
Ġe l
Ġs om
ri ver
at ure
ic ide
Ġwork ing
ian s
Ġve h
Ġchan ge
Ġc he
Ġemp loy
ult ure
am es
Ġvir al
Ġp ur
c ha
Ġsc he
Ġrun s
Ġsu ff
av y
P rime
ĠB ible
Ġ5 0
is ha
Ġs ix
Ġv al
ĠMa harashtra
ĠPras ad
Ġpro p
Ġex c
en ces
er a
Ġdid nt
Ġst and
on es
it ness
ire ctor
Ġh uge
Ġsm all
Ġd on
Ġc eleb
Ġf un
Ġj ob
Ġre ally
Ġatte nded
Ġle ft
Ġfil ed
l ish
p or
Ġnot hing
Ġcl aim
Ġlaun ched
Ġprog ram
ĠD ev
Ġ est
aid u
M ore
ie w
ha v
ĠKap oor
H yderabad
ar ly
n ed
ĠB ollywood
g er
Ġcomp any
Ġare as
h u
ĠSec retary
ĠKaly an
Ġph ot
Ġb ased
Ġex pected
Ġdec l
Ġadd ed
Ġp ay
Ġper form
ur i
un ity
U n
ĠN aidu
Ġcom es
Ġth ird
or n
or th
as ing
Ġbro ther
ay al
p r
ĠC on
Ġmat ch
Ġar t
Ġpr ice
Ġte chn
Ġall ow
n ot
ce pt
ĠCom mission
ĠA l
Ġeng ine
r ation
ĠC har
ĠT witter
Ġle vel
Ġsp ir
t i
G o
Ġw icket
er t
Ġ2 4
Ġpos itive
Ġe qu
ry ing
Ġsu icide
ond a
Ġinform ed
Ġb as
er ala
Ġshoot ing
Ġm aking
d om
Ġfollow ing
Ġf ight
ĠS upreme
Ġle g
Ġinclud e
Ġde v
Ġp ast
m y
ĠU tt
Ġv ot
O ther
Ġsec urity
Ġbec ame
Ġcor onavirus
Ġsp ok
ĠShi v
Ġ3 0
ent ion
ur ies
W ith
art ment
Ġb re
l ing
b s
Ġo il
Ġpl ac
Ġor gan
ra nd
Ġb ann
Ġ1 7
Ġmar ried
Ġbu ild
ĠP olice
Ġret urn
Ġcons id
b al
v ind
ĠD ep
Ġyou ng
Ġs ol
ĠC ol
Ġhapp y
o ver
Ġeff ect
Ġm il
j ab
al ity
ur u
Ġg one
k e
id ence
Ġor der
ĠB har
k a
b and
ĠChandra babu
i ence
Ġ2 5
Ġv iew
Ġcap tain
c hes
ĠT h
Ġr is
we et
Ġt our
Ġc r
R S
Ġsu pp
Ġst rong
Ġk ing
Ġresp onse
Ġiss ued
ad av
mer ic
ivers ity
l ess
A re
i as
ppos ition
Ġed uc
Ġd ies
ab in
j arat
Ġser ies
Ġc aus
ĠB i
Ġcont est
ic ult
ĠN adu
Ġreas ons
Ġpolit ics
T o
ust ral
Ġa ut
Ġc ust
Ġp ati
ad i
te e
A cc
Ġ1 00
er tain
Ġm ur
Ġresp ons
it her
ĠA g
Ġpart ies
Ġvill age
Ġlar ge
ĠCha nd
Ġresult s
Ġcom ing
ĠS at
C h
Ġs w
ul ation
ain ed
ĠS am
Ġneed s
Ġm illion
Ġhar d
Ġs ong
Ġp riv
Ġal ways
Ġd iv
ia h
Ġfe el
Ġtak ing
ian ce
A r
ak es
ĠSt ates
qu e
ĠK rishna
ĠW est
Ġto ld
hen n
Ġf ace
Ġf ind
Ġdiff icult
ar ch
ĠJ an
Ġl ed
ĠY adav
an cial
im s
eth ing
F ormer
Ġd ou
Ġh old
a ul
Ġg old
S h
ik a
mit ted
Ġsha red
Ġfriend s
Ġre du
Ġact iv
Ġmo ve
ir th
Ġf em
Ġpl an
Ġra in
Ġc am
Ġcon ne
Ġdis e
Ġposs ible
Ġo pport
ical ly
abin et
or ies
Ġe m
ir m
ess ion
Ġf ans
Ġj ud
ĠUtt ar
ak er
ren g
Ġf ail
Ġpl ays
Ġd ate
ag ed
ĠM ed
Ġgr oup
henn ai
ik e
hy a
Ġst ep
p ar
or k
ĠCh ina
it iz
Ġk ind
i ol
Ġwork ers
Ġexp ressed
ĠS on
Ġsa f
Ġh op
Ġocc ur
Ġcond ition
us band
C R
ĠS rin
Ġcan not
A dd
Ġhist ory
ĠS e
Ġwe ek
Ġo ld
Ġl ives
Ġbet ter
Ġconst itu
P M
9 9
ĠN ar
Ġk ey
p ut
Ġalle ged
re ed
Ġbus iness
ut y
ra el
ast han
Ġent ire
it ions
Ġf all
c ies
ank a
id d
il y
ĠA ir
at hi
ĠTr ump
ĠS c
Ġevery one
Ġwork s
Ġp ict
Ġdemand ed
M a
Ġl oss
Ġ ,
Ġr ate
Ġunder stand
I m
Ġpro per
y ing
ĠR es
Ġc amp
ĠCent re
Ġt ax
s el
oh it
o o
Ind ian
ĠML A
Ġfem ale
Acc ording
Ġth ous
ĠA f
Ġph one
Ġe arth
ĠF or
Ġp an
Ġcont rol
Ġg lo
Ġcha ll
Ġindust ry
ic les
Ġfin al
ort s
Ġm ot
Ġm ight
Ġs enior
in al
Ġst reng
ir man
Ġst r
Ġtra in
t on
Ġwith out
Ġany thing
o red
Ġp ress
Ġget ting
Ġle arn
Ġpro te
an th
Ġsay ing
Ġor d
ĠIs rael
Ġcon g
Ġsh ort
in ance
er y
Ġcomple ted
Ġeas y
Ġr u
Ġele ct
H er
Ġass embly
The res
ĠP arliament
n el
Ġc ou
Ġpro f
Ġquest ions
Ġcurrent ly
Ġam ount
ust ice
Th ree
pp er
Ġcontin ue
H ere
i ver
i od
i ent
Ġp le
Ġf ut
Ġa uthor
Ġserv ices
p s
Ġoff ice
R D
ĠM inistry
Ġmed ical
ru ct
Ġre ve
Ġexam ple
ĠE le
Ġc ho
ĠMo han
com ing
Ġlik ely
b y
w am
u ck
n am
ĠGu jarat
Ġrel ations
Ġsu per
as on
Ġiss ues
amm u
Ġres ign
ir c
Ġhum an
al i
Ġcon cer
ĠE n
ition al
Ġfr ont
Ġa udi
Ġl od
Ġbe h
id s
Ġbr ought
Ġsom ething
ific ation
Ġf ull
ĠK erala
he st
ĠGod s
Ġtr uth
ĠHe alth
ĠPun jab
Every one
Ġter ror
ĠB ang
vern or
e es
Ġp ri
Ġfa ith
Ġw rong
Ġin it
Ġunt o
Ġ ident
Ġansw er
Ġt ill
Ġa p
Ġreg ion
Ġe ver
Ġv iol
om s
ĠT RS
W here
Ġdec ided
og rap
ĠD r
ĠML As
Ġme as
ib ility
ĠH ospital
Ġst ation
Ġf act
ĠMa hesh
al ed
Ġprov ide
Ġ es
Ġincre ased
Ġf ield
ĠY SR
Ġannoun ce
r id
ĠS outh
ĠAr jun
ep t
Ġper iod
ĠS a
b ed
eng ers
Ġen s
A pp
E x
Ġword s
ĠJehovah s
air s
Ġchan ged
Ġh usband
ĠN TR
Ġceleb r
ain s
Ġb udget
oin ted
in c
so ci
ustral ia
un t
Ġbr ing
Ġl ive
ĠCent ral
ard s
Ġfut ure
Ġdistrict s
Ġd est
3 0
ĠH ar
ĠChar an
Ġpop ular
e cted
ha nt
ĠS an
ĠM ot
Ġt ell
b o
re et
Ġcandid ates
Ġpe ace
ĠS ena
ĠM ay
ight s
Ġwrit ten
Ġa ge
Ġm ind
Ġbe aut
Ġdo ctors
Ġt it
r on
Ġimp ro
Ġinj uries
Ġt weet
ĠI P
Ġsp read
Ġs ide
5 00
port s
Ġprodu ct
Ġe y
Ġprov ided
7 0
ive ly
ut ed
ĠV ar
Ġ ur
an ces
Ġper cent
Ġb ow
T el
am b
Ġpoin ts
Ġde al
Ġg ave
Ġact ress
d e
e x
iv as
Ġf ree
Ġg l
Ġst at
Ġlod ged
Ġf ell
Ġrel ig
ple ment
Ġjoin ed
ĠV irat
Ġhe ar
Ġex pect
is es
Ġdes ign
go ing
Ġlar gest
v ies
Ġup on
Ġb irth
ĠP awan
P ro
Ġeduc ation
k har
ĠJag an
R aj
ra in
un g
Ġt y
c han
Ġsing le
Ġhim self
Ġhe ro
Ġm or
ĠC BI
ort em
Ġincre ase
Ġb lood
Ġf und
Ġplac es
ĠR e
ud e
er ation
ac her
ĠVen k
ri f
I C
d own
p h
Ġse em
c il
ran ge
ĠH ome
on al
Ġincre asing
ur s
Ġbann er
c l
ĠK ing
ĠJ ammu
han kar
Ġme ans
m ar
2 5
ĠRa il
Ġmo vies
Ġd am
il ities
S T
w are
im um
Ġc ause
ĠP ar
ar ies
Ġbelie ve
Ġb ad
Al so
ĠD ay
Ġtr ad
M odi
Ġpriv ate
g n
Ġac hi
in em
Ġserv ice
Ġth ought
Ġg ener
Ġ 0
ĠUn iversity
g r
Ġinv ol
Ġv ari
r ing
ent ial
Ġ4 0
an e
Ġw he
Ġin n
it es
ay ed
i um
ĠRaj asthan
am ed
Ġse ctor
o f
Ġ2 1
M e
Ġim plement
ove red
L et
m en
w an
u ro
Ġwork ed
Ġin ternational
Ġs old
ĠK ar
Ġ ide
un e
Ġapp lic
a ff
Ġl im
Ġdoes nt
Ġlead ing
ever al
Ġcap ital
ha d
res ent
Ġcomm on
Ġbeg in
Ġpre v
ru ction
Ġon ce
T r
ĠB S
Ġl ow
nd ing
ha ra
ĠB h
Ġe arlier
Ġt ri
Ġread y
W h
Ġs ons
c le
ens ion
Ġl ess
le y
Ġh on
Ġc irc
Ġsuccess ful
j oy
Ġfin ancial
B ollywood
h on
op s
Ġto wards
id ing
Ġn ight
hat t
Ġs il
ĠS he
S everal
itiz ens
Ġp ain
Ġbeh ind
em ic
Ġneed ed
oun cil
Ġstate ment
ĠM us
ĠT ha
Ġpet rol
ric ulture
Ġen c
s ide
Ġlit tle
Ġpart s
ĠAs h
Ġl ab
ĠP l
m inist
Ġ Q
Ġha l
ir on
ĠP and
Ġunder way
is l
r as
t o
iz e
Ġle ast
Ġprodu ction
Ġc ast
re m
ou ra
p ted
u f
g ation
ĠA meric
Ġn ation
ab les
Ġbe gan
Ġo pt
ist rict
Ġdies el
y al
od ies
ri age
Ġjoin t
ĠG eneral
Ġcl ose
Ġparticip ated
Ġdou b
ĠJ ustice
ad ha
Ġre view
i ety
er n
ĠCol le
ut i
Ġha ving
Ġsh ot
Ġmonth s
ĠC hennai
Ġl ight
Ġcandid ate
An other
l a
Ġm ult
Ġse ven
Ġwicket s
Ġpati ents
e b
il t
Ġp aid
ate g
Ġfamil ies
Ġmur der
ro p
Ġcle ar
Ġcou ple
sel ves
Ġcrit ic
ere nce
Ġresp ond
W ill
Ġw atch
our se
il ar
1 5
Ġd ra
Ġme an
ĠBi har
o on
ĠA k
Ġup coming
res h
Ġp ow
en ed
C om
L ater
at ives
Ġan g
ra h
Ġannounce ment
Ġc oll
am a
Ġh ous
Ġcondu cted
Ġra il
ĠSrin ivas
Ġc ertain
op al
Ġt w
we h
Ġw ait
Ġconne ction
iv al
Ġp ar
ah weh
il er
Ġf ul
Ġdeath s
Ġgrow th
M umbai
Ġpoin t
M y
Ġdire ct
Ġa ward
is ions
Ġqu ite
ĠL ord
1 2
Ġcont ro
y s
p ers
O r
ve re
am an
Ġachi e
f ort
Ġpoll s
ĠD irector
i o
ĠS un
T e
ud d
D ire
Ġres ol
Ġacc ording
The ir
Ġminister s
Ġc al
e ed
Ġcam era
Ġwith in
our ces
m ortem
c ome
if ul
ha b
Ġse at
Ġf ear
ic y
ĠY S
Ġcha ract
ach ing
ĠUn ited
A b
Ġm iss
n ers
w hile
o id
Ġdise ase
Ġ X
Ġra p
ce ed
Ġpass ed
Ġwho le
Ġrequ ired
Ġadd ress
Ġevery thing
ou d
ĠR an
T C
ir an
he ad
ra b
Ġis nt
ĠB o
Ġ2 2
Ġg ame
Ġyou th
m ost
s pe
Ġb odies
Ġne cess
Ġs elf
Ġt rib
Ġe at
er c
Ġloc ated
Ġg eneral
Ġde ce
Ġel se
du c
tern al
Ġhand s
P akistan
Ġ ver
Ġth ough
uf act
Ġtal k
ot al
Ġto wn
Ġoff er
Ġj our
is ing
Ġlangu ages
ĠB al
Ġhig hest
Ġcl ass
Ġwor th
Ġd river
W hile
Ġon line
Ġreve aled
Ġcomp osed
Ġlangu age
il m
Ġim m
Ġthous and
Ġm ass
ĠS it
ayal am
ap ur
Ġapp ear
s c
Ġdecl ared
Ġstud y
l ished
Ġact ive
e pend
ĠL O
av id
ĠInd ias
Ġ20 19
Ġsec retary
B e
Ġp ract
m ber
hon i
2 1
hy s
as ter
je cted
Ġpr ay
ro te
Ġveh icles
le ep
Ġoccur red
Ġm om
ĠS ub
ed d
Ġse le
ĠS ar
Ġs um
Ġen joy
Ġst o
ik ram
Ġint rodu
is ation
Ġrec ent
"" ."
Ġhe avy
ak ers
ill s
velop ment
om en
Ġspe c
Ġpass engers
Ġsche me
Ġse ason
Ġglo bal
Tel angana
Ġd en
ĠLO RD
Ġd ata
j an
is c
Ġe mer
Ġw ays
ne y
ut ions
ĠR o
om es
ad d
ri y
ail y
ĠN ag
Ġm ess
Ġcommit ted
l im
ol k
Ġcomple t
Ġacc om
Ġm ix
p an
Ġdr ink
Ġc ard
Ġt rying
ĠAf ric
ĠRaj u
s hip
Ġelect ric
ĠK ann
iv il
Ġlaun ch
Ġsur v
Ġsc en
ĠY ahweh
U S
a f
Ġh ost
ĠL e
Ġfollow ed
age ment
Ġpre p
ĠA ustralia
Ġperson al
Ġfail ed
ous ly
ĠRaj ya
Ġpop ulation
ĠB l
inc ip
it ation
Ġrec overed
Ġschool s
Ġc ourse
Ġmar riage
Ġr ise
ĠGo vernor
Ġf oot
ot s
e ction
Ġv ac
ary ana
Ġfor ward
om in
ĠC o
Ġcle an
se qu
r s
je e
stit ution
Ġw al
R ah
Ġof ten
i er
Ġeff orts
Ġconstitu ency
i et
Ġp oor
Ġf ast
st ar
ĠMal ayalam
Ġbenef it
in i
Ġchan ges
o han
Ġloc k
D uring
Ġhappen ing
Ġany one
Ġinit i
ĠS hankar
Ġvict im
Ġc ant
ĠG r
ĠF inance
a ign
Ġpre vent
Ġw rote
ĠC abinet
ĠM and
ĠA ff
un icip
Ġclaim ed
ĠK e
ov id
D elhi
Ġhop e
Ġs an
Ġ i
Ġcomp an
un ities
t hen
Ġsu re
Ġt ar
Ġaudi ence
if t
Ġst ated
Ġra ised
Ġre se
Ġe arly
Ġbuild ing
if y
ĠS al
v est
Ġb or
ĠMad hya
Ġest ab
Ġrep resent
A m
Ġrelations hip
Ġre v
c ap
Ġh ol
Ġdef e
Ġus ing
Ġte as
on a
os es
Ġv irus
Ġemploy ees
ĠN agar
Ġc ut
Ġon es
Ġfun ction
Ġst op
Ġst ri
ĠDep artment
C hief
p ir
it am
Ġab le
Ġex ist
Ġp ot
u ly
ir med
Ġman ufact
elf are
Ġf est
Ġ2 3
Ġteam s
in du
ĠM ah
Ġey es
ri pt
Ġcent ral
w ara
Rah ul
Ġbas is
Ġsk in
w a
Ġag ree
Ġs ens
Ġallow ed
O f
I T
Ġcomp et
at ural
Ġhig her
ĠC ouncil
me nd
und red
ur ance
Ġmor ning
Ġthat s
b ook
Ġne g
ĠChrist ian
Ġoffic er
re w
Ġmeas ures
Ġh ours
Ġexper ience
er red
1 1
ĠS ci
Ġ z
Ġl at
Ġ2 8
ĠA pp
Ġcomple te
Ġp ort
n es
re am
onal d
Ġc ities
ill ed
y ear
ay a
Ġr ich
Ġde g
Ġst ay
I M
uro pe
Ġbeaut iful
ĠAff airs
Ġmo b
Ġsha re
Ġprogram me
itness es
ĠIn ternational
ruct ure
Ġsim ilar
el t
Ġpro be
4 0
Ġsa w
M ost
ĠS y
ĠM e
ĠAn il
Ġe ither
Dire cted
ĠD istrict
ut t
Ġpost ed
Ġtechn ology
A P
ĠAr t
uk i
Ġspe ed
Ġk m
er ous
Ġd aily
Ġ ess
T DP
Ġhous es
b an
Ġrecord ed
Ġab ove
Ġn amed
ĠA h
Me an
m es
Ġm ember
Ġm akes
at ic
Ġget s
Ġopt ions
F our
ult ural
Ġsm art
aks h
od e
ĠAd v
6 0
Ġeconom y
ĠSu per
ĠA li
ĠO r
ĠS m
Ġte acher
ĠI m
Ġdece ased
Ġcre ated
Ġtak es
z uki
ap an
ures h
rat ul
Ġturn ed
Ġspe ak
qu ir
Ġhapp ens
Ġunt il
k ash
Ġsim ple
en cies
ou l
Ġhe av
og n
Ġstep s
iv id
Ġw arn
Ġlook ing
Mean while
Ġprog ress
Ġcamp aign
Ġbenef its
Ġf av
Ġp and
Ġoff ered
Ġregard ing
Ġdid n
Ġspir itu
Ġnecess ary
oin t
Ġsc ored
Ġinf l
Ġinc ome
ĠRa vi
Ġpress ure
On ly
ĠKann ada
Ġad mitted
ĠT o
unicip al
ĠP ad
Ġass ist
Ġ6 0
Ġbank s
M C
es ides
Ġm er
Ġatte nd
Ġcaus ed
ip ur
T ake
ll ed
j i
Ġpos ition
ĠDe velopment
ĠC up
Ġall iance
ic ular
Ġex te
Ġproject s
T V
ic ked
em pt
Ġveh icle
Ġlet ter
ĠY ou
Ġbu ilt
all s
Ġtweet ed
Ġcont rib
A N
Ġde ep
C an
B S
S ince
Ġs ister
ĠH aryana
Ġeconom ic
ĠEng lish
ab ility
Ġcompan ies
aug ht
Ġf ine
Ġhealth y
ĠD avid
mon y
Ġhe ard
Ġl iving
Ġp o
pp ing
ĠAr my
Ġinst it
ĠN o
ĠCor por
Ġn orm
Ġm ag
ar mers
Ġdis p
duc ation
v iron
Ġroad s
l it
Ġo pposition
ow s
Ġwant ed
Ġra ins
R e
b ers
u el
Ġf lood
ĠN orth
Ġopport unity
os ing
ut es
Ġgr ound
Ġmarket s
Ġauthor ities
w here
ĠMinister s
Ġconf irmed
Ġar range
Ġlock down
Ġan ti
ĠCom mit
ĠA t
ill i
Ġmil it
ĠAr un
Ġcol our
Ġa cted
ĠC ovid
Ġs at
g u
ĠIP L
il ed
Ġnear by
V ijay
Ġcons um
Ġse vere
Ġcommit tee
Ġpand emic
Ġn et
ĠIndian s
it ude
er man
Ġn on
al ore
R am
S u
Ġpl ann
Ġhal f
Ġrequ est
Ġoffic ers
Ġc inem
Ġpur p
Ġvict ory
Ġcontro vers
1 8
olk ata
Ġad minist
ater ial
Ġsign ific
viron ment
ĠM uk
p art
No body
ĠB an
ĠT ata
er ve
Ġb ur
Ġreg ular
led ge
at ory
Ġh ot
g ations
Ġperson nel
b ack
M ar
oc ked
ĠT V
Ġlakh s
ĠR ohit
ĠSu zuki
L ets
R ec
H ave
at or
C or
Ġreport s
Ġspok e
Ġmot or
Ġapp ointed
ĠPra b
Ġtr ade
Ġsuff ered
Ġf oc
Ġth ou
n s
Ġl ate
Ġsy m
z e
Ġhelp s
Un ion
Ġcust om
ĠH a
C ha
aw ada
Ġrespons ibility
h old
Ġc itizens
Ġspir it
Ġmom ent
Ġcontin ues
m in
ĠH indu
Ġc oun
Ġbel ong
ĠBhar at
Ġqu ar
om et
Ġbeg un
Y es
Ġen ough
r ast
ĠP aul
ĠK am
ĠN e
ĠIn stit
Ġinclud es
Ġbel ow
ab y
Ġtra iler
Ġvot es
Ġf ru
ind ra
Ġse ized
ĠJ os
ĠR uss
p es
Ġ %
Ġsu st
Ġgo es
Ġtar get
Ġd ig
Ġ ill
h ot
Ġmo ved
Ġstreng then
Ġr an
Ġfor ces
O ur
ed ic
Ġ river
Ġas soci
tern et
ear ch
at ors
ed s
Ġc ere
ĠD honi
ĠW ar
Ġind ivid
ĠS erv
Ġ [
E R
Ġs leep
f or
ĠU P
n ath
Ġob s
amp les
Ġknow s
it ing
ĠE ast
Ġ201 8
ĠO D
Ġ What
Ġrel ated
P l
ĠR ep
ĠRa v
Ġens ure
Ġt ou
lo g
ĠM y
ver age
ĠS uresh
Ġpr ime
Ġc ru
en i
Ġprev ious
Ġ vers
Ġcrit ical
Ġcharact er
Ġdaugh ters
Ġgovernment s
N ow
Ġt en
ĠS und
Ġth reat
Ġl ine
Ġele cted
ev i
Ġcl osed
Ġcomplet ely
er gy
Ġrul es
Ġ ?
ĠP an
ĠD es
S uch
Ġpet ition
ĠR oy
riy anka
Ġsu g
Ġproduct s
ĠMP s
Ġfore ign
Ġexpect ations
M usic
Ġdo ctor
ut ive
l adesh
n ew
u v
ĠC l
Ġcom b
ho od
Ġmed ic
ot ion
Ġmain tain
ace book
O ver
Ġle ave
A D
ĠRam esh
ĠW itnesses
Ġcondu ct
Ġperform ance
Ġsa c
n al
Ġbo x
Ġaff ected
Ġfor med
u ary
Ġg ra
Ġapp re
Ġ7 0
b h
ĠH ouse
r ance
n ect
Ġc ash
Ġth y
pecial ly
Ġa ctors
i qu
quir y
D r
Ġtra vel
ĠEn ter
Ġas k
m ing
ĠPat el
pers on
Ġre ach
Ġprodu cing
ĠCommit tee
t ty
ĠPro du
av ari
Ġsto pped
Ġdest ro
Ġinvol ved
Ġserious ly
Ġdiscuss ed
Ġte le
ol it
Ġse x
Ġex erc
Ġsoc iety
Ġchall eng
ag er
Ġdeb ut
ush ka
ab h
c ell
Ġbig gest
ur t
Ġre d
D on
E arlier
D irector
ĠCon stitution
M an
Ġv ote
ĠInd ust
pr il
it ha
li ed
Ġpart icular
Ġsug gest
iz ation
Ġpict ures
Ġbow l
ĠKing dom
ab ly
ro wn
ĠP et
Ġqu ality
Ġwe ight
ĠE urope
Ġm aterial
oth ing
Ġident ified
P re
Ġ2 6
ĠEng land
w ork
Ġact ually
Ġ8 0
ha se
T han
he l
Ġmod el
1 6
Ġp hys
Ġan im
av es
Ġa head
ĠJ a
b ar
Ġbl ack
Ġaut om
Ġco op
Ġactiv ities
2 00
s h
pl ay
ks ha
ĠV is
CC I
Ġpr im
at t
Ġm is
Ġinterest ing
A M
Ġsupp ly
Ġcare er
Ġval ue
Ġb it
ĠAfric a
ri ef
Ġe t
le t
Ġrece iving
it or
Ġrese arch
f all
Ġw ind
Ġconst ruction
Ġpict ure
Ġcent ury
ĠA P
Ġt or
Ġincident s
Ġan t
ĠBo ard
ĠD onald
ĠY og
E ven
ul ed
Ġar ri
Ġconsid er
and a
Ġwant s
ĠN it
Ġunder going
Ġac cept
eth od
Ġprodu cer
ĠCha irman
ound ed
Ġs har
Ġo ppos
Ġjoint ly
Ġdem oc
ĠT em
d ra
Ġbo y
Ġsc reen
Ġt ry
ig ation
ĠCorpor ation
in ent
ph one
en ced
ĠF ilm
Ġcontin ued
reed om
Ġcomm and
1 00
as hed
Ġse par
Ġhospital s
Ġor ig
our ce
Ġinclud ed
oo ja
Ġm ention
ĠGod avari
spe ed
ĠB e
A T
c u
ve y
1 4
gar h
Ġal one
ig g
1 7
Ġe arn
Ġinst ru
F irst
Ġb i
Ġgr ant
Ġloc als
ĠChrist ians
Ġg ear
ĠK CR
Ġris k
Ġg od
Ġfor ce
Ġre jected
am ous
Ġcust ody
ab or
amil y
Ġtem per
Ġt ried
ind er
ell ing
Ġphot o
he m
Ġsal t
o ice
Ġcong re
ĠTe chn
d ict
ef ence
Ġinn ings
Ġmob ile
Ġfl ow
Ġs qu
Ġrec ogn
Ġpol icy
o es
Ġmajor ity
Ġ /
Ġmin or
edd ing
Go vernment
Ab out
Ġbo ard
Ġinvest ment
is on
ant ly
an na
j ri
Ġdet er
Ġqu ick
F rom
Ġ2 7
Ġser ved
est s
in t
Ġen ergy
Ġ201 4
ĠPra kash
Ġbrother s
ĠS pe
ĠYSR CP
red it
Ġm and
ĠA pril
Ġh undred
ĠJ ud
Ġdevelop ed
ĠCommission er
ĠVenk at
t ies
Ġhist or
Ġoff ers
ĠS p
ĠSon ia
ĠBengal uru
ines e
Ġopport unities
Ġremain s
Ġwh om
Ġm ount
ach in
B y
Ġn atural
S im
cha y
Ġchall en
Ġthem selves
f ect
Ġ er
Ġgiv ing
ĠG e
Ġtr ust
r ant
w ide
he t
Ġsong s
Ġup d
Ġleg isl
ĠAh med
Ġlat est
ay ana
R es
i res
Ġapp ly
un ic
S al
ĠCom m
ĠA y
8 0
ud ents
Ġtre ated
ĠC ont
Ġrail way
Ġexp lain
Ġal most
Ġto ll
Ġter m
Ġ19 9
Ġh y
Ġbl ess
Ġfeat ure
id el
ĠB ill
Ġconst it
a u
ĠColle ge
l am
wam y
lo ad
rem ely
S ha
us e
v al
r ated
Ġ5 00
Ġpre c
Ġcare ful
Ġcom ments
Ġr ank
G ood
Ġben ch
' .
Ġet c
Ġw itness
ru ption
Ġe nded
Ġcro ss
Ġdist rib
Ġp ra
Ġimp act
ĠS ur
Ġha nded
jri wal
Ġ3 00
Ġjob s
Ġadd ition
ik anth
Ġf at
Ġfour th
Ġo pp
Ġd ang
v t
Ġlead s
Ġdire ction
Ġr ates
Ġest im
Ġw el
ĠMed ical
ĠB ha
Ġtest ing
H ence
ac y
F armers
ĠAm b
on ed
Ġhear ing
Ġarrange ments
Ġk ids
Ġapp eal
Ġspiritu al
Ġw is
Ġachie ve
Ġstreng th
Ġfac ilities
ĠS w
ĠInstit ute
ĠTem ple
Ġe ld
ĠC C
Ġdisc ip
ĠJ ay
c rib
pt oms
Ġdestro y
ĠIn st
F ollow
Ġb orn
I R
hi b
Ġtit le
Ġs outh
Y et
o har
Ġy e
ll ing
ci ent
Ġ ...
Ġtrans port
ac hal
Ġcere mony
er ved
ĠL t
Ġtra ffic
Ġexp l
g a
Ġknow ledge
Ġtal ks
Ġs ite
Ġp ack
igh b
ant ha
Ġe ight
Ġg rand
Ġse arch
2 2
Ġopen ed
ra v
ĠK olkata
k now
Ġdep artment
Ġcong ratul
Ġstat us
U nder
ĠAll u
lic k
Ġcar ried
E ach
Ġplay ers
S ec
1 3
I P
i ers
as im
Ġm em
Th ose
Ġalle gations
Ġrec om
Ġrequ ire
Ġg ar
Ġnum bers
Ġfac ing
ĠDev i
Ġoff ering
p at
ic i
ay an
iv ity
a ction
ĠJ apan
Ġbu y
i y
m ohan
en ing
Ġful f
Ġc y
ĠG B
Ġchar ges
7 5
Ġimpro ve
Ġsil ver
Ġ3 5
n agar
Ġtrans f
ra cy
ote es
Ġcon v
ĠAd ity
Ġlaw s
Ġha ir
Ġm ist
as an
ic ro
Ġatt ention
Ġsuff ering
Ġseem s
Ġp ub
Every thing
esh war
Ġru le
ĠJ oh
itam in
ĠB rit
ĠJ une
Ġde pend
ĠP re
Ġ1 50
er jee
Ġs ession
w ise
le ase
Ġsu gar
m iss
Ġcond ol
ĠCom p
y le
ĠR eg
all ed
Ġpr incip
Ġ3 2
Ġb ats
Ġc ateg
ĠB a
Ġrespect ively
Ġenc oura
ax imum
ix el
Ġfund s
E O
Ġb ill
Ġre ar
in ikanth
at form
Ġreported ly
ĠArt icle
Ġv ol
Ġdo cu
Ġ ri
Ġk ept
ug g
Ġexp ress
ri al
ĠD il
ap t
ĠM et
Ġlo an
o very
Ġmass ive
ĠS r
Ġright s
Ġext remely
Ġchar ge
ro ad
ĠS ud
Ġcha irman
Ġd ri
Ġacc ess
Ġtrain ing
Ġb ar
Ġpl ans
a ur
Ġl ower
Ġdiffere nce
Ġst aff
ĠEle ction
Ġp hase
ĠN ath
Ġter ms
Ġve get
mer cial
ven ue
Ġwait ing
l ight
Ġviol ence
Ġf lo
Ġm inistry
Ġord ered
ĠC ricket
Ġw id
Ġcl ar
Ġf reedom
Ġ3 70
or age
Ġent er
Ġgroup s
ĠS pecial
Ġ2 9
Ġcricket er
Ġsp ace
ĠO ffic
Ġm as
Ġphot os
St ate
Ġide a
Ġn orth
ot ing
all i
Ġout side
ĠO n
Ġqu al
a fter
ĠEnter tain
ag ue
ĠJ r
S P
ag ing
ap er
Ġprote ct
s et
Ġn ames
hi k
olog ical
Ġsus pect
D A
Ġvill ages
g ment
Ġv ia
ĠHe g
Ġsk i
al em
S e
rast ructure
ĠI T
Ġne ighb
ĠBang alore
ĠBang ladesh
Ġden ied
A part
Ġremain ed
Ġ3 1
Ġvict ims
Ġappro ved
Ġes pecially
ĠT ri
Ġtest s
Ġen vironment
ound s
S pe
g ap
Ġrem ember
Ġcomm unity
Ġd om
U V
Ġab s
og le
ĠHeg de
I N
Ġsurv ived
ĠBan erjee
Ġtr ou
Ġsc ient
? "
Ġsc ore
Ġus ers
j it
Ġj ail
ĠF acebook
B esides
Ġun its
Ġmar k
ot ed
ip s
ĠMo ham
Ġpurp ose
est ic
Ġd ie
E le
Ġjust ice
Ġins ide
Ġst ra
Ġlook ed
o x
ir a
ĠW e
Ġsaf ety
Ġmess age
ot t
Ġconsid ered
Ġcont ain
ĠB ach
Ġfoc us
ĠC re
ec ause
Ġr out
Ġappre ci
re es
m ad
ĠI C
ĠChand r
Ġ $
Ġdis app
Ġbre ak
ĠM ond
ĠP e
ĠG opal
Ġcap ac
ĠP ol
Ġin quiry
R ohit
Ġintrodu ced
Ġbor der
Ġd i
ĠG erman
Ġapplic ation
ĠA ut
e ch
ĠN a
Ġw edding
Ġd edic
Ġdec isions
es e
im ately
ag ram
Ġsur pr
Ġthe e
Ġb illion
Ġref used
lit re
Ġatt empt
ĠVar ma
R R
ĠH im
Ġsp ent
Ġess ential
ĠC ity
Ġdr ug
ak rishna
Ġtra ins
Ġar gu
ĠBach chan
ad es
ard han
ĠR ag
ĠS us
Ġpl ant
om an
' m
i que
Ġres c
Ġcan cer
Ġs it
R ead
Ġgiv es
Ġg re
ie f
Ġgrow ing
Ġev idence
Ġa ware
Ġl ad
ase khar
ĠE ducation
Ġexam ination
Ġfore st
Ġl if
Ġy es
Ġmult ip
Ġrelig ious
Ġlo ved
ĠC P
ve ndra
ĠC an
Ġsaf e
Ġ ir
Ġadd itional
Ġind epend
Ġstud ent
Ġdoub t
Ch ina
Ġdiscuss ion
ĠD eep
ĠZ eal
ĠDep uty
w in
Ġair port
Ġpl atform
Ġr ural
Ġcl im
Ġcond itions
ap s
Ġf amous
ro id
Ġtor que
Ġall oc
Ġres ident
J D
Ġmat ches
Ġ201 7
Ġconf erence
ĠI t
aksh mi
ĠLt d
Ġcom ment
ĠGr oup
There fore
Ġn or
Ġco ver
Ġc ivil
Do es
b ing
du le
Ġs in
Ġcon nect
ĠMot ors
ĠSit har
Ġsl ow
Ġprep ared
Ġse a
Ġ :
gap ixel
Ġcent re
ĠCC TV
Ġad j
B est
N othing
ak onda
ĠRa vind
E ng
Ġav oid
Ġcontin u
Ġg ain
Ġg reen
Ġrem ake
s hi
th y
A I
F C
ĠH ow
o j
Ġjud ge
Ġfest ival
ĠAr vind
ĠMar uti
om ing
Ġver dict
ograp h
d isha
ĠB ar
P awan
ir i
se c
ksha y
ĠSt ar
D id
Ġst ands
ĠM am
ĠSan jay
Ġcongre gation
Ġru pe
Ġc rime
L oc
ĠA jay
Ġfil e
M o
Ġf re
E D
p rodu
Ġt icket
u z
ĠJan ata
Ġcinem a
V ery
ic ial
al m
Ġag riculture
a cted
Ġreturn ed
in ch
ĠJ er
Ġst age
Ġp en
Ġrul ing
ĠMar ch
ris ing
iran je
Ġtal king
ĠZeal and
ĠL anka
Ġgirl s
ĠRaj nath
gar wal
ĠEx p
ĠMah indra
e ared
irm ala
F ive
ial ly
ĠRaj put
ĠD ha
ĠKe jriwal
ul a
Ġrespons ible
ĠCh inese
em s
Ġbook s
Ġsub ject
op ic
Ġa f
Ġp un
Ġnot e
d eep
Ġdet ained
Ġdisp ute
Ġmove ment
P rodu
ĠInst agram
S C
Ġex ec
Ġso ft
ĠRail ways
Ġfor th
ĠB en
Ġser ve
p en
Ġeven ing
ĠK ore
Ġag reed
Ġteas er
b it
Ġw ish
ĠS P
F in
Ġt ur
ĠH D
re ct
L ook
ris is
Ġp age
ĠM at
Ġmotor cy
ĠH y
Ġyour self
Ġm ethod
vent ion
Ġcru cial
ĠS te
Ġ ut
' re
C on
Ġp at
Ġwor ship
ĠA z
ĠJ uly
p ic
ac hes
ĠT ir
Ġart icle
Ġwhe ther
Rec ently
Ġbro ke
Ġdra w
Ġre pe
Ġran ge
J ust
Ġtra ve
ĠAs ia
Ġn ations
ĠMond ay
ang a
He avy
Ġsold iers
ra ft
Ġski pper
Ġcapac ity
l er
ra j
ĠK art
Ġr ally
Ġarri ved
Ġf resh
ĠA ug
Ġlevel s
in ary
Ġinfl u
Ġm aximum
os h
ang al
Ġag o
Ġun it
P resident
Ġst orage
Ġthere fore
ĠD al
Ġdemoc racy
Do ctors
Ġa verage
ĠRaj e
er o
Ġc ulture
Ġwas nt
Ġman agement
ĠTr ans
Ġcaus es
Ġwe bs
ĠV ish
Ġo ption
c o
ĠF ore
Ġbirth day
ĠRes earch
Ġscen e
um an
Ġro om
e er
av ing
ar ing
uk h
Ġrun ning
Ġpric ed
ing er
Ġd ro
Ġexerc ise
pe nded
Ġvis ited
ĠL al
Ġbat tle
Ġnorm al
Ġplay er
ash ing
ĠA ward
ĠN av
ens ive
A d
Ġb all
Ġcl os
2 4
ge nd
Ġur ged
Ġf al
Ġprim ary
A R
k en
ograp hy
Ġst ress
sequ ently
ent y
Ġwin ning
ĠN and
hild ren
Ġoper ation
ĠC EO
Ġwon der
is garh
ĠAmeric a
Ġm ent
me gapixel
Ġrelig ion
Ġj oy
Ġprotest s
T ra
v ision
Ġprov iding
Ġlit er
ĠAn and
Ġst e
um e
Ġche ck
Ġs ports
ĠCre ations
Ġmil k
Ġspe aking
ĠAn ushka
Ġcost s
Ġex act
ĠEng ine
e ous
Ġc op
Ġpri or
H ome
is f
hatt isgarh
ĠSithar aman
ot a
oc ks
Ġhol y
Ġoppos ite
E n
Ġc reat
Ġob ject
Ġexte nded
Ġprop os
Ġdam aged
iranje evi
ĠN CP
Ma hesh
Ġconf idence
ha ri
Ġits elf
om b
B ecause
ra ge
Ġint eg
Ġaccount s
ar aj
Ġsc hed
Ġinter view
end ul
ĠG ST
Ġcond em
A ctor
l ies
l ims
Ġbe at
ĠSci ence
Ġf ig
And hra
Ġlook s
Ġnot ice
Ġtest ed
Follow ing
ĠRo ad
av ati
ĠNar asim
Tr ump
ĠO pposition
G od
Ġemploy ment
Ġf elt
Ġrece ive
y an
Ġcom fort
ail ed
p les
ĠS chool
ĠTechn ology
Ġaccom pan
M K
Ġmod ern
Ġreal ity
g g
ma z
Ġco ach
r ate
ĠD efence
b all
ĠK an
Ġleaders hip
Ġpoll ing
ou red
ent ed
od ay
ĠO disha
Ġsac rif
Ġb rand
har ged
Ġris ing
it a
n ces
Ġfav our
S S
St udents
el a
if ty
unt ur
% .
Ġstri ke
t ime
Ġ201 6
Ġap ost
ĠP al
ak ul
Ġteacher s
Ġsust ained
G B
Ġtou ch
Ġcoop eration
Ġdeg ree
Ġhel med
Ġc risis
hip s
Ġbeg ins
ce pted
Ġsal es
Ġresign ed
ĠA I
Ġconstitu encies
ĠO ct
ars h
Ġremain ing
oc ial
Cha ndra
Ġb ra
Ġhelp ed
Ġshow s
ĠS idd
Ġpart ners
3 5
H es
Ġc ars
riv ing
ĠD i
Ġaccompan ied
ĠAs soci
a iah
op ra
ĠHa asan
W omen
mp ions
Ġcap t
Ġv oice
Ġcontest ing
Ġp red
han ge
idd le
S pecial
p ite
Ġcre ate
Ġconcer ned
Ġtemper ature
Ġc up
th ough
in eni
Ġjour ney
Ġmention ed
Ġto m
ĠE d
Ġbec omes
form ation
us ion
Ġb ail
ert ific
F urther
Ġin aug
Ġnear ly
Ġheav en
Ġrespond ed
Ġdoes n
Ġs ources
Ġind ic
Ġimmedi ate
Ġs ought
ues day
Ġoper ations
ĠO ff
jun a
Ġwar m
ast ic
il es
Ġimplement ed
ed nes
ir ing
Ġredu ce
ĠU r
il ing
ce ption
ef ul
He alth
as hes
ĠV ice
Ġdise ases
Ġter rit
o ff
ial s
Ġover s
Ġcustom ers
K CR
ĠJ D
ro g
Ġp arliament
ĠL aw
Ġn one
Ġvac c
Ġw at
Ġprodu ce
ĠT endul
ĠL im
ĠRaj a
ĠRaj am
Ġb ag
Ġhas nt
o ved
Ġwith dra
Ġrain fall
Ġcelebr ated
ig er
Ġcho ose
ednes day
A ct
P F
W or
Ġar my
Ġsignific ant
Ġfal se
Ġact ing
4 5
ĠP ower
ĠMam ata
Ġm id
Ġdev otees
Ġsus pended
Ġent ered
Ġ3 3
Ġfac ed
c a
adha ar
ĠS ept
Ġfor get
Ġveget ables
Ġs oul
g ency
Ġmat ters
Y SR
Ġm isha
ĠV in
z a
ra id
ĠSpe aker
C ur
Ġc redit
ĠL eg
ĠAmeric an
Ġ9 0
S ee
Ġsec ret
Ġthrough out
Ġord ers
idel ines
Ġc old
Ġsched uled
Ġwor ry
and eep
Ġm ig
Ġs ides
Ġpow der
ĠP ul
Ġattack ed
ĠFor ce
Ġestab lished
ĠT uesday
erv ation
rid ay
O ffic
Ġmiss ing
ĠSal man
Ġg as
ĠRail way
Ġmultip le
urs day
Am ong
Ġsmart phone
S hi
Ġsu c
S enior
ĠCh opra
Ġinf rastructure
Ġdep art
Ġcolle ge
c he
o ber
R ed
Sh ri
Ġst rict
Ġlo ans
Wh ich
Ġp ie
Whats App
N E
Ġdes crib
Ġsol ution
Ġredu ced
Ġfin ally
Ġrap id
c her
9 0
Ġsom et
Ġth us
Ġplann ing
Ġfe et
ĠM S
Ġc ra
Ġcomm ission
Ġbegin ning
ĠW ednesday
Ġbo ost
ĠC ap
Ġnot ification
ou nder
Ġsa ve
har ge
Ġf ix
Th us
Ġcontrovers y
re l
Ġpres ence
Ġchallen ge
C he
Ġac cepted
Ġhero ine
Ġcor ruption
ĠK al
Ġb aby
ĠR el
qu ar
Ġhead ed
Ġpre gn
R C
s p
i ber
Ġl ose
Ġ4 5
Ġsupport ed
M inister
id er
ĠS iv
ĠI ran
loy ed
Ġaf raid
r ad
Ġn ut
Ar ound
Ġac qu
Ġvers ion
Ġsign ed
riv ikram
Ġprom inent
ĠN irmala
Ġty pes
Ġp il
Ġcom mercial
Ġc aught
Ġcon c
Ġro se
Ġdeb ate
Ġst ood
TR S
k hand
D e
ĠTendul kar
T otal
op les
u als
Ġv ice
Ġan cient
Ġcan cell
A B
y er
us alem
O ut
Ġsym ptoms
ĠKam al
C l
Ġs n
b ased
ĠB est
Ġestim ated
Ġinv ited
Ġrem ar
ov ind
Ġple a
V irat
il le
ub e
K eep
n y
an ced
ĠTh ursday
ens ation
tain ed
ter y
Ġassist ance
ĠSc he
Ġjour nal
ĠRam a
Ġspok es
ĠT his
Ġexp and
c raft
Ġthink ing
a ult
Ġp iv
Ġpub lished
ĠD o
P et
e ks
ĠS ure
ĠGo a
ĠF riday
Ġspe ech
Ġexper i
Ġprof ession
ro om
an ath
Ġto ss
p ly
Ġmisha p
Ġsuc ceed
R el
Ġf ish
ĠOD I
Ġchan ce
s on
Ġbelie ved
ĠPand ey
ou li
ĠR ec
Ġdis miss
ĠS ol
Ġeff ort
ay ing
Ġsh ocked
I S
Ġev ents
Ġchalleng es
F ans
on y
ĠP riyanka
ĠDha wan
ĠRuss ia
r im
Ġst ations
Ġmeet ings
Ġaff ect
Ġsat isf
ĠA c
ce mber
ĠAnd roid
Ġimp osed
Ġw elfare
Ġdestroy ed
it t
Ġgr adu
A g
ĠK ings
Ġne ither
Ġdis play
Ġent ertain
ĠJer usalem
o oth
Ġdo or
Ġpiv otal
Ġn ature
Ġre b
Ġterror ists
at ures
or ters
Ġ4 00
Ġcirc um
Ġbl ock
us iness
ĠB oss
Ġsche dule
Ġcomp ared
ha pat
Ġright eous
Ġins urance
app y
Ġd ram
Ġdiv ided
ĠP ublic
Ġwh ite
Ġent ry
ĠO ne
er al
Ġfac ility
Chandra babu
p ed
Ġ- -
ĠMo vie
ult ane
ĠRaj iv
Ġcol ours
gr ound
bo x
ĠAug ust
p rit
Ġf irm
ĠM ur
ag ers
ĠO f
Ġdom estic
ĠV ikram
Ġp ath
Ġl in
ren ch
Ġsome one
Ġst ories
bh p
ĠAss am
Ġa wards
Ġproper ty
know n
ĠJoh n
Ġwebs ite
le ct
Ġrep l
An y
A S
ond on
ĠBrit ish
6 5
Ġl ies
Ġb an
ĠD har
Ġdep os
Ġstar red
ĠR BI
ĠB CCI
G old
Ġhapp iness
Ġtem ples
N e
maz on
ĠCh hattisgarh
Ġprov ides
an cy
Ġalleged ly
Ġfor g
Ġmar ks
Ġd ry
Ġmilit ary
Ġ19 8
Ġse ction
ĠCP I
l ands
ĠD ever
Ġattack s
Ġrel ief
Ġpost s
Ġinvestig ated
pt a
Ġimport ance
ris es
Ġwor ried
ĠB ab
l ig
Than k
ĠC ar
ait ley
ĠAssoci ation
m aker
Ġd ream
Ġphys ical
ĠM r
aw ar
Ġrap ed
b a
Ġinstit utions
Ġdou ble
M inistry
ĠW elfare
und ai
chay at
u ff
as i
Ġl ink
Ġthous ands
Ġg en
He res
ĠS ik
ok ing
Ġsitu ated
ele ction
ĠSept ember
ul ated
Ġinaug ur
ĠS in
Ġwrit e
ĠAut o
Ġpresent ed
ĠAsh ok
Ġinf ection
Ġdef in
ĠOr gan
Ġcha ired
Ġbl ast
an ya
ĠNarasim ha
Ġb urn
ĠMa he
Ma harashtra
Ġcont ains
ĠK ovind
ĠL aun
Ġc ell
L ove
ĠF rance
ĠK ul
N m
ĠM od
Ġwe ak
ĠG untur
Ġfight ing
Ġs ource
Ġinvestig ations
Ġn om
x imately
har khand
ĠPrab has
Ġbec oming
ati ya
ĠSund ay
ĠM eg
Ġestab lish
Ġwe eks
Ġapp eared
S ri
op e
Ġresign ation
gy pt
ĠEle ct
ac ed
Ġdist ance
ense x
ĠShiv a
ĠVijay awada
ol s
ĠRep ublic
Ġexc ell
ru cted
es tern
Ġdel iver
ĠCh iranjeevi
Ġsim ultane
Ġr um
Ġadminist ration
Ġspec ific
Ġrec overy
P lease
an cing
ar h
ĠMus lim
ri ya
Ġspok en
ĠS achin
ĠC ro
ok e
Ġty pe
Ġdrink ing
S ub
Ġt able
ĠK rish
ĠChandr asekhar
il arly
Ġra pe
Ġsee king
Ġrem oved
Ġdeter m
Ġbus y
er as
us han
ĠR ana
Ġgrant ed
J ehovah
K ohli
st ances
loy ment
re r
av i
stand ing
quar ters
aw a
Ġanim als
M S
er ies
igh ter
Ġ7 5
Ġful ly
Ġon going
ur day
Ġpre par
hapat nam
Ġlim it
Ġleg al
g han
Ġsh ock
ĠRaj inikanth
Ġdem on
Ġperform ed
Ġneg ative
or ing
ĠS UV
ĠM unicipal
ir am
Ġse nd
Ġl ands
Ġa im
E L
ic ed
ha i
il s
Ġwarn ed
d a
Ġper fect
rat ic
udd in
ĠL ead
Ġpost mortem
R em
ĠGo ogle
ĠLim ited
Ġb ound
up athi
ĠDe cember
Ġha t
ĠS C
Ġam az
hav an
Ġhold s
Ġansw ered
ĠF und
ĠE mp
Ġcor rect
Ġsur r
ut er
ur ch
Ġ201 5
Ġrep ly
er ted
W ell
Ġadv ant
c ast
ol es
ĠA adhaar
Ġhum ans
Ġpract ice
ĠLeg isl
Ġview s
ĠN ove
ĠJan uary
W ater
Ġdec ide
ĠJ ew
ric ultural
ĠF eb
fort un
? """
Ġmur d
Ġb al
Ġin ternet
Ġrec over
in ing
em or
ĠServ ices
Ġg reet
Ġquestion ed
Ġl ack
2 3
ĠA kshay
M E
U p
Ġpro s
ĠE gypt
Ġking dom
ĠDever akonda
he red
C hennai
or a
ĠR adha
ist ic
Ġconf ident
Ġtit led
ĠG ur
ĠP ooja
n ament
Ġfor t
c hi
ult s
Ġequ al
ĠSat urday
ĠG ad
Ġsh ut
ctor y
Ġsum mer
Ġdefe at
Ġsc ared
Ġprop osed
Ġle gend
Ġen han
Ġco al
ĠAmit abh
T oday
ĠS o
ul ted
T I
ĠW ord
Ġcont act
Ġw ins
Ġex amples
Ġchan ging
Ġs ad
es ters
ĠShe tty
Ġdig ital
ater al
Ġpr oud
Ġstr ugg
Ġr ound
ĠI nt
Ġsur f
Ġc as
Ġ4 8
Ġl ived
Ġdedic ated
Ġcam eras
Ġserv ants
p et
Ġre venue
Every body
Ġachie ved
Ġwal k
ĠAdity anath
Ġnum erous
Ġlong er
urn ool
ain a
Ġsche mes
f l
Ġlim ited
ĠNove mber
S m
ust er
Ġhouse hold
o i
Ġfaith ful
Ġm ill
C ont
ĠMot or
Cor onavirus
Ġs un
Ġext ra
h one
Ġthan k
Ġpower ful
Ġansw ers
Ġs ense
Ġdang erous
Ġc abinet
Ġcomp ensation
N ational
Ġtw ice
Ġthe res
Ġan aly
Ġsele cted
p oon
Ġtrou ble
r un
Ġu nd
Ġsh own
ĠPun e
G u
Ġh urt
Ġpost er
99 9
adi um
Ġg ames
as k
g al
v ant
Ġc ertific
ar ily
Ġeffect ive
l aw
u nder
Ġcomm unic
ĠS um
Ġcl ash
ĠB hatt
Ġconcer n
re ak
ar nt
ak hapatnam
Ġle aves
ĠH onda
Ġdel ive
Ġvide os
Ġthe at
r ight
Ġo ath
Ġun ique
k ur
ah ub
Ġ3 7
Ġle arnt
Ġproper ties
S ix
ĠMus lims
han e
ap ati
Ġdam age
Ġcor por
ĠW ith
Ġtre es
Ġcancell ed
ĠJ aitley
ĠOffic er
ĠComp any
ahub ali
y n
is her
Ġn ine
Ġfin ance
Cur rent
Ġman ual
as wamy
ĠT ax
Ġset t
Ġmotorcy cle
w ell
Ġde le
t a
ĠN eh
Ġg rief
Ġmanufact ure
Ġbats man
Ġremar ks
ashm ika
ĠOct ober
N ever
w at
"" ,
ĠSh r
C hildren
Ġh or
Ġmo ving
Ġm ission
Ġas pect
Ġcho ice
C M
Ġfru its
Ġop in
il it
Ġdelive red
Ġsc ience
Ġworld s
Ġman ner
Ġprom ises
ĠTe am
G et
Ġhe at
Ġass ured
ĠPakistan i
ĠV ams
Ġappro val
ly mp
Ġsepar ate
Ġv ent
Ġman aged
mend ment
F ire
em y
ol ution
ide vi
Ġappro ach
Ġfru it
Ġpropos al
Ġs ale
ĠS eth
ĠF l
Ġfl ag
Ġmanufact uring
Ġindivid ual
produ ction
Ġeas ily
Ġopen ing
Ġquick ly
K arnataka
i us
em p
ivers ary
ĠAb d
Ġt ast
Ġk il
Ġair craft
Ġam b
Ġcompet ition
Ġsimultane ously
P olit
c les
Ġn omin
ĠA cc
ĠIn ter
ĠSus hant
at han
Ġorig in
I I
ĠS ind
Ġres ources
Ġalloc ated
w ari
Ġwh ose
Ġind eed
ĠT rivikram
ĠCor ona
Ġtour ists
Ġfl ed
Ġcongratul ated
Ġim age
Ġpre mi
Ġple as
Ġo k
il ateral
Ġk new
ĠMan mohan
J esus
Ġl ay
od a
Ġstar ring
C ons
Ġconst ructed
P ower
Ġopp osed
Ġs ound
ĠM ir
et ha
ĠP hil
Ġlad y
Ġre form
Ġdef ence
Spe aking
e en
Ġgo al
mer ce
Ġd ark
Ġ3 4
Ġbeaut y
D es
ro lled
C S
ck er
ĠYog i
W est
ĠF ather
Ġsub mitted
ĠJ harkhand
Ġj u
Ġsee k
Ġplac ed
n u
Ġcent res
Ġfollow s
Ġmin imum
ĠB aj
Ġfin ished
Ġspe cies
Ġk id
m ark
ĠV er
Ġ3 6
Ġtrans l
Ġgu idelines
C lick
n av
ĠAg riculture
Ġwonder ful
ot ted
Ġex cept
ic ted
Ġfe e
Ġtour nament
Ġco ol
Ġgar lic
x y
Ġfl ights
ĠAdv ani
3 00
Ġe ast
ĠI N
Ġ riv
Ġgear box
Ġcondol ences
s u
ĠA nt
ĠP uri
Ġvari ants
ĠT ollywood
Ġl aid
Ġcha ir
Ġnot ed
ĠKore a
ic ha
Ġdemand ing
Ġd ual
ĠB rah
ĠD as
Ġte xt
wam i
U s
Ġpost p
Ġqu it
s alm
Ġresol ution
ĠAmb ani
Ġte ach
ĠS ai
ath y
Ġal ert
20 20
Ġbus es
Mar uti
Shi v
Ġcritic ised
Ġa w
I A
Ġcoll abor
ĠLe ague
ashing ton
ĠIn f
Ġdisc harged
Su per
Ġcar ry
oc king
Wh os
Ġfre qu
Ġc ult
ep al
Ġsc ript
Ġorgan ised
Ġmean ing
ĠEngine ering
ĠB udget
Ġcircum stances
id amb
Ġst one
Ġdefe ated
Ġf uel
Ġdeg rees
Offic ials
Ġb ird
ĠAn ant
il a
Ġn ab
ĠIs lam
Ġf if
Ġmod els
ac ha
' ,
M ay
Ġlo ving
H appy
ĠI CC
Other s
ĠM oses
ĠD an
Ġres idence
ĠDes am
od hya
Ġlo g
Ġw icked
ob ile
Ġph ones
Ġcr im
ress ion
Ġstand ard
More over
s id
ĠRajam ouli
Ġcall s
Ġsurpr ised
al itha
M r
Ġfeel ing
Ġresident s
ef ore
m ore
M P
Ġt ree
Ġco ast
ĠL akh
Ġst ake
ĠF amily
ru ary
Ġpro ceed
ĠBS P
Ġclaim s
ĠS war
ĠA rab
Ġsystem s
ĠAm ar
ĠBhar atiya
Ġw ont
it er
ĠO lymp
ĠAd d
Ġs ize
Ġlist en
Ġsex ual
ĠF ormer
ĠSun il
Ġiniti ated
ĠS ant
Ġro b
Ġun ve
Ġbi opic
Ġt ough
Ġeld er
k eep
Ġl iqu
Ġprodu ces
Ġtre nd
Ġg un
Ġbook ed
ĠS om
Ġse ctions
Ġs ell
4 7
ayal alitha
A C
h ur
ĠP ers
ly ing
Ġadv ised
Ġimplement ation
ĠN ay
Ġrecom mend
W he
Ġin ternal
ad s
ĠAf ghan
Ġsha res
Ġfeat ured
IC I
Ġcont ent
Ġfl u
ĠM or
Ġse ctors
ĠSin ha
a ctions
Ġcons ult
ĠP awar
ĠL akshmi
Ġbr an
Ġappro ximately
Ġread ing
in ner
Ġcolle cted
Ġindivid uals
ĠCont rol
Ġra re
c oh
ĠK ha
T ata
ĠD utt
Ġappro ached
Ġbas ic
Ġst ock
Ġvari ant
Ġautom atic
Ġev il
ĠSe ction
Ġe ager
Ġhon our
ĠE conom
On ce
S E
Ġc a
ĠSri k
ĠM ission
oun g
ĠGerman y
Ġmar ry
Ġdocu ments
ab et
Ġcould nt
ric es
Ġstud ies
Ġcelebr ations
Ġgre ater
coh ol
Ġprote ction
R o
Ġf air
it ure
ĠH ard
Ġno body
Ġh omes
ĠL ondon
Ġnet work
Ġper mission
Ġlik ed
ĠProdu ctions
Ġv ision
A v
W ork
ĠSc ript
Ġpow ered
h ir
ĠJ ana
ĠW h
oun ter
ĠIn vest
Ġvot ers
B ased
Ġpay ment
Ġargu ment
2 8
ĠS ir
Ġon ion
ĠVis akhapatnam
ĠB udd
Ġdep loyed
ri ate
Che ck
Ġexact ly
P r
Y our
Ġadd ressed
Ġm unicipal
A ustralia
ap ers
Ġocc up
Ġinterest ed
Ġlearn ing
ĠAhmed abad
w adi
Ġang ry
Ġsur p
o e
Ġm iddle
Ġus ually
ĠG an
r ont
l t
Ġc ultural
ĠT ra
Ġpot ential
K erala
ĠK is
Ġhead quarters
t ha
ĠPand ya
ĠSure nder
4 8
B engal
Ġpeace ful
Ġt ables
it able
Ġto ward
Ġm akers
cap tain
ĠV id
Ġadv ice
ĠAsh win
Ġup set
Ġunder t
Ġpolit ic
ĠPat na
Ġstrong ly
ul s
Ġsuper star
ĠN et
ĠL ad
Ġthan ked
Ġdismiss ed
n an
ĠB and
j u
Ġtrans mission
Ġbe ar
Ġad op
Ġpr in
Ġdev ice
Ġdirect ly
k es
C ol
ĠP er
Ġcon te
av a
ens ions
Ġco ve
Ġur ban
Current ly
ger y
2 6
Ġd uty
Ġfell ow
im ent
ĠK ish
Ġequ ip
ĠServ ice
Ġpe ak
Ġ19 7
Ġemer ged
ĠGu pta
aj i
ĠAs ian
ĠKar an
b ir
f erence
Ġhigh ly
Ġrequest ed
Eng land
Ġf ame
Ġdiscuss ions
Ġ2 50
Ġfar m
Ġrecord s
Ġp ace
ĠA uthor
S a
S on
p a
Ġd oll
Ġit ems
add ha
ch it
Ġsc ale
Ġem otion
L ife
as hi
C ent
ar ayana
ĠA am
pe x
L ast
T amil
ther n
ras he
O N
ive k
Ġaut o
Sim ilarly
Pet rol
c are
Ġha th
ĠN DA
ĠY ork
ĠPet er
Ġcateg ory
F inance
ha kar
Ġal t
ha ps
Ġdep uty
Ġas king
Ġexist ing
I ve
el er
Ġwel com
Ġd iet
Ġm outh
Ġn ice
Ġex ception
Ġgener ation
ver se
ĠML C
Ġtrave lling
Ġexcell ent
ou thern
ĠG ree
ĠV al
Ġbro ad
M ix
Ġdram a
am med
Ġchar ged
ell ig
ĠO s
Ġparticular ly
u j
ve er
ok ed
Ġinj ury
B ank
em oc
Ġcritic ism
Ġagree ment
Ġ id
Ġe gg
ĠA garwal
ĠG aut
Ġprot esters
Ġatt ra
Ġcomple x
A ss
or ge
R ep
Ġal tern
Ġtri al
Ġindust rial
ill a
Ġwas h
Ġwrit er
Ġaward ed
Ġres ulted
lo bal
Ġprom ised
Ġapost le
c ked
Ġpr ison
Wor ld
Ġd ial
Ġelectric ity
Dr ink
P C
l al
ĠK a
Ġcolle ges
Ġann iversary
Th ous
. ,
D ue
T s
ak ar
M ed
Ġab road
Ġamaz ing
v ious
Ġinn ov
2 7
Q u
as tern
ĠS k
ĠM as
ĠF ar
Ġdec re
ict ion
Ġdro pped
Ġgo vern
Ġnot es
ag on
Ġcent uries
Ġworld wide
ĠJud ah
. '
p ay
ĠPr incip
ele ct
r ang
Ġse eds
Ġactiv ists
Ġpro ved
Ġg arn
Ġsit ting
z z
Pro t
Ġhar ass
ĠEurope an
Ġm us
ĠAdv is
Ġar riv
ĠFeb ruary
H igh
ĠN ifty
Ġplann ed
ĠRaj esh
Ġany where
Ġparticip ate
Ġfall s
Ġfact s
y as
og a
IP L
Ġresc ue
ĠV a
Ġwe ather
ru pted
Ġpl ants
ro c
ĠI tal
Ġcl ot
All u
Ġ12 5
Ġquar ter
her n
ĠNit in
ĠCha ll
Ġmy self
Ġha vent
In c
H I
T ime
Ġloss es
u x
Ġcon sec
ĠB as
ar u
ĠP art
Ġprogram mes
ĠAy odhya
et er
Ġdiscip les
Ġphot ograph
ĠR iver
' ve
ĠP ort
ra z
ĠE l
ĠMoham med
chit ect
3 7
Ġc ards
Ġlik es
Ġspe nd
Ġmeet s
Ġsur vey
im a
Ġcar rying
bs p
ĠSeth upathi
ĠAir port
ĠRavind ra
P hone
aj al
Other wise
it ely
Ġlearn ed
Ġcoun ter
r ative
ĠSec urity
ĠTha kur
ĠRoy al
Ġmedic ines
Ġmist ake
ĠP ark
om i
Ġan ger
Ġk g
ĠChand rashe
B en
H Y
Ġn ort
Ġgood s
Ġatt ract
G P
t ure
ĠK ot
In vest
Ġpro c
wal i
Ġrul ed
Ġspokes person
m as
Ġcon sequ
ĠOff ice
ĠMed ia
eng er
ĠT om
Ġcon vers
Ġ3 8
hen s
Ġdiffere nces
ĠHar ish
idamb aram
ĠF rench
Ġb ase
ĠC ons
ron ic
y m
ad ed
Ġpass es
ĠTe j
han a
Ġst yle
ĠCha mpions
ĠSm ith
iz am
Ġrel atives
ĠTest s
c ers
ver t
Ġshar ing
Ġrest rict
Ġevery body
Ġwatch ing
ĠBl ack
T al
Ġfoot age
D ER
ĠE m
hal f
ĠNagar juna
Ġb ul
Ġeffect s
ĠK urnool
ĠV ardhan
Ġincre ases
h us
A A
ĠF IR
ĠT er
Ġkill ing
ĠIm ran
ĠRav ip
Ġemer gency
ĠU N
Al ong
ĠR ev
ĠB ad
Ġ6 4
Ġ WhatsApp
Ġw ise
Ġ19 5
ĠKhan na
Ġcommit s
u ild
at ra
ĠIndust ries
ĠO pen
Ġ rom
it i
ĠA AP
Ġsomet imes
Ġey e
Ġw ide
Ġshow ed
E S
e qu
ĠK om
Ġgo vt
' ll
ĠM akers
Ġpre tty
Ġe p
Ġdel ayed
Ġregular ly
Ġf an
ĠU p
Ġconne cted
Ġshort ly
w or
ow ard
Ġ20 21
Ġg ather
Ġreg ul
Ġun cle
riv ate
Ġmag n
cker ay
E C
in ations
ak hand
Ġexper ts
ĠMuk esh
Ġrupe e
Ġf ra
or row
lic t
Ġdecl ined
AB AD
ĠMahe ndra
Ġfif th
M ake
ĠT al
ĠSam aj
Ġt im
Ġbr id
Ġri vers
hot o
ĠSche me
ĠS uk
angu ly
Ġtechn ical
U se
hat ma
ith i
Ġf le
ĠM all
Ġtra ck
I nt
ĠPre mi
Ġun known
Ġany body
Ġsupport ing
Ġf it
Ġd riving
Ġa pex
Ġs ort
ĠF in
Ġs amples
ĠP ict
Ġstart s
Ġindepend ent
They re
Ġhand le
ĠTrans port
Ġk n
ĠP ay
Ġcondem ned
4 00
Ġg ram
Ġhistor ic
ĠC ivil
ĠA p
ish ra
ond ing
Ġreg ister
Ġprior ity
ign ed
Ġann ual
ĠHy undai
Ġl augh
Ġcro ps
Ġfar mer
en n
el ess
Ġpe oples
ru pt
Ġunderstand ing
eng th
Ġvacc ine
Ġbe y
ĠU K
dd en
ĠEntertain ment
th ri
Ġ4 4
kar i
DER ABAD
Ġp aper
ĠR TC
ĠG old
oss ible
ĠV as
pur a
Ġbey ond
3 6
P un
Ġ {
ĠR at
Ġv s
Ġclim ate
Ġf ighter
Ġmon itor
Ġmurd ered
Thous ands
Ġ ign
ĠR ead
ud u
Ġlab ou
Ġpartners hip
ak en
Ġconc lud
i har
re p
Ġdrug s
Ġfl ight
rap h
um rah
Ġr ice
Ġun f
Ġref erred
ĠG op
HY DERABAD
o ons
Ġg ri
Ġm icro
ch ol
ĠBha g
Ġdri ve
Ġs ight
ĠQ u
i j
iz ing
9 5
ayalalitha a
Ġp icked
Ġevent ually
ĠSwar aj
Ġsim ply
Ġstat ue
Ġt ank
Ġs port
ĠA mazon
Ġpe nding
ĠTha ckeray
ĠVenkat esh
Ġper man
Ġdevelop ing
Ġpie ces
ĠMan ohar
Ġactiv ity
Ġcoun sel
YSR CP
Ġpostp oned
H O
m osp
Ġn ar
um ber
Ġac res
if est
Ġc at
Ġappro p
Ġr ather
Ġwe ar
Ġche m
ĠHim achal
Ġclar ity
ay ya
c ks
Ġd ub
Ġg e
ĠMa ha
Ġt on
ĠD ig
Ġenc ounter
Ġm ut
ĠPrincip al
P arents
ĠS andeep
Ġtrad ition
ĠA ra
Ġt ro
Ġf iring
ĠGo yal
has es
Ġcertain ly
ĠS ang
ĠR ukh
rit ies
re ams
ĠF irst
3 2
Ġhigh light
ic it
ĠW omen
Ġdes ire
Ġpray ers
ig arh
Ġreview s
Ġt bsp
ĠHe b
Ġno vel
ĠAk hil
Ġpe pper
Ġsqu ad
Ġsub sid
me nded
Ġbro ken
k umar
ĠM ag
ep h
at ha
ond s
Ġsevere ly
ĠG h
ist ed
Ġinst ead
add a
p ired
ary a
ap ore
P riyanka
Ġfor ms
Ġcove red
R eg
Ġb ike
ab led
Ġtele vision
S c
omet imes
Ġcertific ate
Ġwelcom ed
ot i
Ġappear s
at o
Ġb alls
Ġall otted
Ġjud gment
Ġw est
ĠM ishra
Ġal cohol
Ġmed al
ired dy
Ġconstit ution
ill ing
Ġwe b
Ġbre ath
Ġfix ed
Ġequip ment
Ġdown load
s y
Ġwis dom
O S
Al though
Ġkeep ing
ell ore
Ġindust ries
m atch
v a
ĠD iv
A mit
he k
il i
Ġwrit ing
ak umar
ĠRavip udi
ĠC itizens
ĠK i
ĠAr ts
ru ck
Ġsub sequently
ĠS BI
ĠPr ad
Ġb ed
Ġto t
et ails
ĠJ e
Ġstart ing
Ġju ice
ed y
ĠR AM
SR O
Ġmem ory
Ġabs ol
ĠR ang
ĠAn n
Ġpun ish
Ġg ained
Ġwas te
g ram
ĠT im
ĠCor onavirus
ĠMand anna
Ġexplain ed
Ġb le
Ġh ur
ĠT our
ate gy
Ġstr ategy
Ġbann ed
ĠOD Is
Ġkil omet
Ġt aught
Ġte aching
H E
Ġwor se
kar a
Ġgu est
Ġvir t
Ġorgan is
or ry
ĠP ost
ĠK on
Ġwhat s
Ġsm ooth
Ġsus pic
Ġyoung er
Ġorig inal
St ill
S BI
Ġdem ands
4 9
W ere
Ġm al
ĠC al
or am
Ġcomm ence
Ġsk y
n i
r ough
ear s
ear ly
ĠPl ay
B efore
V V
Ġiniti ative
ĠLegisl ative
Ġ !
Ġwis hes
ĠM on
Ġtransf erred
D ep
in ated
Ġis n
Ġtr uck
Ġback ground
ĠP reet
Ġsister s
F amily
v an
ĠM eh
ĠG en
Ġbo ys
Ġun ion
P ost
Ġ"" ""
ĠPro f
ĠVenk ates
B l
Ġh its
Ġar chitect
Ġaff airs
Ġb apt
ud h
ĠNit ish
r ay
ad nav
Ġat mosp
Ġap olog
Ġhar m
Ġpati ent
ĠN epal
Ġ6 5
Ġsym b
Ġsee ing
Ġcoll aps
Ġdescrib ed
re g
Ġassoci ated
Ġment al
In st
Ġjoin ing
Ġtal ked
Ġw ounded
Ġdisc ount
Ġbat ting
ĠInd epend
Ġalong side
am i
Ġfollow ers
Ġresol ved
adnav is
Ġb ilateral
Ġe ar
ant ic
abet es
Ġunder st
Ġ4 9
Ġwel come
st er
Ġwe ap
Ġte a
Ġbur nt
Sal man
C B
M eg
Ġreg ions
andid ates
Ġsan ction
Ġ ille
Ġfil es
Ġadv is
Ġ iron
Ġconsec utive
Ġme ant
ip l
us es
ant hara
Ġpre m
Ġset ting
Ġam id
ĠEntertain ments
ĠCap ital
Ġsu dden
ĠUttar akhand
Ġresol ve
ĠSy stem
ĠSind hu
P er
S upreme
Ġm ach
Ġatt itude
Ġel ig
Ġappeal ed
Ġapp oint
Ġvill agers
Ġcas ual
l ights
ĠP V
ĠJ ohar
A ir
Ġserv ing
Ġterrit ory
ist ory
Ġpoll ution
H as
ĠM u
Ġmix ture
3 8
Ġd er
ĠI I
Ġan x
ĠD han
ess or
aks hi
Ġhold ing
ĠMet ro
Ġinflu ence
i ents
Ġval ues
Ġfl our
ĠC y
Ġy ield
ress ive
Ġdis s
Ġparliament ary
Ġour selves
Ġpri est
Ġover se
Ġfa ctors
Ġpremi um
ĠA ctor
Ġrequ ires
Ġearn ed
Ġsoft ware
S ometimes
Ġsh r
Ġsuff er
ĠExp ress
M ad
ch ing
Ġdemon st
ĠW hy
Ġpray er
Ġrout e
ĠHD FC
oc on
Ġint ens
Ġdel ight
Ġb rief
Ġal ive
ĠAd minist
Ġinst ance
in ar
ell ed
Ġpro ced
Ġhundred s
ĠAfghan istan
Ġd u
ound ing
ĠIn formation
ush ma
Ġpo et
C le
ĠA re
row s
T M
Ġcomp uter
Ġple ase
ĠKish ore
S ocial
al g
Ġsh ops
Ġflo or
keep er
w d
Ġcharact ers
Ġrepresent atives
ĠPad uk
ĠIC ICI
Ġap art
Ġsuccessful ly
Ġus er
Ġceleb rities
Ġcou rage
ar ant
Ġgl ory
Ġpregn ant
at oes
Ġloc ation
bo ard
Ġapplic ations
ĠAuthor ity
ĠFore ign
Ġa st
Ġis ol
ical s
Ġmill ions
Ġ4 2
ill er
Ġmod e
Ġeager ly
ĠA ar
Ġdo g
Ġfore ver
6 4
N TR
r igation
ide o
ish w
Th ough
ĠWh ite
g i
cha nt
ĠS av
han k
Ġv ital
Ġmed ium
ord s
Ġwarn ing
Ġprov isions
Ġform ation
Ġes cap
I L
us ive
ĠPro ject
Ġe ating
ĠU nder
P rab
Ġl uck
Ġwill ing
ĠSt ation
i pped
in se
Ġf ought
r ary
Ġp it
Ġtour ist
A L
ĠA jit
Ġthere after
ĠPaduk one
Ġf illed
ru it
Ġcr ash
ĠG anguly
ĠW illi
ĠMa hatma
ĠIndust ry
his hek
Ġval id
Pun jab
S an
Ġl ength
Ġg ains
man ia
Ġpack age
m ember
Ġcourt s
Bengal uru
Ġfood s
Ġstand ards
ĠRan jan
g red
Ġag ricultural
ĠW arn
Ġrum ours
Ġst ayed
ĠN ir
Ġv itamin
ade ja
olog ies
Ġmas ks
Ġopin ion
Ġa ctions
Ġpra ise
Ġcountry s
ĠLead er
W atch
en e
ĠB hu
L e
Ġm ated
ov ies
Ġscient ists
Ġstra ight
Ġbat tery
3 9
A mar
O pposition
Ġcolle ct
u ction
Ġb read
ia gn
ĠNar ayan
Ġterror ist
Ġapprop riate
Ġwhat ever
ri a
ĠBh ushan
Ġdistrib uted
R BI
f ield
Ġl ie
Ġst able
ĠT rib
Ġwitness ed
Ġgo vernor
ĠS im
ĠS ensex
Ġchalleng ing
Ġgarn ered
ĠA mendment
ĠB umrah
Ġcomplain ed
S p
Ġd iver
Ġstud ied
P S
Ġrem ove
Fin ally
R a
in als
Ġemp has
Ġstr ateg
Ġclot hes
L ike
g in
Ġc atch
ĠN izam
Ġrespect ive
ĠG ow
Ġchild hood
Ġprom ise
ĠRes erve
ĠV ivek
ell ow
pend iture
Ġro w
Tel ugu
Ġthreat ened
Ġcrim inal
ull ah
2 9
Ġk ings
ord ers
Ġprom ote
Ġunve iled
b ha
Ġpro bing
ĠH ol
ĠJ ames
Ġmost ly
Ġsacrif ice
Ġt ies
ah o
re rs
ĠM emor
ĠColle ctor
Ġflood s
Ġm ort
ĠA v
ĠRa i
ish ing
Ġ1 20
oc ate
cha se
Ġplan e
Ġterror ism
ĠD ec
Ġprov ision
Ġg rown
Ġcent er
Ġdesign ed
Ġrepe ated
Ġg ift
Ġmilit ants
ĠSr iram
Ġ They
ĠD is
Ġend s
Ġp m
ĠPad ma
Ġre act
Ġun fortun
E at
ĠMan agement
ĠGaut am
Ġc ul
ib ilities
ĠL ED
ĠSha mi
Ġm ere
un k
Ġwid ely
Ġc aut
Ġcross ed
ĠGovernment s
Ġunt oward
Ġobs erved
ĠYog a
ĠRel iance
Ġpre aching
Ġlit re
Ġexc hange
Ġbe half
Ġcon cept
Ġag g
Ġsele ction
ĠN ot
Ġauthor ity
8 5
Ġbe ha
ĠF a
Ġfail ure
ad ing
m m
ĠR ashtra
Ġaudi ences
Ġdoub ts
Ġqu ant
Ġtrad itional
Ġsub mit
Ġcontest ed
Ġassoci ation
O h
Ġcon ven
ĠF adnavis
log ans
3 3
J ag
Ġinst all
ĠHind us
Ġatmosp here
ĠM ant
ĠK at
Ġj ump
Ġsw orn
ĠShr addha
p re
ours es
lic ation
ĠBl ue
Ġpen al
ĠPrad han
ĠM in
P ooja
Ġl osing
ĠP ant
ist ics
Ġsc oot
ĠShi khar
Sha h
Ġle aving
C ong
g en
qu ake
M T
Ġst orm
Ġmain ly
Ġar m
uk e
Ġlo ves
Ġprop het
"" ""
ant i
Ġrel ax
Ġfather s
H el
ro gation
ess ions
Ġprep are
ic ies
ter day
Ġst ore
Ġst ead
ĠT ur
Ġfound ation
ĠNar ayana
Ġdocu ment
Ġdeb t
o res
Ġpro b
Ġmix ed
ĠMuk her
Ġun ivers
Ġeng ines
ĠNew s
c el
ĠMoham mad
cher s
Ġserv ant
Ġjud icial
Ġam end
Ġ5 5
reme nd
Ġhop es
ĠCl ass
Ġencoura ge
F ilm
Ġt ips
Ġinf ected
ĠWar angal
Ġfulf illed
w ing
ĠJ ack
ĠF ed
Ġbank ing
ĠGad kari
raz il
h in
ul es
ca pe
Ġoffic es
ĠMy thri
ĠBa ahubali
Ġrapid ly
Ġ14 4
NE W
en ess
ĠBaj aj
il ms
Ġcont ract
Ġhelp ing
ĠVams i
T ube
He at
Ġret ire
Ġregion al
4 2
on om
om as
Ġexpl os
Ġcaut ious
w he
ĠG ang
Ġ3 50
Ġprotest ing
ĠP ur
act er
ave en
N et
el ine
ĠPremi er
F ood
l inder
o le
Ġtr uly
ĠI f
un al
ĠCh idambaram
Ġtrad ing
ri ption
ĠH an
ctor al
D R
ĠRa f
Ind ias
Ġp hases
Ġ3 9
Ġcre ation
Ġdub bed
w ith
or ough
Ġst ructure
Ġbelie f
D is
Ġengine ering
An sw
W ash
Ġha st
Ġpro ve
han s
av ed
Ġt ask
ĠM er
ĠJ as
ren e
Sec urity
ad h
un ior
ĠInd ies
ĠIn s
gred ients
ĠN ab
ĠJ adeja
ĠF ire
t el
Ġc e
Ġelig ible
Ġcl ashes
por ary
Ġexte nd
uv an
b on
ĠK iran
ast ar
Ġun iversity
ĠAnant apur
Ġdial og
Ġse gment
ĠParliament ary
at ography
ĠD EL
Ġaccident s
Ġbag ged
er ate
er als
ĠC han
Ġsele ct
the w
ĠNag a
Ġperman ent
ĠM en
Ġcro wd
ine e
im al
Ġide as
ran c
Ġdiv ision
Ġpass ing
ĠRaje ndra
ĠOs mania
7 7
C BI
Ġw a
Ġag ency
Ġcl in
Ġconduct ing
l ike
ĠC he
ĠJag ann
Ġmult i
w ater
Ġon wards
Ġare nt
ĠB igg
ac he
Ġdistrib ution
Ġwat ers
Al ready
m et
in ate
ĠB havan
ĠInd ira
ĠH er
Ġsure ly
ĠDEL HI
ĠE arth
je ction
uck now
app a
Ġfield s
Ġsan ct
ĠJos eph
ĠM ural
Ġon ions
ĠD in
Ġpolice men
Ġfl esh
Ġdes pite
ĠKul deep
Ġconsequ ences
Ġdifficult ies
al ing
ĠU m
Raj asthan
Ġsurf ace
our ned
av aram
Ġbenef ici
Ġbuild ings
Ġappreci ated
ap a
Ġprop he
ĠP salm
ĠK o
els ius
Ġlabou rers
y lish
le vel
le ts
ĠC R
ĠA ad
Ġnew ly
Ġcount ing
uc le
Ġmand al
i pp
Ġexc ited
ert il
Ġpan el
Ġdepend s
ar m
id ers
Ġneighb our
Ġdefin itely
am al
Ġh om
Ġvot ing
ustral ian
Ġrecom mended
ĠDeep ika
Ġm ale
ĠKap il
Ġliter ature
and er
ant a
Ġover all
Ġ19 6
Th ink
Ġbird s
d ess
ĠVish nu
T y
n ov
Ġinvest ments
iy ush
Ġdec ades
Ġed ition
Ġthought s
IM S
for ce
Ġh ill
Ġcons ist
Ġins pir
itam ins
p ro
Ġt remend
Ġse ed
ress ing
Ġenjoy ed
b reak
Ġ4 6
Ġrele asing
Ġoper ating
ĠPe ople
! "
5 5
A meric
Ġhe ight
ac es
""" ,
Ġhealth care
Te chn
Ġsust ain
Ġmount ain
ri er
ĠD MK
Ġsha lt
Ġbr ings
Ġimp ossible
Ġrep lied
hab ad
ĠS il
Ġpol icies
Ġs ed
Ġmeas ure
Ġhistor ical
S outh
l or
ĠA j
ce an
Ġco ord
Ġcontinu ing
B ang
min ton
w hat
ĠJ on
Ġpart ner
So on
ishw arya
g ic
ed ia
Ġha ll
ĠC elsius
ra ham
Ġofficial ly
Ġcall ing
Ġpri ests
N arendra
it age
ner gy
Ġprof it
Se ven
Ġticket s
D ev
E ducation
Ġp ark
Ġman ifest
Ġeng aged
M R
Ġc ode
Ġst un
Ġvisit ing
Ġl ines
ĠG og
C hand
S un
Ġim ag
e nded
Ġsal ary
Ġcho pped
Ġrupe es
4 6
l ife
Ġg rew
ur g
Ġra ise
P oll
S chool
m am
s aid
Ġp al
c ious
Ġg at
res p
igh ters
Ġfe ed
ĠEx ternal
Prab has
Than ks
Ġs ick
Ġr adi
N one
ĠSund ar
ĠReg ion
ĠJew s
Ġtot ally
Ġcollaps ed
re ens
Ġp ension
il ty
Ġst ocks
ĠMan ipur
Ġconcer ns
Ġhol id
Super star
ĠMat thew
ĠJ ayalalithaa
Ġtransf er
Ġ >
ut ely
ĠB ag
Ġgreat est
Ġpur chase
ĠL ax
Ġm os
Ġgo als
ĠL ife
Ġkind s
Ġmethod s
Ġra ce
Loc al
ĠNeh ru
u han
as c
Ġimpro ved
ĠSec ret
ĠVijay as
har shi
Ġsens or
k ey
Ġd ates
Ġsing er
ĠM ovies
Ġposs ibility
Ġdev ices
ĠJos hi
ol ic
ĠB aby
aut ions
. )
Ġcontrib ution
Ġcreat ing
nd ered
ol a
Ġsu cc
ĠPr an
Ġbl ue
ĠSiv a
M al
Ġst ones
ĠRam akrishna
ĠT MC
oun ced
k ind
v ation
Ġem b
E T
ere n
Ġpre f
Ġrem and
Ar t
Ġsk ills
k ineni
ĠOrgan isation
Ġth orough
ĠBJP s
ash ion
Ġemotion al
k i
Ġme at
ens es
An il
I mp
Ġs logans
Ġcle arly
ĠPan chayat
em ies
Ġr ic
Ġnom ination
Ġ4 7
Ġaff ord
Ġvari ety
N G
Ġcolle ction
ĠKar im
Ġyes terday
Ġup to
Ġbank rolled
wam a
et a
ĠJ io
ĠL at
Ġcro p
Ġsub st
Ġkeep s
Ġs weet
Ġass ault
Ġadv ance
Ġprincip les
ĠS ports
im b
Ġdisapp ointed
al u
Ġinst alled
rop hy
Ġadvant age
Ġwin ter
u it
Ġa id
up ati
Ġrem ark
Ġsl ammed
oj ana
S ame
U P
Ġp ick
ak ed
ĠPras hant
ĠDi wali
v is
Ġill ness
ĠGree k
ĠCh itt
p oll
Ġf ounder
Ġst re
Ġpl enty
ĠL ab
ĠMar ket
ĠHeb rew
ĠMukher jee
he ast
ha pur
est ion
Ġcom edy
Ġprote in
Ġd omin
Ġeld ers
Gu jarat
if ying
Ar jun
ĠYou Tube
ath s
Ġprem ises
Ġcomp rising
ĠMar k
Ġfall en
Ġconstit uted
A h
p oons
ĠIn ternet
ĠHe ad
Ġspread ing
ow ing
Ġst ruck
Ġsuggest ed
Ġg ang
ci um
Ġbring ing
ĠKart hik
ĠJ ac
There after
Ġ4 3
Ġ ult
Ġin hab
Ġfac ilit
T ry
Ġb esides
an asi
ĠSing apore
Ġsl ight
Ġsurp rising
ipl om
, ...
ut ing
V is
ĠS ushma
ac le
Ġsh ocking
ĠMan ish
Ġpur c
l on
Ġs chol
ĠW ater
Sh ould
Amar avati
ĠR ural
Ġw ild
ĠN aw
Ġar ms
Ġescap ed
n ight
Ġg inger
har m
Ġfall ing
Ġpros per
ĠSuk umar
Ġe c
Ġdisc l
Ġgu ilty
Ġanim al
Ġille gal
ic hand
us ing
ĠH is
ĠAl ia
Ġaddress ing
ĠNa resh
ĠD ub
Ġexp ensive
ĠSp ace
ud ge
ĠF ood
ĠM it
Ġsc am
ĠP ak
ĠV ad
Ġl ic
ur a
Ġconf irm
Ġappro ves
Ġsol utions
Ġcult iv
M in
ĠApp le
Ġcommunic ation
Ġaltern ative
Ġ201 3
ĠR ashmika
ĠMad ras
Ġwind ow
ellig ence
Ġc ouncil
his t
ĠG lobal
Ġsu p
Ġrepresent ed
s ha
Ġdis pl
awa har
Y S
Ġt ab
Ġt ight
ĠSam antha
Ġsanction ed
B CCI
ĠS S
ist ant
Ġstrugg le
Ġ200 9
Ġreform s
ĠVenkates wara
B C
M us
i very
Ġfilm maker
ff ee
Ġlaw yer
ust ed
Ġredu ces
ĠIP C
ĠB y
ĠK or
ĠK ad
ĠT ele
Ġex penditure
ĠSha k
ĠAb hishek
m od
all ing
ĠRah man
Ġform al
Ġb ought
ĠE V
Ġad equ
Ġstud ying
o il
w ag
ĠB hat
Ġdis put
Ġhon or
r ations
al and
Ġre acted
Ġyouth s
Ġresc ued
C ome
Ġ There
Ġw all
Ġcomp osing
Ġblock b
Ġok ay
Ġp ac
ĠG re
Ġim ages
Ġ5 2
Ġins pired
N early
ra pped
ĠG rand
Ġdepart ments
Ġnomin ated
har ya
Ġsl ated
Ġfest iv
Ġdi abetes
Ġstand ing
as a
ĠSt adium
Ġconnect ivity
Ġtast e
ĠHard ik
os en
ĠN at
Ġcomp on
Ġhot el
ort ed
ĠH C
ec utive
ĠDe vendra
Ġfriends hip
Ġcontrovers ial
Ele ctions
Ġf ever
ai red
ĠUr ban
Ġunderst ood
6 00
a res
ĠD emoc
Ġun emp
Ġshow c
Ġnews p
ĠTh omas
Ġupd ate
Ġt ension
Ġsitu ations
4 3
Ġdis rupted
Ġwin ner
ĠAra vind
C ould
T op
n ic
Ġele ments
Ġart ist
ĠY es
Ġpan ic
Ġspe ct
ĠArun achal
Ġpunish ment
z y
ud a
oc ol
Ġi Phone
ĠVar un
Ġaspect s
ren cy
Ġass ets
Ġhigh way
Ġw ake
ĠR os
ĠGo vt
Ġmin erals
Ġl a
W ould
apur am
Ġsett led
ĠEconom ic
m al
Ġpro of
Ġaware ness
Ġcomfort able
.. ..
Ġconte xt
am uri
ol i
un ch
iz es
K now
ro le
ĠA x
Ġapp s
Ġconf lict
Ġut il
p ter
al le
Ġtr igg
Ġact s
Ġsus pected
Ġgat hered
u a
ĠP iyush
Ġj ew
Ġkill s
ic on
ĠI D
Ġro ll
Ġdem ise
Ġc oin
ared dy
ĠAdity a
ĠPul wama
Ġlin ked
ĠAn g
Ġsol id
e ctions
u le
Ġt ally
Ġh ike
ĠJ ust
Ġexec utive
Answ er
f riend
Ġus es
Ġkind ness
Ġlim its
ĠRuss ian
ĠRana ut
Ġrestrict ions
ĠK aur
T ell
Ġcul prit
S am
s ar
M L
he er
ĠO b
ĠUS A
Ġun able
itiz en
Ġinit ially
ĠS oc
ĠR RR
ĠA R
Ġh oney
ĠK L
av our
ĠScript ures
ter m
Ġsa ved
St art
oy ota
ĠShah id
r ants
as ked
ad emy
ĠGo od
ici ency
Ġs outhern
Ġsurpr ise
ucle ar
H ar
Ġp ion
Ġd iagn
Av oid
rep rene
Ġin gredients
D honi
ĠS aw
ĠT iger
Ġheart s
Ġwal ked
Ġtheat res
Ġ }
Ġrel ative
ph ones
Ġen emies
Ġsp ar
ear ing
Ġbeh old
Ġapplic able
er ves
Ġc ry
Ġext ent
Ġpass enger
Ġteas poon
Ġtro ops
ĠDev gn
D eep
ĠS en
ak k
Ġupd ates
Ġcollabor ation
ams on
ul u
Ġwe alth
Des pite
Ġriv al
ĠG ames
har y
Ġgear ing
ap alli
Ġtremend ous
ĠN ani
ive tha
ĠLok esh
ĠSa f
Sec ond
ĠV ik
Ġsucc umb
ill age
eh old
Ġre j
Ġst ages
Ġpl us
Ġacc ord
Ġdang er
id a
ĠN ations
Ġident ify
or der
om on
Ġcons ists
Ġfoot ball
w ord
Ġm ine
ĠT ar
Ġse vent
ric k
ĠB has
ic a
et her
ĠWarn er
b ally
Ġs wit
Ġm ir
ĠSun kara
ĠSte el
S ing
Ġres ur
Ġind ex
Ġturn s
ron ics
Ġcast e
ĠVer ma
D istrict
n ap
Ġt ack
Ġlo yal
Ġch osen
Ġclass es
Ġmist akes
Ġcareful ly
oles ter
Ġbran ch
P rices
Ġb ott
Ġd ance
id hi
ain t
amp s
u ing
ag g
Ġregist ration
4 4
G r
ĠB ob
ĠF ort
Ġstate ments
Ġold er
h it
ard en
Ġfr ay
Ġjournal ist
w est
Ġs elling
ver bs
ast ing
Ġher self
ick en
Ġreturn s
Ġrequire ments
Ġfavour ite
ĠCitizens hip
role um
Ġst ir
Ġout break
pur am
ĠSat an
are st
ah u
ĠVijay an
T D
ĠP TI
Ġcomp rises
Ġ20 22
ĠCh ow
Ġsqu are
h s
ĠBal akrishna
Ġmand atory
Ġbrid ge
ĠP aram
ĠAfric an
ĠS er
Loc als
Fin ancial
ĠVin ay
Ġl ake
ĠKe er
Ġj i
over ty
Ġpow ers
Ġdoll ar
ĠG reat
Ġfac es
Ġvisit ors
Ġseem ed
olester ol
Ġquar ant
Ġro oms
Ġdet ailed
Ġbelong s
agon ist
Ġinc l
ap se
ann ing
Ġfl at
Ġexperi enced
n is
ĠG ar
Ġset s
Ġch urch
Ġtrib ute
Ġstre ets
ĠGog oi
Ġm aster
ĠD ar
Ġrep orters
Ġlab our
Ġdeterm ined
M ajor
Ġab ility
Ġcelebr ate
Ġhero ines
Ġcateg ories
ĠAar on
ĠA ishwarya
ab ir
ĠH arsh
Ġcaus ing
Ġconvers ation
Ġorganis ations
aw ati
Ġprincip al
Ġclos ely
Ġprofession al
Ġ4 1
B usiness
Ġme chan
Ġslow ly
ut ies
Ġus eful
Ġ8 00
ĠRaf ale
r ina
ad hav
ĠB he
Ġve ter
Ġtri p
p ing
Ġf ool
ĠC inem
ĠIn come
ocon ut
Ġinvest ors
cer tain
ĠShar ad
Ġmot ion
Ġsil ent
d en
ĠVar anasi
Ġmer cy
ĠChall engers
ĠB usiness
Ġmedic ine
Ġant icip
Ġhy d
ĠC are
ĠP en
um ble
Ġpra ised
ĠNizam abad
l ive
Ġ2 000
ffic ient
Ġsign s
ĠAg garwal
Ġinstru ctions
F ore
I F
ĠB ook
She s
Ġexam ined
C o
ag iri
ity a
ĠB razil
ĠW atch
Ġcapt ured
Ġcon cent
F ile
ĠG l
O R
t urn
C ast
Ġp air
ĠS et
ĠM iz
iz ens
re hens
alg onda
S om
y am
ĠT y
og ether
Ġref lect
dd hav
Ġfeel ings
Ġhon est
D C
ĠS ank
ĠB el
um ed
Ġscient ific
H MC
Ġp apers
ĠS wamy
Ġthan ks
ĠCom merce
Ġshow ing
ĠB et
ĠCro re
Ġeduc ational
ĠC hem
Ġv itamins
Ġdiv or
Ġbal ance
3 4
c ul
l ot
ĠK od
ĠF ord
Ġlot s
Ġinterest s
Ġw ished
Ġp ump
ĠS ocial
ĠP aid
omb ay
ĠElect ric
Ġblockb uster
S election
ĠA wards
ur am
ĠG al
ĠJ ob
Ġun ited
Ġpr on
Ġscen es
Ġill ust
Ġgl ass
R uss
Ġro ck
te nd
Ġprec autions
et ing
Ġvis ible
isc al
8 6
Ġel im
ĠSci ences
Sub sequently
ĠDan ayya
s is
Ġf ake
Ġdire ctors
Ġloc ations
Ġforg ot
ĠLad akh
Ġchan ces
Ġrighteous ness
ĠF ilms
ful ly
ĠAll a
akul am
Ġcoal ition
Ġbenefici aries
oura v
ĠMant ri
C ap
Ġc oup
ap athi
Ġcal cium
3 1
W oman
ha z
IN G
l ong
le x
Ġv an
Ġman kind
Ġd rop
Ġas ide
Ġgr at
Ġsur gery
Ġamong st
Ġcrit ics
Ġbless ed
as am
ĠD isc
Ġv en
Ġes cape
Pl ay
Ġadequ ate
Ġgu ard
use um
p al
Ġp ill
Ġstar rer
Ġsix th
red dy
ĠSit aram
ĠSamaj wadi
Ġunfortun ate
ĠKarim nagar
W as
ig ious
ific ations
Ġiniti atives
O pen
p m
ĠSe a
ĠE p
Ġbenef icial
Ġearth quake
ĠRan veer
ĠP S
Ġrese ar
Ġfrequ ently
St ar
Ġplatform s
ĠS ho
ĠD VV
Ġdec line
Ġcomplain ts
Ġdel ivery
Ġscoot er
C ho
aj a
Ġdel ay
Ġsol ve
Ġlab s
com m
ris on
Ġaccom pl
ĠCan ada
Ġabsol utely
Ġ12 8
Ġin her
Ġm arty
ĠG reen
ĠE astern
Ġvot ed
ĠQ ual
Ġfav or
ure ment
ĠCo op
ĠG ul
ĠPaid ip
Ġd ign
ĠG DP
Ġrem ov
ĠMod is
Ġmaintain ed
ĠItal y
Ġs and
Ġst range
Ġcomp os
Ġchar ging
uild ing
l ar
An ushka
Ġwin ners
ot ions
ĠN aveen
Ġwhe els
Ġdu o
Ġc ens
ĠV ol
ite ndra
Ġshe ep
Ġfr ame
ĠN ellore
ĠH ero
ĠW ashington
Ġtrib utes
N U
W ant
Ġa wa
7 6
Ġis land
ĠR ak
ĠAk kineni
ĠPol icy
Ġp aram
um a
ĠL and
Ġcons pir
Ġinter ven
ĠKis han
Ġmonitor ing
Ġ5 1
v n
Ġn am
ess ed
Ġte nd
Ġevery where
S D
b el
w icket
ĠC reat
ĠR om
Ġspe aks
Ġexpand ed
S et
Ġb orders
ud ed
Ġcommand ed
Ġmem or
ĠP a
rit i
ĠCha it
ush ing
Ġch olesterol
Ġth in
ci ence
Re pe
Ġchallen ged
C andidates
Ġcommit ment
d i
al es
Ġmot iv
Ġrecommend ations
Ġegg s
K umar
Ġf lick
has h
Ġmaterial s
R an
Ġb ot
lic ations
Ġmanufacture r
acha ndra
Ġprotest ors
ĠBhar ti
ĠExp o
is hi
yan arayana
Ġpil gr
ur ag
Ġproced ure
Ġh un
ĠJ awahar
Ġwor st
ĠF rom
Ġ5 9
Ġpriv ile
A F
ĠF e
Ġnort hern
ĠL et
ĠGop i
Ġre aching
ĠAct ive
Ġsymb ol
h ow
k art
ĠC S
H onda
f ast
Ġgu arant
Ġinaugur ated
isha bh
ĠY ojana
Ġeas tern
Ġinstru cted
r d
Ġp a
ĠM icro
ĠB R
Ġj aw
Ġthem e
Ġc ourses
Ġre ign
ĠD GP
Ġres erved
ĠSrin agar
Raj inikanth
Ġchair person
u ce
Ġwhere as
Ġeas ier
ĠSr idevi
ĠN ort
Ġhead l
CP I
Ġpract ices
ĠO ut
Ġexc l
ht a
up s
Ġsupport s
Com p
Ġgreet ed
Y oung
ev a
Ġ200 8
Ġfig ures
) :
C ar
Ġb rain
Ġg ate
ĠL ucknow
Ġ201 2
ĠMad hav
Ġmet res
ok es
Ġ6 7
Ġre ward
ĠCon ference
Ġinvol ve
ĠS aul
Ġh our
Ġwhe at
ĠAdd itional
R ail
V en
b les
em pted
ĠV aj
ip kart
ĠPro gram
Ġmag az
Ġsus p
ĠEle ctions
Ġobject ive
ĠS T
ĠCh in
Ġfe els
Ġbr ight
Ġcur rency
Ġindepend ence
C abinet
Ġexam s
0 5
ic o
Ġk it
all a
pay ee
vn eshwar
y stem
ĠCha k
ĠBS E
Ġh ik
ĠSec ond
Ġimm unity
ĠRoy als
Ġshe l
Ġfa ctor
ar ia
Produ cer
ĠS enior
ĠT hat
pp a
ĠInd ra
Ġstr ing
ĠJ adhav
ĠMo U
Ġpay ing
ĠA N
Ġme al
Cong ratul
um in
Ġsh out
Ġcr ude
App ly
Ġlab or
Ġfig ure
Ġfra ud
Ġc itizen
Ġre action
Ġe th
Ġag encies
Ġtour ism
ĠM B
Ġl ying
ĠA ustralian
ass ium
ĠKumar aswamy
Ġcol or
Ġpurc has
i ar
ĠS ard
ir t
ĠH on
ars han
ĠAb raham
Ġcitizens hip
ĠD h
Ġne ck
Ġdist in
Ġsec ure
Ġdet ail
r ates
Ġc red
ir udh
ĠT i
ĠF ound
ĠY ash
Ġent ering
ĠUS D
Ġlist ed
Ġdeter ior
g on
w as
Ġhas n
Ġex port
Ġbl ocked
re ction
it ate
ĠC ard
ĠR en
Ġas ks
Ġcomm unities
D il
Ġp ic
ĠKa if
Ġorgan ization
Ġsw ord
Ġd uties
Ġcor ona
Sim ilar
Ġt ong
Ġs le
Ġspe aker
Ġoper ated
N CP
it ra
Ġlar ger
Ġmig rant
ĠR akul
ut s
ĠK as
c hal
Ġw ood
Ġwhe el
Ġarriv es
n oon
Ġun c
Ġval ley
ĠFore st
d ays
Ġha ng
hold ers
Ġattempt s
S at
Ġfor ced
Ġconst antly
Ġbless ings
8 8
b orn
Ġtrans actions
K ar
Ġt ense
an anda
ĠB ro
ĠE nergy
Ġab and
Ġadv anced
undred s
ĠL aksh
ĠMan oj
Ġatte nding
ĠDeep ak
ĠSol omon
Ġhat ch
k m
ĠP AN
Ġcre w
Ġgl ad
Ġexpress ion
Repe at
c harge
Ġp ul
Ġan ointed
ĠH ous
Ġdist ur
Ġgener ally
Ġharass ment
im ate
ĠP ass
Ġtra gic
ĠAkhil esh
ĠAdminist ration
ĠN ote
ĠL ove
ĠW hen
rain ing
Ġshar p
Ġca ution
ĠAdvis or
r ig
Ġ era
ĠR SS
Tr ans
ĠChitt oor
Ġs ites
st ate
ĠR JD
ĠH ollywood
Ġmo on
ĠL y
Ġtri als
Ġvol ume
Polit ical
he w
Ġ )
har an
A tt
Ġp ure
c ription
ĠI S
ast s
ĠPl us
Ġbats men
Ġcell s
ĠSant osh
b har
ut ers
ĠI r
ree ment
ĠMar athi
ĠEx ecutive
Ġir rigation
f it
Ġa irl
Ġcon ver
so on
Ġso il
Ġhon oured
Ġprob ably
ĠDin esh
ure au
nder ing
Ġhead s
rin t
Ġconsum ption
O il
ĠJ al
Ġer ror
ĠBaby lon
M other
O U
g ent
Ġm useum
Ġ5 6
Ġspot ted
Ġbig ger
Ġmet ro
B har
Ġqual ities
N B
Ġp ad
ĠSt at
Ġind ices
Ġjud ges
Ġc rying
Ġr id
ik unt
Ġleg s
Ġorgan isation
Ġproper ly
s he
ĠTh ir
Ġentire ly
Ġcal m
Ġupd ated
Tra ffic
ĠAcc ount
Ġf ed
Ġse qu
Te am
Whe ther
Ġcon vey
Ġr ounds
Ġallow s
ĠMS ME
ĠGow da
7 9
oy al
Ġbow ling
Ġfat al
Ġ vel
har d
ĠIndepend ence
D etails
r ition
Ġ #
Ġne arest
Ġtax es
ĠIns urance
Ġ201 1
Ġtell s
Ġweap ons
Ġequ ipped
idd en
Ġgram s
ĠP edd
ow ed
if ies
ĠW ho
Ġsk ill
ĠAc ademy
ograp her
Ġstra nded
ox id
H undreds
Ġshort age
ĠGan esh
ĠCR PF
S us
es war
ĠM ary
ist ry
ĠN algonda
ĠY our
Ġcl ub
Ġbut ton
ĠNay anthara
ĠJas prit
ĠJac ob
Ġout standing
Ġdeep ly
rang ed
ik h
icha el
ad or
Ġst ret
Ġen able
J ana
S ho
ĠN avy
ĠH all
Ġmount ains
ĠLaun ch
Ġco ffee
Ġdest ination
Ġtrigg ered
S elect
e ndra
ĠG a
ĠChand igarh
Ġpurp oses
Int erest
Ġpenal ty
P at
um ala
Ġsuspect s
ĠH uman
Ġapp lied
Ġ5 8
Ġf iscal
as ons
Ġsa ith
Ġposs ession
Ġpat tern
Ġretire ment
Ġsc reens
we ets
Ġrele vant
agar am
N L
Ġ icon
ies el
Ġup ro
Ġ9 9
r ity
Ġrepl ace
ĠBhe em
ĠB ut
Ġinit ial
mar ked
Ġencoura ged
C ount
M ain
os is
ĠRa hane
Ġ5 4
ĠSat yanarayana
Ġgod s
Ġgri ev
z es
ol der
ĠPr at
Ġ6 00
St ep
hal aya
ĠTe ja
Ġpur s
ĠVal ley
L ist
Ġper haps
Ġrem ind
ĠRam ana
Ġlaun ches
Ġmin utes
Ġnorm s
Ġten nis
Ġha bit
ĠE r
ĠW ind
ĠPaidip ally
t hi
st ruction
est yle
ĠN adda
Ġu pper
Ġout put
Ġwom ens
the less
ĠGe etha
ĠS agar
iz ations
Ġpot assium
Ġconv ict
ro ll
ĠV itamin
ament al
Ġorgan ized
Ġtou ched
eren cing
8 00
A uthor
Ġinf ections
Ġvel oc
Ġd well
Ġ13 0
ĠD ire
iv a
ĠSrinivas a
Ġargu ments
Ag riculture
Ġs hip
ent al
ĠPro cess
ĠChandrashe khar
B ig
Ġt sp
ĠK S
K amal
S r
ĠI yer
ĠCha hal
isher men
t ings
Ġm ortem
ent h
st ri
Ġas pir
Ġret ail
Ġpast e
1 50
C A
em and
ari o
Ġfulf ill
Ġclos er
Poll ing
F l
ĠJ ain
Ġaff air
ĠTri pura
Prot ests
Ġsuccumb ed
Ġcon vention
Ġv ast
Ġlegisl ative
ĠMural i
T er
i pe
am ma
her ry
ĠMal ik
Ġbo oth
ĠP ri
Ġr ang
Ġex ists
ĠV i
ĠAn j
D isc
ĠS wami
ĠInd ones
Ġcomplet ion
D evi
J ustice
Ġbre aks
ĠSam ithi
M s
Ġres erv
C ases
St ay
ĠAct ress
Sh ow
Ġbor row
ĠM id
i ation
Ġb ath
Ġp overty
or ious
hat i
eg ree
Ġglo bally
ĠKar un
Ġsat ell
ct s
P ra
P arty
Ġc ub
et ic
art ed
Ġbow led
Ġprevious ly
Ġcondol ed
ĠTour ism
Congratul ations
c al
Ġpregn ancy
Ġphotograph s
M od
f ree
Ġto w
om ach
ĠB id
ere nces
Ġac ad
P hoto
er ative
ĠJ am
ĠH ass
Ġtrans form
Ġim per
Ġturn ing
Ġimpro ves
Ġty p
ĠJa ipur
ĠAbd ullah
A Y
Ġg ross
ock ey
ĠSum mit
b ut
Ġs ir
Ġc ured
Ġex it
Ġspe nding
Ġliqu or
ĠS id
ĠL o
Ġqu iet
Ġz ones
Vijay awada
ĠOlymp ics
Med ical
ĠP rivate
Ġsurv ive
G reat
Ġv ary
ĠW estern
Ġtown s
Inc re
ĠC AA
ht ar
Ġsuspic ious
Ġhatch back
G and
V S
ul ous
Ġ1 000
ĠJ y
Ġout come
Ġco ok
Ġbr illi
Ġcrit ically
Ġhost ed
Ġres ervation
Ġprodu cers
Ġneg lig
P P
Ġex ceed
Ġany more
Ġexc iting
H y
ĠM ount
ĠD el
Ġafter noon
Ġ8 5
Ġdirect ing
Ġinstit ution
Ġcomb ination
ĠMiz oram
ĠB ureau
ig en
ĠGo vind
Ġ7 2
ĠAd am
Ġimpro ving
e or
ur ation
Ġfa ult
ĠPict ures
w hel
Ġw estern
ĠTr in
Ġmet al
Ġmas k
Cons ider
ĠVa ikunt
D I
Ġsc oring
Ġsec ured
Ġident ity
Ġcommission er
Ġenhan ce
os ys
qu ired
Ġchan nel
ib ly
Ġtechn ologies
Ġexperi ences
4 1
U tt
at ala
Ġoccas ions
Ġsol ved
Ġtur b
Cent ral
Ġw ine
oc al
ĠPro te
ĠAir tel
os op
Ġtre as
sh ow
k im
ĠS A
ir ty
Ġad ults
ew ise
Ġdist ancing
Ġflow ers
Ġb eds
ic ious
ĠB ombay
Ġcomp ass
Ġtell ing
B ihar
Ġb and
ĠBengal i
Ġheav ily
Ġprec ious
Ġquarant ine
E s
ĠA tt
ĠO per
Ġpers ec
Rem ember
under abad
6 6
E mp
Ġd il
Ġy oga
ast y
Ġglo be
Ġdra wn
Ġculprit s
Ġawa ited
G ive
Ġl ights
ir ms
Ġman age
Ġob vious
ĠSa udi
Ġcontrib ute
ĠAn up
Add itional
Ġreve al
Ġconcer ning
Ġpar king
Ġbowl ers
Ġvent ure
ĠRos han
F e
an ia
Ġre ject
Ġrecover ies
ĠAam ir
ĠFin ancial
ĠL a
Ġthere of
ĠSoc iety
2 50
L ead
W rit
Ġ18 0
Ġsmall er
7 8
Ġse mi
Ġv ig
ĠO il
Go ing
Ġwal king
S ur
p resident
Ġin put
im ents
ĠN ara
ef its
Ġcomp rehens
Ġsub sc
Pr ice
Ġconclud ed
ĠS ourav
Ġhe s
Ġpl astic
Ġab und
Ġadd ing
ka iah
Ġjaw ans
F riend
M B
f are
av as
ĠU ddhav
ani el
Be ing
Ġcontrib uted
Ġt el
ĠR oman
ĠSt and
Ġsha pe
ruit ment
reprene urs
our nal
ĠO ver
Ġthr iller
Ġret ired
Ġstrengthen ing
Ġbeat en
ef t
ĠSt udi
Ġsignific antly
I B
K ey
P ay
ĠC ount
ĠIs aiah
ĠUm esh
Ġconspir acy
ĠP as
Ġacc ur
Ġpati ence
Ġclar ified
Ġlif ted
Ġadj ourned
Ġn ative
ur ious
Ġst ressed
ber t
Ġset tle
loy ees
Ġimm ense
- -
G ST
S ection
Ġf ired
ĠC r
Ġappear ance
Mo ham
Ġgradu ally
Ġfestiv als
M W
ĠM il
ist ance
ĠH az
ust om
Ġlegend ary
Ġbapt ized
c ation
Ġn uclear
Act ress
Ġear marked
Ġveloc ity
im ala
ĠB C
ĠD am
C ut
F ind
S rin
Ġre new
ac ing
ĠRa wat
Ġman ager
Ġpri ze
Ġadop ted
ĠChait anya
M ah
ĠSt art
Ġinvestig ate
Ġpay ments
ĠUP A
Ġrom antic
E ff
Ġp hil
ĠIsrael ites
P res
Ġf ib
Ġsa v
Ġd reams
un ction
ĠPro verbs
ĠWor k
Ġsurr ounding
ĠMir za
A ction
Ġr iding
ĠF est
Ġadv ocate
Ġrest aur
Ġsuggest ions
Ġval u
Ġsupp osed
Ġadvant ages
ĠKi ara
S achin
Ġent hus
ĠSub hash
ĠFound ation
H ind
Ġrepl aced
ĠLaun ched
ĠN RC
Ġsent ence
Ġ200 4
Go ogle
b as
Ġf aster
ot hy
ĠK ajal
Ġcon cl
Ġtrans p
Ġarri ve
Ġelder ly
Ġjew ell
Ġt all
Ġb ond
are ena
Ġar ise
ĠEd ition
ic ian
vi our
A ut
I V
Ġnot iced
ail able
ĠH am
har ma
ĠPr ice
Ġdist ress
Ġch illi
Ġinstru ment
Ġforth coming
ĠB ig
har th
Ġsucceed ed
p rises
in y
is i
ĠP h
Ġab sc
Ġass erted
Ġord inary
ĠMay awati
Ġwithdra w
Ġex hib
ob a
ĠDemoc ratic
Ġover whel
Produ ced
Ġ +
Ġy ellow
ĠN ivetha
Ġrele ases
Ġveter an
D iff
I ll
ĠS and
ere nt
B al
Q ual
ri ble
ĠW ill
You re
Ġconst ant
ĠJa is
Ġdepos its
ĠTom ar
an as
ĠM usic
ric s
vern ight
Ġrem ade
ĠJapan ese
S k
k rit
Ġm ild
Ġg rab
ĠE D
Ġsc al
Ġ200 7
ĠPran ab
S ar
ay am
Ġmed als
Ġtom orrow
D efence
Ġout rage
ris ers
Ġsw ing
acher s
ĠR ishabh
Ġref er
Ġfriend ly
Ġide al
un a
ĠH as
ĠL ake
Ġconsid eration
Ġtrib al
Ġpun ished
Ġundert aken
Ġr amp
Ġown er
l asting
tain ing
d o
ĠB irth
Ġmar gin
ĠSh re
ĠSte ve
Ġsatisf ied
ĠTer rit
' '
P ar
ĠM G
li ant
Ġlegisl ators
R E
Ġinter f
With out
Ġsubsid y
Ġsevent h
ĠU V
ĠCh ou
Ġaudi o
Ġforest s
i ant
l in
Ġinc on
adu ate
put er
ĠPrab hakar
C han
T our
ar ian
ĠV ed
Ġcricket ers
ham mam
ĠVen u
ot ton
Ġw r
ĠS ain
Ġmo ves
ĠCh ris
Ġac id
Ġtal ent
ams ung
che ll
ichand ran
id ance
ĠB re
Ġinc or
Ġl y
ven ant
we ep
Ġceleb ration
ĠSard ar
P CC
Ġr ub
Ġoper ational
Ġbowl er
ĠGe orge
B igg
y ers
Ġ |
Ġother wise
Ġfar ming
Ġsupp orters
Ġrout es
Ġinhab it
Ġal erted
and um
ĠL ank
Ġinter act
Ġdepos it
K olkata
Ġpoin ted
Ġappoint ment
S ym
ic ient
Th rough
Ġsol ar
Ġexplos ion
9 6
G eneral
U Ts
Ġex ports
Ġjudge ment
Ġarchitect ure
G reen
Ġf ranc
ĠV iz
Ġpresident ial
aman na
Ġwat ched
b ag
Ġex cess
Ġbusiness es
Ġkilomet res
ĠK es
Ġk ne
ĠAn urag
Ġsecond s
Ġsy mp
ĠTr ust
ĠAb hi
Ġparticip ation
Ġredu cing
Ġslight ly
s ed
Ġre tal
ĠP oll
ĠK ak
Ġper mitted
Ġmess ages
ĠRak esh
N eed
Ġv ess
Ġrul ers
ĠH el
Ġsent enced
bed kar
ĠVijayas ai
V itamin
ol en
ir al
Ġk een
Ch rist
Ġgold en
Ġprof ile
ĠMay or
Ġgener ated
Ġbelong ing
Ġunivers ities
P G
Ġm aid
ĠTir upati
Ġamb ul
ĠP il
od es
Ġsp lit
ans ion
Ġparty s
Ġdirector ial
Ġtop ic
ĠVin od
xy gen
Ġmut ual
Ġl ashed
aus es
Ġbelie ves
Ġtables poon
ĠDiv ision
H istory
w ini
z er
ur ally
Is nt
Ġbu ying
Ġinter rog
Ġdev ast
Ġadminist rative
g ments
Ġa ims
Ġr inse
Ġcap able
Ġ9 5
Ġcasual ties
Ġtong ue
h or
ef in
ĠRam achandra
7 2
ur appa
Ġcomp ar
Ġele ctoral
pect ive
Ġviol ent
ertil iz
c ket
Ġbut ter
Ġheaven ly
ĠInvest igation
Ġto ler
ant hi
ĠCha ir
Ġtra ined
he e
Ġf ant
out s
pt y
ops y
utt a
Ġmid st
rel ated
Ġproc urement
Ġst aged
Ġown ers
ĠTri p
Ne xt
ĠBhas kar
W ashington
ail ing
Ġbr on
Ġpleas ure
Ġresear chers
show room
Ġto il
ĠB oy
han g
Ġdo ors
Ġover come
Ġsc uff
Ġdiv ine
Ġw alls
it ri
or g
Ġgreat ly
N A
in ter
in tend
at ar
ĠI IT
ans krit
Ġparticip ants
Ġpercent age
Ġimm une
Ġrank ings
ĠN ik
ĠJ oint
ev an
ren ce
Ġpre st
Ġexp enses
Ġtem porary
ait ing
Ġmor al
Ġport ion
BS P
Ġdiscip line
amanna ah
Ġst ab
Ġwas n
Ġwe aring
ĠCh urch
Ġco venant
ĠMad hu
ĠVaikunt hapur
N ag
P aul
Ġe ase
ced es
ĠAss istant
Ġch ose
ĠTha man
Ġsum mit
l ock
ĠN an
ĠN ars
ia omi
Ġrem emb
ink ya
Ġart icles
Ġpil ot
ber g
Ġac know
Ġprepar ations
Ġspar ked
C hange
P ass
ha g
Ġo live
ĠK angana
BS E
ĠSrik anth
DR F
c hen
Ġcar go
Ġavail ability
Ġlow est
ĠNand amuri
Ġmach ine
ĠC hat
Ġsh op
Ġwork er
ten ance
ĠSw ift
Ġm ad
angu age
Ġpet itions
Ġens uring
ĠJoh ns
Ġwithdra wn
Up on
il der
Ġass ess
Ġmonth ly
um m
oc ation
Ġag it
ug ht
Ġimp ressed
Ġequ ity
Ġgrat itude
m akers
Ġm ang
Ġhousehold s
or ation
al in
Ġwor shi
Ġlet ters
ĠBhu vneshwar
ĠA fter
Ġpos itions
Ġexper iment
Ġparticip ating
Ġant agonist
ĠArab ia
O s
Ġre now
ĠIn nov
Ġquestion ing
vi ation
ĠSm all
Ġinspir ation
T em
ut ch
em a
Ġstrong er
Ġstr ang
Ġbur den
aya an
Ġentertain ment
Ġinher it
u ja
te es
ĠSu je
Ġput ting
Ġintrodu ce
ĠOlymp ic
D ec
ic ing
ĠK ed
ok ia
ik ar
ĠE li
reat ment
Ġ200 6
AD MK
ĠAz ad
Ġterrit ories
f ox
Ġha te
ĠRan bir
Ġappreci ation
ĠA B
Ġcirc uit
Ġstay ing
Dep uty
Ġal though
Ġform at
eh lot
Ġvac ant
Ġrecogn ition
acter ial
9 7
ĠT imes
ĠF armers
ĠSt reet
ĠPat il
ĠAg reement
Ġold est
ĠRe view
Ġsac red
Cle an
Ġd im
ĠM T
ĠA lex
Ġob tained
uz vendra
6 8
ĠM un
Ġst adium
Ġhar vest
Ġfa ctory
ĠEn field
ĠPhil ipp
sy ch
Som ething
it led
Ġn urs
Ġpr ide
Ġ7 1
Ġgather ing
o ir
Ġth ick
ĠBh opal
Ġpa ise
ĠVaikunthapur ram
is hes
ĠMa han
Ġsearch ing
n els
ĠR ath
cy linder
Ġcomb at
ĠAbd ul
Ty pes
ac les
Ġcl ick
Ġgovern ance
er ving
ar imala
ĠM ex
ur ved
ĠV ideo
Ġass ign
ĠSec underabad
re cted
and al
Ġfun ctions
amb hir
Ġrev ised
Son ia
9 8
ĠR ay
ĠP all
ĠSha stri
Ġav o
Ġgu idance
Ġel abor
Ġton nes
L o
Ġaut opsy
sc reen
Ġfunction ing
Ġanx iety
j ar
Ġs now
Ġp ages
Ġcontro lled
Ġcop y
B udget
ult an
Ġhar mony
Ġgra ins
ĠAmar avati
R avi
Ġf ashion
Ġst reet
end ar
Ġref uge
Ġpur su
Ex p
ĠKat rina
Ġsusp ension
P art
ĠP O
Ġst ream
Ġfund amental
Ġact ual
Ġste el
Inst ead
7 00
R eal
ĠK ong
ĠG anga
ĠSha rif
ĠSh ow
Ġemp ower
Te ch
Ġrequire ment
L ear
Ġ5 3
arn ath
Ġ6 8
augh ter
Ġg if
ul ate
Ġknow ing
Ġlist ening
em on
In ternational
Ġdis b
Ġdis aster
vel ation
ĠSu pport
Ġreview ed
int hi
Ġtur meric
Ġalt ar
ĠVaj payee
C inem
Ġw ives
as y
Ġun ity
ari at
Ġredu ction
Ġbad ly
ĠProdu ction
ĠBrah m
Ġt un
ĠM iss
ug s
ick y
ĠAct s
Ġrank ed
R ashmika
ĠCent er
hal a
Ele ction
Ġrenow ned
an im
ĠY ear
Ġevery day
ĠMal ays
ĠCor inthi
Ġreturn ing
Ġcha mpions
Ġanaly sis
ri or
ĠV all
ĠO m
Ġ7 4
wor ks
ĠDub ai
Ġfranc his
5 8
D avid
k g
ĠT wo
Ġwe igh
In it
Ġbless ing
Ġsomet ime
ĠM el
Ġar g
ĠKad apa
Ġ6 2
Ġsupp lies
ĠNaw az
ĠTi wari
Ġs essions
Ġp aired
Ġob ey
isha d
Ġris en
Ġmer ged
Ġtransport ation
Ġid ol
M oney
ar pur
ĠS ury
Ġ10 8
ĠMeg halaya
Ġliqu id
Ġfacilit ate
J apan
ĠInd ore
Ġ10 5
ĠAl a
Ġgra ce
ĠAad mi
ĠM ore
ab ilities
Sh ort
Ġanti oxid
Ġrecogn ised
Ġgreet ings
Gand hi
b i
i est
ĠT oyota
un te
Ġse ar
ĠU s
Ġher itage
Ġexper t
Ġpract ical
Ġsmart phones
ĠB ib
ĠG ehlot
Ġsu fficient
Ġemploy ee
ĠNag aland
J ammu
p her
p read
Ġs ins
ĠA K
ĠGo vern
Ġd iplom
ĠK im
Ġsu it
Ġdire ctions
iss an
ĠTir umala
ĠPatna ik
L ok
ha med
Ġ17 5
Ġmight y
ĠPar v
ĠChow d
A kshay
es ha
ar ika
Ġst ruct
ec ess
Ġcritic ized
Ġsens ation
Ġsubst ant
Sym ptoms
ill ies
ĠG or
ĠMa hab
Ġ16 0
Ġnam ely
Ġp ool
am ool
ĠM D
ĠEn vironment
ĠMus e
Ġnation wide
Ġexpl an
antha puram
S ensex
ĠM ake
Ġch icken
rap y
Ġfield ed
uv raj
ĠT an
est ions
ĠN ame
ĠIn c
Ġatt rib
ides pread
ĠVen kaiah
Ġperform ing
ĠMot o
ĠSub ram
ĠJ oe
ud ent
Ġconst ruct
Ġart ists
Ġcustom er
Ġep is
ed i
Ġth row
Ġcomp r
Polit ics
P ublic
Ġf ly
Ġh o
Ġpro hib
A udi
ol ved
ĠR ate
Ġst olen
ition ally
ib rary
ĠPro v
ĠD esh
Ġcar bon
turn ed
ĠPrat ap
ĠT ime
ĠD aniel
Ġsp r
Ġen emy
pl ace
ĠNag pur
wa isi
Net izens
Utt ar
ĠSuje eth
on na
Ġl iber
ik ip
Ġschol ars
ĠI SRO
Ġfinal ised
ĠMand al
Ġflo ors
r ut
Ġw rapped
Ġf urn
Ġb log
ri an
Ġb omb
ot es
ĠX I
Ġport r
Ġprim arily
est one
and e
Ġup gr
ĠY uzvendra
Ġdiv ide
Im port
ĠC ode
ĠD ur
Th ings
Ġperson ality
ĠKom aram
St ylish
Ġsur re
Ġforgot ten
Cho ose
ĠIndones ia
Ġphil osop
M A
l u
Ġf ill
or gan
Ġperson ally
ĠSa if
ĠBab a
ĠSik kim
ro oms
ĠM art
ĠM ichael
ay i
Ġfil ing
ĠEx am
Ġrelig ions
ĠOb ama
Ġbron ze
r um
Ġd yn
ic ks
ĠC am
Ġpr ayed
Ġcover ing
Ġincon ven
w ala
Ġse m
Ġreg ime
As h
Ġsecond ary
Ġhous ing
ĠCorinthi ans
5 6
st ers
iler u
F acebook
R L
R oyal
or al
ing u
Ġbl ind
Ġprogram s
Ġpan chayat
Ġz one
c an
ĠJ av
Ġev ident
Ġbre ast
Ġsignific ance
ĠKeer thy
c ont
it is
ĠR S
ind ia
Ġapp arent
ĠMa hara
ĠAI IMS
Ġpolitic ians
t ra
y yal
iv eness
Ġent rance
Ġbr ut
hav a
Ġquant ity
Ġneglig ence
f ord
Ġbeha viour
ĠS aj
ac c
Ġcha in
ĠPl an
Ġsubject s
Ġabsc onding
Ġcor ner
Ġ11 0
ĠTim othy
it ors
Ġre aches
Ġ200 5
ĠInf osys
Bang ladesh
m iah
ged y
ĠAn irudh
Ġimp rison
Ġfast est
Ġlad ies
ĠSrik akulam
ĠM ess
Ġprocess ing
ĠMe hta
hem at
Ġpred icted
or ter
ĠS ad
ĠM ember
rom e
Ġint ention
ĠSt ore
Ġcha pter
R O
f ighters
l ad
Ġha b
ĠN az
ĠV eh
Ġrel ation
Ġheav ens
Ġfoc used
Ġnab bed
ĠJ ere
Ġever lasting
ĠJud ge
Meg a
A k
Ġd ress
Ġto ols
ir aj
ia nder
Ġar ranged
Ġob jection
mon th
Ġstrateg ic
pher d
ĠMuse um
R est
is he
Ġes cal
Ġtw enty
Ġaccom mod
Ġh ung
ig her
Ġco oking
chay ats
Ele ct
ĠKore an
Ġsudden ly
in ton
ol id
el ve
Ġhe ated
um es
In ter
Ġcomprehens ive
ĠS eries
Ġso vere
Ġexp ansion
Ġelect ronic
Ġspec ified
Ġz ero
Rel iance
ĠSav itri
ĠJ itendra
ĠSt udents
Ġbro wn
Ġang el
ĠComm unic
Ġcorpor ate
Ġbul let
Imp ro
S I
w rit
Ġp ays
Ġp ip
ot ic
ĠK aus
ac ific
Ġcl oud
Ġvis its
Ġem pty
Ġdest ruction
Ġsens itive
Minister s
B ack
Ġc ore
Ġha ven
Ġg arden
so ft
Ġrec alled
Ġmarket ing
ĠAz har
Ġshr ine
ĠMemor ial
mp ion
Ġbl amed
Mar ket
ĠG HMC
Ġsur ve
Ġop ener
Ġhik ed
Ġjewell ery
if orn
ĠMan aging
Ġdemoc ratic
ĠVijay a
ĠAll uri
Ġlat ter
Ġdri vers
Ġinnov ation
od h
ĠD rav
ik es
Ġstrengthen ed
Ġsex ually
ĠRavind ran
Ġafford able
P ers
ĠL ev
ĠChrist mas
Ġoffer ings
Ġholid ay
B a
ĠR em
ĠH ills
Ġexp ed
aul ted
Ġconsum ers
Sa aho
ĠDig ital
Ġthorough ly
Ġscuff le
C L
Ġag itation
ĠW rit
Ġmoment um
Ġcomb ined
ĠSud hakar
Ġadj ust
Ġmotorcy cles
J ob
ĠP ud
Ġad m
aram aiah
Ġimprison ment
V P
ĠM os
Ġexam ine
ĠPar is
ĠNe ek
Ġmaintain ing
Ġprepar ing
Ġpolitic ian
K eer
Ġd ed
I SRO
ĠG ay
Ġup load
ĠO cean
rid har
Ġscen ario
ĠFl ipkart
H A
T ur
ĠT rophy
pp ers
Ġco verage
ft i
Ġposs ess
az e
Ġrul er
Ġconsid ering
Ġconne ctions
ĠHy d
ĠNav deep
Ġburn ing
Never theless
as er
ul ations
ac hi
hu a
Ġassist ant
ĠFa ctory
Ġprosper ity
N ame
N agar
Ġin du
Ġimp ressive
asht riya
Ġcirc ulation
ĠCo ast
h ouse
w w
w ant
Ġs ung
ri e
Ġex ternal
ass ed
ĠMa x
vent ure
Ġplan et
Ġfund ing
Ġneg oti
ĠAlla habad
Ġmagaz ine
Ġw ave
qu al
Ġwor s
ĠDes ign
Ġchem ical
uvan anthapuram
k hara
Ġc ough
ic ians
ĠM i
os ystem
Ġab rogation
ĠU d
ĠTr ade
Ġtrad itions
ĠElect ronics
Ġproceed ings
Ġbrilli ant
Friend s
ikip edia
P ut
ĠRam an
Ġinteg rity
Ġdisput es
nd a
Ġ6 9
Ġconv in
st ery
ĠRa a
ĠY oung
Ġcamp s
Ex per
ĠNe el
ĠOffic ers
Ġlif estyle
ĠNeek ev
t op
ĠM atch
ate ful
Ġr ough
aim ed
ĠSat ish
Ġcamp us
Ġexist ence
ĠM other
Ġtri ple
Ġrev olution
Ag ain
Ġfib re
iforn ia
ab ha
Ġann ually
Ġcomm enced
Ġprom oting
Ġrelationship s
an ge
Ġre nt
ĠS pir
Ġpass word
Ġsed an
ĠAx is
M ust
Ġv ine
ĠCent res
Ġpie ce
Ġpurchas ed
Ġre verse
Ġnot ified
Ġun ex
Ġ5 7
lic ated
ched uled
Ġvill ain
ĠAg ency
Ġprincip le
Ġdialog ue
ĠShre yas
B ook
R et
g iri
h ri
Ġo vernight
Ġm our
ĠS aina
Ġattend ance
Ġcinem atography
Ġbreath ing
ĠI ra
Ġlo vers
Ġhead ing
ĠRes p
rid or
chan ge
J an
Ġyou re
ven ues
Ġmother s
had ra
0 9
6 7
Ġd inner
ĠY outh
Ġrec ip
Ġev ac
ena ult
Dev otees
v aru
ĠS port
Ġro t
Ġhospital ised
Ġsur ge
Ġlin ks
Ġluck y
Ġsup rem
ĠRom ans
ĠTrip athi
ir bhar
ĠMan j
ĠAm rit
ĠRav ichandran
Ro ad
Ġw ard
Ġf ab
Ġd y
ĠK abir
Ġcoll apse
RR R
ĠIslam ic
Ġisol ation
Ġt ap
ed ing
at ically
ĠS nap
ĠK h
Ġ1 19
Ġpl un
Ġarrest s
ĠCourt s
Ġdep th
ĠSe ctor
g ely
Ġd rown
ĠR ef
ĠO waisi
Ġconf usion
Ġprom pt
Ġprom otion
Ġgu ests
eter an
Ġconfirm ation
ĠA tal
ĠA udi
ĠP ress
ĠB er
ĠE st
Ġra ids
Ġviol ation
F ree
ĠA M
ll ers
Ġannoun ces
Ġdiscl osed
Ġhuman ity
App le
Ġattra ction
Americ an
Ġacad emic
Ġb ull
Ġp hen
Ġ201 0
Ġdes ce
Ġgu ide
Ġem bar
Ġt ired
ced ented
Ġexam inations
Ġinter action
Ġoper ate
Ġeffect ively
Sh r
ĠEmp ire
K ajal
ig a
Ġth ine
Ġop ted
Ġorgan izations
rid ge
Ġmere ly
pre cedented
Cap tain
H arsh
Ġ _
at urally
Ġb ills
om ens
ad ise
Ġst ro
In s
hy am
Ġpoet ry
ĠMit chell
B el
Ġp ull
il and
ĠG ram
uc herry
dra gon
E nt
w ill
his h
un ist
ĠL ine
end ing
ĠFest ival
ĠNeekev varu
T S
r ith
ĠS MS
ri ve
ĠV an
ĠGod dess
Ġaband oned
ĠStudi os
h vi
v ijay
Ġt ears
Ġcould n
Ġwind ows
ĠAj inkya
intend ent
G ov
Ġw idespread
Ġpres ently
ĠAm bedkar
Ġsix es
Ġtarget ed
ĠCro res
ĠNeh wal
u ous
Ġob st
AT I
ĠLal u
ĠMu fti
A AP
Ġf inger
ĠK hammam
ĠPet roleum
Ġtemper atures
Ġcontain ment
ĠSom esh
Mah indra
ri kar
ĠN ad
ll a
Ġun ions
Ġass igned
ĠRep ort
w i
Ġme als
Ġcomp rom
Ġun less
ati o
Ġprov ince
Ġ9 6
Ġdifficult y
ĠNa ik
Art icle
Ġs li
In f
Ġeff iciency
Ġself ie
V arious
Ġ7 00
Ġext ension
Ġrecogn ized
Ġec osystem
Ind eed
Ġrem ote
Ġhard ship
S il
Ġal ter
od ia
Ġun anim
Ġchan nels
Ġbat t
Ġinhabit ants
H aving
R ain
f rom
ic ides
Ġencoura ging
Ġneighb ours
Ġdecre ased
ĠVad ra
Ġg raph
Ġh ub
ab b
ĠN T
medi ate
ĠSp ain
Ne ither
D S
Ġdisc rim
ĠPra k
cl one
Ġprest igious
E urope
R ef
k ha
Ġc ad
um er
Ġcor resp
Ġlar gely
Ġste pped
Ġresur rection
E ast
ĠR ic
ĠP ut
SR TC
Ġobs erve
Ġ x
ĠS eh
Ġad vert
Ġele ment
Ġprocess or
IC S
Ġbad minton
Ġb ones
ĠR eal
ĠInd o
Ġra ising
Ġmar ked
Ġ6 3
Ġend e
Ġdel iber
irat ory
ĠCon st
ĠMe eting
Ġmer ger
Ġb reat
ĠR ad
ĠV eer
Ġass aulted
Ġweak ness
Ġtransl ated
C ond
ĠG ambhir
Ġro ped
Ġfe es
Ġmiss ile
Ġrememb ered
he nt
ĠC hildren
qu er
Ġro yal
ally a
Un fortun
ĠAg ra
Ġgener ations
Ġintens ified
c ro
Ġst ability
Ġmo ist
ĠRaj an
Ġhelp ful
ĠHar ris
ĠVis hal
Ġcoast al
Ġfranchis e
K ashmir
han i
ac hel
pan ish
Ġsepar ated
Ġdark ness
ĠHous ing
k y
Ġs hed
Ġb other
ĠC hild
ak i
Ġle mon
Ġcont ra
You th
A mazon
B o
ass ador
Ġdisc overed
amm atory
Ġpersonal ities
Ġoverse as
eor ological
Ġre ndered
ĠT amannaah
ĠL ist
ric h
Ma harshi
Ġgen u
Ġneighbour ing
Ġpul led
Ġcompass ion
rith ik
ĠM ic
Ġh ills
ĠB ose
ĠJ P
ĠJ i
Ġr all
Ġown ed
ĠCon f
ĠSat y
Ġunemp loyment
f ts
Ġt ag
Ġl ift
ĠM ul
Ġshould er
As k
ĠSab arimala
Ġtw ist
D i
ro se
Ġpl ate
Ġcont rast
li hood
Ġbl ow
Ġfr ust
ĠIndust rial
Ġcontinu ously
Ġpron ounced
E N
V oting
ĠR et
ĠB r
Ġarrange ment
idel a
Ġvirt ual
Ġtack le
8 7
Ġf old
ĠP hys
pp y
ĠSud eep
ĠMex ico
G e
Ġto ol
ĠS anskrit
Ġar med
Ġdec ade
ĠSm art
ĠCoop eration
hent ic
k at
Ġsp in
rat ors
Ġhost s
ĠRav icha
ĠJohns on
ilder ness
Ġm a
ĠA ay
Ġconv icted
ĠLab our
ĠC ase
Ġloc ked
Ġinter im
Ġdispl ayed
he ld
ĠM angal
Ġst y
ri ors
Ġnot ices
Ġtra gedy
Ġco vers
Ġsl ams
ĠHim al
Ġdelight ed
ĠJust ices
ĠJere miah
B u
B et
Ġw age
Ġf itness
ĠD egree
ain ment
ace ut
Ġspiritu ally
ĠBrit ain
Ġaffect s
Jag an
ĠSain i
A c
P R
S it
st s
ĠMan i
ĠQ ue
ĠBid en
Unfortun ately
an ian
Ġst omach
ade kar
Ġyour selves
Ġcommon ly
Ġten ure
Ġfant astic
Ġhe nce
ĠF r
Ġint ense
Ġachi ev
ĠCal ifornia
Per haps
chant a
harm aceut
le cted
ĠC ath
ĠP hoto
ĠH ill
Ġrec ruitment
rish nan
Ġallow ing
Ġbann ers
Ġachieve ment
Ġdele gation
Ġhor se
f an
ha k
Ġhand ling
Ġperform ances
ĠUtt am
Ġconsum er
ĠIran i
G irl
Ġw ilderness
op ular
ĠE nd
Ġminister ial
Ġdep ression
Ġspeed y
Ġsleep ing
Ġvol unte
School s
6 9
in ating
Ġhe ll
Ġat h
Ġqu oted
ĠCha har
Ġwater log
Ġinter acted
ĠJagann adh
ĠProte ction
b u
ĠP ush
Ġman aging
Ġmil es
bo oba
ĠSw ed
Ġqual ified
ĠA chanta
ast ed
duc ational
ĠMur ug
Ġhighlight ed
ĠKon idela
Ġimag ine
Ġcompon ents
Author ities
G S
ro z
ĠG uru
Ġapp lies
ĠPro t
Ġpopular ity
Ġflood ed
Ġcra zy
De ath
Ġc otton
Ġf el
Ġp arent
Ġun precedented
Ġter med
Ġmain tenance
Ġsal vation
Ass embly
Ġf t
as ks
Ġre iter
ĠP rem
Ġst uck
ub nagar
Ġem ail
Ġnut ri
Ġbound aries
ĠPict ure
ĠJack son
ĠTrin amool
A nt
Ġn av
Ġl ux
Ġg ap
ul am
ĠL uke
Ġmy th
Ġset up
Ġconvey ed
B ehold
ĠN E
Ġmon soon
Ġinst ances
App lication
Ġadminist ered
ĠRev anth
ĠGh osh
Ġevac u
O C
h r
m ood
are n
Ġ7 3
Ġem otions
US H
T est
p ati
Ġin und
ĠN am
Ġne p
Ġback ed
N orth
h un
o ji
ĠB road
ase khara
Sal ary
Ġp ush
Ġl unch
ĠB MW
ĠN il
ĠL eft
Ġro of
Ġen quiry
Ġserv es
Ġair ports
Ġche ap
urs ed
Ġaccording ly
Ġmos que
ĠJawahar lal
1 000
ĠCom mon
Ġgr ateful
ĠMo on
Ġus age
own ed
Add itionally
Ġtele com
Ġphys ically
Ġtom atoes
ĠChandrashe kar
H ard
p hant
he b
ĠT han
Ġ7 8
Ġconf erencing
Ġwrit ers
Ġch illies
cha e
Ġhal ted
Ġradi o
Init ially
j id
at re
ing ly
Ġcont em
Ġfore cast
Ġris ks
ĠAk htar
Sho oting
P V
ĠC B
ul f
ĠAI ADMK
Ġo xygen
ĠM ug
ĠP on
ug opal
be at
Ġth rown
Ġte nder
ĠMa o
ala xy
Ġjoin s
Ġut ter
Ġapost les
Ben efits
Ġexplan ation
M ass
ĠR ub
ĠHe m
uss ain
Ġdedic ation
Ġinteg rated
Ġlands l
5 1
K e
m un
ĠB eg
ĠK ane
Ġab use
ĠAr ora
ari b
Ġtrib e
ĠBag h
B h
d ev
ĠP ot
Ġsu itable
Ġper mit
mp h
ĠJagan mohan
Ġz eal
ĠR ani
Ġad vers
Ġpleas ant
Ġdistin ct
Ġt ons
Ġr ans
ĠF ront
Ġreg ret
ip at
ash id
ĠAsh wini
Ġelabor ate
r ating
Ġt ear
Ġs add
ĠA BS
ĠI AF
Ġ200 3
Ġbott om
ĠP riy
Ġr ide
qu ently
ous ed
ĠE nt
Ġcor iander
Ġhand led
Ġwithdra wal
O T
f ight
Ġ ice
Ġg ut
ĠK night
ĠG hat
if ur
ĠVenk ata
Rail way
C ricket
C auses
I J
M ethod
Ġf irms
Ġl ord
Ġlo ad
Ġ6 6
Ġbl ame
Ġrank s
Ġenhan ced
Ġnomin ations
Ġphen omen
Ġt ied
ĠCha uhan
ush man
ĠZ P
ĠAg ain
ĠBh ut
Sr idevi
A V
ist ans
ĠG aj
Ġv ul
ener ation
Ġless on
ĠChou han
Ġcomm od
Ġtrib es
Ġport al
f inals
Ġc ord
Ġb es
el ing
orm s
Ġexp lo
Ġbre aking
Ġcy ber
Ġsanct uary
B at
S te
s al
re lease
Ġind ul
Ġhigh lights
inist ries
Ġrespons ibilities
ĠSam uel
in fl
ha man
Ġo x
Ġre tained
ĠT ik
ĠHol y
E d
ĠA TM
ĠP rom
ĠK K
Ġqu e
Ġwitness ing
ĠRavicha nder
5 7
8 3
K L
v ar
ou b
et ary
ĠV e
ĠO ur
ĠSt aff
ai b
Ġatt ached
Ġcra ck
is ition
ĠHind ust
ĠWor king
Ġinvol ves
Ġjournal ists
Min imum
ĠGre ater
ĠBirth day
n ame
ct ure
ĠC redit
ĠB at
ĠB ul
ĠB oney
Ġthr one
Ġtal ented
Ġgu y
ĠShiv raj
Ġgener ate
Ġinn oc
ĠJy ot
C ant
G ar
u et
w ad
ĠS ara
Ġse es
ef f
Ġint elligence
ord inary
Ġvers ions
Ġmis er
Ġexplain s
Ġtables poons
T ax
W ar
ĠP ok
ur thy
Ġmin us
Ġequ ival
Ġcy cle
ĠRag hur
SC O
Ġrepe at
Ġpred ict
Ġconstitution al
T aking
en cing
Ġh ide
ĠJ ord
Ġatt empted
Ġimport s
Ġbu zz
Ġmembers hip
Ġhero es
Ġbelong ed
En ter
Ġstring ent
Ġretal i
ĠSnap dragon
5 9
s k
y e
hi ka
What ever
Ġad mit
Ġdevelop ments
Ġnewsp aper
ĠPud ucherry
! """
L D
Ġis lands
Ġst ick
Ġed ge
A E
S l
in th
Ġb ifur
ol t
Ġprop ag
Ġsil ence
Ġbran ches
ĠFed eration
Ġw ards
ĠN ow
ĠChampions hip
Ġunex pected
c ript
ĠA ry
ĠK en
ĠN ic
ĠN ov
ĠD ad
ink ing
Ġimplement ing
Ġemer ge
ĠComm and
i ya
es is
am ing
od af
ĠIs lands
Ġsupp lied
Ġmeas ured
Ġclin ical
ĠS R
Ġenvironment al
Ġven ue
T ill
ĠM c
ĠE C
mer gency
Ġbit ter
Ġaim ed
ĠProgram me
F ull
P ad
ĠH ere
Ġpl ot
ind a
Ġass emb
Ġfound ed
Ġland ed
Ġcomment ed
ĠNir av
Ġpal ace
Ġaccur ate
ĠRed mi
ĠPar rikar
ĠWilli amson
Ġsustain able
Ġvig il
Ġsuprem o
odaf one
j am
ĠR ob
ĠR ashtriya
ĠO ther
Ġinv itation
Ġdec or
Ġpo ison
ĠMalays ia
ist or
ĠD av
ĠV anga
Ġsha m
Ġage nda
iran jan
Ġant ib
Ġsacrif ices
Rem ove
is k
Ġp in
Ġind igen
Ġfin ish
Ġpass ion
com p
ĠDe aths
Ġris es
Pro te
cl ass
Ġadop t
L aw
ĠS ridhar
Ġl ung
ĠJag apathi
Ġsatell ite
p ower
ag a
ought s
Ġang les
araj an
Ġriv als
Ġmanifest o
Ġrej oice
R ev
V ar
d ul
ĠB is
Ġsh o
ah s
lo ok
Go vernor
Ġenjoy ing
Ġcut s
F i
V iol
ad uddin
res ents
qu es
te en
Ġmind s
ĠHa arika
Ġoppos ing
ĠSeh wag
f ire
m und
ĠM ac
ĠR up
ĠH ari
pers ons
Ġdivor ce
Ġfatal ities
Ġdyn asty
Keer thy
N and
k ot
ĠM aj
ĠN oid
ĠV ire
ie ve
ĠIs hant
Ġcr ashed
iver se
Ġscreen ing
Ġflu id
Ġsav ings
ĠV it
Ind ust
Ġent repreneurs
Ġcor rupt
Ġhal t
Ġcomb ine
Ġprofession als
Ġregul ations
Hy undai
ĠK now
Ġgr ass
Ġprevent ion
i el
k er
ble ms
ĠCo al
ĠCapital s
I ran
a ution
r ounder
ĠR ich
ĠA viation
Ġcle ared
aks ha
ĠIP S
ĠPad m
Ġspecific ations
Ġa uction
Ġd w
ĠP rices
Ġh ug
Ġimm ig
ĠIra q
M on
N ay
Ġte en
ĠMa ur
ĠSha l
St rict
Ġposs ibilities
Ġsatisf action
Ġoccup ied
whe eler
9 00
H D
t ower
ĠM ajor
ĠR aina
Ġcomp act
oin ting
lud ing
Ġshe pherd
Ġbr ig
ras ad
Ġtw in
Ġi OS
ĠSur vey
Ġdi am
ertiliz ers
F ar
r ors
ĠS ultan
ĠM is
ĠB ho
Ġas hamed
Ġshould nt
Ġvis a
Ġdecl are
Ġfind ing
ĠMed ic
Tr ue
Ġpot atoes
ĠPrak asam
ĠT HE
ian agaram
ĠU yyal
Ġreserv oir
r pm
Ġw rest
Ġbe ach
ĠK av
ĠAll iance
Ġinvol ving
5 3
an mar
ĠC PM
Ġag ed
Ġdis ag
Ġdes ired
Ġsl ave
Ġbound ary
force ment
ĠVik as
M ov
M ohan
Ġ @
et ime
Ġadd s
Ġ7 7
Ġequ ally
Ġcondem n
Ġacqu it
ĠCreat or
E E
U L
Ġt weets
Ġp our
ĠK umble
ĠN m
Ġfl ames
Ġshi ft
ĠAb out
Ġaddress es
ĠSus hil
ĠRaje nder
ĠKrish nam
9 1
ĠC ong
ĠP olit
ĠT am
In ternet
rif ic
Ġcal ories
6 2
Ġb id
Ġal ly
Ġoccur s
Ġcompet itive
d es
l s
in ity
ĠM aster
ur is
Ġby poll
ĠD C
ĠJ o
Ġ19 0
Ġcons cience
Ġ14 0
Ġdead ly
Ġdeal ing
Ġprophe ts
ĠAay og
ĠNoid a
Ġt ie
ĠM allya
im an
Ġhe ct
Ġth ro
Ġdef ined
ĠHigh way
Ġest ate
Ġweek end
Kumar aswamy
6 3
ĠR iders
ut en
ĠN iranjan
Ġrep resents
con f
Ġwar rant
Ġcongre gations
Ġvent il
p oint
Ġt ort
in o
Ġs ake
ro s
ĠH istory
Ġinv ite
ĠTe ch
Ġsing les
F ort
O b
O k
on der
ol f
ĠB ay
Ġr itu
up ted
Ġ200 1
ĠHigh ways
Ġstri kes
Ġaccept able
Ġer upted
E ight
S w
g ov
ic ate
Ġreal ised
Ġsan itation
ĠRat na
E m
an cies
ĠG haz
ĠN ation
Ġcol on
Ġinteg ral
Ġvalu able
l ings
il as
ĠI M
Ġconsum ed
Bank s
Ġmus cles
Ġfel icit
H uman
Ġd ouse
Ġl orry
ĠN ob
ĠJ ournal
Ġso le
Ġamount s
Ġdepend ing
Act ually
Ġestablish ment
ĠJord an
S ug
ag ues
ĠH ussain
arli est
ĠSub ba
Ġarriv al
Nagar juna
N S
Ġb om
ĠN ex
Ġsu icides
Ġcons cious
Ġrece ives
Ġcontinu ous
ĠChair person
D ig
R I
ĠM ang
ow ered
Ġed itor
stitution al
Cent re
Ġinvolve ment
6 1
Ġdec ent
ict ory
Ġdet ected
Ġsee ks
eg u
Ġmil estone
Ch inese
Ġemer ging
Ġinfl ation
Ġgra ve
Ġfle e
ĠMemor andum
Ġw ing
ĠK ur
and an
Ġcro wn
Ġdis pers
Ġprof essor
Ġlive lihood
ĠTha iland
ateg ory
Ġcampaign ing
Ġtheat re
Ġmach ines
ĠDrav id
E l
p ost
Ġc ure
Ġg iant
ip al
ĠOrgan ization
Amit abh
ĠCy ber
Ġpion eer
ĠBR ICS
Ġpad dy
C ourt
Ġto days
Ġe arliest
ĠB ur
ple te
Ġprotest ed
Ġche ating
hara oh
oul t
ĠNab i
Ġt ensions
Ġex em
ĠW eb
ĠY ed
Ġdev otion
Ġple ased
Pro f
Chand r
ĠHebrew s
Pres ently
V eh
Ġw ars
Ġc oconut
ve en
ĠR u
et hi
ain ts
je ev
ĠSa hib
Ġang els
Ġalloc ation
ĠUnder standing
p rint
RD O
ĠSar ath
wa hati
Pre par
Ġpeaceful ly
Ġpac er
Deep ika
y l
Ġb old
ĠA Y
ĠW al
Ġun s
Ġ10 4
Ġsm ile
Ġsub ur
ĠRe velation
ĠPrab hu
Ro ads
G erman
Ġs am
Ġg onna
ĠI mp
Ġk its
Ġcent ers
ĠBi hari
Ġsto res
Ġbur ied
Ġteach ings
Ġstun ning
) ."
5 2
Ġde ity
Ġr atio
ĠE v
ru its
Ġsince re
Ġmom ents
Ġprivile ge
p olit
Ġm m
el ift
ident s
Ġrail ways
Ġmiss ed
Ġpat ri
Ġsurr ounded
j udge
l ers
Ġb ab
Ġwas hed
He art
ĠE ve
Ġcommit ting
Ġlaw yers
Ġ200 2
Sm all
infl ammatory
u ment
im p
ill ance
Ġsy n
ĠMal d
Ġengine er
Ġens ured
Ġdra g
Ġoverwhel ming
S har
S af
er g
le nd
Ġn aturally
Ġsec ular
oura ble
CS O
ĠWatch tower
Ġcens or
Ġinund ated
7 1
8 2
ĠM ach
Ġg all
Ġbo at
Ġpos ed
ĠUyyal awada
f elt
w aram
Ġr ad
ĠVen ugopal
ĠSrin u
ĠSci ent
Eng lish
A G
a is
w ho
Ġp ink
ul oo
ĠG O
Ġde ar
ac ular
Ġshar ply
Mo vie
Ġcounter part
Fore ign
ĠPri ze
P rivate
am ation
ĠP ayal
air y
Ġref erence
Ġreal ize
Ġsaf ely
ĠLax man
Ġcoup les
Ġpill ars
! !
C onse
w aj
Ġcomp licated
ĠO ber
Ġdra ft
ecess ary
uet ooth
. ""
f ather
k al
es ome
Ġas cer
Ġse nding
ie ce
Ġmet ers
Ġcolle ctions
Ġexc han
Ġimprove ment
ĠShal ini
Ġascer tained
O ff
ĠPr ince
hot ra
Russ ia
Ġpurs ue
Ġmaid en
Ġinherit ance
Ġun certain
Ġconf used
ĠAd il
Ġpri zes
Look ing
Ġrepeated ly
D onald
E xt
L eg
t hat
Ġl oud
ĠT own
ap u
Ġqu ake
medi ately
Gov t
L ik
M en
ro vers
ĠM ain
Ġwould nt
ĠMa hal
Ġaut onom
Ġtit ular
Ġfulf il
Ġappreci ate
A f
Ġd ying
ro ff
ull a
nel a
Ġtrad ers
Ġabs ence
Mad hya
ĠSecret aries
ĠS ound
ĠK ia
nt y
ĠJ in
ĠV ir
Ġrest ored
Ġgif ts
ĠJav adekar
b re
t his
at ories
Ġre in
ĠA ction
ĠB hav
ĠL ah
igh th
Ġsha me
Ġcr imes
Ġlaunch ing
Ġjump ed
A am
H aryana
R ather
had ur
ĠSm riti
ĠCap tain
5 4
Y e
Ġt ail
av ar
ĠShe ikh
Ġmanufacture rs
ĠDig vijay
Ġharm ful
whe el
Moham med
Ġvul ner
T reatment
Ġs tern
ĠG T
Ġsold ier
Ġtar iff
Ġprogress ing
Ġprepar ation
ĠPhil ist
w h
Ġs orry
Ġf ishermen
ĠH ong
Ġdis qual
Ġfl ows
ĠDev il
ĠPar ishad
Get ting
E r
Ġc ow
Ġf et
ĠP P
Ġpro cl
Ġk ick
Ġsm oke
Ġob ed
Ġsim pl
ĠAt l
ĠKor atala
Ġconvict s
Ġw ages
Ġdes p
Ġob jected
Ġcho ices
Ġguarant ee
Ġc ried
ĠD en
ĠRa ashi
ade v
Cor p
Ġdig est
Ġneighb or
b rand
ig in
ĠSh roff
Ġmanufact ured
ĠFe atures
8 4
An n
Ġaff ection
Ġche st
ĠFor ces
Ġshowc ased
Eff orts
on ia
Ġw ai
Ġp sych
Ġl amb
ĠD ist
ile e
Ġpre ach
Ġext ensive
ĠSidd harth
ĠJew ish
Es pecially
Ġscal ped
ĠViz ianagaram
8 9
M et
R ight
Ġhe ed
ĠK arn
ard ens
ĠE k
Ġfun ny
Ġang le
Ġess aying
Ġconcl usion
Ġro ot
au ndering
Ġment ally
Ġopin ions
Ġinnov ative
Ġisol ated
Ġdog s
M I
re land
Ġl aug
ĠP os
ur se
Ġtre m
Ġstake holders
A mendment
ĠS panish
ĠP DP
um s
Ġ19 99
Ġwrit es
Ġsal aries
ĠDev ar
ama ha
IT I
Ġwind s
Ġspokes man
ĠKis an
ĠMug hal
ĠC a
ĠH ot
Ġsc ar
Ġtre k
nes ium
Ġattract ive
Ġuncle an
ĠSpir it
il k
ĠN air
ĠH ave
ĠL MT
Ġinconven ience
Ġnutri ents
n o
ĠPr ith
Ġresult ing
Ad v
ĠOber oi
X iaomi
st ream
Ġst uff
ĠH en
Ġview ed
Ġquar rel
ĠMas jid
ĠMeh booba
Ġapolog ise
Ġbrig ade
N O
Ġha iled
ĠI d
Ġh ors
oc hi
hy d
Th oughts
Ġsw im
Qu estions
Sing h
c itation
t ered
in ely
ur aj
Ġrec on
Ġsome where
vent ions
Ġcons ervation
Ġbusiness man
ĠRe venue
ĠSy ria
Ġpen ned
Ġrans om
Ġthe ory
Ġbe ings
ĠInd us
Ġj unior
Ġeng age
Ġprote cted
Ġteas poons
miss ions
Ġtrou b
uz z
Ġpilgr ims
ĠAY USH
V eteran
Ġa rose
Ġc hat
Ġo ven
ĠP ink
ist rate
Ġex ha
Ġco aches
ĠMal hotra
Com m
ĠTV S
Ġnom inee
inar ayi
hemat ics
ĠNob el
Ġun n
na pped
Con f
ĠMoto Corp
Ġhab its
Ġm el
Ġre tain
Ġun us
rib e
Ġactiv ist
ĠMand ir
ga on
Ġmicro SD
ĠJon as
Ġhang ing
R inse
Ġw ond
ĠI AS
so re
Ġall oy
be ing
ĠSun risers
ĠBudd hist
ĠAnj ali
7 3
7 4
ow ers
Ġor ange
Ġtim ely
C y
F ather
L uck
T H
nd ers
Ġg ates
Ġfeat uring
Ġdeal ers
Ġgain ers
Ġcat tle
Hel p
C ost
oc us
Ġdon ated
Ġconsum e
Ġpros pect
Ġign ored
Ġambul ance
Ġavo ided
ĠCath olic
P an
U R
ric ted
per or
dy urappa
ĠPunjab i
Ġang u
ĠLe ela
iet ies
De velopment
Ġmagn itude
Techn ology
Ġhun ger
C hild
ro lling
ig nty
Ġaut hentic
ĠUr du
ĠRadha k
Ġcoord ination
P hot
S earch
Y oga
Ġb onds
ĠB ah
ĠL ing
had i
Ġcompet e
ĠSur ya
Ġshout ed
ĠVaikunthapurram uloo
Ġepis ode
ĠM M
ĠP CC
Ġinc red
Ġmin ing
hav ior
pan ies
Ba ahubali
I G
k onda
er u
it aries
Ġd ish
Ġh idden
ĠK os
ĠG as
Ġcome back
ĠKumar i
Ġless ons
spe ctor
uls es
Ġlaugh ing
ĠFire fox
Ġcompos er
ĠBro ther
T en
Ġde als
Ġafter wards
rib ution
Ġrain ing
Ġentertain er
bha jan
Ġc ops
Ġp ushed
ĠM obile
ĠN athan
ĠD ef
ac harya
ub an
Ġconf erred
Ġdiver se
I CC
Ġacc eler
ĠSt ory
Ġrel ating
ft ware
St op
Ġeff icient
Ġreal ise
Ġresign s
Dire ction
Ġintrodu ction
Cor ona
araj u
Ġsett ings
Ġgenu ine
Y ahweh
Ġo wing
ĠS ee
st e
ud y
ump ed
God s
Ġthin ks
N it
crib ed
ĠPul sar
ĠMLC s
Ġdecre ase
Ġvess els
ĠRic hard
B rit
R av
ĠP inarayi
ĠG V
ĠU k
ĠY uvraj
ĠSt alin
Ġsing ing
ĠSon akshi
utt ler
ĠVams hi
ĠMarket ing
Conse quently
P rom
l iness
ĠC amp
Ġres ume
Ġimp ress
Ġappear ing
Ġcup s
Ġreiter ated
B as
Ġthe ft
act ive
Ġdem ol
Is lam
ĠAs aduddin
Ġpositive ly
Ġviol ating
ĠSy e
ĠSidd aramaiah
L ar
Ġp salm
Ġd ust
ill ions
Ġcon ce
th u
Ġ6 1
ev es
ĠJos hua
ĠInvest ment
Ġric hest
agg ub
K rishna
er ia
ĠM embers
if ically
oun ce
Ġcontrovers ies
Ġdoll ars
w ani
Ġs ib
ĠK u
ĠK areena
un ar
Ġv om
Ġ8 1
ĠSuper star
Ġpred omin
Ġnut rition
Ġsurr ound
F I
F S
Ġb rows
il itation
ir ts
ĠP haraoh
ur red
Ġeng agement
Ġalle gation
ĠMy anmar
Res p
cast ing
ĠLegisl ature
Ġremark able
lar gest
Ġsho pping
c ol
Ġl i
ra ce
ĠN atural
ĠJ NU
ĠCom mercial
Ġsub mer
ĠBank s
Ġlit res
Ġlaug hed
Ġg orge
im ul
ĠN SE
ĠO ld
oin ts
ĠSha nt
Ġconf essed
less ly
Ġsw earing
Ġsuper b
Ġmig rants
Ġattra ctions
ĠGen esis
Star ring
Ġsovere ignty
Ġha v
Ġg ro
ĠC ross
ĠN G
amp ed
Ġlocal ity
Ġclaim ing
ĠFor um
Ġtarget s
Jehovah s
Ġprin ces
u is
ĠF C
ĠE co
Ġab dom
ĠShak ti
Ġeth nic
N umber
k h
il ly
ĠP oon
ile ad
ec han
Ġbas ically
Ġqual ify
L ong
M M
M uk
P ak
S erv
u ments
Ġm ap
ĠInd ex
ĠRa ut
Ġen abled
ĠShar dul
the y
Ġsign ing
ĠAk bar
Ġmag nesium
Ġhy p
Ġcongratul ate
ĠBa hadur
Ġflag ship
Ġanx ious
ocol ate
Ġpion e
ĠBet hel
ĠWind ows
Ġenthus i
im m
os ure
est y
ĠG alaxy
Ġman s
Ġ9 4
Ġcre am
ĠItal ian
Ġdiver ted
Diff erent
C ustom
D ay
S ave
ĠM ek
ĠC het
et i
ur ai
Ġcomp uls
Ġunder go
Ġdef ault
Im mediately
ĠPe ace
Ġcivil ian
N ar
r ous
um ul
Ġcl uster
ĠMa harshi
Ġkn ock
ĠMen on
M ot
Ġ ..
Ġin tern
Ġhe res
ĠT it
ĠG oud
ĠN C
In come
Ġhop eful
ĠDirector ate
ĠSil ver
m ates
Ġe ars
Ġpro bed
ĠD w
Ġtra cks
end ran
Ġcommit tees
Ġdeal t
Ġacquit ted
V illage
j ah
Ġro lled
Ġqu eries
me ndra
Ġind efin
Ġmy stery
Ġindic ate
ĠMotor cy
Ġdisb ursed
9 2
S um
o z
Ġt rick
Ġag es
ade ep
ĠRaj kumar
Ġdisc ont
Ġvot er
ĠFilm fare
Ġdri ven
Ġacqu ired
Ġstead ily
Ġtyp ically
odh pur
hri yal
aggub ati
r ists
Ġa ud
in ning
ot ainment
ĠP riya
ch o
Ġinst ant
Ġabs or
Lear n
A jay
b ands
Ġse asons
Tr ad
isher s
Ben z
Ġult imately
Ġrelative ly
ro t
ire ct
Ġdef icit
Ġdesign ated
Ġca res
Europe an
Ke jriwal
I d
T E
_ _
Ġs ounds
Ġd ating
ad itya
ĠM ars
ul pt
Ġthey re
ĠO F
ograph ical
Ġbra ve
Whe res
ĠPall avi
C OVID
Ġs q
nd s
ĠT raining
ag o
ag raph
ĠSt ep
own load
Ġcha mpion
Ġpresident s
Ġcirc les
spe c
Ġdig estion
ĠAmar inder
ĠMall ikar
Ġconvin ced
ĠRich ter
b our
p reet
in ash
ĠB ack
Ġele phant
iss ions
Ġ8 2
Ġ8 8
ĠDe ve
Ġview ers
Ġpropos als
Ġremand ed
Ġswit ched
ĠHass an
ĠNex on
ĠMald ives
B ar
d rop
in ada
ĠS cheduled
Ġres ource
Ġent ers
Al most
Her o
ĠJagann ath
Ġn ose
ĠMay ank
Ġprec aution
Ġthank ful
vious ly
ĠKot ak
Ġconver ted
ĠBhut an
C r
M uch
T ollywood
z ek
Ġ *
is er
Ġf ond
ĠK ir
ĠK TR
um n
ĠJ ai
Ġsp ring
We ve
ĠMan ager
ĠRe els
IM IM
ĠBudd ha
List en
ot ive
ers on
hi a
Ġ7 6
Ġnational s
lim inary
Ġexec ution
Ġtom ato
Ġaw aiting
ĠLat in
Ġacknow led
Ġs hips
Ġw itnesses
ĠP vt
ĠD etails
Ġle ague
ĠO mar
Ġam mun
Ġass ass
pur i
Ġgod ly
Ġextra ordinary
ĠR ab
ĠI reland
ĠGand his
Ġdead line
ĠAir ways
Ġcelebr ating
Ġtravel ing
ĠInf rastructure
Ġachiev ing
ĠHindust an
I r
o op
ĠR ights
ab s
ia c
oc ket
ĠV illage
ast e
Ġra w
Ġinter vention
ĠSan ia
cell or
Ġcoop erate
Ġlegisl ation
Res ults
Cl ass
Sm art
ĠJe evan
Ġaccompl ish
Ġdign itaries
ĠPok hriyal
P rin
ĠS hyam
ut ation
ud es
Ġdel icious
ĠRo bert
Ġautom obile
ĠCinem a
cro re
B aj
s elling
Ġl os
ĠT aj
Ex pect
ĠBo x
ĠMet eorological
ĠBen ch
ĠKan pur
Ġstrict ly
Ġbal anced
ĠProf essor
Ġsubmer ged
M obile
ot ers
ĠC ur
ĠB hans
Ġtr illion
ect s
ĠSe ason
Ġpain ful
ĠMer cedes
Ġnewsp apers
z za
ĠK ol
ĠG ir
Ġsa ving
Ġshe ll
Ġthr ong
Ġnow here
ĠAI CC
Ġmarty red
Disc uss
Import ant
Ġc ave
ion al
ra w
Ġsm oking
ĠSa aho
Ġ199 0
Ġequival ent
Ġa er
ĠM iddle
Ġres pected
Ġann um
Ġ8 4
Ġ' %
Ġeat en
Ġestablish ments
Ġid ols
ĠDevar akonda
B ab
R JD
m ukh
w k
ĠM ost
Ġtra ce
riv ast
Ġhop ed
Ġprof its
Ġindigen ous
C ase
ha st
Ġbe re
ĠJ og
ĠRam ya
Go a
A y
b rid
Ġf u
ĠP acific
ard ing
Ġend ure
Ġins pe
Un ited
Ġrespond ing
Ġresident ial
Ġly rics
N C
S ud
b l
he a
Ġm aker
ĠR ashid
Ġse gments
ov al
Ġinter ior
Ġrepresent ing
Ġtele phone
ĠNort hern
E vent
f ection
Ġd oused
Ġh us
res a
ĠN IA
av an
Ġpresent ing
Ġinf otainment
de a
ĠVivek ananda
ĠPrashant h
ĠMSME s
E conom
ĠT CS
ik i
ĠSt okes
An and
Ġdr unk
Ġprof ound
Ġdoub les
Ġdisapp oint
Ġorigin ally
Ġfrequ ent
Ġdy nam
G F
ĠM SP
ĠE PF
Ġemploy ed
Pl ace
Ġminor ities
Ġnut s
ĠSche dule
Ġcompar ison
D ef
s i
Ġthe rapy
ol lo
Ġal ar
Ġlo oted
Ġ8 9
ĠIs land
Ġsent iments
Ar un
Add ressing
ĠBl uetooth
Ġlegisl ature
uz aff
ĠPers on
ĠChampions hips
Ġmemor ial
Ġkit chen
Ġassign ment
Ġcommod ities
N on
S amsung
V ideo
Ġf lying
Ġg m
ĠN ick
Ġmar g
Ġdeterior ated
ĠMahan ati
Ġlux ury
0 4
M er
d as
l ined
Ġs orrow
Ġle ak
ĠAm y
Ġexpl ore
ĠSaf ety
ĠC rime
ĠB or
ĠD att
Ġle v
Ġrest ricted
Wh ose
Ġdele ted
Ġinterven ed
O P
S port
it ch
Ġbe aring
ĠC her
ĠR K
Ġany way
Ġ6 50
ĠSh im
Ġreason able
Ġdest inations
pic ious
En joy
rim inal
ĠVenkatesh wara
an j
Ġn od
Ġl ately
ĠD aggubati
ĠCha ud
As ian
On ion
ĠEx change
Ġaccom p
ots a
Pl us
Invest igation
Ġweap on
ĠBhat ia
ĠI ts
ĠN is
per t
20 19
ĠGu wahati
Ġref ers
Ġev alu
Ġext reme
ĠMohan lal
Ġprevent ed
Ġaccess ible
Ġbelief s
Ġbot hered
Ġin ner
Ġre med
ĠD ip
Ġfilm ing
az a
Ġdeterm ine
Ġprophe cy
ĠPriy ad
Ġvulner able
ĠP ed
lic op
Ġrel ent
Ġcha se
Ġwhen ever
Ġfl avour
ump ing
ĠKrish nan
Le ave
Ġunus ual
Ġf er
Ġd ried
ĠA C
ud ra
Ġcor n
Ġvac ation
ĠJa ish
Ġbuy ers
ĠRaje ev
Ġamid st
ĠRaghur am
Ġt rop
Ġf asc
ĠE t
man uel
Ġdes per
Ġrall ies
S ure
Ġbe havior
ĠD on
th ren
ĠY atra
Ġcl othing
Ġele v
Ġneed y
Ġtra ctor
ĠAr m
Ġdecl ining
Ġrecogn ize
Ġmem ories
Cl ose
Qual ification
Ġinterrog ated
ishe ries
Elect ric
an and
so ever
ric ed
Ġhum ble
Ġhold ers
ĠDes ai
Ġblast s
ĠRegion al
e a
ĠS ov
Ġh ockey
os ity
ĠN issan
Ġint im
ret a
Ġrep ro
ĠBi ote
Ġcal c
Ġrank ing
Ġinflu enced
wor king
Ġcompon ent
ĠDur ga
Ġhe licop
ĠF I
Ġres umed
Ġsaf egu
Ġself ies
1 500
k top
at ographer
Ġin iqu
Ġd rew
ĠR enault
av ani
out heast
Ġcomp are
Ġexp osed
ib et
ĠAm ethi
ĠComm unist
ĠAy ushman
Ġhav oc
st on
ĠP uj
ĠB edi
ĠJ ail
Ġresp iratory
Ġ8 7
Ġnet works
Ġsepar ately
Ġcult ures
ĠQue en
Ġfelicit ated
M ult
Ġa x
ou ble
Ġre li
ĠA w
Ġr at
ĠL PG
Ġser ver
ĠCh oud
Ġconf ig
Ġsens ational
Ġindic ated
ĠEmp loyees
Lead ers
C re
an idhi
Ġg rain
ĠG os
Ġr ing
ĠRam oji
Ġact ively
ather ine
Ġheart felt
lim ited
Ġappre he
Ġflow ing
ĠSik h
ĠGh ulam
ĠEp hes
ĠLy ca
0 3
Ġre actions
ĠA ur
um ing
Ġab ol
Ġcont rary
lo ved
Ġviol ated
Bl ack
Ġamend ments
Ġtreas ure
Ġhung ry
N T
f ew
Ġn erv
ĠC ars
ĠT TD
ĠSha shi
Ġ8 6
Ġhit ting
Ġfun eral
Ġmis le
Nay anthara
Ġt une
ĠS is
Ġr ush
Ġint ended
Ġfl ock
Ġinst ruction
Ġcolle ctor
ĠAb hin
ĠAb bas
ĠAut om
Ġexec uted
ĠPO CSO
Gar lic
Tour ists
O per
Ġr ating
Ġpost ers
Un able
Ġactress es
Ġclim bed
ĠAv inash
Ġincor por
mund ry
j ust
m at
m ail
ra pe
Ġhe al
ĠF ac
ĠY V
Ġcount ed
Ġcre ates
ĠVenk y
Ġport f
Ġbapt ism
Ġantioxid ants
ĠBib les
Ġstruct ures
p ally
Ġf are
ar ied
Ġn ic
Ġl iver
ĠC le
odi um
Ġco pper
Ġback drop
Ġch urn
Ġrespect s
Ġcaptain s
ĠBudd his
Ġwr ath
iv ic
Ġint ent
Ġ4 50
emand hra
S ign
Ġs ar
ar ity
ah mundry
we ight
Ġhigh ways
Ġrev ol
ĠLead ers
ĠVire nder
9 3
U r
w ife
re ts
ĠS election
Ġe pic
un ately
ist ing
ell a
Ġper pet
Al ways
Ġcr ushed
Ġdam ages
ĠX i
Ġinstit ute
Ġcorpor ation
ĠBob de
Ġm ol
ud s
Ġrep ent
irl a
ĠMad h
Count ing
l ay
ĠH ars
Ġpl ed
ous es
Ġam ended
Ġlong est
icket s
Ġbook ing
sequ ent
ĠSm t
ĠCl inton
ĠAc harya
Ġammun ition
7 50
B lood
z ab
ch ild
Ġprocess es
Ġ25 6
Ġexcept ions
ĠPas wan
uten ant
B ad
D el
n ut
Ġb ore
ĠO sc
Ġrep ay
ĠSuper intendent
Ġdepart ed
Meg astar
ĠMin or
Ġstead y
Ġnep hew
B re
K angana
y es
Ġo cean
ĠW ell
Ġter rible
Ġrep o
ĠShiv akumar
Ar my
Ġap ology
ĠSal es
olit an
Pre gn
ksha w
Ġtrave lled
ĠEngine er
ĠThir uvananthapuram
avas kar
f ront
Ġs izes
Ġb ikes
Ġle ts
Ġpl ain
ix els
Ġsm iled
Ġland mark
ĠAl to
Ġcommand ments
ĠReg ister
ĠChandr ayaan
Ġentertain ing
Ġamend ment
Ġwai ver
P hys
ĠH igher
Ġex h
har ges
Ġspot s
Ġdes ires
Ġeduc ated
ĠSon am
ĠMah mood
ĠOr der
Ġmort ality
Ġapparent ly
Lik ewise
ĠBhans ali
rivast ava
9 4
J r
o cc
Ġ `
ĠM ath
ĠG ilead
Ġr ig
ĠRa p
Ġsc ope
Ġfl aw
Ġcy linder
Ġfish ing
Ġforg ive
Ġcasual ty
ĠVit ara
k aj
p arty
he ndra
Ġp ulses
ĠP eth
hi eves
art s
ĠJ unior
are rs
Ġad mission
Ġgu ys
rat or
Tal k
Ġmort uary
Ġstun ned
S ind
ur ities
ĠB otsa
har am
ĠF inch
ĠW i
Ġdis in
Ġcar ries
ib e
orth y
Ġcust oms
Ġvol unt
ĠInt elligence
Ġce ase
VS N
E A
Ġs lain
Ġd rain
Ġl oses
Ġl ips
el lect
Ġare n
ĠK anna
Ġj et
Ġun l
Ġmod erate
Ġbelie vers
amm ation
Ġcal cul
Ġupload ed
S uresh
Ġf ifty
Ġin se
ĠG et
ber y
ĠAk ash
ĠRan chi
Hind i
ĠMedic ine
L ord
S aina
ĠE qu
Ġmult itude
Ġconsum ing
ici ary
ĠDhan ush
ĠSecret ariat
Ġsurve illance
ĠLev ites
ĠMao ists
P ict
s ari
ot ics
ri ers
ĠJ odhpur
ant ra
Ġun iverse
Ġsc ores
Ġvict orious
Raj am
Srin ivas
ĠLank an
H istor
it tle
as ion
Ġe ternal
ĠW HO
ĠMa had
Ġcha ri
Ġcons ent
Ġend ing
Ġachieve ments
Bhar at
Ġrestaur ants
em ed
ĠAd iti
Ġemp ire
Ġminor ity
Ġdemon et
ĠSk oda
Ġuncle ar
Ġunemp loyed
Ġtransp arent
ĠBre zza
S elf
is ive
Ġs weep
ĠM ala
ĠR over
ĠA D
ĠF orm
Ġim itate
lo gy
Ġam bit
ens us
man irbhar
99 0
ĠBh up
star rer
opic hand
ĠDal its
Tal king
Ġla uded
ĠMB BS
Ġdevast ated
S pend
Ġm isc
ĠS outhern
ĠR un
ut hi
ĠU Ts
esh wara
lo om
ures hi
ĠAr med
Ġ8 3
Ġpass age
Ġsw elling
Ġcharges he
Sil ver
F ord
f inal
Ġf olk
Ġas leep
Ġ9 2
wit zer
Ġcertific ates
ĠMaha jan
ĠCS IR
Ġinnoc ent
kaj giri
8 1
en u
ĠS el
Ġacc us
Ind epend
Ġestim ate
Ġholid ays
J S
x ide
et ers
ĠV iet
ple x
Ġdiff er
ĠIs a
ĠGu est
Ġequ ation
ĠMy sore
Ġdraw s
Ġinaugur ation
Cont rovers
Ġdiscrim ination
ĠChaud hary
H on
R TC
d ed
Ġw et
Ġc ert
Ġto x
ĠC ell
Ġal ike
ĠD a
ĠF Y
Ġconnect ing
Ġremov al
Ġunanim ously
Ġnerv ous
a pped
ĠS uri
os ition
ag n
ĠL ook
ĠW ild
Ġ9 1
Ġconsider able
Ġrout ine
Ġbreak fast
Ġkid ney
ĠHyd ari
Aam ir
' d
0 6
B ro
Ġf urious
ad oss
ĠH rithik
Ġr ation
Ġj ets
og ue
oin ing
Ġair bag
ĠMed ak
Ġcal endar
Ġvac ancies
Ġforward ed
Ġmer chant
ahu jan
Exper ts
ĠPut in
uris dict
T ok
Ġar k
orn s
Be aut
ĠDhar m
Ġaccord ed
Gr oup
Ġupro oted
T P
on ic
Ġf ighters
it ored
ar r
ĠM ith
ĠR ishi
Ġth irty
ĠV em
ĠW ikipedia
ala q
Ġph osp
Ġ9 8
ĠGu jar
Ġground s
wag en
ĠPeth uraj
B M
ĠS ah
ĠR oh
ĠR ules
ĠB all
ĠB ip
ig o
ĠT ai
ĠN okia
Ġra ises
ĠThe n
Ġconst able
ib an
Ġsupp le
ĠSub bar
ĠPol avaram
Ġtrave llers
ellig ent
Ġshel ter
Ġath let
ĠPhilist ines
T om
at ore
as w
om ic
ĠN ages
ell i
Ġno ise
Ġmust ard
ĠAg ricultural
rif ied
Ġfest ive
Ġhot els
ĠEnter prises
Further more
ĠDesh mukh
witzer land
P arliament
g or
h unt
j j
r us
Ġa us
ĠU AE
ks wagen
Ġche cked
Ġassoci ate
ilit ary
Ġtab ern
Ġaspir ations
ĠPil ot
ĠSov iet
O L
U N
Ġpro sec
Ġj ack
Ġres ort
ĠW itness
Ġyoung est
Ġens ued
Ġobject ives
Ġrare ly
Ġstret ch
ĠMart in
ĠRub ens
% ,
0 2
t r
Ġt ent
Ġinc ent
ĠRes ources
Ex erc
Pro v
Ġlif etime
Red uce
Ġreb ell
Ġtransl ation
Ġvom iting
Ġha ils
ĠR ight
ĠK az
qu ire
Ġinj ustice
je et
je ctions
Pro per
Ġrepresent ative
ĠCl ub
iqu es
ĠPe oples
Ġindic ates
Ġpilgr im
Sus hant
S ol
Ġb on
as ha
ĠV ers
Ġsc ulpt
ĠCh rists
ele ctions
ĠVen nela
Ġequ ality
ĠSc india
ĠDis aster
Ġframe work
Pra kash
Ġweigh s
E nd
Ġwom ans
Ġback ward
Ġprote ins
Ġtw elve
Ġste ering
ĠPal ace
Ġanticip ated
Ġairl ine
g ium
Ġw aves
ĠI b
ĠN S
Ġne ut
Ġoff ence
Ġinvest ed
Th ird
Ġsm ell
Ġpain tings
Ġagree ments
ĠEm manuel
Ġge nder
Ġvirt ually
ĠAN I
Ġalter cation
J et
i abad
est ed
Ġv o
ĠL in
hy ap
Ġent itled
Ġmin ted
app ing
Ġgod dess
Ġcivil ians
ĠGay le
Ġcorresp onding
Ġgut ted
Ġthro at
J a
c ore
Ġo ught
iv en
Ġcl ause
ĠRaj endran
uc ks
Ġche ated
ĠTra ins
ĠTrib unal
Ġspect acular
Ġembar r
Ġbere aved
f alls
and i
Ġev ol
Ġdesign s
Ġbra ke
ĠRashtra pati
G lobal
S ay
Ġd iversity
ĠS amp
Ġat roc
ĠSu pp
Ġland ing
pr ing
Ġbas ket
Ġ199 8
ĠDal it
M illions
O ld
Ġd ow
ĠM uzaff
ĠK V
ĠL av
ind e
Ġdist ingu
act s
Ġ9 7
Ġsuper vision
ĠSur at
ĠVid ya
Ġpref er
Tur meric
T ri
f er
Ġt rophy
Ġa il
Ġb are
Ġd ens
Ġcom mend
ĠH ans
Ġfe ared
ump h
Ġtest im
Ġmod es
Ġdeb it
pr ise
Ġfind ings
Ġpo ems
Ġarg ued
C ook
V ice
Ġc ake
st an
Ġst ays
ĠD ate
Ġfl ower
Ġcomm emor
Ġprom oted
Ġcolle agues
ĠPra g
ĠAl t
Ġpriv acy
Ġinfl ammation
Ġregister ing
ĠGold en
imb atore
comm unic
bel ie
ĠMicro soft
Ġsubstant ial
a q
Ġc her
it ary
ig hest
ĠN or
Ġres erves
How s
Ġyour s
Ġpr int
ific ial
row th
Ġposs ibly
rant hi
ĠInter view
Ġgun fight
ĠTur key
W ind
ĠS ib
ĠE mergency
ann ot
Ġ9 3
ĠDe ath
Ġcal am
ier ce
V e
Ġd har
Ġon to
Ġcon qu
Ġtra pped
ĠSh uk
Ġinter rogation
Ġform ally
Ġfind s
Ġdepend ent
emp loyment
P rior
e an
is ms
Ġl ibrary
ĠM ak
ĠG un
ree k
ĠReddy s
Ġbre thren
Ġyoung sters
ĠBal ak
ĠComm ander
Ġpil ots
Ġsurf aced
Ġder ived
Ġrough ly
Mass ive
E ver
N irmala
S leep
n et
Ġf older
Ġp el
ith ya
Ġsur ged
Ġput s
Ġcontrol s
Ġcelebr ates
Ġexpect ing
Ġstri ve
ĠDhar mendra
Ġpropag anda
ĠSubbar aj
C al
E ducational
ha ve
Ġb ars
al akshmi
Ġm erc
ĠI v
ĠB on
ri ages
Ġdiscount s
N ote
r ug
ĠT O
ĠF ern
ĠCom puter
Ġfl ash
Ġbench mark
Mo U
Ġstrugg ling
Ġhom age
Ġstro ke
umul ative
W HO
Ġs lic
ĠR io
her lands
Ġun con
pt ions
Ġform ing
Ġdiv isions
ĠPar as
rop olitan
ĠAh mad
Ġemphas is
Ġcomprom ise
Ġhus bands
g am
Ġb acter
ch u
ia go
ang le
Ġdec ides
az ar
Ġ17 0
nam ed
lim ate
Ġfunction al
ĠPaul s
Ġapply ing
Ġburn ed
ĠAp ollo
Ġweb inar
San jay
Event ually
t m
Ġc os
am ine
ĠA S
Ġad or
Ġad ul
Ġfamil iar
Ġdef end
Ġfac elift
Ġfore t
Ġnorm ally
Ġdraw ing
Rel ations
May be
Sam antha
Ġinterven e
umm ins
en ge
or ney
ĠC eleb
ĠPradesh s
Ġdisc oura
ĠAnd aman
wan and
rog en
Ġacqu isition
ĠScript ural
P opular
Ġb aking
et ies
ĠN H
Ġpro ven
Ġregard ed
Ġtreat ing
Ġbenef ited
Ġtit les
Ġprev ents
hatt ar
Ġbor ne
Ġobs erv
Ġhat red
K ing
f e
ĠS ep
Ġres ent
ele cted
ick ey
Ġcirc ulated
Ġobs ervation
Ġsuggest s
ĠAy urved
ĠBar oda
ĠMur thy
Ġdefin ition
ĠEmp loyment
Ġattra cted
gi ene
c ar
an am
ĠS up
ol io
Ġj urisdict
Ġpass port
Ġpublic ations
Ġexerc ises
het ic
Ġopp on
Ġpersec ution
F ocus
ĠS D
ĠM ult
ĠC ana
ur ches
Ġst alled
Ġle cture
lud ed
Ġsent iment
Ġfat ality
Ġemphas ized
Ġexcl usive
Ġabund ance
Ġsymp athy
S itu
l ines
Ġbe loved
ĠR andeep
ĠB ehold
ĠF ree
ĠThe se
Ġmon itored
Ġrece ip
ris ha
ham mad
Ġur gent
chan ged
Ġsum mon
Ġwebs ites
ĠBhag wat
Ġnar row
Ġsuspic ion
Ġwild life
Ran veer
Ġd ad
ĠM A
ĠA st
ast es
ef fect
ram a
Ġgr ants
St and
Ġcur b
Ġmen u
ĠAb u
ĠAdil abad
L E
ol ation
ay as
ĠB irla
ĠK harge
ĠD iesel
ĠPr am
Ġpolitical ly
Ġrest ore
App ro
Mar riage
Ġinstru ments
ĠSud heer
Ġcop e
Er ror
Ġtabern acle
ĠD G
Ġdifferent ly
Ġreve als
Ġmean while
ĠRan ge
Ġcut ting
Ġtrou bles
Ġscient ist
Ġbrand s
hin agar
Ġangu ish
Ġpredomin antly
R akul
re kar
Ġo dd
Ġbe ating
Ġre venues
Ġsp are
uk a
Ġaff ili
ĠJais hankar
Ġtoil ets
Ġwors ened
Ġsadd ened
Ok ay
z ed
ĠK ochi
ĠJ u
Ġinc om
ast ically
ann ed
On line
oo q
ĠNe il
Ġthreat s
Ġphilosop hy
K ul
U nt
h urt
m ade
Ġp oured
ad vant
ers ey
ĠG ab
ap at
com es
ĠCM s
Com mon
Ġdiscip le
Ġfair ly
ĠFed eral
ĠPak istans
ĠKaus hal
M aximum
U C
U T
ĠM W
ul i
ĠL ie
ĠF ee
Ġapp e
Ġdescrib e
Ġdepos ited
enn is
Sun il
Ġcompr ise
H uge
b or
Ġc ogn
Ġb ind
Ġas certain
ain ted
av athi
Ġar ises
Ġfirm ly
Ġkilomet ers
Ah med
Ġassess ment
ĠKed ar
Ġnurs es
ĠExam ination
Ġaccomp any
V I
t wo
Ġa ug
ar ation
ĠT ihar
ĠH and
.. ?
Ġreal ized
ĠAl m
ĠTh ree
hant i
Ġpar adise
ĠDhar ma
ĠBhag at
ĠHer itage
E lig
is ers
ĠS l
Ġse aled
ident ified
ack s
Ġmed itation
Ġpers ist
ne x
ya an
Ch iranjeevi
ĠPl anning
aren cy
ĠS eng
ĠT w
ĠT op
ĠH appy
Ġ2 20
ase ema
Ġman hunt
Ġpers pective
Ġac ute
Ġattack ers
Ġappro aching
Ġbat ter
Ġdev oted
With in
Ġpub l
Ġdisapp eared
Eng ine
ĠMeg astar
Sri k
b hai
Ġth rew
Ġk mph
ĠU ma
Ġsp ike
ĠGr aduate
Ġscreen play
Ġtransport ed
Ġgrand son
ro logy
ĠD RDO
Ġwhat soever
Ġshe et
Ġfin ed
riv es
Ġhar sh
Ġmot ive
nam ents
Sal t
ĠOn line
ĠKas hyap
ĠBoy apati
Ġpsalm ist
H ot
H ope
V in
t ogether
Ġ rif
it udes
av at
ĠIn spector
Ġsw ept
Ġcontrib utions
ĠDil ip
ĠRavind er
Ġcorpor ations
Americ a
Ġsli pped
Sind hu
Ġl ens
ĠM oney
ĠT abu
ĠG S
Ġsh ook
arn a
Ġchild s
Ġbo il
Ġgre y
Ġcrim inals
Ġconven ient
Ġevacu ated
Expect ations
H C
L P
t here
v ak
Ġfilm makers
ric ks
Ġcomp uters
akh pur
ĠSe emandhra
Ġpain t
Mus lims
Ġdisput ed
Ġworshi pped
ĠSwed en
C ity
T HE
b ad
re a
Ġd ancing
ĠR anga
ause a
ĠNat esh
Lar ge
Ġaus picious
A ge
er on
an agar
ĠS qu
Ġe ighth
ĠB ell
ĠT ibet
ĠG opichand
ĠJ ason
ug al
Ġad apt
Ġpre ced
Ġter min
ĠShiv am
ĠHar bhajan
Ġobject s
Ġdeterm ination
Ġmagn ific
Ġnar rated
Ġencourage ment
Fe atures
ĠJin ping
g il
chay ati
ĠRag hu
Ġtur bo
ĠAng el
Ġfed eral
Ġhors es
g ates
z ing
as p
ĠK ey
Ġcont rad
ran i
Ġproduct ivity
ĠBen jam
T witter
it ime
Ġl amps
ĠC ummins
ay ak
ut ure
ĠT R
ĠV eg
Ġfour s
To o
rah man
ĠJa han
Ġearn ing
Ġmount ed
Ġsecret aries
Ġaccord ance
ĠMis ra
Baj aj
ĠNages wara
ĠShuk la
H ad
o ch
it ivity
ent le
ĠC andidates
Ġthere by
ĠUn ivers
Ġtax pay
Pro blems
ĠQ ureshi
Ġclean ing
Ġmunicipal ities
Ġnort heast
Ġabsol ute
asa heb
Ġadvert ise
Ġincred ible
C eleb
J os
f i
w ed
ar ound
Ġd ated
Ġn inth
st ill
Ġsp inner
Ġlo ver
ugu ese
Ġfin als
Ġsm iling
rin ks
off ice
Ġmission ary
Ġlay er
ithi in
Techn ical
ĠHen ry
ĠS rav
Ġl aundering
ĠC atherine
ut or
ra ged
Ġme ga
Ġcont ained
ĠRaj asekhara
ĠAll ari
Ġcard iac
Ġcompet itions
ĠSecond ary
Ġfinger print
ĠGhaz iabad
ĠLah ore
F P
s ing
in ue
ha vendra
ve lled
ĠM l
Ġle nding
Ġup right
Ġup held
Ġcont am
Ġour s
Ġthr illed
Ġconf lic
Ġche aper
Over all
ĠMor ris
Ġpit ch
A ctors
T ele
Ġc art
ag an
if orm
ob ar
unicip ality
Ġmer ge
Ġestim ates
Ġvacc ines
ĠStat us
Viol ence
ha h
as ters
st ep
Ġh unt
em ale
ight ing
Ġdes erve
Ġve nd
ĠSw ach
ĠIC MR
Ġheadl amps
Ter ror
Ġsurround ings
Ġlos ers
C oconut
D emoc
r ats
er k
ĠM K
ik rishna
ĠE very
row ing
Ġmay be
ĠBe ach
Ġcontain ing
Ġgradu ate
ĠShr uti
ĠWilli ams
Ġunivers al
ĠPuj ara
C O
ĠM ass
ĠI RC
Ġall ies
Ġbur st
ĠNet herlands
Prot est
Ġswit ch
Ġhyd ro
Ġaccompl ished
ĠSubram anian
ĠMul ayam
K i
Ġbe ll
Ġab rog
Ġro d
ĠKhan s
Ġbas eless
Ġpan chayats
ung al
rah im
Ġconsider ably
J I
L and
L ess
ĠP oc
ig e
ia z
ĠD oval
ik ely
Ġhapp ily
Ġass urance
ĠSh ram
Ġinst antly
Ġdr ought
cent ury
ayal aseema
ĠCo imbatore
ĠOr d
Ġplant ed
Produ ction
ĠRec ords
Ġprison ers
Ġign ore
Ġapprehe nded
ĠViet nam
0 1
? '
m aking
Ġw ire
ĠM und
ĠB ol
ist ration
Ġar ts
Ġco oked
Ġoper ates
Ġtechn iques
Ġspeed ing
Ġmag ic
ĠIC U
Ġcreat ive
Ġreb el
Ġcred ited
y ou
Ġw his
Ġf ails
ĠS ession
Ġl av
ĠD omin
He y
ĠE S
Ġad verse
Ġdis advant
Ġins ult
ĠCon nect
ayan ad
Tra iler
Ġstrateg ies
Ġfool ish
Ġupro ar
Ġlandsl ide
ha li
ĠS witzerland
ĠC O
ĠR T
ation ally
ĠT us
ann ah
ĠPresident s
ĠMan ik
ĠSan jeev
aff ected
Ġpot ato
Wor king
Ven kat
Ġnegoti ations
3 50
B an
B oy
h ney
Ġbe ef
um ption
lo ves
Ġen quired
arn i
ĠSha w
Ġpresent ation
ump s
Ġwhere in
Al ia
Ġeconom ies
Ġresign ations
ĠSpe c
reg ular
Ġmiser ably
ĠRup ani
Ġsib lings
Ġprecaution ary
Ġiniqu ity
ĠCana an
c us
ĠB are
ub a
Ġtem por
Ġsw ift
ĠJan ardhan
Ġlimit ations
Ġble eding
Ġrid ic
Ġchargeshe et
Ġairbag s
0 7
he arted
ot er
ĠM ey
el le
op y
Ġv aried
ult y
ĠO l
Ġnum b
ĠAn na
Ġalle ging
produ ced
Col our
ĠSk ill
ĠUp d
Sug ar
E v
T rivikram
k in
Ġre ct
ĠB ody
os it
ĠG avaskar
Ġun changed
Ġinst al
Ġop ens
Ġinstit utes
Ġforeign ers
ML A
Ġtel ugu
Ġsear ches
D iv
M aking
b at
Ġs ang
ut ors
ĠI II
He ad
Ġle aked
se e
ip le
Ġcap abilities
ĠSh inde
ĠPresident ial
Pe el
According ly
Ġprev ailed
Ġmotiv ated
Ġheadl ines
ĠPhilipp ines
c ill
ut ra
ĠI ll
ĠK ail
ĠD ise
ĠL ock
ĠE s
Ġad venture
kar an
Ġcap ability
com merce
Ġed iting
rat ri
Ġfear s
Cor ruption
Ġri ft
ĠSaw hney
D ownload
G C
V iew
x ual
os al
Ġper taining
ĠWor ks
ĠRe ve
Ġvari eties
ĠBh uban
ĠSitaram a
ĠHem ant
: /
C ro
Ġto pped
ĠC irc
ĠV illi
Ġpr ince
Ġac ids
ĠAn sari
Ġimport ed
Ġsan itiz
Ġwarn s
Ġri ots
ĠPart ners
ĠBad minton
Trans port
ĠMallikar jun
Rajam ouli
ĠIsa ac
S cient
T urn
st one
ĠI TC
ĠB eth
ĠJ aya
port ion
Ġlik ewise
Ġlast ed
ele ase
Ġgu ess
Ġgrow s
Ġpar ks
Drink ing
Saf ety
Ġphosp hor
d ar
v able
as ik
ĠC reta
so ver
Ġres istance
Ġte eth
ĠPra veen
ĠAmeric ans
Ġsto pping
ĠCorpor ate
ĠEd en
Ġsequ el
Ġtow er
Cinem atography
ĠVilli ers
1 20
K ids
L A
y ard
ĠT a
ĠH asan
Ġcan al
Ġcl ock
Ġsaf er
ĠNo ah
ĠPV P
Ġsup reme
Ġsubsc rib
Ġgrab bed
ĠTerrit ories
Mov es
L ondon
le c
ĠG irl
ĠH usband
ĠV odafone
Ġrec ording
ass ing
Ġcl osing
Ġpres cribed
ĠMo z
Ex ternal
Te achers
Te aser
apur na
Ġopp ose
ĠRag hav
ĠMod el
Ġchem icals
ĠNT PC
x ts
at ile
Ġp ist
ĠT iago
ag adda
Ġconf ined
ĠRes ource
Ex cept
wan ath
Re view
ĠRec overy
Ġdialog ues
Tem per
Ġded uction
ĠResp onse
% )
es c
es ity
ĠA irl
ra ine
ĠJ ong
ĠV ilas
Ġcomp lim
Ġint elligent
Ġrec all
act ing
ink le
Ġtrans action
ĠHospital s
ĠPers onal
ĠKo ch
ĠQual comm
K ann
S er
p ire
en o
an ing
ĠV y
Ġcomp l
Ġint ellect
ater n
Ġpres ided
Ġgr ille
Ġset back
Ġback ing
Ġ9 00
Ġob tain
Ġref und
Ġown s
Ġdecl aration
Ġtrust ed
ĠNav al
ĠAre a
Ġdomin ated
Ġrestaur ant
Ġsem if
ĠRap id
D iesel
V ol
g eneration
ĠN ITI
Ġpro jected
Ġun beat
ew ala
Ġsha pes
Ġbr ide
Ġearth ly
Ġsuper ior
Ġcere mon
Ġflo pped
Ġrecover ing
Ġritu als
gor ith
g one
re y
Ġw ings
Ġb one
ĠR ome
ĠI dea
ĠB E
Ġv ain
Ġj am
Ġad ult
Ġus ual
Ġsub sequent
Ġref uted
Ġamount ing
Ġprevent ive
Ġquar ters
Col le
Ġsubsid i
hans i
Ġbot tle
Ġende av
ĠAgain st
Ġalar ming
a a
m oil
s es
Ġc uis
ol ate
Ġst ored
Ġrep air
Ġcoin s
Ġdivor ced
Ġrenew able
Impro ves
writ er
Ġreli able
ĠMey er
:/ /
D F
D eb
ad ri
ĠN on
Ġcon gest
ĠF at
Ġbl ocks
Ġconstit ute
ĠJD S
Ġrom ance
ĠBip in
R un
k an
ĠS amson
ĠM oh
ĠP ho
ĠW uhan
Ġun limited
ack age
Ġmar vel
Ġspecial ly
Ġlist ened
Ġkingdom s
Ġconcent ration
ĠChem icals
ĠHimal ayan
L at
P NB
ĠA at
ĠPr adeep
Ġsp ake
ĠHe art
Ġsuccess ive
ĠBS NL
Ġfre ely
Us ing
ĠInnov ation
Ġprohib ited
0 8
o vers
or ous
ut her
Ġat tain
Ġsp an
Ġthere in
Ġ20 30
aw n
aw as
Ġind irect
end ers
ĠSan j
ĠMahe nder
roc ket
Ġproc ured
Ġbrid ges
ĠIndepend ent
ĠAx ar
ĠGovind am
Ġrefer ring
b ul
i ji
ha ppy
Ġf ry
Ġre op
ĠA CB
Ġlo aded
Ġfe ast
Ġexp elled
gan j
Ġtop s
ĠJan m
Ġcirc ular
att ered
ĠAz am
Ġdro ps
ĠBad al
Ġyield ed
Ġfeed back
Russ ian
ĠKak inada
ĠMurug adoss
Ġautonom ous
ĠBenjam in
Ġst ating
ĠK ona
ĠT ower
Ġnot able
if er
Ġover t
adi o
Ġjud iciary
ĠBal an
Ġspec ifically
Ġcru el
alle l
ĠMB A
ĠCount ry
Ġvolunte ers
Ġtroub led
c ut
Ġthe r
ct ive
ĠK hur
ĠRa ve
ĠL ight
ust ers
are r
ell o
Ġcar maker
Ġob lig
ek har
ĠSu j
Ġtechn ological
ĠSat ya
Ġ199 6
ĠJay anti
Ġveget able
Ġtouch screen
Ġinaugur ate
ĠFar ooq
ĠTej as
ĠSho aib
b ubnagar
ĠK hattar
hi v
ĠD K
Ġint end
Ġun re
Ġcha p
Ġlove ly
ĠCon vention
ĠSy ed
Ġgain ing
Ġrob ust
ĠSid hu
Muk esh
Ġtestim ony
b urg
Ġal gorith
ĠN eed
Ġro ots
Ġacc l
Ġcomple ting
Ġprev ailing
Ġrev oked
ĠTechn ical
ĠNand i
ĠIN X
Ġconsult ation
Ġmour ning
m ans
he at
it ated
ĠS ahu
ĠM ust
ĠT oday
ĠT resa
ac hand
ĠY am
Ġcor ridor
ĠSc reen
Ġcoll ision
ĠChristian ity
Ġer rors
Ġprotect ing
Ġjurisdict ion
c ue
ro or
un ny
iv o
out ed
Ġevery ones
BJP s
sh it
ĠVish w
ĠLad y
Ġep id
u pp
er ts
om ed
ĠB JD
ĠT ig
ĠG ill
Ġcont empt
Ġen orm
Ġreport ing
ove ment
ĠSar ileru
Med ia
Ġfle x
Bang alore
Ġmarg inal
ĠPram od
ĠShram ik
i ro
Ġa ce
as se
Ġn ights
ĠM att
ĠT ag
ĠN iger
ĠL ive
ĠV ij
Ġcomm unal
Al together
ĠGu ard
Ġstat istics
Ġself ish
Ġhy giene
ĠTy pe
ĠChowd ary
H ospital
H indu
N ine
S ports
T w
ĠS ome
us ively
Ġst rain
ĠT ah
ĠH ope
Ġover fl
Ġmedic inal
ĠHan um
chae ological
Ġsam ple
Ġst eal
ap et
av al
Ġint ake
Ġbu ff
Ġshi eld
Ġcultiv ate
ĠMahara j
D MK
F rance
ĠC ulture
ĠA ne
ĠT otal
ch ud
Ġde eds
Ġcon ced
Ġcon vert
ost er
ack ed
Ġcl oth
Ġtem pt
olog ist
Ġref res
Ġorgan ic
Ġhop ing
ĠCommunic ations
Ġprompt ly
Nit ish
s en
ĠK TM
Ġpl ug
ĠF ranc
Ġwho pping
ens ively
ash wi
ĠCom panies
Im ran
ĠPre vention
ertific ate
Ġric hes
Ġmarty rs
Ġportf olio
Ġneut ral
M embers
M unicipal
P o
c ons
c ool
Ġp ed
Ġl apt
Ġit em
ag opal
Ġk iss
Ġele vation
Ġref lected
Ġch urches
ĠMad hur
ĠJan hvi
Su pport
Su ccess
Ġcongratul ates
ĠBar ack
Tal ks
ĠTrib al
Ġremind ed
Cre ate
Ġmagnific ent
W C
j ewala
Ġm it
ĠP R
ĠP ension
ĠT ok
Ġun belie
Ġ7 9
Ġinf ant
ĠMP V
Ġrespons es
Ġintrodu cing
Ġretali ated
ĠNic obar
atern ity
b ek
ĠR ayalaseema
ter ing
ĠB order
ĠE U
ĠMad havan
ĠMal kajgiri
Ġmind set
Ġenjoy s
Ġacqu ire
ĠChall enge
Ġdownload ed
Ġmechan ism
Ġdign ity
Ġempower ment
ĠVeh icle
Ġsty les
Ġbacter ia
M iss
d ney
Ġt hieves
Ġc ous
ri ans
op ulation
ĠW ayanad
Ġsp ices
Ġinvest ing
ĠGand hinagar
Ġ19 80
ĠIs h
uc umber
Ġpra ises
Ġlic ence
Mus lim
ĠManj rekar
atre ya
Ġdhar na
C AA
h op
m ons
y o
Ġf ierce
ĠC V
ĠB ra
th ird
ath ing
Ġcar ved
Some one
Ġincreasing ly
Ġgradu ated
Shah id
ĠGor akhpur
ĠAur ang
Ġtempor arily
B T
c hand
p ret
Ġf ram
as ure
Ġv aries
ĠJ im
ĠV ict
form ance
ĠApp lication
awa ited
Ġagg ressive
Ġswim ming
, '
C annot
S ex
c utta
re te
ot ism
ĠA L
ĠB ahujan
ĠT en
em ble
pe e
ĠW omens
Ġ19 50
Ġpublic ation
Ġfinancial ly
Ġpain ting
Ġthreat ening
Ġcop ies
ĠBrah man
Ġreact s
Ġpip eline
Ste ve
c ated
er ring
al id
Ġd airy
om ination
ĠM ann
ĠB uilding
ac co
Ġpolice man
Ġso ap
ĠRaj ahmundry
ĠSat ans
rid i
Re venue
ĠPan chayati
Ġfat ty
Ġenter prises
ĠSik hs
Ġsham eful
Ġdispers e
1 10
H old
K at
l is
Ġc li
Ġd rinks
as ani
ĠM s
Ġsh oes
Ġout fit
ĠO S
Ġchildren s
ĠMo ab
Ġhard ly
Ġdom ain
ĠPen al
E arth
Ġb er
ot he
Ġst eep
ĠK hal
ĠD ik
Ġwe ep
Ġden y
Ġmilit ant
ĠNe xt
Ġexception al
NG C
thi op
Ġdesce nd
ĠGujar ati
D ele
J oh
ro ts
ĠT ay
Ġex empt
ĠW ing
ĠO NGC
Ġimp acted
Ġmove ments
ĠBh um
Ġcross ing
ĠMek apati
Ġsummon ed
C ovid
t able
al so
Ġm ourned
ĠR X
ĠJ hansi
ĠH RD
ĠL ocal
Ġam en
Ġ20 24
ĠSha s
Ġconf ront
ĠMe ena
Ġaccept ing
ĠKart hi
Ġdeliver ing
Ġreject s
Ġtransp arency
Veh icles
ĠEco Sport
S ad
h ury
ĠI ve
th rough
av it
orm al
ip et
Ġte aches
ens ed
ĠMad an
Ġsign al
ĠShiv aji
Ram esh
Ġmurd ers
Ġmus ical
ĠAnn apurna
Ġproced ures
Ġcompuls ory
E st
Ġt ries
Ġha il
am era
Ġcan cel
ho omi
ass es
ĠAn k
Ġass umed
Ġprov in
Ġdiscuss ing
Ġext ensively
Ġexc ite
Ġautom atically
Ġlegisl ator
ĠRag havendra
ĠSol ar
ĠInt eg
Ass am
wicket keeper
Ġphenomen on
Ye ah
M ur
ha p
Ġf og
an ese
ĠP G
ĠD ata
ĠJ ama
As ked
Sh ops
Ġwal ks
AM AR
Ġwid ow
Ġtast y
Ġloyal ty
Ġexem ption
m ila
Ġt asks
Ġp uja
as ub
ic king
Ġha m
ir able
ĠB ans
ĠF ile
Ġfr ight
Ġgl or
Ġpray ing
Ġearn ings
Ġcy clone
Ġcheck ing
Ġbag s
ĠSiv an
Ġattract s
ĠJack ie
ĠVol kswagen
Ġambit ious
ĠSib al
B uses
T ir
c har
r fan
Ġd ict
Ġe ve
ĠR ank
Ġper ce
lo ve
umb ers
Ġfem ales
Res earch
Sha res
Ġprin ting
Ġbrief ed
Pat na
Ġinstitution al
Ġplun ged
Ġresent ment
j ud
ĠB han
Ġpos es
Ġimp art
Ġwar riors
oul is
ĠRepublic an
ĠPort uguese
ĠStand ard
Ġfab ric
N or
N atural
x ford
Ġd uration
ĠS elf
ach ment
pan ch
Ġcinem atographer
Ġslow down
ĠCons umer
Ġpursu ing
Ġdrown ed
Controvers ial
l ist
or ia
ĠS SP
Ġ2 30
ud em
ĠY ech
Ġspe akers
Ġdisc over
Ġsim ilarly
Ġgl orious
mar ks
Ġhon ours
Ġelse where
Ġscreen ed
Ġarm ies
Ġinterf ere
Ġrefuge es
Ġbrut ally
ĠAry a
wheel ers
w ent
ha mp
Ġc umin
Ġp orts
an u
ad ian
ĠK ala
ĠT re
ĠH ab
Ġres orted
ail am
ĠY amaha
Ġhead ache
pl us
eal ous
udd en
Ġspec ulation
Ġexist ed
Ġliter ally
Ġtouch ing
Ġenhan cing
Ġdiagn osed
Ġairl ines
Ġexhib ition
Ġcad re
S ai
Ġc ater
Ġc umulative
am ar
ra pping
Ġhe ights
ĠN umber
ĠN DRF
ven ge
ĠMan ufact
Ġdi arr
Ġtur moil
ĠKrish n
ĠNab ha
ĠSet tings
Ġsafegu ard
K aly
M am
O M
h p
at ched
Ġp ond
id har
ĠM any
ĠK T
if ier
Ġpres ents
ck ing
Ġch op
az z
ĠMah bubnagar
ĠRel ief
ĠMas ood
ĠCons ult
Ġlic ense
Shr addha
Ġwaterlog ging
Ġunbeat en
2 000
D s
G untur
N ir
P ress
f ted
m ate
in ath
Ġl akes
ĠT ab
Ġdis abled
Ġass ail
Ġexam ining
ĠUS B
ĠChandra chud
ĠTe xt
Ġengine ers
ĠBh im
Fire fighters
Ġbooth s
ĠWrit ten
id ences
ĠN D
ĠD SP
ĠJ eh
qu it
akh s
Ġav iation
St udent
ran ch
ĠHe avy
Ġgirl friend
Ġhum ili
ĠAl ok
io xide
Work ers
Ġcollect ive
Ġschol ar
Ġelim inate
G H
om estic
Ġal b
Ġwas ted
ĠK C
ĠJ et
Ġwor rying
Ġab du
ĠCha l
ne ys
ĠAn u
ting u
Ġent ity
Ġent ities
Ġ7 50
Ġcons olid
Ġwhere ver
hatt ered
ĠInstit utions
Ġir rit
Ġprin ted
Ġmal es
ĠVeh icles
AMAR AV
] .
e em
ha le
Ġin ch
ing a
ĠA SE
ĠL ou
Ġpre liminary
umb led
Ġbel t
ara o
Ġdeb ated
Ġopt im
Com puter
Ġsens ors
Ġdiscl ose
Ġkne es
ĠConst itu
ĠSis odia
Ġpilgrim age
n on
t ical
Ġp ixels
ĠN ana
art ments
Ġmo od
ĠF er
ĠF riend
Ġfire fighters
Ġstand still
Ġhard ware
Ġprev al
ĠColle ctors
Con struction
Ġwicked ness
Ġton ight
Ġsurre ndered
awas aki
F ruits
K abir
L akshmi
Ġf ats
ĠC ook
ĠA ust
ĠP har
ĠJ ha
Ġex tingu
Ġsp lend
Ġapp le
Ġdet ect
Ġ10 7
oot ball
ived i
ris ailam
Ġcle ans
Ġcaptain cy
Ġtrend s
Start ing
ĠHel p
ĠAmrit sar
Ġbreat he
ĠDist ribution
ĠIRC TC
Ġm amm
ĠM echan
ĠP o
ĠP lease
Ġst ops
ĠK us
ĠT har
Ġle nder
Ġsc ary
Is n
Ġtrans formation
ĠMad urai
Ġ13 5
ĠEx cell
IC ICI
Ġmedic ation
ĠAdvis ory
Ġdistur bed
ĠTerrit ory
ĠBroad casting
Ġacknowled ged
Econom ic
AMARAV ATI
B us
c ane
m el
Ġt enth
Ġm ac
ĠK onda
Ġk i
Ġrec ur
ru ctions
Ġcha sed
Raj iv
Ġcommand ment
Ġ199 1
Red u
Ġundert ake
Ġsolid arity
Ġparam eters
Pict ures
M U
c est
Ġf ires
Ġp harmaceut
Ġm ens
id i
ĠH al
Ġk ms
Ġcha os
ĠPro p
inc luding
ĠSur jewala
Ġut most
Av ailable
ĠBand aru
Ġhall s
ĠGre y
ĠVinay ak
Ġdil ig
Ġkne e
Ġabdom inal
Prin c
ĠKoch har
B eg
d ow
i ors
y r
he ra
Ġa h
at ia
Ġb und
an is
Ġd ues
ĠV ent
ati reddy
Ġturn over
Ġtechn ique
less ness
Ġem inent
Ġfail ing
Ġbeautiful ly
Bet ter
a ith
m other
Ġre vers
Ġre de
Ġst al
Ġst ip
ust ing
ight y
Ġdis rupt
Ġcur d
Ġtechn icians
Ġweek ly
Wh om
af e
ĠRep resent
ĠBha wan
Ġamaz ed
ĠRang areddy
Ġfulfill ment
ĠWork ers
Hard ik
ĠChoud hary
Ġathlet es
U K
W arn
on el
Ġg ym
ĠCh itra
ark a
ĠShe khar
Ġconnect s
Ġboost ing
Ġadvis or
Dig ital
wh ich
ĠIb rahim
Ġlav ish
T oyota
b ound
Ġb atch
or ial
ĠUn it
Ġchar t
ĠKaly ani
Ġprop hes
ĠSit hara
Ġsurv iv
ĠJay as
ĠPay ments
Ġpref erred
cool ed
B D
\ }
d is
g ress
Ġs hattered
Ġd ivers
Ġm Ah
ĠS ign
ĠC ases
Ġun com
me ga
Ġdes cription
Ġnear ing
Ġmin im
ĠSrin ath
Ġtruth s
ĠPet rol
Ġsettle ment
ĠVall abh
ĠDatt atreya
Ki ara
ĠASE AN
e ing
av ika
ĠW here
Ġover turned
Ġexp osure
Ġbl aze
ĠArjun a
Raj ya
au very
Does nt
ĠPers ian
Ġharass ed
Ġrej o
Ġintern ationally
Ġsubscrib ers
/ -
r iger
z en
ĠM ike
Ġfor ty
hi pped
op es
Ġsa ut
Ġun identified
we alth
Ġmar riages
Ġmen ace
ĠPat han
quir ing
Ġfav ourable
ograph ic
Ġmus cle
ĠWilli am
Ġicon ic
Ġdiplom atic
Ġescal ated
Ġpin ned
M G
od ing
ĠAn anya
Ġfin est
gr aduate
Ġpar agraph
ĠSar asw
min ar
Ġkn ife
Ġhur ry
ĠCinem as
Pass engers
Ġdecor ated
conf idence
Fort unately
ĠIv anka
Ġreceip t
T rib
f our
l if
ĠS hat
Ġl unar
"" """
Ġle velled
pe ople
Ġr ammed
Ġun ite
ĠO BC
Ġapp alling
Ġcateg or
Ġsacrif iced
Ġconclud e
Bat ting
Exerc ise
c ity
p ent
Ġw re
ĠM inistries
ĠD uke
Ġor bit
Ġint rig
Ġqu een
Ġtra its
Ġ12 4
Ġdeb ris
uri ated
ĠComm unity
Ġprior ities
ĠNet work
ĠClass ic
ĠChem istry
ĠDw ivedi
N epal
W ear
he art
Ġst ylish
ere r
ĠG arib
Ġbet r
Ġsome what
cy cl
ood a
Ġche ese
Ġperiod s
Ġcoll ided
af ar
Ġrecogn ise
Ġcreat ures
NE SCO
Ġdeliver ies
Ġelim inated
Ġshel ved
polit ician
Ġdisappoint ment
Phys ical
ĠMith un
Ġtaxpay ers
C ross
K art
P ol
in ued
re ci
ĠS hang
ĠL anguage
Ġme g
Ġun iform
Ġsc rapped
Ġte ch
You ll
Ġdet ention
Ġident ification
amb oo
hab ilitation
Ġver ge
Sha re
ĠAmb assador
ĠWe ek
Ġadj ud
ĠKha le
Ġimper fect
Ġtel esc
ĠOsc ar
ĠAirl ines
F rench
H oney
P ati
s un
ĠS hil
ra ins
ĠI ss
ul quer
Ġv ib
ĠH o
Ġinc urred
ĠF DI
Ġres ist
Ġout er
You ve
Ġ10 9
Ġvis ual
Ġsupport ive
Un employment
ias m
ĠSan ju
Ġworth y
ĠLe vel
uv v
Ġdescrib es
Ġsear ched
Ġbifur cation
ĠYed dyurappa
C ivil
T MC
u ar
ar as
ĠB ai
ig are
hi e
ater nal
Ġtra p
Ġdep ressed
Re asons
Ġgriev ous
m ity
ĠS I
Ġl aying
Ġy og
um al
Ġsa uce
Ġgood ness
ĠCor p
reng then
Ġexpress es
ĠStar c
Ġinteg ration
Ġhor ror
Ġarchitect ural
ĠMu hammad
ĠFr ank
Luck y
C are
y ala
ul ating
ĠN al
ĠJ ub
ĠL if
ug ram
In formation
ĠSt ock
Ġch ocolate
Ġsal ute
for ced
Ġir regular
ĠIN R
ĠDire ct
ĠSupport ing
ĠPhar ise
F ailed
es wara
ar an
ic ated
ĠS ax
Ġst up
ĠB hand
Ġan cest
ĠL abor
Ġun e
Ġun su
ved i
Ġrece ption
Ġprot ocol
Ġcontest ants
Ġneighb ors
ĠLal it
Any thing
ĠTele com
Ġbrows er
ĠTus har
D T
H air
H usband
g hat
Ġw hip
Ġm ile
Ġl amp
ĠB had
ĠL amb
ap alem
In j
An up
uc ati
ĠBi j
Wh ite
Ġprotect s
Ġexpand ing
ĠKha rif
ĠCal cutta
Ġinspir ing
ĠLax mi
Mal ayalam
ĠHead quarters
Ġattrib uted
child ren
I X
N okia
W al
b ab
Ġm ate
Ġwh oles
ap h
Ġsp ell
Ġsm ugg
stit ute
iction ary
ĠAbhi yan
ĠYech ury
T TD
v ana
re ated
Ġha z
Ġl ion
st orm
ir s
ĠN anda
Ġk in
ap ally
ap alle
ĠF ertilizers
Ġdis g
Ġpre ached
Ġpol es
Ġdisc ern
ĠSha m
Ġ"" %
Ġmon etary
ĠAss y
Ġmay or
Ġ11 5
Ġcast es
Ġcharacter istics
Any one
Ġ198 9
Ġsend s
Ġregul atory
ĠGal wan
ĠGa uri
ĠPhys ics
ĠEphes ians
ĠBhuban eswar
ay atra
im ir
ĠB VSN
ĠT ad
ap ed
ĠY OU
ative ly
Ġins pected
ĠSa ur
Ġur ge
Ġwa ived
HD FC
L ow
M at
M ilk
Ġt hief
Ġs lo
ĠS E
ĠS amsung
Ġal m
ĠK eep
iv ia
ĠL aks
ĠV s
Ġj oke
Ġcame o
ĠJag ad
Ġneg lect
ns ic
Aut o
ĠIndus Ind
Brit ish
ĠS ree
ĠT ham
ment ing
Ġout sk
we ek
ens ely
umb ent
Ġpoll uted
Ġpet roleum
ĠPl ant
Ġcontro lling
Ġflood ing
Ġmand ate
ĠAmb ati
Con st
Ġfort un
Ġpill ar
Ġlabor atory
Ġdemonet isation
Ġforet old
Ġconflic ts
ĠKail ash
L ack
c hest
Ġb in
Ġd an
Ġha n
ĠS ood
ĠC hange
ig ue
ĠL iber
ire n
Ġpol y
Ġthr ice
Ġ10 6
Ġend urance
Ġform ats
Ġcrit eria
rap ati
ĠEn forcement
Tr ade
Ġrequest s
Ġhardship s
Ġgorge ous
ĠDip ak
ĠLie utenant
C all
F ishermen
H F
T ickets
t aker
Ġg hee
ĠC ost
ĠR E
ĠB ala
Ġwas hing
ĠG ok
ud ies
Ġpost ing
Ġaff id
Ġhum ility
ĠCol in
Ġcelebr ity
Raj a
Ġlink ing
Ġextend s
ĠKarun anidhi
Ġstab bed
Pers onal
Ġlamb asted
Ġoutsk irts
Ġd ioxide
ĠS ay
Ġl ashes
ĠV iew
ap udi
ĠY ar
Ġte xts
ĠRam mohan
Th ir
ĠAs if
Ġmod ule
Ġ11 4
ĠAf ridi
Ġord inance
Ġdesign er
Ġdestro ying
Ġbroad er
ĠBob by
Emp loyees
Ġabund ant
Ġindefin ite
Kul deep
I IT
K an
p ha
u ct
Ġs aints
Ġv andal
av en
ff ron
ĠAr men
Ġprocess ion
Ġden ies
Ġclean liness
ĠGe org
Ġconv iction
Ġsatisf ying
ĠTal iban
Ġdemonst rate
IF A
eswar an
Ġenthus iasm
Sar ileru
ĠNik hil
Ġque ue
Ġhect ares
Ve get
Elig ibility
B irth
B oil
p ad
in nam
re liant
Ġbe ans
ĠS IT
Ġg entle
et he
ong s
iv est
ian a
Pre viously
ĠSidd iqu
rad un
Ġmission aries
Ra ashi
Ġconsist ing
iplom a
Ġrang es
ĠMid cap
ĠPolit ical
ĠSarath kumar
Ahmed abad
Ġamen ities
C ash
M edic
T A
ĠH it
ust ain
ust oms
ĠF amous
Ġhad nt
Ġdis ob
ĠY ad
Ġpres erve
lic ted
... ?
ĠAn imal
Ġfin ely
umb ling
Ġfac ulty
IC MR
Ġpack ages
off ee
Cont rol
Ġdele gates
Ġorigin ated
Ġdomin ant
Ġcompr ised
ĠProt est
ĠVe era
ĠPerson nel
P our
W ait
as u
id ency
ĠP ank
ag ara
ĠV lad
Ġoff line
Ġgr ade
Do ing
Ġsub mission
Ġob jections
ĠTest ing
Ġpublic ly
ĠLe one
Ġvers us
AI L
ĠAcc ident
ĠSaw ang
Ġcub its
Ġportr ayed
Ġprocl aim
Ġunn ecessary
S andeep
S udden
Ġs ore
Ġf ate
ĠK and
ab ling
ĠG om
ĠE thiop
Ġapp et
ĠAnd rew
Ġtrans ition
Ġtrans mitted
Ġmin i
Ġfight s
ĠTha roor
Ġstri king
Ġexte nding
Ġsuggest ion
Ġexpress ing
ĠMag istrate
Ġexcl usively
Ġvigil ant
Ġexcite ment
K S
V al
is en
ĠC oun
Ġex empted
ĠE ff
Ġtr ucks
ann er
eh man
Ġprep aid
Ġsmooth ly
ĠEV Ms
ĠCreat ive
ĠGos wami
Ġuncon stitutional
he astern
Ġs our
ol as
ĠP hot
ĠB in
ĠN irm
ĠD ays
ik umar
Ġup wards
Ġar riving
Ġshould ers
Ġ10 3
Ġdes ktop
ĠSam iti
ĠHar rier
Or d
Ġgun s
Ġrecommend ation
Ġsky rocket
ĠPlay er
Ġcens us
Ġsle pt
Ġramp ant
Ġenorm ous
E yes
R ag
c or
Ġw rap
ĠP hase
ĠT and
ĠT ake
ĠN ithya
ial a
ĠU T
Ġ10 2
New s
Ġcompany s
Ġrepresent ation
run al
Des ign
Ġast ron
Ġmisle ading
ĠDik shit
: -
B E
S hankar
V ill
id ar
ot y
ĠC BSE
ĠP C
Ġhe aling
est ro
em en
ĠRaj asekhar
20 18
CC TV
ĠEle ctoral
Ġsurv ival
Ġ28 8
Ġ199 3
ĠGree ce
Ġdemonst rated
Ġast on
ĠDen mark
? ?
P O
m n
w la
at ab
ĠB ec
Ġv ic
Ġpart ition
ĠCha m
ĠSha ms
Ġ14 5
RD A
Ġrespond s
Ġelectric al
Ġrum oured
Ġapolog ised
ĠKeer avani
Mod ern
Discuss ions
ĠKhale el
M icro
j al
om atic
ĠM ill
el come
ur d
ast hal
ĠRaj kot
ĠDe b
Ġturn out
Ma hendra
Ġimm ensely
Ġpub lish
Ġsin ned
ĠHan uman
ĠJon athan
Cond ol
Ġbes ide
ĠSiddiqu i
i able
o a
is ite
Ġm es
Ġm achin
Ġg ushing
Ġal i
ĠG osp
Ġsa ute
Ġle af
Ġj awan
ne cted
ĠTri vedi
Ġperfect ly
Ġrelax ed
Ġreflect s
ĠCyber abad
innam on
H im
P uri
T rees
d iv
y ar
ĠP ear
Ġun p
amp ally
chn ology
Ġrest ed
Ar vind
Ġfront line
ĠNaw ab
Ġlabor atories
ĠPoon am
cycl op
d ig
v ardhan
in ator
Ġo ri
Ġto b
ĠB ranch
um per
em ia
ĠL og
ind ers
Ġpart ially
ass y
Ġsm ashed
hra im
Ġrep utation
Ġinf uriated
Ġref riger
Ġform ula
Ġ11 8
Ġpar allel
ĠGr ound
Ġir re
Ġaw esome
Ġult ra
Ġremov ing
Srin agar
ĠPP E
ĠAyurved a
) -
F uel
b es
t es
Ġt abled
in ness
Ġg est
ĠV el
ĠU day
ore r
Ġass ume
Ġimp ose
Ġlast ing
ov a
Ġaffect ing
H um
R u
s m
Ġt witter
as he
id abad
ig hed
ĠK ath
ĠD NA
Ġso ared
Ġcl ashed
ĠRaj agopal
Ġbr ass
Ġattack ing
Ġaccount ed
Ch idambaram
Ġexerc ising
Ġsouth west
Ġnorth west
off s
ĠCommunic ation
ipat nam
F lood
i ences
k um
il al
ic an
Ġe cl
ir aditya
ĠN eb
ĠD own
ĠH ooda
ĠE xt
ĠU se
Ġsp oon
Ġgr im
Ġcomm uters
ĠMar g
Ġev olution
ĠCor ridor
Ġru ined
Ġsan ctions
Ġobs er
Ġanaly sts
ĠTej ashwi
Ġunf air
Ġincl usive
ĠHam id
Ġtob acco
F und
G inger
J io
L ight
r uled
Ġc abin
Ġc ows
ĠM ans
ab abu
ĠN i
Ġse w
art hy
ĠH old
ĠL ong
Ġtr im
Ġinter pret
Ġsus pend
Ġval ued
Ġdoub led
ĠSit ara
Ġbenefit ted
elt os
Ġspiritu ality
AN S
ĠHindu ism
ĠNe er
ĠRuss ell
ĠProdu ced
Ġfocus ing
AS A
ĠKes hav
Ġunl ikely
E ating
G ang
W A
r ound
is ai
Ġf ertil
Ġp ap
Ġp ose
Ġp ushing
Ġbe ars
ĠM ovement
im ated
ĠK ota
ĠT risha
ul atory
ĠN B
ĠD ab
Ġth umping
Ġsa ffron
mit a
iz z
Ġloc ally
Ġcap s
Ġdel ivers
ĠKap ur
Ġtop ics
Ġwicket keeper
ĠBhar ad
Raj nath
ĠVenkat aram
ĠSum itra
K areena
V er
c ow
r ar
r ised
as ma
ad hy
ĠP ap
ĠK ris
Ġk er
Ġinc ense
Ġ( ""
ĠMan u
Ġtre nding
go vernment
reet ings
itha li
Ġcapt ure
Ġcapt ivity
akar an
ĠGul f
Ġlev ied
Ġappe als
Kann ada
A adhaar
O p
T O
Ġto pp
ĠS od
Ġh orm
ri ev
ĠL ot
ust s
ĠY uvan
Ġra ging
St ates
Ġch ronic
ĠMed ium
Pakistan i
omin ations
Ġstrengthen s
ĠPet ition
Ġfulf illing
Look s
ĠRob in
Mot or
S IT
Y og
at ri
ĠS ath
Ġl ok
ĠC hen
ĠC amb
ĠK ush
ĠT un
op ard
Ġth under
Ġinc hes
ip se
Ġent r
ĠZ ion
ĠPat t
ĠChar ge
Ġpan icked
Ġassoci ations
Ġmaterial ise
Ġessential ly
Chandr ayaan
Ġdigest ive
Ġf o
Ġl ac
ĠD oes
ĠF re
Ġj ealous
Ġsp ouse
Ġsp ared
Ġunder went
Ġbet a
An g
ĠMar cus
Ġrest oration
ĠRes ults
ĠKar gil
ĠBal eno
Ġhost ing
Ġz inc
Ġmount ing
Ġgre ets
Ġconc rete
Ġexperi encing
ĠRec ord
Ġamb assador
Ġrob bers
Ġtoil et
ĠCommon wealth
ĠCher uk
4 50
D E
P riced
V ish
g uda
Ġw it
Ġc ared
Ġf iction
Ġd ip
ĠS ons
st ars
et te
ra it
ĠK ant
ĠK oll
ĠF ull
Ġim pe
Ġen v
Ġhel m
As ia
Th ou
Ġsk illed
ĠKashmir i
Ġsw all
rop riate
Ġpar ked
Ġrap ing
Ġsn ake
Invest ment
ĠPay tm
Ġcollect ing
Ġclin ched
ĠParam eswaran
ĠGl enn
Ġreplace ment
Ġindu cted
Di wali
ĠWild life
ĠSax ena
R ising
W omens
ĠS risailam
us ions
Ġal ias
ig ate
od ara
ĠK runal
ĠJ eff
Ġsp o
Ġdis ple
jay anthi
Ġ19 70
olog ists
Ġbook ings
Un iversity
Ġlight ning
Ġmob il
Ġbott les
Ġpurs ued
Rev anth
Ġsubur bs
ĠScient ific
achand ran
D O
V ivek
r ata
al am
ĠS her
ĠK ab
ĠK aul
ĠN PR
Ġr ational
Ġall ot
ĠE ven
Ġun happy
Ġcur ry
Ġprevent ing
Ġcondem ns
Reg ular
ĠTar un
ĠInnov a
cript ions
ĠShang hai
ivest ock
E asy
N a
Ġt um
ou ch
ĠS K
ĠN enu
Ġoff s
Ġtr an
Ġ3 60
Ġ19 47
Ġbl ank
Ġdef ine
Ġ11 7
Ġadv oc
Ġexpand able
Us ually
ĠRat an
Cle arly
imb ab
Ġassemb lies
P ain
p our
v o
w akar
Ġt iger
Ġw ore
Ġf amine
ĠS eltos
ĠR ock
ra ha
ĠG ate
ĠD ube
ap rasad
Ġor g
ĠW oman
Ġinv alid
Ġlook out
Ġtreat ments
Ġgrand father
ĠSystem s
ĠIr rigation
ĠNars ing
Must ard
Bro ther
G ot
P A
S ources
Ġf oul
Ġin ev
Ġg reed
ĠJ oin
so le
ĠW il
Ġchief s
ĠAnd erson
ĠShar wanand
Ġ12 2
Ġclass ical
ĠJud ges
rant i
Ġslow ed
ĠNarasim han
gent ina
ĠPrith vi
A z
E arly
F resh
M eh
] ,
g ers
k u
Ġre named
ĠP oor
ĠB ri
Ġcom merce
Ġj e
og ram
Ġannoun cing
ĠPra ja
Ġnecess arily
ĠBl ock
ĠJay ant
Ġdisapp ointing
ĠCan cer
Ġpath s
ĠPon n
J ayalalithaa
T rain
b ank
g ly
h ol
h older
Ġt act
ĠB us
th s
Ġind ia
Ġpack ed
ĠRag h
Ġoption al
Ġrob bery
Ġvalid ity
Ġinhab ited
Ġsle w
Incre ase
ĠUk raine
Ġelev ated
H ouse
z o
ĠR uth
Ġh in
hi es
Ġr am
ĠL ic
Ġro cks
ec onom
oy s
ĠPM s
RS S
ĠHar ikrishna
Ġgra ced
Ġestablish ing
Ġvolunt ary
Ġador able
Ġsubsidi ary
Condol ences
imbab we
T ips
j ith
r ateg
nd rome
Ġp alm
ĠS rivastava
ĠC ry
ag u
Ġacc using
Ġsoc ieties
ĠTh us
Ġtax i
Com ing
Ġhost el
Ġcampaign ed
Ġtarget ing
ĠPan chayats
Ġboy friend
Res cue
Ġboost s
Ġincor rect
Ġowners hip
Custom ers
Ġcuis ine
c ise
Ġs orts
ing ers
Ġd al
ĠS ana
ĠT rain
Ġpro long
em ma
ĠH un
ĠL over
Ġen vis
eng ue
uss le
Ġeng aging
ĠGu pt
Ġ15 1
ĠPand it
ĠSy dney
Ġtravel ed
ĠTechn ologies
Ġdiagn ost
ĠMahara ja
T raining
Ġw ounds
Ġc iting
ur an
Ġh tt
ĠD us
Ġres erve
Ġpers u
All ow
ĠSh ort
Ġdr astically
Ġem issions
Ġfear ing
Am id
Sal es
Ġterm inal
Ġbra kes
PC L
Ġsubst ance
Ġobvious ly
ĠSamp ath
rahman yam
ĠTay lor
Mam ata
G HMC
N DRF
T ap
U m
Ġb ite
ĠC ome
ut osh
ir ates
ĠB u
ĠN in
ĠD isha
Ġwere nt
iv i
ĠL ag
Ġdist ant
Ġread ers
Ġsl ashed
Ġsuff ers
Ġlight ing
ĠMuk er
Ġinaug ural
Ġcommence ment
Ġbab ies
Ġtariff s
Phot os
Ġaccus ations
Ġalgorith m
Ġappet ite
H P
L ittle
at in
st ore
Ġon board
ra f
ĠG all
ĠJ air
oc harged
ĠV ib
ĠF i
Ġout comes
li er
Al a
Ġpay able
win ning
Ġball ot
Tra vel
Red dy
San ia
Ġunfortun ately
Ġdiagn osis
ĠATM s
Nand amuri
Ġhelicop ter
J une
or se
Ġm aj
ĠC ru
ĠR est
ly n
Ġst imul
ĠT SRTC
ĠO xford
Ġsc attered
Ġcontrib uting
Re ally
Ġcoop erative
ĠPol y
Ġforg iveness
Ġpattern s
Ġreserv ations
Ġtyp ical
Ġturb ine
ĠKed arnath
Ġrecip ient
Ġobed ience
ĠBiote ch
Scient ists
1 30
it arian
Ġbe ast
am om
ĠM om
Ġfor s
Ġh iding
ĠT hane
ĠG il
ĠH IV
ĠV I
ans h
Ġpres erved
ec hes
Ġthr ashed
Ġimp lications
St rong
Ġcur few
ĠTe x
ĠSri hari
Ġadj oining
Ġalt ogether
Ġwa ited
Moham mad
ĠMax well
achel or
Ġimmig rants
ĠHot el
Ġpione ers
Ġail ments
B uilding
S cience
n ag
ou ri
ĠB hadra
ĠD im
Ġinc umbent
Ġcomp liant
Ġmar itime
Ġcar ing
rish n
ĠCol ony
ĠSan ct
Ġdefe ating
Ġearn est
ĠKart arpur
araj a
ĠRajam oulis
Dep artment
irt ual
Ġunc ons
ĠMadhu kar
NO ME
ĠStep hen
Ġdynam ic
ĠVlad imir
G A
T haman
b ial
f ile
Ġp ocket
ĠS ale
ĠB om
ere na
ri ved
ab out
"" )
ĠCh ok
Ġpre y
abad di
Ġpric ing
Ġ11 6
Su pp
Ġhur d
Ġconsist ent
Ġventil ators
Ġdisqual ified
ĠAbhin andan
E gg
t ons
am ama
Ġle ather
du ct
ĠO N
Ġcl ip
Ġcol umn
ĠSar kar
ĠMe er
Se ason
Ġdoubt ful
Ġprepared ness
law s
Prot esters
Ġmeant ime
ichand an
ĠEp hraim
umin ium
Ash ok
Af ghan
Ġcalc ulated
ĠReve aled
Ġchap ters
' :
h igh
Ġt ussle
Ġd ries
Ġre igned
ĠP NB
ĠJ ab
ĠPr ay
Ġfirst born
aw are
Ġra id
An ant
Ġdes ert
Ġdef amation
ĠDe h
att u
Ġund es
ĠAnt i
Sun risers
Ġspect rum
Ġinput s
Ġchampions hip
bre aking
Sum mer
K TR
n ote
Ġl uk
Ġl ists
ĠA ma
ĠB ridge
ĠD S
ĠU jj
lo o
ign esh
Ġrel ates
Pe oples
ĠJay aram
Ġdro ve
Cons ult
ĠArab ic
ĠMor gan
Ġmir acle
ĠMahab har
Ġassail ants
f inely
m ap
Ġc ivic
Ġn aked
Ġl ash
ĠM ickey
ĠC limate
ĠH ir
oc ument
ĠU NESCO
all ic
Ġdis m
Ġser ial
uth ors
ĠIs ha
Ġprom ising
ĠAct iva
Ġ199 4
ĠMaur ya
Ġconfig uration
Unt il
S idd
d oor
x im
Ġb udge
il arious
Ġha cked
ĠR oss
ĠT rent
ĠG ent
ĠN ithiin
Ġex al
ĠRa wal
Ġ5 000
ĠCha wla
Ġbo ards
Ġcol ors
Ġopen ly
ĠCommission ers
Ġ24 0
ĠSc oot
ĠX UV
AD A
Ġliter ary
ĠRev olution
Ġbed room
ĠKon eru
Ġrelax ation
Min or
Ġdistin ction
Ġcloud s
Ġwaterlog ged
ĠTik Tok
ĠMotorcy cle
Ġcalam ity
uvv ada
C ertain
p i
w l
Ġ Whats
is o
Ġl ag
ĠM C
ol er
Ġsa pl
ine es
oll ar
ĠMa har
Ġass et
Ġcol ony
ull s
Ġhum id
Ġcast s
Ġcritic ising
pet rol
Ġquant ities
Ġneighbour hood
Ġshowc ase
Ġincl usion
Ġtoler ate
zek iah
Ġhan ged
J NU
P oor
Ġb hp
ĠS ak
ĠR it
Ġst iff
ĠK hand
ĠT PCC
ĠD z
ud ha
ount ed
Ġar isen
ew arm
Ġ20 25
Ġdec isive
rib es
Ġinf ect
ĠAb e
Ġphot ography
ĠFl or
ĠKom atireddy
Dis play
Ġdistur bing
f ive
g l
v in
Ġt ale
Ġa ver
Ġc loves
Ġf ract
as ures
ic ulture
om a
Ġfor b
ter ior
od s
ĠT urn
ĠN eg
Ġlo ose
ĠY et
20 17
year s
Ġadvis ory
ĠVallabh bhai
Ġluk ewarm
C rit
l ation
ĠP res
ĠF our
Ġres iding
ans w
Ġunder gone
rit ious
Ġhar der
Ġins ight
bo hyd
Ġcru ise
Bal akrishna
Ġacknow ledge
ĠRet urn
ĠTex as
r ank
Ġp ics
ĠR y
art hi
Ġup hold
Ġar ising
Ġsc rap
Ġavail ed
Ġsl ot
Ġprom otes
Ġfinal ized
ĠSa ha
Ġ0 1
Ġclass ified
att led
ĠMeg a
ĠTrib es
Ġsatell ites
Beaut iful
ĠSwach h
ĠPartners hip
kum mar
Ġuncons cious
d rew
h our
om y
ĠP ars
ĠK ali
ĠN ich
ĠJ eho
ĠL as
ĠW ard
Ġun le
ma an
ĠAn y
Ġfin ancing
Ġcons ensus
Ġdoub ling
ĠCo ord
ĠJay araj
ĠDi wakar
ĠJam ia
ĠDigvijay a
bour ne
ĠEt ela
Ġcongest ion
Ġmes mer
g at
v as
Ġb og
ĠM ob
ĠR adio
ab lish
Ġen mity
ĠCh ola
Ġtra ced
St ock
Ġrep ublic
Ġvis as
Ġunt r
ek ha
Ġsign ature
Ġart ificial
ĠHar ichandan
Ġtrad ed
min arayana
Ġgar ments
Spe ak
ĠNa q
Ġfre ight
Con nect
Ġsoul s
sp inner
ĠGur ugram
Ġtank ed
Ġintens ity
ĠMen en
Ġsubsc ription
Ġexcess ive
Ġagit ating
Ġsubstant ially
oub ted
Proper ty
Ġaffid avit
ĠPear l
ĠBharad waj
F T
G en
K am
R ang
in n
on so
Ġc ited
Ġb icy
or igin
ĠM ama
ĠC ategory
ĠR R
ĠG arh
ĠG ardens
em i
Ġpe as
Ġper ish
ĠSt an
Ġbo iled
ĠSha b
Ġappro aches
Ġref use
Ġgu ided
ĠTh r
Ġmass es
Ġess ay
ĠBa al
Col ours
Ġcultiv ation
ĠJyot iraditya
Cy ber
ĠPriyad arshan
Ġphosphor us
ĠLou is
a e
g anti
h ost
v ard
ĠS ekhar
Ġwith drew
ĠD CP
ĠRa ipur
ble m
ĠMo S
Ġob esity
Ġmod est
ĠNational ist
Ġaff lict
Ġeconom ically
Ġty res
Ġess ence
Ġcy l
Ġbroad cast
Ġfurn iture
Ant i
Ġdens ity
ĠJub ilee
A W
D in
D ata
L ab
S y
b ps
he alth
Ġs odium
or p
ĠC ertificate
Ġde ities
Ġse am
Ġres il
ĠCh ir
Ġspe eches
Ġmat ure
Ġav atar
Ġsl ip
ĠGu inness
Com b
hik ode
ĠNand yal
Offic ial
Keep ing
ĠMur li
ĠCar Play
Up d
Kar an
fit ting
Ġturb ocharged
Ġvess el
ĠNan o
ĠPush kar
ĠVeg es
Ġinstal ment
Redu ces
ĠPharise es
oubted ly
O disha
ĠA ccess
os hi
cc an
ĠL ib
ang g
ang el
ĠW ay
hed e
Ġen ables
iss a
lud e
ject s
ĠVijay amma
Ġsl aves
ĠBS F
Ġcast ing
Ġcy cl
Ġinterf ace
Ġblog s
Ġaccommod ation
Ġexha ust
Ġincorpor ated
ĠCle an
Ġepid emic
ethe less
D ays
K ap
L akhs
ĠM ilitary
ĠR ain
Ġwor ries
av ia
Ġman if
ho ea
og en
ai ze
Ġra ge
Ġwould n
gan wadi
Ġmin ute
Where as
Ġcompan ions
Ġdeep er
ĠProdu cer
ĠMas ters
Ġtank s
Ġcourage ous
Ra o
Hel med
Ġillust ration
Ġtend ers
ĠOper ations
Ent ry
Ġcontem porary
Ġuncertain ty
Ġadul tery
Ġslo gan
L emon
ha ll
ĠA IMIM
Ġv oc
Ġgo ats
Ġr ider
ĠF alls
ore n
Ġar ray
ru v
rict ion
lic it
Ġdisc reet
Ġ19 60
Ġdef erred
Ġcre m
Ġ24 3
ware ness
urt hi
Ġscript ures
Rep orts
ĠChan cellor
ĠDel his
Ġband h
ĠRath ore
Ġende avour
German y
ĠVeges na
P resent
ab outs
Ġmo lec
Ġad mon
Ġdis k
Ġac re
Ġliter acy
Ġsun light
Ġantioxid ant
Ġintim id
N eg
S end
v am
Ġc ute
ĠC ine
ĠB eh
ab hoomi
ac ent
qu est
Ġpl ague
ĠL eb
Ġro lling
Ġapp rised
Ġsome body
Ġrel ie
Ġcur se
Ġdep loyment
ĠShi pping
ex p
ĠTra ffic
Ġmechan ical
Ret urn
ĠBor is
Ġslic ed
Joh n
ĠDeh radun
z ar
ha il
ĠC ho
Ġst reams
ĠB uttler
od ed
ri k
ĠJ C
ast rous
Ġen abling
oin is
ĠSh ub
Ġbank rolling
Ġ11 2
Ġmet re
Ch hattisgarh
Ġens uing
Ġtw ists
elect ric
ĠAdvis er
ĠPS U
ĠHous es
Ġrang ing
tra ck
Serv ice
Ġcompl iance
? ""
g ence
t iga
ĠR aksha
ĠA ks
ig ion
her s
ĠD Y
Ġas h
Ġdisc harge
Ġgu ards
Ġ199 7
ĠMat inee
ĠKart ik
Tra ve
Ġmig rated
ĠDutt a
ĠKo z
Ġfactor ies
ĠPh D
ĠGovern ors
Ġcord oned
Ġantib acterial
Independ ent
Ġnumb ered
Lat est
1 25
T ensions
u ber
w id
ic ago
ĠM d
ĠA th
ĠB ish
Ġy atra
Ġspe ar
Ġsha dow
Ġimp ounded
amp a
ĠBank ing
Un like
Ġpopular ly
Ġexpect ation
Ġshot s
aster y
Ġ199 2
Ġtom b
ĠNir vana
Ġtun nel
Shr uti
Ġobst acles
Bo ost
ĠAtl antic
Ġtrop ical
Princ ipal
ĠNaq vi
N ani
Ġe mission
ĠK ond
ag ine
ĠV V
ian o
Ġwe pt
Ġrem n
Ġcha mber
ob o
ĠAm mon
Ġsw ung
Ġelect ronics
Ġviol ations
ĠSun ny
Ġver ification
Ġautom aker
Spe c
Produ cers
ĠVish wa
Ġclos ure
Ġcancell ation
ĠPort ugal
ĠTur k
Ġcoin c
ĠAN D
j ot
n ia
u ity
or i
Ġin quired
ĠS ug
ĠP ate
res pect
Ġk not
Ġsc rut
old s
ĠShar mila
gu pta
Ġattempt ing
ĠAnt ony
ĠEconom ics
ĠChin as
Ġdil emma
ĠDav ids
ĠAw ake
iji ju
. ?
H a
J oint
J itendra
P ick
Ġt ire
Ġb lo
ĠS out
ĠS ix
ment ed
os a
ĠG ud
ĠN as
th ree
Ġ( %
ĠU g
Ġcont acted
ath on
Ġqu ota
ĠSt oinis
So ftware
Ġcur ious
ĠTrump s
Ġrev ive
ĠMe et
Ġdisp osal
Ġobs erving
Res idents
Ġcommission ed
Fore st
Ġhun ting
ĠLank esh
Ġrebell ion
Ġabrog ated
ĠAurang abad
K al
M oses
c ling
g od
r ise
t one
Ġn ausea
ĠB oult
ĠK un
ĠT G
ul in
Ġde af
ous ing
itu al
ft en
uc ose
Ġch rome
uck er
Ġappre hens
Ġprotect ive
ĠPol and
Ġcontact s
Ġmos quit
Ġfestiv ities
Ġdistur b
ĠChowd hury
ĠHill ary
ĠEPF O
H AT
R A
S erve
s a
Ġa pt
is a
Ġs ounded
Ġb io
Ġl est
el eration
ow al
ĠL i
ĠBh upathi
Ġcommand er
Ġalt itude
Ġlabou rer
Ġdiss olved
Ġconven ience
Ġtransform ed
ĠMaur it
oult ry
atab ase
P h
g ical
on ing
id u
ĠK awasaki
ĠT reat
Ġun rest
Ġdis order
ĠRah im
ĠTr ue
Ġins isted
ĠAm arnath
Ġkey s
Ex am
log ging
ĠArab ian
Ġoccup ation
Ġsick ness
ĠHC L
Ġconcent rated
Audi ences
Ġdisag ree
adev ara
Ġaccl aimed
F inal
a ctory
j o
l ater
Ġt a
Ġs its
al pur
Ġm unicipality
ĠL ibrary
Ġall ied
one ment
Ġab ilities
Ġcomp ly
ĠCh int
ĠRam babu
Ġjust ified
ID S
Ġfew er
ĠSu icide
Ġeconom ics
Ġlod ge
BS NL
Su zuki
Ġeld est
Sec retary
mad h
ĠPol o
Act ing
ĠVa ish
Ġspend s
Ġscoot ers
Ġtort ure
Ġped est
ĠSanct uary
v ice
Ġs outheast
Ġm ud
Ġm inistries
ĠS V
ĠC hik
ĠK ag
Ġan ch
ĠD et
qu ate
Ġacc ol
Ġcountry men
Ġtra il
Shi khar
RC B
Ġ198 4
Ġkid napped
ĠSank al
ĠIndra ganti
cont inent
Ġbrut al
Ġwond ered
ĠParas uram
Democ racy
Ġvic inity
5 000
i Phone
w art
ĠS hane
Ġl ent
Ġg erman
Ġst ing
ĠD uring
pe ndra
ĠL K
Ġdem ons
Ġ10 1
Ġprot agonist
Ġoper ators
Ġless er
Ġsil k
Ġcolour ful
Ġaccess ories
See ing
Ġlack ing
Ġult imate
friend ly
ĠPedd ireddy
Ġambul ances
ĠKen ya
Ġdiam ond
Ġpubl ishers
N av
T ogether
V M
f ounder
en ary
Ġf i
ĠS ukh
ĠC D
ĠC e
ĠR oot
ĠP oint
Ġh ilarious
ĠB od
ak am
ĠD iploma
ĠJ aved
Ġwor n
Ġsha ken
ma iah
Ġwater fall
Ġfl oral
ĠSh in
ĠHe ctor
Ġwhere abouts
ĠSec urities
Ġwrit ings
Ġ11 3
sc ale
Ġboy c
Ġ199 5
Ġsugar cane
Ġdele te
Ġmagaz ines
organ isation
ĠTai wan
B rah
d ha
Ġt alaq
Ġf illing
Ġde er
Ġse al
ac re
Ġbo asts
Ġfl ame
Ġref uses
ĠInstit utes
ĠWar riors
Ġinterview s
Ty pe
Ġcontem pl
ĠGO D
Ġl ivestock
ĠM illion
ĠC ID
ĠG arden
ĠE uro
Ġrel ate
Ġcampaign s
Ġpremi er
ĠEr tiga
Leg al
Srik anth
Ġsplend id
ĠPate kar
A ustralian
H app
e z
or ic
ĠS ame
ad o
ĠN ass
Ġj ag
Ġab st
Ġcomp ens
ip ro
ĠCh hat
Ġinvest or
ĠTe achers
Ġground water
Pl anning
ij ing
ĠKrishnam urthy
Ġinse cts
Ġadjud ged
sun ami
N ifty
b age
p ose
Ġb ribe
Ġm ail
ra fts
od us
ĠT B
ort ion
ĠV ari
ĠV icky
ĠU z
Ġsm iles
Ġins cription
Ġbre ach
Ġstat ues
Ġcirc le
ĠRag hava
Ġsecret ariat
Ġdeterior ating
ĠAnup ama
Ġtall est
Christ mas
Ġtrek king
Appro ximately
asik ala
hamp ur
Kaly an
rateg ic
ĠChok si
madh udu
N ight
o ffic
w aja
on i
nd or
Ġre ass
ĠR C
ĠP hone
Ġinc ess
ĠL eh
Ġdevelop s
Ġ15 00
arat ri
Ġur ges
Ġcoop er
Fl ipkart
ĠGovern ing
Ġfrust rated
ĠRadhak rishna
Ġassass ination
Ġshell s
Ġatroc ities
ĠHusband ry
asse h
ĠTok yo
Ġcous in
Ġstip ulated
ĠTand on
J ay
V ikram
W ishing
z one
it ating
ĠI zab
ag i
op eration
ĠJ unction
har tha
Ġab used
Ġcha ins
Ġdep ict
ĠChar les
Ġdeal ings
Read y
Ġfit ting
Ġutil ised
Bel ow
Ġceremon ies
Nir av
Ġunsu ccess
L og
N aveen
P L
Y ed
u i
Ġt iny
es ar
Ġp orn
Ġn a
Ġre nder
ri p
Ġwh os
ric al
Ġsh ine
Ġwe ighed
Ġcomp lications
port ed
ign ment
ĠZ illa
Ġrev ision
Ġcompet ing
ĠInt erest
Ġgovern ors
Ġpump s
ĠElectric al
ĠHon ble
ĠHass ine
Writ e
ĠSmall cap
ĠMel ania
Ġvine gar
ĠNil am
Ġconscious ness
Ġwire less
ustain able
Vill agers
M ove
k el
Ġf ert
Ġb umper
ad ays
ĠP ackage
Ġnot ch
ain ing
.. !
Ġsp oil
iz ar
Ġspir its
Ġleg acy
ĠSc ott
Ġclear ance
Ġmob ility
Ġclar ification
Ġtim ing
Ġtrack ing
Le gend
Ġparam ed
Sk in
Ġbypoll s
Prepar ations
pert ension
Ġtox ic
Ġmachin ery
ĠKoz hikode
P ract
a ctor
b ur
w ada
ar arajan
ad har
ra kash
ĠB illion
ĠD ix
ĠJ ersey
ĠH et
oll s
Ġann oy
ĠMan chu
Ġsuccess es
rap es
Ġspread s
Me eting
Com pet
Ġabs ent
Ġnut ritious
ĠLaun ches
ĠSir aj
Ġaltern atives
Ġmang anese
Ġconstruct ing
Ġinev itable
h uman
k arni
an on
ĠA MT
ra o
ĠI l
ĠI BM
ain e
ĠH ay
Ġdo ct
ĠU pp
und hara
Ġpost al
Ġdon ate
Ġcho osing
Ġapplic ants
Can cer
Ġnet izens
Loc ated
Ġexec ute
Ġhonor ary
Ġstrang er
B ring
f ace
Ġb oss
Ġd rives
ĠM IM
Ġe rected
ĠA ge
ĠD utch
se eds
ĠV ig
ell er
pt o
aw ay
ĠAr cher
ĠHe zekiah
Ġref resh
had weep
Ġfat igue
Ġwid er
Ġbul k
ĠSer b
RL s
ĠRad hika
ĠNis hank
ĠAlt roz
ĠVy jayanthi
E F
S eries
s ome
ha nded
Ġw ww
it an
Ġm antra
Ġre nov
st while
im ely
ĠT or
ĠD hab
and ra
Ġag ents
Ġro cket
ip ation
Ġinv ites
Ġhospital ity
Ġdisc overy
Ġwin ters
ĠDe velop
Ġprof itable
ĠBal asub
Cha irman
rav an
Ġinflu ential
ĠKal am
Ġ195 6
ĠSang h
Ġprosper ous
Ġrub b
ĠNan ak
rie ved
Ref erring
Ġadvers ely
Far mer
ĠNirm al
B ra
D ry
H op
T ight
n ational
ha ma
Ġd ense
ĠS han
ĠJ un
Ġsp ite
Ġun w
Ġ3 20
Ġmat hematics
Ġcar rots
Ġdown pour
Ġexper iments
Ġstat utes
ĠAsh utosh
ĠSud hir
ĠTri ple
Ġclos est
ĠSure ndra
Ġunderst ands
Ġnurs ing
Job s
Ġexchan ged
Pregn ancy
Ġalb um
asthal am
Ġentr usted
ĠCry st
ĠAma ze
4 99
L ucknow
P al
S ays
T ha
en ka
Ġp ig
Ġg ms
ĠInd i
ort y
ĠF ran
Ġacc um
Ġmod ified
az ed
ĠMed chal
TV S
Ġgradu ation
Ġble nd
ĠGV L
ĠFlor ida
P ink
es wari
at isf
al ia
ĠM ong
ĠP ill
ra ck
ĠF inal
Ġar chi
ĠO ri
up ied
ĠDe ad
Ġ30 2
ĠBe z
Ġjoy ful
Ġexcell ence
Ġcorrect ly
II I
Ġkid na
Ġ197 1
Bl ue
Hel ps
Ġresur rected
ĠNeel am
Ġobed ient
Ġdealers hips
ĠPank aj
Ġaccol ades
b uilding
g ran
Ġp uj
ĠC E
Ġpro portion
ĠH uz
Ġr iders
ok a
oc ols
ĠL ear
Ġreg ulation
Ġdis ruption
Ġsc r
Ġac ne
ĠCol oss
Ġem peror
ĠMot ion
Ġpar ade
apur a
Ġburn s
Ġchair s
Ġsport ing
Ġille g
Market s
Jan hvi
ĠBuddhis m
ĠDise ase
Sudden ly
ĠDz ire
M D
S ara
Ġs owing
es y
Ġbe fitting
ĠS ch
Ġg ardens
ĠC ustoms
Ġal right
ĠT ask
pp o
ĠH ai
Ġcount s
Ġgreat ness
ĠDe ccan
Vijay as
iy urappa
ĠElect ronic
Ġconsequ ence
Ġnovel s
ĠKod ela
ĠQual ification
Ġinterrog ating
Girl s
Ġprospect s
Ġperpet rators
Ġevol ving
L anguage
r ase
as ara
Ġg ently
ĠK he
ĠN V
ian ces
Ġpe an
Ġup s
Ġdis astrous
Ġsc andal
ĠRam pur
Ġoper ator
ĠKaly ans
ĠSc ale
ĠYSR C
Ġenjoy able
ĠLe ite
ĠMe en
Ġsac ked
ĠSud ha
ĠSo ftware
Ġpurchas ing
ĠRadhak rishnan
ĠLav anya
Ġoppon ents
ĠShas hank
Ġoffs pring
L ive
M ary
N issan
j as
o ad
Ġw ip
Ġm aize
ĠC auvery
ĠR ew
ĠK ranthi
Ġse p
ĠV irus
Ġj un
Ġout going
Ġser ials
ĠGo el
ĠMan asseh
ĠZ afar
Ġfield ing
Ġexpect s
Com plete
Ġresol utions
Ġspec ify
ĠTal asani
Ġadvis able
Ġoverse er
Ġprivile ges
Sat ish
Ġelephant s
J uly
S ept
d s
Ġd ams
Ġre ndering
ĠS earch
ad ation
ĠC iaz
ĠK hadi
ab ated
Ġag ent
ĠCha pter
ran ean
ĠMad hus
ĠMal avika
Ġdeb ates
ĠSam aria
idd ing
Ġcard amom
Ġexerc ised
Ġer ad
ĠMat hematics
ĠInter mediate
IA F
Ġsell s
Sa if
Inst all
asc ular
Japan ese
ĠChet eshwar
Ġdesper ate
Ġtelesc opic
J ai
e nder
Ġm ax
ut ory
us hes
ĠB unny
Ġsc iences
ru p
ĠCh it
Ġcar bohyd
ĠSh ree
Is rael
hand a
ĠPat iala
ĠSe et
rain t
Ġcash back
ĠReg ulatory
Ġbar ric
Red mi
Ġgovern ing
ĠRang an
ĠSim ha
Ġanticip atory
Ġconvention al
Ġbath room
ĠEli jah
Ġdim ensions
ĠKnow ledge
Ġfortun ate
econom ic
D emand
J harkhand
R ad
b ro
d ia
m is
q bal
Ġa uthors
Ġf ertilizers
Ġm alls
ĠM ont
ĠR onald
ĠR ijiju
ur able
od der
ist a
Ġcomm ands
Ġdef ense
Ġsuccess or
plement ation
IR C
Ġbar rel
Ġrepe al
ĠEm peror
Ġign or
ĠMess iah
Ak hil
Ġindul ging
ste in
Mult iple
ĠMala ika
Ġdisadvant ages
ĠDix it
b az
s ays
ou ston
Ġh ind
ri ke
ĠD ib
ĠE ss
ure rs
ine a
Ġany time
Ġfe ud
Ġdes irable
Ġ12 6
Ġtal ents
ĠPras ada
Ġrest s
Ġver se
Ġmas ters
Ġvacc ination
Ġaccommod ate
ĠMars hal
ĠRajendran ath
Ġprovin ces
Ġirregular ities
G K
J unior
N RC
N IA
P I
g ood
m ada
is ans
Ġf uck
le ction
Ġre ly
ol ina
hi ya
ĠD ST
em ory
ĠF ive
ĠF igo
Ġpart ial
ĠO verse
Ġrec k
ĠTamil isai
Ġch lor
Ch ris
Ġlab el
Ġscen ic
Ġremar ked
ĠFund s
Ġconsult ations
Ġkn ocked
ĠCam era
Ġcontra cted
ĠProm otion
ĠJagad ish
Ġecl ipse
1 40
F ew
n or
o ors
er i
is hankar
Ġf ingers
ar abad
Ġd ot
ĠR ehman
ĠP y
ĠK ud
ĠD ark
ĠF it
ĠE id
Ġup ward
Ġen raged
Ġsl apped
Ġspecial ity
ĠZ imbabwe
ĠPar adise
Ġide ology
ĠX iaomi
Ġrev ival
Ġrequest ing
Ġqual ification
Ġclim b
ĠRel ations
ĠAp ache
ĠGow t
ĠChak rab
Ġadopt ion
Ġhug ely
Ġdrag ged
erg ies
Kat rina
J ud
h ud
t aking
is ons
Ġc hil
ic ation
Ġn ode
ad as
ĠM op
Ġg uru
Ġfor um
od ays
ĠG aur
ĠD ucati
Ġr attled
Ġk icked
Ġyou ll
ĠW all
ĠRaj at
Ġmed all
any am
Ġdon ation
ots p
Ġdebut ant
Ġer stwhile
ĠVer na
Qu estion
Ġnar rative
ster ious
Ġinstall ation
Ġpersec uted
Ġweakness es
Ġutter ly
Ġbasket ball
Ġaffili ated
Ġoverfl owing
Ġcyl inders
izar re
C itizens
M ark
N H
P ort
a ire
t rain
im ary
ĠD ell
Ġv ow
Ġcomp ound
Ġout look
Ġper ception
Ġdis hes
Ġtr ig
ĠCha van
Ġappro ve
ĠZ one
Ġdevelopment al
Ġcong ress
Ġang ered
Ġmiss iles
head s
ĠBha i
Ġvol can
Ġ198 5
Ġrob bed
ĠHard eep
Ġdecre asing
ĠTal k
ĠSang areddy
ĠTele vision
Ġexpert ise
h um
o pp
r ine
v als
Ġl am
Ġst icks
ĠB und
ĠK adi
ĠN are
op erative
Ġr ings
ĠO range
Ġqu its
ĠRaj kummar
iz er
Ġmon ument
uc hi
ĠPM O
ĠAl ban
Ġcross es
icro bial
ĠKan ak
iling ual
iter ranean
ĠChak rav
Ġshout ing
Ġharvest ing
Ġexchan ges
Ġdiscont inued
Ġflaw s
Ord ers
B aby
H z
r idd
v iraj
Ġd ough
as ar
ĠR ule
ĠP ont
ĠD ream
se ater
ĠU ri
ĠW agon
Ġoff ences
In fl
esh waram
Ġlo go
ĠCh icago
Ġinter ventions
Ġallow ance
less ed
Ġjud gments
Te xt
ĠAdv ocate
MC G
Ġwid ows
ĠCan adian
ĠHow rah
Ġcommercial ly
ĠIslam abad
Ġconvers ations
Ġlaugh s
Ur ban
ĠTag ore
Ġprolong ed
C reat
N ivetha
W D
p ass
Ġd read
Ġre habilitation
ig am
ap aks
ub ble
ful l
ats on
Ġ18 2
be an
Ġceleb s
Ġdecl ares
ĠNar mada
chan a
ĠHa as
Ġcommunic ate
ĠVas undhara
Ġremn ant
N DA
N RE
a uc
l isted
er am
Ġs napped
Ġm l
ĠC at
ĠA head
ĠP harmaceut
Ġh id
Ġat e
Ġres ide
ĠW aq
Ġra ided
Ġfe as
ĠAn other
ats un
ĠCom plex
Ġread s
ames e
ĠSe ctions
Ġtrib ulation
ĠSar ah
Ġcoun cill
Res pect
Ġste pping
zz le
ĠAnn ual
Ġadvis er
Film maker
ĠJob s
Ġportr aying
Bu ying
ĠPos ani
ĠSuri ya
Ġmac ro
ĠOverse as
D ub
G reetings
H al
N CR
P rim
S ury
f irst
Ġd ash
ĠM ata
Ġfor ks
Ġh ire
ĠK ev
ĠK end
Ġcon cess
ĠJ ul
ort iculture
Ġwork force
Ġpr one
ix ed
Ġdet ection
Ġcar rot
Is hant
Ġland er
Ġrest art
Ġnational ism
Ġdiv ul
Raj endra
road s
Ġban ana
ĠSushant h
ĠSim on
onom y
Ġanticip ation
Ġbatt ling
Ġphenomen al
Ġhyp oc
Sud heer
ĠFern and
ĠSeng ar
Ġhaz ard
Ġsapl ings
N ature
V ictory
Ġt iss
Ġw oes
ed eration
Ġha ted
Ġre ap
ur b
ĠY ears
ĠRam ak
ors hip
Ġvict ories
Ġemploy ers
cha ndra
Ġcr ashes
ĠSa ab
Ġprev ail
Ġlow ers
AR C
Health y
Ġundert aking
.' """
Sam aj
ĠSaw ant
Count ry
ĠAzhar uddin
ĠAmrit a
ĠPhys ical
ĠId ent
__ __
Sure ly
Ġvib rant
ĠLaks hadweep
Ġpuj as
? .
B s
P ayal
Ġc aves
an ed
ĠR od
ĠT all
ul ent
ĠV C
ĠO tt
We ight
abad a
up alli
ov o
wal ior
Ġfail ures
Ġviol ate
ĠPand emic
Rec ent
hem ical
ĠNarayan an
ĠVad odara
Know ing
ĠSound ararajan
Ġdow ry
Ru pee
Ġorg ans
B P
G ener
W elcome
k ins
r ana
w ait
Ġ =
Ġc ab
st ru
ĠL iter
ĠF isheries
out ube
ang ular
Ġthem es
te enth
Ġen forced
aw az
ven ile
Ġsub jected
Ġru ins
ĠMand i
ĠMand ya
Ġcongratul ations
ony m
Ġund oubtedly
Ġproceed ed
Jag apathi
ua we
Ent ire
Ġassemb led
Ann ual
effect s
ĠAngel es
ĠNiger ia
xim ity
A jit
L oss
e ast
an es
Ġbe er
Ġl ament
om p
ad an
ĠB ot
ĠB aram
ĠK und
ĠG ates
Ġth irst
Ġu gly
iv ities
ĠV ara
Ġun abated
ub hai
Ġyear ly
agar aj
Ġdef iciency
Ġfut ures
Ġgl imp
Ġpract iced
Ġhy brid
ĠSw iss
rav ati
Ġinflu ences
ĠBrah min
Ġshr ines
Ġconsist ently
ĠBel gium
Ran bir
Ġupgr aded
Ġbatt les
ĠMechan ical
Ġglimp se
M ang
W ife
h om
m ind
Ġf riction
Ġd ressed
st art
ĠA ri
ig inal
ĠK her
ĠN ature
ac ity
ĠH aj
ian g
esh wari
Ġmat urity
Ġcar rier
Ġdes olate
Ġ12 1
Ġdef ending
Ġleg ally
ĠSchool s
Ġgen etic
Bank ing
Reg arding
Ġcultiv ated
ĠOper ation
ĠJais wal
Ġdim in
Cinem a
Ġarg ue
ĠCam eron
Ġstup id
ĠMahabhar ata
Ġmanif old
ĠDhab i
l ower
ĠM ut
ĠB rand
ĠB rown
ĠK GF
ĠV isha
ĠF lood
ath ic
ank ind
iff erent
ĠAn aly
Ġcor rected
Ġregard s
ĠAd arsh
Ġpress ures
ruct ive
ĠIm ages
Su icide
aterial s
Ġphys ics
Ġhistor ian
ĠKart i
eful ly
Ġgradu ates
Ġfruit ful
ĠEl uru
Ġagg rav
ĠDub ey
Ġrival ry
Ġpic king
ĠMahab ubnagar
Ġdw elling
ĠMadhur a
Dele te
J ournal
j ara
ed ar
Ġp oultry
Ġst ance
ĠB ecause
ab il
ĠD ulquer
ac ious
ĠH ockey
ĠF ield
ĠU pper
ang i
Ġ3 90
Ġher bs
ple t
Ġcha nt
Ġaff licted
ĠSit a
ream ing
Ġill icit
Ġtransf ers
ĠLakh s
ĠBas av
Ġchem istry
roll er
Emp loyment
Indust rial
ĠNG Os
ĠMaurit ius
G l
K a
P une
S ab
S orry
U B
b et
w ere
Ġp inch
or ality
ĠS re
ĠM ode
Ġh ired
Ġprog ressed
Ġopen ers
ron icles
ĠMuk ul
ĠHindu pur
ĠJos h
Man ipur
raj u
En vironment
ĠKul karni
ĠEgypt ians
Ġdemonst ration
akk al
Major ity
Ġgross ed
ĠCamp aign
ĠBon thu
Ġpreced ing
Ġconced ed
B i
S uk
d isc
h ighest
i ov
Ġs ne
it ious
Ġb acterial
qu akes
har raf
Ġsp aces
ĠSt udies
ann avaram
St ore
app ro
Ġche er
Ġche que
Ġdecl aring
Ġplan es
ĠSon u
Ġgener ous
ĠSal maan
Ġdistrib ute
Ġfavor able
MB AI
Chan ges
Short ly
Ġnav igation
Ġchari ots
Him achal
Ġrefriger ator
ĠRy thu
Samaj wadi
B hu
D VV
M atch
M arch
W edding
m ur
Ġs oda
ĠM ithali
ĠA ud
ĠP om
ĠB ugg
ĠD y
ĠD id
Ġpl ates
ĠL ar
ish ment
Ġpre jud
Ġass ures
Ġprot ocols
Ġprocess ed
Ġfore front
Ġclean ed
Ġpo em
Ġexpress ions
ĠOffic ial
ĠLaw rence
Ġ198 8
Ġweak ened
acha konda
Ġfle w
ĠMeh reen
Ġded u
Temper atures
Ġther mal
A ccess
G rand
H S
is ely
Ġs we
ĠS oon
ak as
ith ic
Ġres emb
Ġoff enders
Ġacc eleration
ĠRam achandran
ala x
ins ula
Ġtri ps
Ġbox er
Ġstrength s
Ġjail ed
Ġment ions
Ġcommunic ations
Ġ197 2
ĠProject s
ĠLaksh man
Ins urance
ĠPoc haram
ĠLock down
Thir uvananthapuram
Um esh
B razil
F un
P ension
a ar
n adu
t est
Ġp airs
Ġl ime
ur rent
od ar
Ġhas s
ĠG ol
ĠV art
ome gran
Ġout lets
ĠO ptions
ced ure
ass ment
Ġmar ital
Ġloc ate
ix x
Ġthr ust
Ġbl ade
St ir
Ġ12 00
Ġappro x
ush rooms
Ġend ang
ĠZ o
Ġcolle ctors
Ġexc ise
ĠCol umb
ĠRav ikumar
Ġtele ph
Ġworship ers
Ġindic ators
IS F
Ġhor iz
ĠAdminist rative
Imp act
reprene ur
ĠNort heast
Incre asing
Chan ging
ĠOther s
ĠRichard son
ĠAlm ighty
ĠYam una
Ġdiarr hoea
Ġextingu ished
MU MBAI
apaks a
H igher
T PCC
y av
Ġp lying
ĠC ities
ir y
Ġh orns
Ġsh ower
Ġun hurt
Ġdis orders
Ġcont ing
ew orthy
Ġent hr
Ġkill er
Ġkill ings
Ġprom otions
ĠBhar ati
mar ket
ĠShe ila
ĠBal aji
Ġimm oral
Ġport ions
Ġspeed s
Ġgra v
Ġsepar ation
Government s
ĠPal anis
Ġdepart ure
ĠGur ud
Ġrestrict ion
Ġsymb ols
Chand igarh
Co V
ĠPedd i
Ġstrang ers
Situ ation
ĠJanm abhoomi
Ġintrig uing
ĠChakrab orty
W K
Ġp p
ĠG ive
ĠN ep
ĠJ eep
ast ro
ĠF uture
ĠSt udent
Ġimp ression
ib en
Ġev olved
Ġcost ly
ession al
Ġgl ucose
Ġphys ician
Ġwis ely
Ġir res
ela ide
Ġhom eless
ĠDar bar
ĠLy on
Ġpad ayatra
ĠIM D
Ġbom bs
Ġpsych ological
Mer cedes
Ġnic ely
ĠNor way
ĠHanum antha
Sept ember
M O
l akh
p han
ha y
ed ge
Ġha ul
Ġe cho
ĠC NG
ra g
ĠO P
Ġ3 10
Ġexp on
Ġdisc om
Ġins criptions
Ġdeb ts
Ġmeas uring
ĠBo eing
ĠDistrict s
bh ushan
Ġautom otive
Ġaccept s
ĠBab us
Us ers
ĠGaut ham
Invest ig
ĠGen eva
ĠGood s
ĠSA RS
Tour ism
Ġcolon ial
Ġremed ies
Ġfasc inating
kshaw s
ĠVers ion
Ġcommend able
ĠSrav anthi
IRC TC
C har
F emale
M om
S qu
ĠS oren
ĠA vant
ĠK hus
ac har
ĠH om
Ġr ated
Ġab ide
ann u
An j
Ġshow ers
Ġprop oses
Ġbrother hood
ĠCol our
Re acting
Ġmotor ists
Ġpetition er
iy ar
ĠMet ropolitan
Ġfruit age
Ġkil ogram
ĠIN S
Ġoverse ers
Ġdispl ays
ĠAlex ander
Ġsurve ys
ĠUd an
ĠLif eline
B and
R en
V oters
z ens
Ġc able
Ġb izarre
ĠB ik
ĠB ills
oc uments
ang es
Ġun st
Ġen acted
Ġen rolled
aj ol
ĠAr gentina
Ġwom b
Ġinter iors
ĠVijay endra
Ġadv ances
ĠChand a
Ġwrong do
Ġap iece
ĠKar achi
Ġclass ic
ĠKann ur
Ġfoot ages
Ġassoci ates
ĠTer m
ĠPremi um
key s
Ġformal ities
Ġgall ery
D ear
G op
I ss
d ing
k ers
Ġt read
ĠS lo
ĠR hea
un ken
Ġde arth
Ġth igh
ĠF ans
ĠU nt
ear chers
ĠO K
Ġapp la
form ed
Ind ians
ĠSingh vi
ower ment
ful ness
Ġass ert
St orage
Ġhouse wife
ĠDep artments
ung le
range ments
att a
pat itis
FC s
Con cer
Ġlegend s
akumar i
ĠIr rfan
ĠViz ag
ĠRath od
Ġgraph ics
Ġshepherd s
ĠSanj iv
ĠMeer ut
Ġundes erved
ixx er
1 60
J e
N izam
Ġc ucumber
Ġp uzz
an er
al on
ĠS aint
ĠP ent
od ox
ĠG er
ĠG out
Ġth umb
han pur
ho ot
ĠSt udy
Ġinv ent
ĠMa has
ĠThe ir
Ġcor ners
Ġmon uments
Ġcomplain ing
ĠDe ol
Ġpriv at
ĠSan ge
Pre vention
ĠComp ass
Ġstra w
En c
ĠIran ian
Ġdram atic
Ġvirt ue
Ġagg ression
ĠLaksh minarayana
ĠMl A
Inj ured
R adha
Ġs ulf
ed ed
ct ic
om bo
ĠI qbal
ĠB ased
ĠG ixxer
ĠN OT
Ġv iz
ud ing
Ġra cing
ĠSha he
Ġread ily
Ab ove
Ġsum mers
Ġhy pertension
Pr ay
Ġhur ts
Ġcontract s
ĠMit tal
Ġtab s
ĠRen u
ĠVi hari
ĠPoll ard
Ġagit ated
ĠMos cow
ĠEnt repreneurs
Var un
Ġinspe ction
ĠInteg rated
Ġali en
adhy ay
ĠCheruk uri
A p
G ur
H ello
J ames
L ock
M os
l ash
Ġs aint
Ġf ro
Ġp est
Ġin ception
ĠR abada
ĠB op
ab han
Ġag rees
ĠW ank
Ġsc athing
ĠSt one
Ġmar king
arn agar
20 16
ari us
Ġkind ly
ĠAsh ram
Ġimm orality
Ġvers es
sp ace
Ġmemor able
Ġpour ing
Ġsemif inals
ĠTah ir
ĠGupt ill
ĠLeb anon
ĠMop idevi
A pril
N ut
d on
Ġa ids
is ance
ĠS athy
ĠM E
Ġg alore
ĠC ustom
ĠH us
Ġpl um
ĠV ide
Ġunder ground
ens ing
Ġsl aughter
ĠVen ue
ĠAl igarh
Me et
Ġlow ered
Ġvirus es
Pl an
Ġmedic ations
En able
Ġpartners hips
Ġcapt ive
Ġmeaning ful
Ġperman ently
met ic
Ġincl ined
ĠArm ies
Ġabol ished
ĠTig or
Ġincess ant
D M
S harma
s erv
t ic
w ear
in ct
Ġc m
Ġp ressed
ĠS akshi
ĠC JI
ĠB rad
ĠG aya
Ġrec ipe
ĠRaj eshwar
Ġexp ense
St at
Ġter rified
Al tern
ĠGu arant
ffic i
ĠHigh lights
ĠDr ug
ĠQ atar
ĠSy m
Ġdisp osed
ĠSte ven
ĠPer formance
Ġmos ques
Gr adu
Ġillust rate
Hind us
Ġho isted
Ġfab ulous
Ġexh orted
Cro ps
Ġpist ol
C ultural
D ist
F ilms
G V
ĠS wam
ĠR ekha
ĠP PF
Ġth und
Ġpl ight
ake el
ber ries
ai z
ĠAs ht
ĠPro per
Ġob sc
Ġru in
Ġap artment
ential ly
Ġdirect ive
ĠSci ara
Ġcharacter istic
Ġtable ts
ĠEconom y
ĠFa ith
Ġ196 1
ĠCare y
Ġhonest y
ĠHas ina
Ġexped ite
Cr ude
Ġvo ices
Ġbund led
ĠSarasw ati
Ġdan cer
ĠGent iles
ĠMadhus ud
A IMIM
D han
F ear
b in
l ap
is ible
Ġc and
Ġb ases
il ipatnam
Ġre venge
ol ia
ill ong
Ġh ook
ĠB ath
ĠK P
Ġpro ximity
Ġr ho
ie val
Ġcomp ose
Ġsp y
Ġen forcement
Ġ20 23
og y
urn agar
Ġbat ted
ĠCon struction
Im agine
Ġgener ating
ĠAdv anced
ze ch
Ġdi abet
Ġmultip lied
ĠCar l
ĠMeg h
ĠBrah ma
Ġoccup y
ĠBhu van
Ġce ment
ĠChow k
Ġconcent rate
ĠEr n
ĠDire ctors
ĠPhilipp ians
Ġliber al
Ġdemol ition
ĠSout hee
uawe i
ĠBugg ana
M ind
N ellore
l ining
Ġa qu
re ach
ed ian
Ġf uss
Ġf isheries
Ġp ly
Ġd amp
Ġre eling
ĠC rown
Ġst agg
ĠB uild
ĠF reedom
Ġme gapixel
Ġtr ump
And roid
Ġbr isk
Ġdes erves
Ġins pire
Ġschool ing
Ġbelie ving
ĠDev a
ĠSam ar
ĠMed iterranean
Ma han
Pro cess
Tr ust
ĠX L
Ġspec ulations
Am b
hai ya
Ġstrugg led
Rep ublic
Ġharass ing
Incre ased
Lear ning
Ġlandsl ides
ĠZP TC
Ġmol est
Ġsculpt ures
Ġdistingu ished
Engine ering
Pati ents
ĠGeorg ia
Afghan istan
ucker berg
n early
u art
Ġc el
Ġf ried
Ġp ity
ar ai
ro d
Ġbe ats
Ġn it
ĠK riti
ĠN aj
ĠJ ude
Ġmo ck
cc les
ĠRa ce
ĠL os
Ġor naments
""" '
Ġrec re
ĠSingh s
Ġmy sterious
St rengthen
Ġcontin ually
Ġob l
Ġmin t
pl ant
Ġexc luded
ĠTh ous
ĠTh ird
Ġsupp ose
af iz
sh ould
Ġinaugur ates
Ġlands cape
ĠFe ature
Ġoverwhel med
Ash win
Ġdescend ants
onso red
A wards
U D
b us
Ġc innamon
it ative
ir ation
op ed
Ġoff ensive
They ve
Ġra cket
aun ch
Ġdirector y
Ġspecial ist
ĠTe acher
Ġident ical
Ġcontrib utes
zz ar
High lights
Ġmang o
Lo an
roz en
Chandr asekhar
Met ro
Ġwond ers
Ġdemol ished
Ġjag gery
D ate
N ik
P ot
a ic
b ly
b ase
b udget
t ax
Ġf odder
it ic
Ġb ay
Ġp harma
ĠP uja
ter jee
ĠG walior
Ġde emed
Ġex terior
ĠE BD
Ġwe aker
ĠW ars
per ing
Ġsc rapping
Ġ4 20
20 14
Ġthr illing
Ġprov iders
uk hi
St ory
Ġvis uals
ashm i
rap ed
Sh ocking
Ġtax is
Ġglo ves
Ġfact o
ĠHar vard
Ġnecess ity
ĠRo le
Ġline up
Rep resent
van ia
aling a
apse e
ĠRen ew
Ġdiscoura ged
Ġmeg astar
Ġcarbohyd rates
N AM
R IL
V id
f old
u its
Ġt orn
ĠS hip
el oad
un j
ĠW ales
Ġcont ents
Ġcont ention
ĠO p
ho red
Ġcl usters
ru ly
Ġmed itate
ec hari
ov ing
Ġformer ly
ĠGu idelines
my er
of ra
Ġ22 4
ĠAt manirbhar
Cor por
Ġconduct s
Ġmis under
ĠNav jot
Ġbroad band
Ġsequ ence
ĠShim ron
Ġdisob ed
ĠUz bek
ĠBez os
ĠMeen akshi
ccles i
S pr
U lt
m Ah
w ords
Ġa we
Ġw ax
ot hes
ĠM ohit
ĠM aced
ĠB ud
ĠK ang
ĠK oh
ment ation
Ġsu its
ĠL ux
ĠMinister ial
Ġint r
Ġwho ever
Ġ5 12
Ind ira
tain s
here nt
Ġfl av
Ġcur i
Ġaccident al
Ġch rom
Ġshif ting
Ġphot ographer
ĠCol or
Ġport rait
Ġwarn ings
Ġdeep est
ĠProdu cts
Ġfig ur
Ġhor rific
Ġge ographical
ĠMag n
Ġintens ify
Ġbrief ing
Ġemphas ised
Ġtight ened
Har ish
ĠSen ate
Ġcoup led
ĠDh ruv
Sk oda
Ġtoler ated
ĠPush pa
ĠCommercial s
ĠMotorcy cles
Ġmerchant s
Ġincent ives
ĠUnivers ities
Ġcomplim ent
Anant apur
C rime
M ir
M ale
O ct
R elease
i enced
m and
p alli
Ġt resp
Ġd up
ĠI gn
ĠK uk
ĠK uru
ĠT ennis
Ġcon ventions
ord ered
Ġra nd
ĠUn ve
Ġbro ch
ĠMP TC
Ġins ulin
Ġshoot s
Ġev angel
Ġsuper v
ĠPand ay
Ġpar aly
Ġassist ed
18 0
Ġgar ment
Ġfaithful ly
Sa udi
Ġcatch ing
poll s
chal am
Mod is
Ġvary ing
Ġworshi ppers
Bet ween
Ġwrest ler
ĠColoss ians
6 50
B r
D ar
H and
Y uvraj
w oman
it ting
Ġb ug
ing e
ĠL ak
ĠW ipro
Ġint ra
ĠO h
Ġdist ra
vers ity
Ġhel met
ĠUn ity
Ġrel ieve
An aly
For get
ĠZ a
Ġmin eral
ĠSam etha
rid ors
Sim ple
Sha ll
Ġdisapp ear
Ġcapac ities
Ġcra fts
avi ya
uter onomy
Qu ick
ĠVas u
ĠAnn iversary
Ġbrief ly
Vis akhapatnam
ML As
urved i
Lo ans
Ġmisc re
Ġintellect ual
ĠHet myer
S ongs
b acterial
f ar
v ents
Ġw ipe
id able
ĠC ant
ĠC oll
ĠA T
ĠK iren
ĠG ame
ag ger
Ġcom eth
if ted
Ġpart n
Ġint oler
In ternal
ĠSha il
Ġsur gical
Ġbusiness men
Ex cell
hon y
ĠLord s
Ġiniti ate
ipur am
Ġtor ched
ĠDo ctors
ba az
yas agar
Rail ways
Bas ic
Ġpel ted
ĠAssy ria
G I
M el
R ana
f eed
in athan
Ġd atabase
ĠS reed
st ation
am y
ad y
ol ks
ĠR ice
ra ined
ĠK umb
ĠN ut
ĠN adi
th odox
ĠJ EE
ine app
Ġ3 000
We b
form ing
Ġsha ped
Ġbo ot
Ġbo ats
Ġco aching
ĠThe ss
Ġbel ly
ĠAs hish
ID AI
ĠZ ampa
Ġart isans
ĠIm port
ĠAt omic
Ġnet working
omet er
Ġenter prise
Did nt
Ġinnov ations
Ġlaugh ter
ĠMeh ul
Ġbread th
cel and
Ġglass es
ĠMel bourne
ĠHimal ayas
yl vania
chest er
Ġvandal ised
ĠGarh wal
P DP
P acific
s har
re amed
Ġb usted
Ġre un
us an
ĠG und
ĠH aw
Ġpl ains
ĠE state
Ġar ch
Ġad vent
Ġafter ward
Ġmar ch
Ġsub s
Ġsl ide
ĠVar rier
Ġdirect s
Ġmer it
ĠKam ala
Ġwid th
Ġ197 8
Ġpit ted
Ġmir ror
Ġborrow ing
Ġcub es
Ġtreas ures
Qual ity
abb age
Ġpermit s
Prote ct
Ġreservoir s
Ġpled ge
Ġvend ors
Micro soft
ĠVart haman
Ġrand om
P and
S ushma
b ra
w estern
Ġf ury
Ġb ang
Ġb amboo
Ġd engue
Ġn odes
Ġfor nic
ra els
ak al
ĠD V
op et
ĠH ouston
se at
Ġab l
ĠU da
Ġqu ad
Ġcl ay
ob iles
Ġsur plus
amp ur
Ġsy nt
ĠMan ju
loy d
Ġcondu ctor
Ġadminist rator
Ġmis con
ĠJud icial
Ġgar bage
ĠOn ly
ĠBen efits
Act ive
Ġgri p
ĠVenkates war
Ġ196 2
Ġguarant eed
Ġwood en
Aut om
Ġbullet in
ĠMangal agiri
ĠFr ame
ĠMang alore
Trad ers
Ġcuri osity
A K
E qu
Ġw oo
Ġf reed
Ġm i
le te
Ġn an
hat h
ĠP u
ĠG riev
ĠN ight
our n
ĠJ MM
ĠL ee
Ġsh y
ĠU t
Ġnew born
Ġadv ise
ĠTh ou
ĠTh ose
ĠSa eed
Ġproduct ive
ĠRe bel
Tr uth
Ġtou ches
Pre heat
ĠSud an
Pet er
ĠNay ak
Ġdiss ent
Ġdiss ol
Ġspin ners
Ġexem pl
ĠBuddhis ts
Ġdiscom fort
C redit
D aily
d ered
j ala
m o
Ġc ess
Ġbe asts
ut va
ĠP hal
ch y
ĠF ate
av alli
ĠE MI
Ġar rog
ĠY outube
ank i
get s
rest ed
Ġstart up
Ġeng ulf
ĠZ uckerberg
ĠAb ram
Ġpur ple
fort able
ĠNagar k
uv a
Ġcontain er
ĠRajam ohan
CS K
ĠAdd ress
Ġfle et
ĠBhat ti
Ġdevast ating
ĠVaikunthapurram loo
ĠRef orms
Sl ow
Ġdish on
Electric ity
Ġcease fire
ĠUpd ates
" '
M art
O ften
v id
el i
ĠT N
ĠG annavaram
ĠN imm
if es
Ġth read
Ġsh uttler
ik as
Ġrec harge
Ġsoc io
Ġsub tle
Ġdr um
Ġbas in
irm ans
Ġunderstand able
ĠBl air
elt a
ĠPad man
ĠPal est
ĠGur gaon
Ġhor rible
ju ven
Ġunf old
Ġborrow ers
ĠNawaz uddin
ĠMadh uri
Ġbon us
ĠBare li
ĠChal uk
M ax
S ir
U I
V odafone
Ġm ines
ĠM ale
et u
Ġal uminium
ab a
ĠG A
Ġpro mp
Ġat tained
ĠH ur
oc ratic
out e
ep alli
Ġmed i
Ġ19 14
Ġfin ances
Who ever
Ġpop ulations
ĠAm ir
Ġoccasion ally
Ġsing ers
Ġconsid ers
Ġkey board
gr ounds
Te acher
Ġmig ration
Ġsatisf y
ĠDhar am
Ġaw ake
Ġlog ic
Ġquarter finals
Ġagg reg
Ġconven ed
RO M
Ġadm ire
Ġmoist ur
Ġmoist ure
ĠKav itha
hast ly
Ġrepro ach
ĠNin ja
iov ascular
B reak
S und
T ension
or b
le ch
ĠS ut
st ra
Ġst u
ĠB ora
Ġv ocal
ĠL iving
ĠE ducational
Ġwe ird
20 15
Ġass ure
Ġcons ort
amp et
Ġdown s
ĠAd ani
Ġform idable
Ġ13 8
ĠSon ali
Ġreve red
ĠDr ugs
Com mit
Spe aker
ĠNand ini
right eous
Ġflag s
Shiv a
Son am
Ġbul lets
ĠGar g
Att ack
Ġrenew ed
ww w
Prepar ation
ĠKos hy
Ġfu nded
Bre ast
Ġpreval ent
Ġbetr ayed
Ġhtt ps
ĠHir ani
C opy
H U
L y
R enault
V ict
ĠM arsh
Ġg a
ĠC ad
ĠC ore
ur as
ĠK ashi
Ġpl asma
Ġinc omes
Ġcap ita
amp alli
Ġend less
Pe ace
ĠEx per
Ch in
Ġty re
Ġneg lected
hib ition
Sc reen
Ġapolog ize
Ġbeha ve
Sing apore
Ġinteract s
Ġmour n
ĠGhat s
ĠBat tle
Ġlung s
ĠGab bar
Ġadvertise ments
L a
P ul
T odays
re qu
es ame
ĠD ared
ĠW in
Ġdis heart
ĠMa hi
Ġcar riers
ĠSh illong
ĠAd elaide
Ġdep rived
Ġ15 3
Ġaccount able
Ġident ifying
Ġdesign ing
cl osed
Ġcoun s
Ġmas ala
ĠSC O
Ġshut down
ĠShak t
Ġpron ounce
Interest ingly
Short Name
Ġmiser able
Ġacceler ate
ĠPed apalli
Ġrevol ves
Ġcert ification
cyclop edia
Ġfertil isers
answ ered
A head
N D
P os
R X
c ase
c ost
u an
Ġa ired
on ly
Ġp urity
ĠS H
ĠS op
Ġl one
am konda
Ġg rapes
ĠP ere
ĠD RLs
op ing
Ġsh irt
ef it
Ġor anges
Ġwell s
ari um
Ġrun ner
Ġmet als
Ġext rad
Ar rangements
amb a
IM D
utt ered
Ġess ays
Ġant im
Ġimpact s
Ġgrand mother
Ġcollabor ated
Ġpref erences
ĠChem ical
ĠGal ilee
ertiliz er
Ġepis odes
Ġobjection able
Ġtrem ors
ĠMinor ity
Ġcommemor ate
Ġmerc iful
Earth quake
D omestic
H rithik
P AN
g as
h iman
v ings
w is
Ġc igare
ol ithic
ow ards
Ġh ole
Ġcon sole
ĠH or
ĠH ub
ĠL uc
ost on
Ġlo ading
Ġ19 75
Ġcomm un
Ġfin ale
ris oned
Ġaccident ally
ĠDe uteronomy
Ġdel ays
Ġoccur rence
anth osh
ĠHar id
ĠHar ry
Ġfoc uss
ns ylvania
Ġbi ographical
asim ha
Ġ198 3
ĠBab ri
ĠFl ag
ĠVal ent
ĠSk y
ĠFin land
Ġmut ually
Ġradi ation
Ġpension ers
ĠID BI
Step s
Ġsymp athi
ĠAbhi yaan
ĠChat terjee
ĠNad us
Ġfrust ration
ĠMurug an
Ġswift ly
ĠKhur rana
J aitley
Ġf ont
ĠS ource
ĠC ards
ĠP ir
ĠN R
ĠInd rani
ĠE ll
ell ar
Ġno ble
ĠO man
Ġrec ons
up ur
Ġrel uct
Ġhelp line
Ġter rific
ĠMo hali
ĠTr ad
the m
Ġreason ing
Ġcr ush
had ak
Ġsupply ing
Ġbreak through
ĠCEO s
Ġcreat ure
Ġterrit orial
Ġ198 6
Ġsimultane ous
Sm ith
Ġsurp assed
ĠGop inath
Ġsed ition
Ġstret ched
ĠVi rology
Ġrevolution ary
ĠSwed ish
Ġzeal ous
das pur
Pregn ant
ĠPho gat
ĠCoun sel
ĠShin zo
D et
K V
K ot
W in
d ens
g reen
m ath
Ġt ig
Ġt sunami
in agar
Ġd ull
Ġl act
Ġst it
ĠB ak
ment ary
ĠG ets
ĠN ade
Ġas ce
Ġse as
Ġr ides
ĠV ellore
li x
St ress
ele ased
Ġdes cent
Ġtal uk
tt es
ĠJag d
Ġext rem
cl usive
ĠShe ena
ĠBhatt acharya
Ġ37 6
ĠKish or
Ġcollect ively
ĠHol der
Ġbenefici ary
ĠVik arabad
ĠBro ok
ĠAB VP
Ġrent ed
Ge orge
ĠBalak ot
Ġilleg ally
' ',
K R
L O
P ras
f acing
Ġp onder
ad ia
ĠR achakonda
ut ala
ĠP ow
ĠG PS
ĠN age
ag am
op athy
ĠRa e
ind ing
ĠMa hav
ĠTr uth
unt a
ĠColle ges
TC S
book s
ĠSp ice
Ġflo ating
Ġadj acent
Gold en
Ġcat ches
Reg istration
ĠCoop erative
Main tain
ĠChat urvedi
Ġattrib utes
ATI ON
ĠSpec ifications
Tw enty
ĠAnk it
Ġinfect ious
ĠHuz urnagar
C ategory
L C
P ri
W inter
f amily
Ġt ip
Ġt outed
Ġw are
Ġb ol
Ġb ounded
Ġin quire
ion ed
ĠM utt
Ġpro active
ĠD rive
pe o
ĠL S
ĠF M
ĠF ace
ĠPr in
Ġcl inch
ors che
Ġhigh s
Ġ12 7
ĠMar ia
Ġfood g
ĠJag uar
ĠCor ps
Ġexc av
oura ge
Ġimm ort
Ġprogress ive
Ġaccept ance
Ġsad ness
ĠBand ra
Ġemotion ally
ĠAp na
Ġhyd rogen
Comp any
Ġstab il
ĠMach ilipatnam
Ġcalcul ate
Ġchari ot
Ġconqu ered
Ġcontam inated
Ġsmugg ling
Ġirres pective
ĠWank hede
Ġabl aze
F aith
L eft
M ag
T ears
b one
c ised
Ġt one
re c
Ġs weets
nd icate
es an
ĠS ent
ot land
ĠP ic
ĠG ita
Ġse ating
Ġfilm ed
Ġso aring
Ġinv isible
Ġdist ressed
oun ces
ne um
ĠRam ayana
ĠAn sw
Ġent repreneur
Ġimp risoned
ĠPro duc
ek a
por a
ĠTh rough
Ġaut hored
Ġworks hop
Ġfront s
ograp hed
Ġur ine
urs ing
het ra
estic ides
ĠCan ara
alm iki
Ġsn atched
Ġtast es
ĠPost s
Ġmal aria
Ġemb ra
Ġimper ative
Back ground
ĠJo ab
Islam abad
ĠKag iso
ridd himan
G aut
R ice
S ound
g ian
i i
i ology
or ient
ro li
Ġn our
ĠB ond
ĠK s
ist ical
ĠW atson
Ġar bit
Ġdis asters
ĠO li
ber ry
ew is
Ġpre ference
ev ils
ĠAn anth
Ġjust ices
aun a
Ġcontin ent
Ġrep rodu
Ġinter rupted
Ġdev ote
Ġpain ted
Ġer u
Ġbar red
ĠRoad s
Offic ers
ĠSche mes
ĠVikram arka
ĠSant ner
Air tel
Ġce iling
Ġfeed ing
Ġmir acles
Ġpic nic
ĠStat istics
ĠAtt orney
Lead er
Ġliber ty
Resp onding
Ġlapt op
ĠShams habad
F A
G s
g ged
s l
Ġs ank
ed a
Ġp onds
Ġd irty
ve mber
ter ror
Ġhe aled
Ġwas t
Ġy rs
ĠH P
ĠU mar
ug a
Ġover th
odi versity
Ġqu ery
ĠRaj apaksa
ft y
je a
Every ones
Ġ12 9
ush ree
,"" ""
Ġemp owered
Ġshoot er
Ġreal istic
Ġmet er
ĠChand ram
My thri
Ġclass ification
ĠRo ht
Ġsan itis
hem iah
Ġrepe aled
ĠAnant nag
Rep orted
ĠPen nsylvania
ĠMG M
ĠPadm avati
ĠIM F
ĠCV T
Ġpharmaceut ical
Ġhurd les
ĠKoshy ari
ĠProduc ers
D ark
F orm
W S
b ey
e very
Ġt ents
Ġa ka
Ġo mega
Ġd ances
ĠS i
ĠM uj
ĠR ose
ĠP urn
ĠT in
Ġde gr
ud hi
ĠF IFA
Ġpe cul
ind i
Ġout ing
te xt
ĠSt uart
Ġinv iting
Ġmar ine
Ġsha ke
Ġrem un
Ġch ore
Ġpoll ed
wit ch
ĠPat ani
Go vern
Ġoil s
ĠSon y
Ġoccur ring
rain ts
cl ock
Ġtrib ut
isc o
Ġmag istrate
log ged
ĠSidd hartha
Ġdefin ite
ĠBas u
ĠEm irates
ĠChe ck
Vis itors
ĠQual ity
Ġexceed ing
Ġupgr ade
Ġrig id
ĠVij ays
Ġtempt ation
Hum ans
ĠNeer aj
F ry
h ill
n ab
p aid
Ġt rolled
Ġc ram
Ġl ined
ĠM ade
Ġe man
ĠP orts
ul um
th ly
Ġsc roll
All ari
Ġcar vings
Ġinter mediate
Ġ15 5
Ġposs essions
ĠZ echari
Ġrap es
Ġpictures que
ĠVenkat eshwar
ĠGe eta
Ġlog in
chol ars
Ġaband on
hew s
ĠSid harth
ĠSaj id
ĠMic ah
Ed it
Rav indra
Ġmedall ist
u ance
in er
es se
at ians
ut a
Ġle nd
ĠV edic
ure auc
Ġsp here
ons ense
ec k
ng ole
Ġhand les
Ġright ly
Ġ14 7
Ġjud ged
Or gan
ĠSun ni
Dire ct
ĠRo ja
Ġred es
De velop
Ġwilling ly
ĠShant i
Serv ices
ĠFI Rs
communic ations
Ġfram ed
Ġsurviv or
Ġuntr ue
A li
D ouble
p owered
Ġo ct
as m
ĠC ultural
ĠC arib
ĠP aints
ch lor
ĠN ap
Ġse ated
ast ra
av ane
Ġun righteous
Ġen light
ĠY ern
man preet
Ġtra iling
ĠGod se
Ġ19 48
Ġtreat y
Ġremain der
Ġfound ing
ĠEx cise
Ġtax ation
Ġmiss ions
Ġgar u
idamb i
Ġconvers ion
ĠJust in
Ġremov es
Ġexport ed
Att empt
Ġtun ed
polit ical
Ġprosec ution
ĠOl ivia
Ġobser vers
ĠOri ental
shar ing
Ġantim icrobial
G iving
M AN
b ow
d ire
er b
Ġo re
ur ances
ur ga
ri ka
ers erk
ac hari
Ġle ap
ĠL ast
ĠF ox
are th
Ġsp ons
Ġra v
ev is
ĠSab b
ĠIs raels
Ġsim mer
ĠGu inea
Ġsmall est
Ġauthor ised
Ġannounce ments
Ġbor ing
Ġtravel s
ĠAnand iben
Ġconte nders
Ġ197 4
Ġregul ate
Ġpit ched
Ġutil ized
ĠVijayan agaram
Ġinher ited
ĠVed anta
ĠKaus hik
Again st
Ġheal thi
occ upied
Ġobserv ations
Ġaccompany ing
Venkat esh
Ġfright ened
irmans hip
R ural
m u
n ar
s ub
v ia
in ical
it le
Ġb erserk
ar ag
Ġn urt
Ġh otsp
Ġwh olly
Ġ2 70
Ġk ar
qu art
ĠSt rategic
Ġtra ct
ĠSh op
Ġlaw makers
Ġfr aternity
Ġ16 2
Ġview ing
Ġgl ow
itor ing
Ġprec isely
rav o
Ġvol atile
ĠSidd ipet
ĠKal eshwaram
Ġsport y
Ġdiss atisf
Ġimag ined
Interest ed
ĠAtt ack
ĠPoll ution
ĠVall abha
Ġsyn ag
ĠMuzaff arpur
Ġcogn iz
Yed dyurappa
ĠCryst a
ĠBop anna
ĠThess alon
Ġpromp ted
ĠYern eni
A ug
a an
g iving
h im
l ical
n as
r ari
Ġs oup
Ġbe aches
ĠC eler
ĠP F
us cript
ĠB efore
ere rs
Ġgo at
ac cept
ĠV irtual
ĠW as
Ġad am
Ġsc are
20 21
na o
ari ya
Ġsy ndrome
Ġalle ges
Ġwar fare
Ch op
Ġearth quakes
ier on
ĠCommit tees
Ġexpl oration
Ġlif es
Tra ins
Che ese
Ġgen re
ĠHol i
ĠChe v
Ġretal iation
Christ ian
ĠConf ederation
ĠBul let
ĠTw enty
Ġbatter ies
ĠConstitu ency
Ġdiagnost ic
ĠWaq f
L ate
L IC
R ishi
s uch
Ġs abb
Ġc hipped
id en
id ge
ĠC ourse
ĠP L
It ll
Ġdo zen
ĠF A
ĠE atala
ĠU du
ip ment
Ġwork out
Ġover turn
Ġ5 50
Ġstart ups
Ġimp osing
ĠAss istance
the ir
has ing
Ġsol ving
Ġplan ets
Ġresign ing
ung a
Ġcritic ise
Ġmess aging
ator ium
let ics
Ġpat ron
Ġ198 7
MP s
ĠKarun akar
Ġimmig ration
Ġpatri arch
Trad itional
Ġrefres hing
Comb ine
alax mi
A maz
E V
L ower
M ission
M ode
N irbhar
b b
z an
Ġw reak
Ġo w
Ġp ains
Ġd arshan
et us
ĠB os
ig ating
ĠK har
Ġr pm
ĠW riddhiman
ĠO k
Ġapp l
Ġshould n
ĠPras anna
Ġmet ab
Ġstrong est
Ch icken
Ġhistor ians
Res earchers
Ġprec ise
Ġsin ful
Ġlin en
ĠVid yasagar
ĠEl ite
Mad ras
Ġcred ibility
Bhar atiya
Ġrub ber
Ġpursu it
ĠGovern ance
Ġsurre nder
Ġenthusi astic
ĠVem ula
Yog i
C riminal
F reedom
P ur
R ak
c um
c hip
n ah
p rin
Ġ umb
Ġw ilt
ĠS ustainable
am ani
Ġg host
ĠR IL
ĠP harma
ĠI V
ĠI ron
Ġst im
ak ond
ĠK amm
ĠN RI
ĠD D
and am
ess ment
all ur
Ġint ensive
osp ace
ars hi
ĠAd venture
uc had
Ġpop ulated
Ġpop ulous
Ġcricket ing
ĠKe ndra
bha ya
Ġpurc hases
harm ac
ĠSank ranti
Ġvalley s
Ġsovere ign
Ġritu al
Ġpled ged
ĠConnect s
ĠShub man
Trave llers
ĠGuarant ee
Reported ly
Ġpecul iar
, "
K urnool
M ount
S wami
W onder
l anguage
Ġo un
Ġf oss
it ives
ic he
Ġl ays
ĠK athi
ĠG ro
ĠD ial
ĠD aily
ĠJ agar
iv ansh
But ter
ard ed
ĠW hip
Ġper fection
Ġun aware
aw at
Ġ4 000
Ġiss uing
ĠAs ha
Ġ14 9
Ġreal ty
Ġmin imal
Ġpublic ity
Ġbenefit ting
Ġshare holders
Ġsimilar ities
Ġmis use
ĠBe ijing
Ġimprove ments
ĠComp et
JD S
Ġsatisf actory
ĠInt o
Ġfaithful ness
Ġflag ged
Whe at
Ġappoint ments
Ġcrowd s
ĠAccount s
ĠProcess ing
Mov ing
Pan chayat
ĠBah rain
ĠEs au
ĠLic ense
N am
S A
b ility
d irector
l ime
Ġa iling
Ġm aternal
ĠS reen
ĠS uman
ad hi
im ha
ĠT ew
ab hadra
ĠN ain
Ġv owed
Ġsa il
ĠL od
ast i
ĠE cclesi
Ġj ar
Ġres isted
te nded
Ġun like
amil itary
Ġcl ue
ins on
Ġdr unken
ee b
Ġpan els
Ġclean er
Ġhol der
ĠPet ers
Ġcreat ivity
Ġindic ation
ĠAp te
ĠRat nam
Vis it
Ġguarant ees
Ġreward ed
ĠRay udu
ĠUs man
Ġdistinct ive
Ġcord ial
Indust ry
ĠPrith viraj
Ġevalu ation
Ġcert ified
HF W
ĠUda ipur
. ]
A rent
F ish
M aster
N ecessary
g har
h ma
k ars
Ġa rom
Ġw ag
Ġp ained
Ġp ounds
Ġl aps
ct u
ĠM ines
ĠC I
ĠC ond
ĠC ass
Ġst int
Ġst agn
ĠK wid
ĠT H
ĠD elta
Ġle an
ĠL ink
ĠL uther
ast ics
.. ."
ho le
ĠRaj n
ener y
cer y
Al m
ĠDe al
ĠMar riage
Ġsign als
Ġtri umph
Ġtrib als
Ġsum mons
Ġ% (
ĠMet allic
Se vere
AR T
Any body
Ġtransl ations
ĠPort al
Ġgriev ances
Ġtort ured
ĠGir ish
rug arh
Ġbeef ed
ĠVict oria
\} \}
Ġwholes ome
Hop efully
ĠUzbek istan
A bs
C old
F s
R ober
S ik
S UV
T re
W ish
d aughter
as ala
ĠC zech
ĠR on
od al
ĠK ock
Ġv ind
Ġser pent
Ġconst ipation
ove re
ĠDe but
Ġ11 1
Ġemploy er
Ġdon ations
ĠBhar g
ĠHealth care
urs h
Ġimm un
for get
Ġgrant ing
lam udi
Ġaccess ed
Ġut ility
Ġdisplay ing
ĠMur der
ĠEgypt ian
ĠEl isha
Ġconcept s
Ġdim ension
Book s
Ġunanim ous
Ġunbelie vable
Anup ama
ĠGosp el
ĠJair am
ĠThous and
Ġmiscre ants
quart ered
i otics
l oc
s ur
v iral
Ġc raft
Ġf rying
Ġf ores
at ible
ĠC H
ĠR ud
im als
ĠI TR
ĠN all
He ar
ĠV AT
Ġme ek
Ġcomp atible
Ġsp at
Ġunder lined
ord inate
pport unities
Ġcor ridors
ran ath
has ed
Ġch it
ĠEx odus
ĠSar an
Ġhol istic
Ġdi pped
ĠUr jit
ĠLeg al
ĠGur daspur
Ġlog istics
Ġ197 6
ĠFar idabad
Ġprophet ic
ĠChan nel
ĠJy oti
Ġridic ulous
Din esh
ĠDared evils
ĠCarib bean
A H
C amp
D al
F ashion
N R
d egree
g ah
re ase
on ely
Ġw ed
Ġd ia
le ad
id h
Ġl athic
ot ten
et ta
ĠA gar
ĠB end
ak ha
ĠT D
ĠJ or
ĠPr imary
Ġacc uses
Ġstate hood
Ġcl utch
ĠRaj p
arn ing
No vember
Ġbl own
ĠAb sal
ĠEx pl
ĠNar avane
Ġple asing
rah mam
Ġver ified
Ġinfl ows
ĠArun a
Ġcomb ating
Ġbox es
sh ort
iy an
Ġsin ners
sec ond
ĠQu estions
Ġmir ac
Ġmotiv ation
Ġborrow ed
Ġdw elt
ĠRank ings
ĠIzab elle
Ġtrig ger
L ots
S pir
o et
r ade
er at
Ġb ordered
ĠP in
ĠG iri
ĠJ ofra
ĠL ower
Ġsh ore
ĠF ootball
ĠCha mp
Ġrem embers
mp oo
Ġwater falls
Ġpower train
ild ar
ĠAm ma
Ġbas ics
ĠBi ology
ĠSon et
Ġpo ets
Ġpra ising
Ġmist aken
ĠMod ern
ĠAnt on
Ġcompos ition
ĠCount y
Ġevident ly
Ġrad ical
Ġfet ch
ĠDab angg
Ġbicy cle
ĠBaram ulla
Ġadam ant
W aiting
d ef
f its
h ini
Ġs idelines
ad emic
ur ban
Ġhe aped
ĠK eral
ĠT ool
un i
un s
ĠD war
ĠJ ak
ĠH app
ĠW ood
ĠW hile
Ġshe w
Ġstud io
ĠPro cedure
Ġsent ences
atch ing
Ġvir gin
ĠMal ineni
Ġvari ations
Will i
Ġappear ances
edd ings
ĠUP I
speed ing
Ġdedic ate
Ġdismiss es
ĠPer u
ĠJe z
Ġdemonst rations
Ġadvance ment
ĠMarket s
Ġtag ged
ĠRet ail
ĠYed iyurappa
Ġdow nt
ĠSqu ad
Ġgest ure
Ġkidna pping
ĠGriev ances
F ront
G rowth
K ia
K han
M ental
p are
Ġw ound
Ġp ipe
ar kar
Ġn urse
ĠM ys
ĠM ini
ĠP opulation
ĠN CR
th ink
ĠJ ohan
Ġcan als
Ġsp ray
ru ff
Ġele ven
Ġunt imely
Ġmain stream
Not ice
Ġ13 9
Im age
Ġbow ed
Ġang ular
ĠTV s
Ġexpl oring
Ġencoura ges
Ġcra cked
ĠDo ing
ĠOne Plus
ĠVal ue
Ġstead fast
with standing
ĠIS IS
ĠParv ati
ĠProv ident
Bel ieve
Ġvolunte er
Bh opal
Ġcrack down
Bab ri
ĠDharm ana
ĠSath ya
Ġtran qu
yav ardhan
Ġtig ers
ĠCeler io
E ns
F est
K is
K id
N awaz
R eb
g ate
at able
Ġp y
ing h
id al
ĠS overe
ĠB B
ĠJ ayalalitha
ĠV ell
ap uri
Ġman uscript
ĠAnd re
ĠCent ers
hand i
Ġwar ming
Ġ13 6
ĠDep osit
ĠTh ings
ĠPl ace
ĠAk ali
head ed
edic ated
ĠRav ishankar
Ġconv ince
Ġquit ting
ĠSaf ari
ĠYash want
Ġadjust able
Bu y
Ġpassion ate
Ġaer ial
ayak udu
Ġmile age
ĠPhot os
ĠLag ad
Ġarchi ve
Dub ai
ĠEntrepreneurs hip
ĠJagar lamudi
Y uvan
d ep
g s
r ons
y ang
Ġre aff
st op
ĠM umb
ĠA man
ĠT hu
ĠN ine
Ġsa ves
ine eti
Ġper missions
Ġun just
Ġun answered
amil ies
Ġtra cing
Ġmon astery
Ġrep aired
ĠAd m
Ġinf ants
Ġcare taker
Ġ13 7
Ġviol ators
Ġgener ates
Ġdece ived
ĠSar f
back s
Ġsuspect ing
produ cer
Ġrepl acing
Ġadop ting
ĠPart hiv
Ġgather ings
ĠPay ment
Ġhast e
ĠMural idhar
Ġcoord inate
Ġfacilit ating
Ġfavor ite
Ġstream ing
avar apalem
Ġindefin itely
Non etheless
Ġintent ions
Ġrevers ed
store y
ĠEcclesi astes
5 50
B uild
D river
K rish
a el
t d
he ya
in formation
Ġb ans
Ġp esticides
ro ot
ol y
ĠR CB
el ight
ĠB ow
ĠT on
ist ent
ĠG rowth
ĠJ azz
ĠL G
Ġar chaeological
Ġout s
Ġent ries
Ġbl oss
Ġter rain
Ġenc ro
Ġappeal ing
Sec ular
ĠTrans lation
Ġmid night
Inc ident
Ġtradition ally
ĠAre as
Ġmort al
Ġce ased
ĠGal atians
ĠEst her
Ġdisqual ification
Ġdrain age
Ġinterpret ation
ĠSame er
3 60
G rowing
J as
L iving
T ar
m ic
t ri
w hen
Ġc aul
Ġb ureauc
Ġp ard
an jay
Ġd ictionary
ve ment
ĠR icky
ĠP age
ce ans
ig art
ĠK hel
ĠN ax
ĠH um
ĠV ignesh
ĠU lt
rit is
Ġsec uring
Ġrep et
Ġgot ten
Ġend ors
Ġequ ations
ĠOr issa
erman ent
ĠBan jara
Ġmaintain s
AT A
Ġvol umes
Ġbar rier
De vendra
Ġ198 2
Sm oking
Ġjump ing
resp ons
Deep ak
Play ers
Ġparam ount
ĠTan z
ĠAudi o
ĠReal me
Ġath lete
urse ment
zab eth
Tom ato
ĠMak avarapalem
ĠBans al
ĠAust ria
Prim ary
Ġcogniz ance
forget table
H ouses
P TI
b ig
b ling
e xt
p age
Ġb ands
ur ne
ur ya
ig an
ĠT at
ith u
em et
qu eline
ĠU nd
ore st
Ġrec alls
Ġmar rying
Ġtra ction
ya ppa
ĠGandhi ji
All a
Ġrep lies
Ġ12 3
Ġinter pre
Ġev idences
Ġshif ts
Ġperform er
ĠIsrael i
Ġgl ac
Ġver bal
ĠApp ly
Ġposition ed
Ġpo ised
Ġhy pe
val id
Ġclar ify
ĠDo ctor
ĠRec overed
Ġcontent ious
Ġtun es
Audi ence
ĠProt ocol
Ġauthentic ation
othe rapy
ĠTham ram
ĠWhats app
onym ous
omegran ate
ĠPalanis wami
C E
V ij
c ive
k ant
l an
Ġl ions
ĠC hi
ĠC apt
ĠB lood
ĠK it
ĠT JS
un elve
ag le
th ings
ĠJ S
ĠL am
ĠV ision
ric ist
ĠW he
Ġper ished
Ġnew er
Ġsc ribes
ana ji
ĠSt orm
aw al
Ġsha mpoo
ĠCha nder
ĠCha utala
An irudh
Ġph rase
ĠMad sen
Ġlet ting
cept ive
ĠChar m
ĠBi o
par able
Ġord in
Ġreview ing
AT E
ĠSp okes
ĠGroup s
sec urity
su pport
ĠDas ari
AC B
Ġ197 7
Last ly
Ġwelcom es
Ġproc ure
Ġmemor andum
ĠIr fan
Ġtow ers
Pay ment
Ġteen ager
ĠBho j
Luck ily
Sad ly
ĠSankal pa
Ġbroch ure
S ystem
b irth
l ace
w ind
Ġ ump
Ġf oes
as ant
ĠS outheast
Ġl ip
ĠP alla
ĠT S
Ġy oke
Ġyou ve
qu estion
Ġte hs
akh stan
ĠCh ha
Ġsec rets
ĠAn anda
ĠAn ganwadi
Ġgr id
ĠSh ould
ĠSh ine
Ġjoin ts
Ġhar ness
Ġins pect
ĠCon cept
aff e
spe aking
ĠApp lications
Ġbur ial
Ġobs erves
200 8
Ġfocus es
Ġsurf aces
ĠGan esha
ĠTra vel
Ġartist es
Ġmyth ology
Ġli ability
imul apu
Ult imately
ĠAbsal om
D av
L alu
W inning
f lix
Ġt ub
Ġb aff
ĠC riminal
el and
ĠA me
ĠB Y
ĠK any
ch in
if lower
ĠE zek
ide vis
ĠW R
Ġmed ieval
olog ically
Ġed itions
Ġcre ep
CP M
Ġcondu cive
ĠSon owal
12 00
Ġdece it
Ġpract icing
ĠSar ja
Ġden ying
Ġindic ator
Ġreb u
Ġreb els
ĠBand hu
Ġindustrial ists
Ġfit ted
ĠMon etary
Techn ically
Ġsevent y
inter rupted
Ġhorse power
Ġdesp air
Ġhelicop ters
ĠMuzaff arnagar
Ġintend s
Ġperce ived
Ġunsuccess ful
Bhu vneshwar
Investig ations
Mahan ati
B orn
D ead
G anguly
R ains
S ye
in st
Ġc hip
Ġf ount
Ġbe arers
Ġre jection
ĠM ig
Ġg hastly
ĠA pr
ĠA IDS
ak im
ĠJ aff
Ġr ites
iv an
ĠE dom
Ġsp ark
ĠY e
Ġafter math
ile ep
ĠTamil nadu
Ġsub du
Al le
Ġsk ip
ĠDev ineni
Acc used
Ma ha
Ġstat utory
Ġcompan ion
Ġbar riers
Ġcommunic ated
Ġkid neys
ĠExpress way
Ġimag ination
ĠNat arajan
Ġsusp ense
Ġnav al
Ġbifur cated
ĠPolit ics
Ġleak age
Ġsweep ing
ĠCeleb rations
ĠOrd inance
ĠDomin ar
Ġmit igate
ĠNeb uchad
ĠTreat y
ĠColumb ia
ĠPhal ke
ĠHarid war
unelve li
? !
B R
C over
D ad
R isk
Y amaha
d uring
Ġa venues
re gation
Ġf ared
Ġd ar
ĠS ite
ĠS essions
ĠR TI
Ġon ward
ĠP illi
ĠL ike
Ġj unction
Ġun well
ĠO ngole
pt omatic
Ġcha m
Ġfl ora
ob i
Ġcur ative
Ġdep loy
Ġref erences
Ġstory line
Ġdirect ives
ĠSar ban
Ġcard iovascular
Ġdeep en
Ġpetition ers
Ġbox ing
AI IMS
Ġbra king
ĠTax es
Invest ors
ĠPS Us
Writ ten
ĠPot l
War angal
ĠBiote chnology
Ġrepay ment
hap hat
Ġswall ow
obo am
ĠTall uri
B lend
F ee
R ules
a uthor
g ant
t ur
re ll
Ġre imb
ver i
ĠC rit
ut ic
im edia
ĠA ren
ĠP riv
od aya
ĠN PS
ĠD arshan
ĠJ oy
Ġr ash
ell s
lo oking
Ġcl ergy
Ġcha nd
Ġconst raints
Ġansw ering
Ġstand off
put es
mar ried
ĠPl ans
Pre vents
Ġcomfort ably
iram al
Ġaim ing
ĠPhil ip
keep ers
ĠVid heya
"""" """
Ġwealth y
ĠGar apati
ĠVol ume
Ġmotiv ate
Ġbrilli antly
ĠHas in
Christ ians
ĠMath ura
ĠBell amkonda
ĠBhim avaram
ĠKhus hi
Anj ali
Nizam abad
ĠZechari ah
C ool
E nergy
K ad
S oc
u w
Ġthe ories
Ġs mit
Ġd ashed
Ġl ighter
Ġg eared
ĠC A
ĠC all
ĠI du
od d
ri pted
ist rar
Ġse minar
ag uda
ĠJ K
Ġ2 25
ric ulum
ap id
ap ut
Ġcan cers
ĠRam nath
way ne
act iv
Ġsub continent
Ġbus iest
Ġdef ect
When ever
Ġeduc ate
ĠSc otland
Ex c
Ġport ray
Ġcivil ization
Ġsn ag
Ġlay out
Ġ195 2
wor ld
ĠMall u
Ġsymb olic
Ġinstall ment
Ġsustain ability
ĠStudi o
ĠProv ince
Ġwarrant y
Ġconce ived
Ġnod al
Ġrat ings
Ġembarr assed
ĠAat manirbhar
Suk umar
Oct ober
C D
b ast
i h
s sover
er ly
Ġc c
Ġb rick
Ġg ru
ĠI celand
os haphat
ĠD O
op er
Ġv ows
ĠE z
ĠE ase
Ġsp icy
Ġad s
We ather
ĠUn its
Al cohol
Ġret urne
ĠShah baz
rat ory
ĠCol onel
Ġtax ed
ĠMot era
ung ary
Ġpar amilitary
Ġpo orest
ĠJos iah
Ġdistrib uting
Ġconv oy
Ġju venile
May awati
Ġconclud es
Ġadvis ories
Ra pe
Ġcrowd ed
Ġpac ify
Ġgif ted
achel ors
ĠNE ET
Ġadmit s
Ġdispers ed
Ġscar city
Ġquarrel s
ĠMahad evan
ĠRonald o
ĠDib rugarh
ĠPom peo
Ġsympathi es
ĠMys uru
C BSE
f unction
k o
l ocal
r itional
w orth
w abh
Ġc ats
Ġd a
ou ple
Ġn ets
Ġre wards
ĠS adh
ĠA G
Ġst unt
ĠB BC
ĠT reatment
Ġy ards
un ning
th umb
ĠJ ains
ĠL IC
Ġun se
Ġsome how
Ġcar at
Ġconf using
ĠAs a
Ġsub mar
Ġtrans gress
Ġinter ference
Ġfore most
Ġmen stru
Ġaccount ing
oo f
12 8
ĠLe gend
ĠCo ach
ĠApp eal
ĠProdu ct
ĠBe aut
IP S
Ġbill ions
ades hi
Ġwish ing
ĠVish n
ĠSUV s
Ġfrequ ency
Ġcry st
ĠVir gin
ĠCirc le
Ġendeav or
Ġweep ing
Bra king
Ġdivul ge
Alla habad
T im
Ġt ang
he ment
is p
Ġp or
ĠS U
ĠS em
Ġg ases
ĠP le
us uf
ĠB ravo
ĠK ieron
ĠT ang
ĠG NOME
Ġinc idence
ĠV ivo
ie ge
Ġres ounding
Ġpart icles
Ġman agers
Ġapp les
Ġshe ets
Ġcha sing
com ings
Ġend ured
ĠHind utva
Ġref lection
ĠZ ero
Ġfa res
ĠMal i
Ġelect roc
Ġmis led
ĠInst ru
Se ek
Ġlif ting
iranje evis
ĠKan agaraj
ĠSo hail
Cont in
ĠFather s
May or
ĠKha waja
Ġpac ified
Ġventil ator
Shar ing
ĠAyushman n
ĠSubbaraj u
accept able
B ody
E P
F all
F ruit
H ollywood
e ved
k il
o ever
Ġs wo
nd ar
Ġf auna
it imate
Ġd awn
ot o
ĠM ud
ĠM iller
ĠP ong
ĠK ott
ĠG rid
Ġv oid
se hra
Ġ2 60
ĠRa os
ric ken
av ada
ĠY as
Ġ19 45
On ions
oot ty
Ġconf ess
je ctor
Ġ14 8
Ġrest raint
Ġdr one
Ġsal ad
Ġ13 2
Ġearth s
Ġpar able
ĠSun iel
Ġdece ption
Ġye a
ĠReg istration
ĠPol ish
CS IR
Ġcool ed
Ġmagn um
Ġstir red
Ġtow el
Tem ple
Ġecosystem s
Ja ipur
ĠScreen play
Ġafflict ion
Ġoun ce
ĠCharm me
F ight
I l
N N
S aid
b ird
c ry
Ġ Therefore
Ġf rozen
Ġp ots
ic itor
id an
Ġn est
ĠS ip
ĠS asikala
ĠC AR
ĠK illed
ĠD era
ĠH os
Ġim mers
Ġun m
ĠCha mpion
iss ur
ĠTe h
Ġcre ase
Ġchar ity
Ġfore nsic
ĠPl atform
Ġstri p
ER T
Ġdang ers
rees anth
ĠDi was
ĠEmp owerment
ĠAuthor ities
ĠRang ineni
ĠMin imum
sha ped
Ġhik es
ĠHon or
Ġclub s
Ġavo iding
Ak kineni
El se
El abor
Ġremed y
nut rition
Ġvo iced
ĠLin ux
Jos eph
ĠRave esh
ĠVenkataram ana
Ġdisple asure
ĠGall ery
ĠScoot er
ĠVide ocon
Ġfornic ation
ĠSovere ign
E ye
L al
M ichael
U ddhav
he res
ĠS M
Ġg ren
ĠA hab
ĠP iramal
ĠB rows
ri ous
ĠG ibe
ĠD ow
em ini
ive nd
cc a
ap adu
Ġwork place
ĠY o
ens itive
Ġmar ching
ĠAr baaz
Ġfl ocks
Ġteam ed
ĠMo een
Ġve hement
Not ably
Ġaccount ability
Ġ16 5
Ġtour naments
inc ely
Man ish
Ġhy per
ĠHow ever
ĠAshok a
Ġaltern ate
ifest yle
Ġquant um
ĠEV M
Ġhonest ly
Ġentrepreneurs hip
Arun achal
Sign s
ĠShil pa
abhan eni
Ġstagg ering
Ġhealthi er
ĠLagad apati
v ir
in ates
Ġl onely
Ġe co
ĠC ov
ĠR and
ĠR ains
Ġst amp
ĠT ank
ĠG hana
ĠD ra
He aring
ag al
ĠL ewis
ĠV et
ap utra
ĠE ti
Ġj ams
all u
Ġam ple
Ġsc aled
Ġsc reaming
ub ar
aw i
Ġra ces
ma Nirbhar
Ġass urances
Ġaff irm
Ġmet ric
Ġbest owed
amm ootty
ĠBhar ath
ĠRes ident
rain ian
ĠRe organisation
Ġ0 4
Ġtri angular
Ġlight ly
Ġrespond ents
Ġgra cious
Ġshar ma
Ġopp ression
Ġqual ifications
ĠDi am
De cember
Rel igion
Ġfort une
Us er
ĠCy clone
Ġdiss em
Ġwa ive
ĠAj ith
ĠElectric ity
Ġmild ness
Through out
Ġpool s
Ġadvert ising
Ġenthusi asts
bor ne
Sex ual
neum onia
B ur
E mergency
S weet
b urn
c ourse
f oot
is ma
Ġd are
Ġn onsense
ĠR ing
ĠR elease
ĠP ract
ith ium
pp an
"" .
Ġle opard
ĠL ocation
Ġpe ppers
ĠRaj yavardhan
Ġrem inder
ĠKumar s
Ġcons isted
Ġsocial ly
Ġsm ote
ĠHe ma
Ġsub div
Ġop ined
Ġsl umped
ĠCM O
ĠPat hank
ĠChar tered
Ġcr unch
ĠAg ri
ĠEn och
rif e
Ġ0 6
Ġvari ation
uro re
eb ted
ĠSub b
Rah man
Ġcompet ent
ĠBa at
ĠSind h
Ġunve il
Ġhur led
ĠDisc harges
Sat an
ĠDire ction
ĠMil k
ĠKes hava
Nag aland
ĠSubram anyam
ĠSaj jan
Ġplun ge
Ġcrown ed
Ay odhya
ĠMoz illa
ĠRepresent atives
Ġgerman y
Hal f
Ġobl igation
Rober t
igart handa
ĠPotl uri
E astern
J M
M ani
S ki
U E
n uts
p ires
r ame
y ards
Ġc odes
Ġb ash
ĠS ou
Ġl ing
Ġl uc
ĠM ethod
ĠC K
ĠC henn
ĠP ath
ĠT u
ĠD ie
um ula
th ur
ĠF iles
Ġtheir s
og g
Ġpres iding
ĠCha ld
Ġfin ishing
ĠAd hir
Ġop us
ĠAss amese
Ġprom in
ĠAm rut
Ġhum our
Ġcolle ague
Ġwar rior
Ġche cks
Im m
Ġshort comings
Ġdam aging
Ġ0 3
Ab hishek
Ġred ress
Pre vent
Ġmis used
ĠTri umph
Ġflu ids
ĠMor cha
Ġnort heastern
AL L
ĠAad har
Ġcoord inated
Ġroll s
ĠTar an
ĠCS K
ĠAnj ani
bag h
Ġmad ness
Pers on
Ġadm inister
Ġstro kes
Mohan lal
Ġabdom en
Ġinspe ctor
Ġdesper ately
Ġoppon ent
ĠES L
Ġmamm oth
Ġrede em
ĠNeg i
Legend ary
ĠGout ham
2 500
B rand
F at
F ac
P T
Q ue
c hief
c ovid
f ting
p ress
p hab
v aram
ĠS ult
ĠS eva
Ġe ased
ol u
ĠC astes
ut ives
ĠA ustral
ĠB ase
ĠB arn
ĠD CC
ĠD aksh
and ruff
ĠJ AC
Ġsp ate
Ġreg ulated
ub s
20 13
Ġatt itudes
Ġloc usts
St alin
ani um
ĠAm ala
Ġ14 2
Ġext ract
ĠNar asara
Ġnecess itated
ĠOr thodox
Pl ant
Ġconstit utes
ĠCricket er
ĠTir unelveli
Cl ashes
ĠRec ruitment
itt a
Ag ricultural
Ġlog ical
Ġutil ise
Ġtack ling
ĠFort un
Ġquarant ined
Ġvan ished
lar ation
Comp ensation
Ġhes itate
ĠHaz are
ĠSaj jala
oz hi
Ġabsor b
ĠManufact uring
Ġpublish ing
Ġfeas ible
Gener ally
ĠPathank ot
A j
C H
G hee
I O
L im
S in
c ate
Ġs hes
ar is
Ġd umped
Ġl ingu
ĠR ally
im rat
ĠP uvvada
ĠK um
ĠG ran
ĠG aru
Ġle vies
ant ham
ĠF OR
Ġor al
Ġlo op
ew are
Ġrec y
Ġsha ping
ov able
Ġtem p
Ġdes erted
Ġbank rupt
Ġbeg at
ĠKap u
by e
ĠNe hemiah
Ġtele cast
Ġstrugg les
Ġproceed ing
ĠKon kan
ĠStand ards
ĠChou bey
Ġliquid ity
Ġstruct ural
ĠMos aic
ĠMic hel
Ġthrong ed
Ġtox ins
ĠVishw eshwar
ĠChik k
orient ed
ĠSarban anda
E M
N aidu
R um
W F
b est
er ting
is al
ĠS ul
ve ll
Ġg hat
Ġst riving
ĠB ir
ĠK abaddi
ul ates
ĠG MB
ĠN ASA
ĠH ad
Ġle ver
Ġr ug
ant ine
ĠL u
ĠV P
ik anta
In side
Ġte ndered
arn ation
vers ion
Ġbo red
Ġ19 49
ĠShar an
rent ial
Ġmod ules
ĠZ ee
ĠMad hapur
Ġchar red
ĠAb b
cent ric
Ġdev il
ĠCol omb
Ġviol ates
ĠSa haran
ĠNTR s
Ġstat ic
ĠShe kha
Ġden omination
ĠCo ffee
ier ra
Ġsan it
Ġscreen writer
Ġboard ing
ĠVenkat ram
ĠJer oboam
ĠBab ar
Fire fox
ĠDas ara
Bl ock
ĠSim ran
ĠVijayas hanti
Ġscal p
Ġspr ings
ĠNaz eer
ĠCoast al
Ġrall ied
sal t
Ġwrest ling
ĠKu wait
Ġpione ering
Ġcalc ulation
Ġchurn ing
Ġuncom fortable
Ġtopp le
Ph ones
Ġdash board
ĠBik aner
ĠSathy araj
Ġplum met
udhi ana
B umrah
D ha
K ings
N at
j et
w orthy
ad kat
ĠT alaq
Ġfil ter
if th
iv ar
ĠV ande
Ġab usive
Ġpart ly
hy ant
ub abad
Ġdisc on
Ġprov es
Ġback s
ov ic
Ġtrans it
Ġsl ips
Ġed ges
Ġ18 8
arch y
Ma hatma
Raj esh
Com mercial
Ġfoot ing
hold ing
Ġexplain ing
Ġtraffic king
Ġclim bing
ĠLaw s
Ġ37 7
ĠRang asthalam
Interest ing
Ġtoler ance
ĠRenew able
Ġengulf ed
ĠThu nder
F ake
M iz
R at
S O
c otics
g ir
l ane
Ġs ul
Ġc ock
ĠS anthosh
ĠM CL
ĠC risis
ĠK R
un ks
her ing
ĠV oting
Ġj apan
Ġpe ar
Ġoff ended
Ġman ages
Ġinv asion
Ġplay offs
ĠMa ul
ey ond
ĠMan madhudu
ĠAd imulapu
ĠChrist end
gar ian
app ointed
Ġ13 3
isha ble
Ġperform s
ĠAl war
Ġsw ords
ĠFor bes
Ġens ures
rif ying
ĠMand aviya
ĠMah ila
ĠAt ul
ĠRep orts
Ġthreat en
Ġgra pp
Produ ct
ĠSte yn
Ġpenal ties
ĠGang es
ĠGl ass
Ġinstrument al
ĠSury adevara
Ġdiam eter
Ġexha usted
Ġsanitiz ers
Ġconfront ation
Ġlac s
Ġexal ted
Ġfract ured
ĠVaish nav
"' ,""
Ġga uge
. -
J ac
L V
S ounds
W E
d am
e ve
p ol
re ars
Ġc us
Ġb ru
Ġin ade
Ġg aga
ĠC ivic
ĠR is
ĠA ak
ĠK hat
ĠG ra
her ic
ĠN ees
ĠD atsun
Ġnot ifications
Ġ2 10
ĠL oc
ĠF ab
ĠU tha
ĠU RL
ary an
Ġdec ree
Ġind ebted
Ġmake up
Ġhand ic
Ġve ctor
Ġref rain
Ġdel ta
Ġ14 3
ĠTe a
ĠPra h
Ġoil y
Ġpati ently
Ġdiv a
Ġprof ess
Ġauthor ized
ĠVar alaxmi
Ġ0 8
Ġvari able
af oet
ĠMe ets
Ġthy self
Ġgear s
Ġplant ation
ĠKul bhushan
Ġund ers
Ġamb ition
Son akshi
ĠQu inton
Ġwaste water
Ġwilling ness
Ġdocument ary
Ġemb race
akk ad
Ġagit ators
ĠThan ks
IJ AY
bl ack
ĠShim la
Ġrepent ance
Histor ical
Ġadvertise ment
Ġmarvel ous
Ġlapt ops
Kap il
ĠBalasub rahmanyam
asar ala
Aug ust
Ġwag ons
Vij ays
afoet ida
F it
M ig
P CR
c ond
c els
f in
l ow
p rising
v y
at has
ar ians
am pering
ĠC ast
Ġh umb
ri x
Ġy a
ab ai
ĠD ok
um my
han iah
ĠF ast
av ur
Ġcomp ounds
ĠW asim
Ġlo ads
ĠY ellow
Ġfe ather
Ġexp ired
Ġ19 40
Ġregard less
Ġref ined
Ġ16 4
ĠAl am
Ġhuman itarian
Ġz o
ĠTrans fer
ĠAnt hony
Ġtext iles
ĠSir ish
ĠVid yal
ĠVas ud
Ġyield s
Ġremind ers
Diff icult
ĠBrahm aputra
Market ing
Ġchurn s
ĠSupp lies
ĠUnivers al
ĠExcell ency
ĠArmen ia
ĠUpp al
ĠKev in
ĠNimm agadda
1 70
D og
M ess
S ena
c urement
r il
Ġc ries
Ġf urore
Ġn ick
ĠM es
ĠM ich
ver ick
ĠG alla
ĠN idhi
Ġas afoetida
Ġcom edian
ĠJ at
ĠL V
ĠW edding
Ġout right
Ġun interrupted
ĠO R
ip utra
li ers
ĠGo vardhan
ĠAn ak
Ġconf irms
Ġinform al
ara z
Ġinf o
Ġret reat
Ġret rieved
angu ages
ĠAl bert
Ġ24 5
ĠBhar athi
Ġrain y
Ġmot ors
ĠDay akar
Ġspec s
Ġcondol es
Ġbar ley
Rel igious
Ġcas eload
Ġlay ers
ĠBand la
ĠSk ills
ĠFar han
ĠPart ition
Ġder iv
ĠGang war
Ġsem is
Ġcheap est
Id ent
Ġfu els
step s
yr gy
Ġori ented
Ġenvis aged
Ġexempl ary
ivend ula
G DP
V IJAY
b ats
m ine
s ized
Ġs op
le ft
Ġl ap
ig uda
ĠT hank
ĠD A
Ġat omic
Ġle ct
Ġex agger
ĠV ia
ric a
ĠE ver
ĠW a
Ġout lay
Ġreg rets
Ġtra cked
Ġfl own
Ġ19 30
Ġprov oked
ĠSha ikh
Ġcol oured
Ġeff ici
Ġcre ed
pend ing
ĠMal inga
Ġdr astic
Ġtre acher
arat hi
Ġtechn ically
ke ya
Ġview point
Ġple aded
Ex pected
ĠAmeric as
Ġindivid ually
ĠSpe ed
ĠJay ap
Ġclim ax
Ġflu ctu
Ġgovern ed
Ġhur ting
ĠNir bhar
Ġexplos ives
Kar un
ĠMount ains
Ġassign ments
Ġdiplom a
ĠBer lin
Ġautonom y
Ġincom plete
ĠConsult ancy
ĠGowt ham
hom me
Ġintoler ance
3 000
e ven
g rat
v ara
z i
Ġ """
Ġc oc
Ġc abbage
Ġf ur
Ġf ret
Ġp act
Ġin equ
al se
il kar
ĠP K
ur adha
Ġfor ged
Ġst rife
ig ma
ĠG reg
Ġby e
Ġle nders
Ġex uded
Ġinc ub
Ġpe aks
ĠW ould
ĠW inter
Ġout reach
Ġad ap
te ch
Ġdis respect
ont o
ru kh
Ġsha des
ĠRam pal
Ġprov ider
Ġback bone
Ġnever theless
Ġcle ver
ĠZ ones
Ġair space
Ġ18 5
erv ical
ĠSe xual
ĠNar iman
ĠIsrael ite
irc um
ĠHar ivansh
gr oup
Ġclean se
Ġattend s
hel p
Se ems
Ġsn akes
Ġdecre ases
roc ities
ĠEm b
Ġagg ress
Could n
Ġartist e
ĠSury apet
ĠParv athi
ĠMangal uru
Pad ma
comp liant
Ġteen agers
ĠHave li
Prom inent
Ġaud it
ĠCur ran
Ġabdu cted
Ġsew er
ĠPonn ala
Egg s
ĠSreed har
Ġredes igned
ĠAdm iral
yrgy z
E ld
F lights
K iran
S ep
g age
i ants
j ha
t te
er get
Ġs ip
Ġf oll
Ġn os
Ġre ced
ĠS ong
ve lla
ĠM rs
ver b
Ġfor cing
Ġst amped
ĠB achelor
Ġv ag
em ics
ĠF ollow
Ġad oles
Ġcount less
ub lished
ren cies
me et
Ġ19 20
Ġconf erences
Ġmin ors
ĠKap oors
ĠKashmir is
ĠShiv an
Ġdra ins
Com menting
Ġcal f
Ġpot able
Man ohar
AI B
ĠNav ratri
kes pe
Ġ195 1
Ġregul ator
Cle ar
Ġgriev ously
Ġdeliber ately
ĠMund a
ĠJab alpur
Gaut am
Ġvehement ly
D ise
F L
G lo
P ran
R ama
S witch
d ie
e ath
n ik
Ġt oug
Ġo v
al an
Ġd ressing
ĠS EC
Ġl ane
Ġe uro
ĠP ang
ĠK unal
ĠT ap
Ġth resh
Ġk a
ĠF ashion
ĠW ife
te chn
ip her
Ġen erget
Ġpres cription
Ġbr ush
Ġcor rection
Ġsub stances
ĠCent ury
Ġsuccess ion
Ġ15 4
ĠShah ja
Ġgu ilt
Ġtour ing
Ex cess
ĠMus harraf
ĠRan jit
Ġinstit uted
Pl aying
ĠConstitution al
Ġant iv
Ġindic ating
Ġrum our
Ġconsult ing
ĠAra ku
Ġhast y
ĠGrand homme
ĠWind ow
Ġgrab bing
ĠEli zabeth
ĠBib lical
Ġrot ation
Ġdeliber ations
Ġnep otism
Ġindul ge
Off ice
Ġprocl aimed
Adv ocate
ĠFC I
Colle ge
ĠLabor atory
ĠEthiop ia
uber cul
opp osed
ĠChakrav arthy
ĠPont ing
ffici ency
Represent atives
ĠTanz ania
P IB
S id
S ource
U nex
V ide
c hem
Ġin app
Ġd ose
Ġn iece
ĠS ev
ĠI F
Ġhe ars
ce ived
ĠT hala
ĠD or
ĠF MCG
Ġqu oting
ĠRaj ouri
rict ions
Ġmar ries
Ġpers ists
Ġfin es
Ġel ite
hu ja
ĠAg encies
ike ya
ĠSc reens
Ġmot ives
Let ter
Te ams
Ġver ify
ĠSar panch
ĠReg ina
Loc ation
ĠEd itor
Ġgen us
Ġmagn etic
Ġjew el
ĠStat ue
ĠPoll s
Ġscholars hip
Ġcad res
Ġsincere ly
ĠAtl uri
ĠCa pe
Ġrecon cil
ĠJog i
ĠWell ness
ĠTa apsee
Tir upati
lif ting
Birth day
AW ADA
Ġdoct rine
Gradu ally
ĠErn akulam
Ġrecons ider
ĠAren a
! ...
F ill
c od
in ous
on ment
en ec
Ġo we
al mer
le gal
Ġg olf
ur ated
Ġh orn
ĠK air
ĠK aram
ĠG ide
ĠD BT
ĠD hadak
pp uram
Ġr ams
ĠL yn
Ġab et
Ġun acceptable
Ġdec iding
own s
Ġass uming
Ġinst ruct
Ġ14 6
Ġmet ropolitan
Ġbre wing
ĠFor ward
Ġsuper hit
ĠSan on
Ġ0 2
gr ade
ĠRan jith
Mar ried
Did n
AS H
Ġforg iven
Ġloving ly
ĠNet aji
ĠParam eshwar
Ġinteract ing
hak ti
ĠCamb ridge
ĠNas hik
Ġannoy ed
Ġpean uts
ĠBend re
ĠSpokes person
Ġcham bers
B MW
F O
M or
a pe
d ollar
he im
re al
as th
Ġre velation
ĠS uch
ĠA mp
Ġst ew
ĠB P
ĠT um
ul ously
Ġan k
ĠD ol
Ġnot eworthy
Ġse ize
op t
ap ans
ĠU sha
Ġpart ed
Ġass ent
Ġimp lies
Ġbl asp
Ġ17 4
Ġstrong hold
Ġdest abil
ane ous
Ġden ial
Ġbi odiversity
ĠRag hun
ĠRajput s
Ġanaly sed
Ġstorm s
Ġ196 9
ĠTy agi
Pres so
Ġidol at
Ġox ide
Indust ries
Ġteen age
Ġtrop hies
Ġsar panch
ĠSupp ly
ĠBare illy
Veget ables
Compet ition
Ġdedu cted
ĠCarl os
Ġpartn ered
ĠShekha wat
VIJAY AWADA
ubercul osis
A ishwarya
G O
P il
S erena
b ec
h ouses
Ġc oward
Ġf ainted
Ġp ods
Ġl id
ol is
us ha
ig ure
ĠN ak
ĠD uster
ac o
Ġex ile
qu et
ĠF ROM
ĠW ang
Ġcont ag
ub en
man y
ite ish
Ġhelp less
An cient
Ġrece pt
Ġhead quartered
Ġob taining
Ġmain land
Ġcandid ature
Ġnow adays
Ġproblem atic
Ġel ated
Pro ject
ude au
ĠTha k
Ab raham
11 8
Ġquar re
Ġmaterial ised
Pre c
Pre pare
Ġopp ressed
ĠVish wanath
Ġcomfort ing
rad han
ĠSum mer
Ġsound track
Ġpure ly
ĠAccount ants
ĠAnup am
Part icular
Test ing
Beaut y
ĠTibet an
Ġsemif inal
Ġoblig ations
ĠJim my
Ġker nel
Ġjun cture
Ġbarric ades
D G
O K
S ant
ed u
Ġo d
Ġf iber
es la
al co
Ġm ills
Ġha i
Ġha ught
ĠS ave
ĠM I
hat a
im et
Ġal arm
Ġal pha
ĠH ath
ĠH edge
Ġk umar
iv ada
ĠF aiz
Ġpe gged
Ġ20 3
ai y
ĠCha udh
ne zzar
ĠUn ix
ĠUn adkat
Ġ19 19
ck us
Ġbl aming
lain t
Every day
Ġsever ity
ĠAm os
Ġdel icate
Ġgu iding
Ġfa ctions
be arers
Ġdiv iding
Ġru ckus
Ġsuper intendent
Ġ0 9
Ġdefe nded
Ġsens es
Ġcoun ters
Ġthreat ens
ĠCont inue
Ġpack s
ĠNav i
quar ter
Ġble m
ĠAv asarala
Ġdomin ate
ĠCinem atography
Eff ect
Ġdivide nd
ĠKK R
Ġepic ent
Ġcos metic
apat nam
Ġuncom mon
Vish nu
Ġprejud ice
ĠIgn is
ĠZa heer
feed ing
ĠNadi ad
ĠJor hat
ĠMaul ana
% ),
? ,
A wareness
D am
N um
P ush
T T
W ords
e ans
e ering
h ou
x a
Ġ ib
in f
es waram
Ġb ast
ar o
ro of
ĠS ast
Ġl ib
ĠM V
ĠM end
el vam
os c
ĠN CB
ag h
art a
Ġv iable
ĠH E
ast ur
ĠE oin
ater ing
Ġen comp
ram b
Ġdevelop ers
Ġdef ines
Ġread er
Ġref ere
Ġ13 4
ke i
Ġmess engers
Ġroads how
Ġbi ological
Ġball ots
Ġdram atically
ĠSik ri
ĠDan ish
ĠSom alia
Ġindustrial ist
ĠFar m
ĠBas ic
Ġ195 5
Ġprophe cies
Ġmechan isms
Ġprivile ged
Ġremind s
Ġcorresp ond
ĠNam rata
ĠJyot hi
ĠImp act
Ġvolunt arily
Ġrebell ious
ĠPrag ya
communic ation
third s
Ġjealous y
Ġscrut iny
Happ iness
Ġparamed ical
G re
H ands
N ER
P U
R ating
R ob
h ops
h ushan
er gic
Ġo ceans
Ġto ys
Ġl ush
ol ism
ĠC hil
ĠP ixel
ist ence
ĠN ampally
Ġde hyd
art ala
em o
ĠV VS
ĠU GC
ang am
ang anas
ell ite
Ġno on
In v
Ġad missions
Ġtr ims
per ial
Ġrec ru
Ġpr incely
rib ly
Ġdep icted
andid ate
ĠParty s
ĠChandra pur
Ġeconom ist
Ġsmall cap
ĠCon ven
ĠBang l
Ġcapital s
Ġsens itivity
ĠKam l
Dr ug
Ġcondol ence
ĠCan on
Shiv akumar
Ġunf azed
pro sy
ĠNik kei
hag udem
Real me
ĠBis wabh
Pak istans
ĠEqu ipment
ĠFat ality
ĠKarthi keya
ĠJeh oshaphat
Medic ines
ĠMuker jea
ĠThr issur
Upd ate
Ġmolec ules
Ġcaul iflower
ĠNarasara opet
Miz oram
C EO
L aughter
N is
r ust
w eta
Ġs ow
Ġs own
ed uc
Ġc ran
Ġn ails
ĠS aid
Ġg y
ĠR h
ĠR achel
ir ala
ĠK id
ĠK ajol
ĠN CC
Ġex qu
Ġall ergies
ard om
Ġso y
Ġun lock
Ġ7 37
Ġkill ers
Ġwant ing
Ġconf isc
ov es
Ġimportant ly
Ġhar mon
Ġsl a
Ġ13 1
ĠAg n
Ġsuper stars
Ġwhole hearted
Ġrev oke
Ġdefe ats
eni us
rant ed
Ġri ot
Ġste am
ĠKan haiya
Cont inue
Ġund is
Ġdelight ful
ĠPur ana
pro v
Ġelim ination
Ġsnow fall
Inter view
Ġconvin cing
Ac ross
Oper ation
Ġcontrad ict
Mur der
Ġadvoc ates
ĠJeho i
Ġanch or
Ġignor ance
Ġcouncill ors
Ġexpon entially
Nik hil
ĠMaced onia
dire cted
Ġordin ances
8 50
D L
P rem
T ai
v ille
Ġ ic
Ġf erv
Ġp ensions
Ġd umb
ĠM ind
Ġg er
ow da
Ġst akes
Ġst ellar
ul er
ers elvam
ĠJ ones
Ġle prosy
Ġpl ag
ĠV es
ĠV ihar
ĠF all
Ġor b
Ġun av
Ġcl ues
Ġra c
Ġpos itivity
Ġent ail
Ġcor p
Ġdep reci
Ġinf ilt
Ġref using
Ġlod ging
Ġsum m
ĠGr ant
Ram ya
Ġmand als
Ġ35 4
Spe ed
Ad itya
Ġnom inees
ĠBand i
Reg ional
Food s
ande z
Comm unic
ĠMult i
ĠWil son
ĠTurk ish
ĠKud umula
ĠKany akumari
uw aka
D ST
F uture
K im
P ast
o qu
Ġc od
Ġf en
Ġb ias
Ġto oth
ĠS elect
ut ter
ĠK up
ĠT UV
ell ate
ition ers
hy l
Ġplay back
An imal
Ġben eath
Ġattack er
ĠMar atha
ĠSu nder
aram a
Not ed
Ġest ranged
Ġ30 4
ĠSat yam
Ġsw ear
Ex amples
Ġgl owing
hon is
Ġcoll ide
ĠSrinivas ulu
ĠRo han
for ward
Man mohan
ĠSr im
Ġneighb oring
ĠTir uv
Ġsanct ified
ĠLat ham
Ġhabit at
eff icient
Ġpoison ing
Prote ction
Ġcolon ies
ĠKV IC
Ġsteal ing
ĠKath ua
ĠJoin s
ĠFortun er
. [
A ry
L L
L S
W his
as al
Ġbe ware
[...]
