{"<sos>":0,"<eos>":1,"<pad>":2,"<unk>":3,"!":4,"\"":5,"#":6,"$":7,"%":8,"&":9,"'":10,"(":11,")":12,"*":13,"+":14,",":15,"-":16,".":17,"/":18,"0":19,"1":20,"2":21,"3":22,"4":23,"5":24,"6":25,"7":26,"8":27,"9":28,":":29,";":30,"<":31,"=":32,">":33,"?":34,"@":35,"A":36,"B":37,"C":38,"D":39,"E":40,"F":41,"G":42,"H":43,"I":44,"J":45,"K":46,"L":47,"M":48,"N":49,"O":50,"P":51,"Q":52,"R":53,"S":54,"T":55,"U":56,"V":57,"W":58,"X":59,"Y":60,"Z":61,"[":62,"\\":63,"]":64,"^":65,"_":66,"`":67,"a":68,"b":69,"c":70,"d":71,"e":72,"f":73,"g":74,"h":75,"i":76,"j":77,"k":78,"l":79,"m":80,"n":81,"o":82,"p":83,"q":84,"r":85,"s":86,"t":87,"u":88,"v":89,"w":90,"x":91,"y":92,"z":93,"{":94,"|":95,"}":96,"~":97,"¡":98,"¢":99,"£":100,"¤":101,"¥":102,"¦":103,"§":104,"¨":105,"©":106,"ª":107,"«":108,"¬":109,"®":110,"¯":111,"°":112,"±":113,"²":114,"³":115,"´":116,"µ":117,"¶":118,"·":119,"¸":120,"¹":121,"º":122,"»":123,"¼":124,"½":125,"¾":126,"¿":127,"À":128,"Á":129,"Â":130,"Ã":131,"Ä":132,"Å":133,"Æ":134,"Ç":135,"È":136,"É":137,"Ê":138,"Ë":139,"Ì":140,"Í":141,"Î":142,"Ï":143,"Ð":144,"Ñ":145,"Ò":146,"Ó":147,"Ô":148,"Õ":149,"Ö":150,"×":151,"Ø":152,"Ù":153,"Ú":154,"Û":155,"Ü":156,"Ý":157,"Þ":158,"ß":159,"à":160,"á":161,"â":162,"ã":163,"ä":164,"å":165,"æ":166,"ç":167,"è":168,"é":169,"ê":170,"ë":171,"ì":172,"í":173,"î":174,"ï":175,"ð":176,"ñ":177,"ò":178,"ó":179,"ô":180,"õ":181,"ö":182,"÷":183,"ø":184,"ù":185,"ú":186,"û":187,"ü":188,"ý":189,"þ":190,"ÿ":191,"Ā":192,"ā":193,"Ă":194,"ă":195,"Ą":196,"ą":197,"Ć":198,"ć":199,"Ĉ":200,"ĉ":201,"Ċ":202,"ċ":203,"Č":204,"č":205,"Ď":206,"ď":207,"Đ":208,"đ":209,"Ē":210,"ē":211,"Ĕ":212,"ĕ":213,"Ė":214,"ė":215,"Ę":216,"ę":217,"Ě":218,"ě":219,"Ĝ":220,"ĝ":221,"Ğ":222,"ğ":223,"Ġ":224,"ġ":225,"Ģ":226,"ģ":227,"Ĥ":228,"ĥ":229,"Ħ":230,"ħ":231,"Ĩ":232,"ĩ":233,"Ī":234,"ī":235,"Ĭ":236,"ĭ":237,"Į":238,"į":239,"İ":240,"ı":241,"Ĳ":242,"ĳ":243,"Ĵ":244,"ĵ":245,"Ķ":246,"ķ":247,"ĸ":248,"Ĺ":249,"ĺ":250,"Ļ":251,"ļ":252,"Ľ":253,"ľ":254,"Ŀ":255,"ŀ":256,"Ł":257,"ł":258,"Ń":259,"à°":260,"à±":261,"Ġà°":262,"à±į":263,"à°¿":264,"à°¾":265,"à±ģ":266,"à°°":267,"à°¨":268,"à°Ĥ":269,"à°²":270,"à°ķ":271,"à°¤":272,"à°¦":273,"à°¯":274,"à±ĭ":275,"à±ĩ":276,"à°Ł":277,"à°¸":278,"à°ª":279,"à°µ":280,"à°®":281,"à°¡":282,"à±Ģ":283,"à°Ĺ":284,"Ġà°ª":285,"à°ļ":286,"à±Ĩ":287,"âĢ":288,"Ġà°ķ":289,"Ġà°¸":290,"Ġà°µ":291,"âĢĮ":292,"Ġà°®":293,"à°¿à°Ĥ":294,"Ġà°ħ":295,"Ġà°ļ":296,"à±ģ.":297,"à±Ĥ":298,"Ġà°¨":299,"à±įâĢĮ":300,"à°¿.":301,"à°·":302,"à°ľ":303,"Ġà°¤":304,"à±Ī":305,"à°¶":306,"Ġà°°":307,"à°§":308,"à°¬":309,"à±Ĭ":310,"Ġà°Ĩ":311,"à±ģà°Ĥ":312,"à°¹":313,"Ġà°ī":314,"à°£":315,"Ġà°¦":316,"Ġà°¬":317,"à°Ń":318,"Ġà°²":319,"Ġà°İ":320,"Ġà°ĩ":321,"Ġà°Ĺ":322,"Ġà°ľ":323,"à°¾à°Ĥ":324,"à°ħ":325,"à°¥":326,"à°³":327,"à°²à°¨":328,"à±Ĩà°Ĥ":329,"Ġà°ħà°¨":330,"Ġà°Ń":331,"à°²à°ķ":332,"à°Ī":333,"à°µà°°":334,"à°ĩ":335,"à±ģ,":336,"Ġà°¶":337,"Ġà°Ī":338,"à°°à°¤":339,"à°İ":340,"Ġà°¹":341,"à°Ĩ":342,"à°ĸ":343,"à°¯à°¨":344,"à°°à°®":345,"à°¦à°°":346,"Ġà°¯":347,"à°«":348,"à±ĥ":349,"Ġà°®à°°":350,"Ġà°Ł":351,"Ġà°ı":352,"Ġà°ªà°°":353,"à°°à°ķ":354,"Ġà°Ĵ":355,"Ġà°¸à°®":356,"à°ķà°°":357,"Ġà°īà°¨":358,"Ġà°«":359,"à°¿,":360,"Ġà°¡":361,"à±į,":362,"à°¦à°¨":363,"à±ĩà°Ĥ":364,"à°¯à°ķ":365,"Ġ1":366,"Ġà°Ĵà°ķ":367,"à±Ĭà°Ĥ":368,"à°Łà°°":369,"à°¤à°°":370,"à°°à°£":371,"à°®à°¨":372,"Ġà°ľà°°":373,"à°Łà°¨":374,"à°·à°¨":375,"Ġà°ħà°µ":376,"à±Į":377,"à±ĭà°Ĥ":378,"à°¤à°¨":379,"à°¯à°®":380,"à°²à°²":381,"ĠâĢ":382,"Ġà°ħà°§":383,"Ġà°ķà°²":384,"à°ªà°Ł":385,"Ġ2":386,"Ġà°Ĩà°°":387,"à°°à°Ń":388,"à°ªà°¡":389,"à°ķà°²":390,"à°°à°¸":391,"Ġà°¤à°°":392,"à°¯à°²":393,"à°¾,":394,"à°µà°²":395,"à°Ĥ.":396,"\"\"":397,"Ġ(":398,"à°¨à°Ł":399,"à°ĩà°¦":400,"à°¸à°°":401,"00":402,"à°¬à°¡":403,"à°ħà°¯":404,"à°®à°°":405,"à°ķà°¡":406,"Ġà°Ĩà°¯à°¨":407,"à±Ĥ.":408,"à°·à°²":409,"Ġà°ĩà°¦":410,"à°ªà°°":411,"à°°à°¯":412,"Ġà°İà°¨":413,"à°ªà°¤":414,"à°¯à°µ":415,"à°°à°µ":416,"à±Ģà°Ĥ":417,"à°°à°§":418,"à°·à°¯":419,"Ġà°®à°¨":420,"à°¤à°®":421,"Ġà°§":422,"Ġà°ħà°¦":423,"Ġà°ĵ":424,"Ġà°µà°ļ":425,"à°¦à°²":426,"à°µà°¡":427,"à°Ĩà°°":428,"Ġ.":429,"à°İà°¸":430,"à°°à°²":431,"à°¤à°²":432,"Ġà°¤à°¨":433,"à°ļà°¡":434,"à°¿?":435,"Ġà°¦à°°":436,"Ġà°·":437,"Ġà°ħà°Ń":438,"à±Ģ,":439,"à°¾?":440,"Ġà°ķà°¨":441,"à°ļà°¨":442,"Ġà°¨à°®":443,"Ġà°ħà°°":444,"ĺà°Łà°¨":445,"Ġà°¨à°Ł":446,"âĢĻ":447,"à°ħà°¨":448,"à°Ĳ":449,"à±įâĢĮ,":450,"à°Ĥ,":451,"à°ľà°¨":452,"Ġà°ħà°¯":453,"à°²à°¤":454,"Ġà°ħà°¤":455,"Ġà°ªà°¨":456,"Ġà°¸à°°":457,"à°°à°ª":458,"Ġà°ħà°®":459,"Ġà°²à°ķ":460,"Ġà°ĸ":461,"à°°à°¦":462,"Ġà°®à°¹":463,"Ġà°İà°²":464,"à±ĩ.":465,"Ġà°Ĩà°¸":466,"à°µà°¨":467,"à°¨à°¦":468,"Ġà°ļà°°":469,"à°°à°¨":470,"à°Ĺà°¤":471,"Ġà°Ĩà°®":472,"à°µà°ļ":473,"à°ı":474,"à°¯à°°":475,"Âł":476,"à°°à°ľ":477,"Ġà°µà°°":478,"Ġà°ħà°²":479,"à°Ĺà°°":480,"à°¶à°ķ":481,"Ġà°İà°ķ":482,"Ġà°¸à°¹":483,"Ġ3":484,"âĢĺ":485,"à°Łà°²":486,"à°·à°£":487,"à°²à°¯":488,"à°¨à°µ":489,"Ġà°¤à°®":490,"Ġà°īà°ª":491,"Ġà°Ĳ":492,"Ġà°ıà°®":493,"à°¨à°°":494,"à°µà°¤":495,"à°²à°ª":496,"à±ĩ,":497,"Ġà°ªà°Ł":498,"à°ľà°¯":499,"à°¯à°¤":500,"à°Ĺà°²":501,"à±ģ?":502,"à°¤à°ķ":503,"à°¨à°¨":504,"Ġà°®à°§":505,"Ġà°īà°¤":506,"Ġà°µà°¸":507,"à°¨à°®":508,"à±į.":509,"à°Łà°ķ":510,"à°ļà°°":511,"Ġà°ħà°ķ":512,"à°¯à°¡":513,"à°ľà°°":514,"Ġà°īà°¦":515,"à°ħà°¦":516,"à°¨à°ª":517,"Ġà°ĺà°Łà°¨":518,"à°¨à°²":519,"Ġà°ªà°¡":520,"à°¾.":521,"Ġà°ħà°ª":522,"à°ķà°ª":523,"à±ĸ":524,"à±Ĩà±ĸ":525,"à°¡à°²":526,"Ġà°ıà°°":527,"à°ĺ":528,"à°Ĵ":529,"Ġà°ħà°¸":530,"à±Īà°Ĥ":531,"20":532,"Ġà°ĩà°ª":533,"à°¨à°¸":534,"à°²à°®":535,"à°°à°¶":536,"Ġà°µà°°à°ķ":537,"Ġà°ªà°¦":538,"Ġà°ķà°°":539,"à°ĩà°ķ":540,"à°ī":541,"à°ļà°²":542,"à°ł":543,"Ġà°¤à°Ĺ":544,"Ġ20":545,"Ġà°ħà°¡":546,"à°¨à°ķ":547,"Ġ4":548,"à°Łà°®":549,"à°¦à°Ł":550,"Ġ5":551,"à°ħà°²":552,"à°¥à°²":553,"à°²à°°":554,"à°ªà°ķ":555,"à°®à°ķ":556,"Ġà°°à°ķ":557,"Ġà°¤à°ª":558,"Ġ-":559,"à°¬à°°":560,"à°µà°¹":561,"Ġà°Ĩà°¦":562,"à°ķà°¨":563,"Ġà°¸à°®à°¯":564,"à°Ĺà°¨":565,"à°ľà°ķ":566,"Ġà°Ĩà°§":567,"à°Ĩà°¯à°¨":568,"Ġà°ħà°¤à°¨":569,"Ġà°¸à°Ń":570,"à°¹à°¨":571,"ĠâĢĺ":572,"Ġà°ĩà°ļ":573,"à°®à°¤":574,"à°¾à°Ĥ.":575,"à°ļà°¬à°¡":576,"à°ªà°²":577,"Ġà°ªà°²":578,"Ġà°¤à°°à°²":579,"\"\"\"":580,"à°İà°²":581,"à°¤à°Ĺ":582,"à±ĭ,":583,"Ġà°İà°µà°°":584,"Ġà°Ĩà°«":585,"à°Ĵà°ķ":586,"Ġà°İà°¦":587,"Ġà°µà°¦":588,"à°¢":589,"à°¸à°®":590,"Ġà°ĩà°µ":591,"Ġà°¤à°²":592,"Ġà°Ĩà°²":593,"à°°à°ľà°²":594,"à°£à°¯":595,"19":596,"à°¯à°ªà°¡":597,"Ġ:":598,"à°°à°ķà°Ł":599,"à°¯à°µà°¸":600,"à°¯à°¸":601,"à°®à°¹":602,"à°ŀ":603,"à±ģ:":604,"Ġà°ħà°µà°ķ":605,"Ġà°ħà°µà°¸à°°":606,"Ġà°ķà°®":607,"à°İà°¨":608,"Ġà°ľà°¨":609,"à°¡à°Ĺ":610,"à°¶à°ķà°¤":611,"Ġà°İà°¸":612,"Ġà°¸à°®à°¸":613,"à°¬à°Ł":614,"à°¡à°¨":615,"Ġà°ĩà°¨":616,"à°ĩà°ª":617,"à°¡à°µ":618,"Ġà°§à°°":619,"ĠâĢĿ":620,"à°²à°¡":621,"Ġ6":622,"à°¸à°¨":623,"à°ĺà°Łà°¨":624,"Ġà°¨à°°":625,"Ġà°ĩà°²":626,"à°°à°¹":627,"à°µà°°à°ķ":628,"Ġà°ĩà°¤à°°":629,"à°ķà°Ł":630,"à°Ĩà°®":631,"Ġ?":632,"Ġà°®à°°à°£":633,"à±į-":634,"à°¡à°°":635,"à°µà°¸":636,"Ġà°µà°²":637,"à°ħà°ª":638,"Ġà°Ĩà°¶":639,"Ġà°īà°ªà°¯":640,"à°µà°ķ":641,"à°®à°²":642,"à°§à°¨":643,"Ġà°ĺ":644,"à°¸à°²":645,"à°ªà°¨":646,"Ġà°İà°®":647,"Ġ7":648,"à°¿:":649,"à°¤à°µ":650,"Ġà°¬à°²":651,"à°ľà°®":652,"à°¹à°°":653,"Ġà°¢":654,"à°µà°°à°²":655,"à°³à°¨":656,"50":657,"Ġà°²à°Ń":658,"à°ķà°°à°£":659,"Ġ8":660,"Ġ,":661,"à°¡à°¦":662,"Ġà°ĩà°ķ":663,"à°²à°µ":664,"à°ħà°¤à°¨":665,"à°Ńà°µ":666,"à°¦à°µ":667,"à°°à°¯à°¤":668,"à°µà°°à°£":669,"Ġ10":670,"ĠâĢľ":671,"Ġà°ķà°¥":672,"Ġà°µà°¹":673,"à°¯à°ª":674,"âĢľ":675,"Ġà°Ĩà°¨":676,"à°µà°Ĺ":677,"Ġà°¬à°¯":678,"Ġà°¶à°°":679,"),":680,"Ġà°İà°ª":681,"à°°à°¤à°¦":682,"000":683,"Ġà°¨à°¡":684,"Ġà°ľà°Ł":685,"Ġ19":686,"à°¦à°ķ":687,"à±į:":688,"Ġà°Ľ":689,"Ġà°ķà°³":690,"à°Ľ":691,"Ġà°®à°¦":692,"Ġà°ĸà°°":693,"Ġà°¦à°ķ":694,"Ġà°ĩà°¸":695,"à°°à°Ĺ":696,"ĠâĢĭ":697,"Ġà°¨à°Ĺà°°":698,"à°ĵ":699,"Ġà°Ĭ":700,"Ġà°Ĩà°¤":701,"Ġà°Ĩà°Ł":702,"à°°à°¬":703,"à°ķà°®":704,"Ġà°¤à°¦":705,"Ġà°Ĩà°¹":706,"à°²à°Ĺ":707,"Ġ9":708,"Ġà°ļà°Ł":709,"Ġà°ķà°ª":710,"à±Įà°Ĥ":711,"à°¨à°¤":712,"à°°à°ļ":713,"Ġà°ıà°¡":714,"à°·à°ķ":715,"à°ªà°·":716,"à°ªà°£":717,"Ġà°«à°²":718,"à°ªà°¦":719,"à°ĸà°°":720,"Ġ\"\"":721,"Ġà°°à°µ":722,"Ġ'":723,"Ġà°Ĩà°¡":724,"à°¶à°®":725,"à°ħà°¤":726,"à°¤à°¦":727,"à°¨à°¡":728,"à°³à°²":729,"à°µà°¦":730,"âĢĿ":731,"Ġà°¤à°ķ":732,"à°Ĺà°¦":733,"Ġ12":734,"à°«à°°":735,"Ġà°¤à°¯":736,"Ġà°Ĩà°ķ":737,"à°¯à°¬à°¡":738,"Ġà°ħà°¤à°¡":739,"à°ħà°µ":740,"Ġà°ķà°Ł":741,"à°ħà°ķ":742,"à°¡à°ķ":743,"à°®à°¦":744,"à°ĩà°²":745,"à°§à°®":746,"à°ħà°®":747,"à°Ĺà°®":748,"à±Ĥ,":749,"à°¡à°Ł":750,"à°¦à°¯":751,"à°°à°ķà°Łà°¨":752,"Ġà°ĩà°·":753,"Ġà°¸à°¤":754,"à°·à°®":755,"à°ªà°¥":756,"Ġà°ĩà°Ł":757,"Ġà°Ĵà°ķà°Ł":758,"à°¦à°¤":759,"Ġà°¶à°ķ":760,"à°¹à°¦":761,"âĢ¦":762,"Ġà°¨à°·":763,"10":764,"à°¤à°ª":765,"Ġà°Ĩà°¯":766,"Ġà°¹à°°":767,"à±ģ.\"":768,"à°ļà°ķ":769,"à°¯à°¦à°°":770,"Ġà°ıà°¦":771,"à°Ĺà°¡":772,"Ġà°Ĳà°¦":773,"à°¸à°Ń":774,"à°İà°«":775,"Ġà°¦à°Ĺ":776,"Ġà°Ńà°¦":777,"Ġà°Ĺà°¡":778,"à°¦à°®":779,"à°¶à°²":780,"Ġà°ħà°Ĺ":781,"âģ":782,"Ġà°ķà°·":783,"âģł":784,"Ġà°¨à°²":785,"à±įâĢĮ.":786,"à°ķà°¤":787,"Ġà°Ĵà°ª":788,"ĠâĢĶ":789,"à°ķà°Ĺ":790,"Ġà°¬à°¹":791,"Ġà°¸à°¨":792,"à°¥à°ķ":793,"à°¥à°®":794,"Ġà°¥":795,"à±į)":796,"Ġà°Ĺà°°":797,"à°Ĥ:":798,"à°¦à°Ĺ":799,"Ġà°Ńà°°":800,"Ġ15":801,"Ġà°ħà°®à°²":802,"Ġà°Ĺà°¤":803,"Ġà°ªà°¤":804,"à°µà°²à°¸":805,"à°¸à°µ":806,"Ġà°¬à°°":807,"Ġ201":808,"à±ģ!":809,"à±Ģ.":810,"à°£à°®":811,"à°Łà°¡":812,"à°°à°¦à°°":813,"Ġà°®à°³":814,"Ġà°§à°°à°²":815,"Ġ14":816,"à°¶à°¨":817,"à°ĩà°Ł":818,"âĢĺâĢĺ":819,"à°ľà°²":820,"à°¯à°¦":821,"Ġà°Ĵà°ķà°°":822,"Ġà°¹à°¤":823,"Ġà°¬à°¡":824,"à°Łà°ª":825,"Ġà°ĩà°°":826,"Ġà°ļà°¦":827,"à°Ĺà°³":828,"à°Ĺà°¸":829,"Ġà°Ĩà°µ":830,"Ġà°ļà°¨":831,"Ġà°¨à°µ":832,"à°¿âĢĻ":833,"Ġà°Ĩà°ª":834,"Ġà°ĵà°Ł":835,"Ġà°Ĺà°²":836,"à°¸à°°à°®":837,"Ġà°ļà°ķ":838,"à°ĸà°²":839,"Ġà°ħà°Ł":840,"à°Łà°ªà°¡":841,"à±Ģ:":842,"à±ģâĢĻ":843,"Ġ11":844,"Ġà°ĺà°Łà°¨à°²":845,"à°İà°µà°°":846,"à°¿)":847,"Ġà°ħà°¬":848,"à°¿!":849,"à°·à°¨à°²":850,"à°µà°¯":851,"à°²à°Ń":852,"Ġà°ĩà°¬":853,"à°¤à°¯":854,"Ġà°¡à°¬":855,"Ġà°¸à°²":856,"Ġà°®à°¤":857,"à°ªà°Ĺ":858,"Ġà°ªà°ķ":859,"Ġà°İà°¤":860,"Ġà°ľà°Ĺà°¨":861,"à±ģ)":862,"à°¡à°¡":863,"Ġà°¸à°®à°°":864,"à°İà°®":865,"à°¨à°¯":866,"à°ľà°¸":867,"..":868,"Ġà°°à°¦":869,"Ġà°ķà°¦":870,"Ġà°Ĩà°¸à°ķ":871,"à°ķà°ķ":872,"Ġà°®à°²":873,"à±ĥà°Ĥ":874,"à°¬à°²":875,"à°®à°¹à°¤":876,"âĢĭ":877,"à°ļà°µà°ļ":878,"à°İà°ķ":879,"à°¹à°°à°£":880,"Ġà°Ĩà°Ĺ":881,"à°ļà°¯":882,"Ġà°Ĺà°®à°¨":883,"à°¯à°ľ":884,"à°°à°¸à°¨":885,"à°¡à°®":886,"Ġà°İà°Ł":887,"à°ļà°Ĺ":888,"Ġ200":889,"Ġ18":890,"Ġà°¨à°¨":891,"Ġ13":892,"Ġà°¬à°¸":893,"Ġà°®à°¨à°ķ":894,"à°Ńà°®":895,"à°¯à°§":896,"Ġà°ªà°¶":897,"Ġà°ħà°µà°¸à°°à°®":898,"Ġà°İà°¯":899,"à°ļà°Ł":900,"à°īà°¤":901,"Ġ16":902,"à°¯à°Ł":903,"à°§à°¤":904,"Ġà°ªà°¥à°ķ":905,"à°¨à°Ĺà°°":906,"Ġà°¸à°¦":907,"Ġà°İà°Ĺ":908,"in":909,"à±Ĩ.":910,"ĠâĢĻ":911,"ĠâĢĶâģł":912,"Ġà°ªà°¦à°µ":913,"à°¸à°¹":914,"à°¯à°µà°¹":915,"à°Ĩà°¸":916,"Ġ!":917,"Ġà°ıà°ķ":918,"à°°à°Ł":919,"à°Łà°£":920,"à°°à°µà°°":921,"à°¯à°µà°¹à°°":922,"Ġà°ıà°ª":923,"à°¿.\"":924,"à°¾!":925,"à°łà°¶":926,"Ġà°īà°Ĺ":927,"à°°à°³":928,"à°µà°®":929,"Ġ24":930,"à°£à°²":931,"Ġ17":932,"à°¯à°Ĺ":933,"Ġà°Ĩà°²à°¯":934,"à°¶à°µ":935,"à°²à°¸":936,"à°®à°£":937,"à°¡à°µà°ļ":938,"à±ĭ.":939,"à°īà°¦":940,"à°ĩà°µ":941,"Ġà°µà°¨":942,"15":943,"à±įâĢĭ":944,"à°¤à°Ł":945,"Ġà°ªà°µà°¨":946,"à°¶à°ª":947,"à±įâĢĮâĢĮ":948,"à°°à°ªà°¤":949,"à°ľà°¯à°µ":950,"à°µà°²à°¨":951,"Ġ50":952,"à°ħà°¤à°¡":953,"Ġ30":954,"à°Ĺà°µ":955,"à°²à°ľ":956,"à°«à°²":957,"''":958,"à±įâĢĮ-":959,"à°ķà°¸":960,"à°§à°ķ":961,"à°§à°°":962,"à°Ĺà°Ł":963,"Ġà°¹à°ķ":964,"99":965,"Ġà°Ĺà°µà°°":966,"à°°à°ľà°²à°ķ":967,"Ġà°Ĩà°¯à°¨à°ķ":968,"à°·à°¯à°®":969,"30":970,"Ġ25":971,"à°¥à°¨":972,"25":973,"à°¡à°¤":974,"à°Ĺà°£":975,"à°¯à°²à°¨":976,"à°ķà°°à°®":977,"Ġà°Ńà°¯":978,"Ġ2020":979,"à°ľà°°à°¯":980,"à°ħà°°":981,"à°¡à°¬":982,"à°¦à°¡":983,"à°Ĥ?":984,"Ġà°ħà°®à°°":985,"Ġà°ľà°¸":986,"200":987,"Ġà°®à°¨à°¸":988,"à°ļà°²à°¨":989,"70":990,"à°ªà°£à°²":991,"à°¯à°µà°ļ":992,"à°®à°¸":993,"Ġà°¬à°¦":994,"Ġà°¤à°¨à°ķ":995,"à°ªà°¬à°¡":996,"Ġà°¨à°¦":997,"à°¹à°¤":998,"er":999,"Ġà°¸à°µ":1000,"Ġà°ħà°¶":1001,"Ġ100":1002,"à°®à°®":1003,"Ġà°Ĺà°£":1004,"à°¤à°¤":1005,"Ġà°ĺà°Łà°¨à°ª":1006,"à°µà°µ":1007,"Ġà°İà°«":1008,"à°µà°Ł":1009,"à°ľà°§":1010,"on":1011,"à°·à°¨à°°":1012,"à°Ĺà°ľ":1013,"201":1014,"à°¯à°ķà°°":1015,"à°ľà°ķà°µà°°":1016,"à°ªà°°à°ļ":1017,"Ġà°İà°°":1018,"à±Ģ)":1019,"à°¯à°£":1020,"à°ħà°§":1021,"Ġà°īà°²":1022,"an":1023,"à°ĩà°¤à°°":1024,"500":1025,"Ġà°ıà°³":1026,"Ġà°¬à°¯à°Łà°ķ":1027,"Ġà°ĺà°¨":1028,"Ġà°ľà°°à°Ĺ":1029,"à°Ĳà°¸":1030,"Ġà°ľà°®":1031,"à°¬à°¦":1032,"à°ıà°®":1033,"à°Łà°Ĺ":1034,"Ġà°µà°¯à°¸":1035,"à°¯à°¯à°¨":1036,"Ġà°İà°²à°ķ":1037,"Ġ/":1038,"Ġà°°à°®":1039,"Ġà°¶à°¤":1040,"à°ªà°®":1041,"à°±":1042,"à°°à°£à°®":1043,"à±įâĢĻ":1044,"à°¹à°®":1045,"à°§à°¨à°²":1046,"Ġà°°à°·":1047,"à°ļà°¨à°²":1048,"à°ļà°µ":1049,"Ġà°¸à°®à°ķ":1050,"Ġà°¨à°ļ":1051,"Ġà°ħà°¦à°¨":1052,"Ġà°§à°¨":1053,"Ġà°ľà°µ":1054,"à°¦à°¨à°²":1055,"Ġà°Ĩà°ļ":1056,"à°ħà°¸à°²":1057,"à°§à°µ":1058,"Ġà°ĵà°¡":1059,"Ġà°ķà°ł":1060,"Ġà°ĵà°ª":1061,"12":1062,"Ġà°ļà°²":1063,"Ġà°Ńà°µà°¨":1064,"à°°à°ªà°¡":1065,"à°¯à°Ĺà°²":1066,"re":1067,"Ġà°ļà°°à°£":1068,"Ġà°®à°¹à°®":1069,"Ġà°İà°¡":1070,"à°¸à°Ĺ":1071,"à°¯à°Łà°¨":1072,"Ġà°¦à°³":1073,"Ġ21":1074,"Ġà°ħà°ľ":1075,"Ġà°ªà°µà°°":1076,"à°ķà°¯":1077,"à±įâĢĮ:":1078,"à°¬à°¯":1079,"à°²à°¬":1080,"Ġà°Ķ":1081,"à°ļà°Ĺà°²":1082,"Ġà°Ĺà°¦":1083,"Ġà°ħà°¸à°²":1084,"à°µà°¹à°£":1085,"Ġà°Ńà°µ":1086,"Ġ40":1087,"Ġà°¸à°¹à°ķ":1088,"Ġà°Ĳà°¸":1089,"âĢĵ":1090,"Ġà°¸à°²à°¹":1091,"à°¯à°¬":1092,"Ġà°®à°¨à°®":1093,"ĠâĢĵ":1094,"à°ħà°Ł":1095,"à°®à°§":1096,"à°ļà°¬":1097,"at":1098,"à°¨à°Ĺ":1099,"à°®à°¯":1100,"Ġà°Ĩà°Łà°Ĺ":1101,"Ġà°ľà°¯":1102,"Ġà°Ńà°ķ":1103,"à°®à°Ĺ":1104,"Ġà°ĩà°¶":1105,"40":1106,"21":1107,"me":1108,"Ġà°ľà°²":1109,"Ġà°Ĵà°¤":1110,"Ġà°ľà°¨à°°à°²":1111,"à°¨à°¹":1112,"à°ľà°ª":1113,"Ġ0":1114,"Ġà°Ĩà°ķà°°":1115,"à°¯à°¸à°Ń":1116,"à°Ĥ)":1117,"Ġà°ĩà°³":1118,"18":1119,"Ġà°ķà°¸":1120,"à±įâĢĮ)":1121,"Ġà°ĵà°µà°°":1122,"à°°à°°":1123,"Ġ22":1124,"à°¯à°¤à°²":1125,"Ġà°¬à°Ł":1126,"Ġà°ĩà°®":1127,"à°¸à°ķ":1128,"Ġà°ķà°¡":1129,"à°ħà°¸":1130,"à°°à°®à°²":1131,"Ġà°ħà°¹":1132,"Ġà°Ĺà°Ł":1133,"à°ħà°Ń":1134,"Ġà°µà°¡":1135,"à±ĩ!":1136,"à°§à°ªà°¡":1137,"60":1138,"à°¤à°µà°°à°ķ":1139,"Ġà°¸à°°à°¸à°¨":1140,"à°ıà°¦":1141,"à°ĺà°Łà°¨à°²":1142,"à°ķà°²à°¨":1143,"Ġà°Ĩà°¯à°¨à°¨":1144,"à°ıà°ª":1145,"Ġà°¦à°¶à°²":1146,"Ġà°¸à°ķ":1147,"Ġà°Ĵà°¡":1148,"à°®à°µ":1149,"à±į'":1150,"Ġà°Ĭà°¹":1151,"Ġà°Ńà°¯à°ªà°¡":1152,"à°¦à°ľ":1153,"Ġà°īà°ļ":1154,"Ġà°¸à°°à°«à°°":1155,"à°¿-":1156,"Ġà°Ĺà°¨":1157,"à°¶à°Ĺ":1158,"Ġà°Ĳà°ª":1159,"à°ķà°¶":1160,"à°¯à°¯":1161,"à°¤à°ľ":1162,"à°¯à°ķà°²":1163,"à°¯à°®à°¨":1164,"à°ķà°²à°ķ":1165,"à°°à°£à°ķ":1166,"à°İà°ª":1167,"Ġà°¤à°°à°ļ":1168,"à°¹à°¸":1169,"Ġà°¸à°¬":1170,"à°²à°²à°ķ":1171,"à°µà°°à°Ĺ":1172,"or":1173,"à°®à°¡":1174,"Ġà°īà°®":1175,"à°ķà°µ":1176,"à°Ńà°°":1177,"à°ĥ":1178,"à°¹à°°à°£à°ķ":1179,"Ġ23":1180,"100":1181,"à°µà°¶":1182,"Ġà°«à°°":1183,"à°¡à°¸":1184,"à±Ī,":1185,"à°¤à°°à°ª":1186,"Ġà°Īà°¸":1187,"Ġà°ªà°µ":1188,"al":1189,"à°¦à°²à°ķ":1190,"à±į),":1191,"à°®à°³":1192,"à±Ģ-":1193,"Ġà°¦à°¶":1194,"à°Łà°²à°¨":1195,"à°ļà°¦":1196,"Ġ28":1197,"14":1198,"Ġà°īà°·":1199,"16":1200,"Ġà°µà°²à°¨":1201,"à±ĭ?":1202,"Ġà°«à°¸":1203,"à°®à°°à°£":1204,"Ġà°ľà°°à°Ĺà°¨":1205,"Ġà°ĸà°ļ":1206,"à±ģ-":1207,"à°¨à°¸à°Ń":1208,"à°µà°¬à°¡":1209,"à°¬à°¤":1210,"Ġà°°à°¹à°¦":1211,"ĠC":1212,"es":1213,"à°¸à°¨à°¸à°Ń":1214,"à±į(":1215,"à°īà°ª":1216,"à°ĸà°¨":1217,"Ġà°īà°¦à°¯":1218,"à°°à°¸à°¤":1219,"Ġà°īà°°":1220,"à°¬à°¨":1221,"à°¿'":1222,"Ġà°ķà°¤":1223,"Ġà°¦à°°à°ĸ":1224,"à±įâĢĮâĢĻ":1225,"à°²à°¦":1226,"à°Ĳà°ª":1227,"à±ģ\"\"":1228,"Ġà°¬à°¯à°Ł":1229,"à°Łà°¯":1230,"à°Łà°¤":1231,"ar":1232,"à°¯à°²à°ķ":1233,"à°¦à°°à°Ĺ":1234,"à°¹à°ķ":1235,"à°·à°²à°ķ":1236,"à°ĩà°°":1237,"à°°à°£à°²":1238,"Ġà°Ĩà°ľ":1239,"75":1240,"à°·à°¤":1241,"à°Ĥ!":1242,"Ġà°¬à°¯à°²":1243,"à°Ńà°ķ":1244,"à°¯à°¶":1245,"à°·à°£à°²":1246,"à°°à°¡":1247,"à°°à°®à°¤":1248,"à°¾:":1249,"à°·à°°":1250,"âĢĻâĢĻ":1251,"11":1252,"à°¬à°¸":1253,"Ġà°ħà°°à°µ":1254,"Ġ60":1255,"Ġà°Ĳà°Ł":1256,"Ġà°®à°²à°¯":1257,"Ġà°¬à°¯à°Łà°ªà°¡":1258,"à°«à°²à°®":1259,"à°Ĩà°¯à°¨à°ķ":1260,"80":1261,"à°°à°®à°£":1262,"à°¡à°ª":1263,"Ġà°°à°¸":1264,"Ġà°ľà°¡":1265,"Ġà°ħà°«":1266,"à°·à°¤à°Ĺ":1267,"Ġà°ªà°¸":1268,"Ġà°ħà°¦à°¨à°ª":1269,"à°¯à°ķà°¤":1270,"Ġà°Ĩà°ªà°°":1271,"Ġà°®à°¸":1272,"Ġà°ľà°°à°Ĺà°²":1273,"à°ĩà°¨":1274,"à°¦à°¸":1275,"Ġà°¸à°ļ":1276,"Ġ:âģł":1277,"à±ģ'":1278,"Ġà°ĵà°Łà°®":1279,"Ġà°¨à°Ĺà°¦":1280,"à°¤à°²à°¨":1281,"à°°à°ľà°²à°¨":1282,"Ġà°¤à°®à°ķ":1283,"à°³à°¨à°ķ":1284,"âĢĮ,":1285,"22":1286,"Ġà°¬à°²à°®":1287,"Ġt":1288,"Ġ&":1289,"Ġà°İà°µ":1290,"Ġà°µà°¨à°°":1291,"Ġà°ħà°µà°Ĺ":1292,"Ġà°Ĭà°°":1293,"Ġà°¤à°°à°«":1294,"Ġà°Ĩà°¦à°°":1295,"à°·à°ª":1296,"ĠS":1297,"13":1298,"à°Łà°ķà°²":1299,"Ġà°ķà°¥à°¨":1300,"Ġ26":1301,"ĠA":1302,"Ġà°Ĩà°ķà°Ł":1303,"Ġà°Ĩà°«à°°":1304,"2020":1305,"Ġà°ķà°®à°²":1306,"à°ļà°ķà°ª":1307,"à°¯à°¤à°¨":1308,"ic":1309,"Ġà°²à°¨":1310,"it":1311,"Ġà°ķà°µ":1312,"Ġà°ķà°¶":1313,"Ġà°¦à°¯":1314,"Ġà°¸à°µà°°à°£":1315,"Ġà°ĺà°°":1316,"à°¤à°²à°ķ":1317,"en":1318,"Ġà°°à°ļà°¯":1319,"à°¶à°°":1320,"à°Ĩà°¨":1321,"17":1322,"Ġ80":1323,"à°Ĺà°ª":1324,"Ġ70":1325,"à°Ĩà°¦":1326,"Ġ2019":1327,"ion":1328,"ĠI":1329,"à°Ńà°¦":1330,"Ġà°¤à°°à°Ĺà°¤":1331,"à°¨à°¦à°¨":1332,"Ġà°¸à°¹à°ľ":1333,"Ġà°°à°¨":1334,"à°¦à°²à°¯":1335,"Ġ27":1336,"Ġà°¨à°°à°¸":1337,"à°ļà°°à°£":1338,"Ġà°ľà°¨à°¸":1339,"à°Łà°²à°ķ":1340,"Ġà°ıà°µ":1341,"à°ķà°¦":1342,"à°Ĩà°²":1343,"90":1344,"Ġà°ķà°²à°ª":1345,"à°Ĩà°¯":1346,"à°¾-":1347,"24":1348,"à°ªà°µà°¨":1349,"Ġ)":1350,"à±į?":1351,"à°ķà°³":1352,"à°Īà°¸":1353,"à°¤à°¡":1354,"Ġà°Ĩà°²à°¸":1355,"ĠM":1356,"Ġà°µà°°à°²":1357,"à°Ĺà°¢":1358,"à°°à°¥":1359,"Ġà°¸à°Ńà°²":1360,"à°¡à°¦à°¨":1361,"Ġà°ľà°ª":1362,"Ġ35":1363,"à±ĩ?":1364,".\"":1365,"à°Ľà°¨":1366,"à°·à°§":1367,"à°ªà°¶":1368,"à°¡à°¯":1369,"ĠT":1370,"Ġà°¤à°®à°¨":1371,"Ġs":1372,"Ġà°ļà°¦à°µ":1373,"à°¤à°¨à°ķ":1374,"Ġà°¤à°¨à°¨":1375,"Ġà°ķà°¨à°¬à°¡":1376,"à°Ĩà°§":1377,"el":1378,"Ġ31":1379,"à°¾âĢĻ":1380,"à°®à°¶":1381,"à°¾)":1382,"Ġà°ħà°ĸ":1383,"à°¹à°²":1384,"Ġ370":1385,"Ġà°°à°£":1386,"ĠR":1387,"à°²à°¯à°¨":1388,"Ġà°ħà°Ĺà°°":1389,"Ġà°Łà°°":1390,"à°¿\"\"":1391,"à°īà°¨":1392,"à°²à°¬à°¡":1393,"Ġà°¸à°¹à°ķà°°":1394,"à°µà°ª":1395,"à°¤à°¸":1396,"Ġ32":1397,"Ġà°ħà°£":1398,"à°¡à°µà°²":1399,"ĠU":1400,"Ġ150":1401,"à°®à°ª":1402,"Ġà°®à°®à°¤":1403,"Ġ29":1404,"Ġ300":1405,"à°²à°Ł":1406,"à°Ĺà°¦à°°":1407,"à±Ī:":1408,"à°Īà°®":1409,"à°ŀà°¤à°²":1410,"à°°à°·":1411,"Ġà°ķà°ļ":1412,"à±Ĩ,":1413,"Ġà°Ĳà°ķ":1414,"Ġà°Ĭà°ª":1415,"Ġà°¨à°ķ":1416,"Ġm":1417,"à°ªà°¬":1418,"à°µà°³":1419,"à°¤à°®à°¯":1420,"à°Ńà°ľ":1421,"Ġà°Īà°µ":1422,"à±į!":1423,"Ġ2018":1424,"à°°à°«":1425,"Ġà°²à°²":1426,"35":1427,"à°ķà°°à°£à°²":1428,"Ġà°İà°ķà°°":1429,"à°ªà°¡à°¤":1430,"ĠN":1431,"à°Ńà°ľà°¨":1432,"à°®à°Ł":1433,"Ġà°ªà°¤à°ķ":1434,"à°Ĩà°ª":1435,"à°¬à°¹":1436,"à°®à°ķà°®":1437,"Ġc":1438,"à°ļà°¡à°®":1439,"Ġà°µà°²à°¸":1440,"à°Ĩà°ķ":1441,"Ġà°ħà°ľà°¯":1442,"à°¨à°²à°ķ":1443,"à°²à°²à°¨":1444,"Ġà°¸à°ª":1445,"à°¯à°ķà°°à°®":1446,"à±ĭ)":1447,"is":1448,"Ġà°ł":1449,"à°¸à°¤":1450,"à°Ĳà°Ł":1451,"à±ģâĢ¦":1452,"Ġ500":1453,"Ġà°ªà°ļ":1454,"à±į\"\"":1455,"à°Ńà°¯":1456,"Ġà°¬à°¤":1457,"Ġà°Łà°¨":1458,"Ġà°¸à°Ĺà°Ł":1459,"à°£à°ķ":1460,"Ġà°ªà°°à°®":1461,"Ġà°ķà°²à°¸":1462,"à°²à°ķà°²":1463,"Ġà°¬à°²à°Ĺ":1464,"à°£à°¨":1465,"Ġà°¸à°¸":1466,"à°ļà°®":1467,"à°ªà°ļ":1468,"à°¦à°ª":1469,"ad":1470,"Ġà°¸à°°à°¸":1471,"Ġà°ħà°²à°µ":1472,"Ġà°²à°¬":1473,"à°²à°ķà°®":1474,"à°ĺà°Łà°¨à°ª":1475,"45":1476,"ĠP":1477,"Ġà°¦à°¤":1478,"Ġà°¬à°²à°¹":1479,"à°³à°ķ":1480,"Ġà°¤à°°à°¹":1481,"à±ģâĢĿ":1482,"à°¸à°ª":1483,"à°ĤâĢĻ":1484,"à°¬à°¸à°Ń":1485,"à°ķà°¡à°ķ":1486,"Ġp":1487,"à°ŀà°ª":1488,"le":1489,"à°·à°£à°®":1490,"à°³à°²à°ķ":1491,"à°¥à°°":1492,"à°°à°ķà°Łà°¨à°²":1493,"300":1494,"à°µà°Ń":1495,"à°¸à°®à°¸":1496,"à°°à°³à°²":1497,"Ġà°®à°¨à°²":1498,"à°ļà°µà°²à°¸":1499,"ĠB":1500,"à°¸à°®à°¯":1501,"à°ªà°¸":1502,"Ġ[":1503,"Ġà°¸à°ľ":1504,"à°Łà°®à°°":1505,"Ġà°Ńà°Ł":1506,"Ġà°¬à°ļ":1507,"à°¯à°µà°¸à°°":1508,"Ġà°ķà°²à°°":1509,"Ġà°¨à°Łà°¨":1510,"à±įâĢĮ),":1511,"Ġà°ıà°Ł":1512,"à°°à°¤à°¨":1513,"Ġà°ķà°²à°¦":1514,"Ġà°®à°Ł":1515,"à±Ĥà°Ĥ":1516,"Ġà°²à°µ":1517,"à°¦à°³":1518,"à°Ĩà°¤":1519,"à°ĺà°¨":1520,"à±Ģ?":1521,"Ġà°ħà°¬à°¦":1522,"Ġà°®à°£":1523,"à±ĭ-":1524,"Ġà°Īà°¶":1525,"à±ģâĢĻâĢĻ":1526,"à°İà°Ł":1527,"à°ªà°µà°ļ":1528,"à°Ĭ":1529,"Ġà°°à°ľ":1530,"à°ªà°ľ":1531,"65":1532,"à°ħà°®à°°":1533,"à°¯à°®à°µ":1534,"à°·à°²à°¨":1535,"à°ĩà°¸":1536,"à°£à°¤":1537,"à°Łà°µ":1538,"Ġà°ļà°®":1539,"Ġà°¤à°°à°ª":1540,"à°¯à°²à°ª":1541,"Ġà°Ĵà°²":1542,"à°Ĩà°¹":1543,"ed":1544,"à°Ĳà°Ĩà°°":1545,"Ġà°ħà°¡à°µ":1546,"à°¦à°²à°µ":1547,"à°²à°ļ":1548,"à°¾à°Ĥ,":1549,"à°¤à°¨à°®":1550,"à°ªà°µ":1551,"à°°à°Ĺà°¡":1552,"Ġà°ħà°ļ":1553,"Ġ33":1554,"à°¿âĢĿ":1555,"Ġà°ĸà°¨":1556,"23":1557,"à°¤à°®à°µ":1558,"Ġà°Ĺà°£à°¨":1559,"à°¦à°¨à°¨":1560,"à°Ĺà°ķ":1561,"Ġà°°à°¹":1562,"Ġà°īà°¡":1563,"Ġà°ĵà°Łà°°":1564,"Ġ90":1565,"ro":1566,"Ġà°ĩà°¤":1567,"à°¿âĢ¦":1568,"à°°à°¸à°¨à°²":1569,"à°Ĥ-":1570,"Ġà°ħà°²à°°":1571,"Ġà°®à°®":1572,"à°Ĺà°ªà°¡":1573,"à±įâĢĮ(":1574,"à°Ĺà°²à°µ":1575,"Ġ45":1576,"Ġà°ľà°¤":1577,"Ġà°¤à°Ł":1578,"Ġà°Ķà°·à°§":1579,"à°ķà°ļ":1580,"à°Ĳà°ķ":1581,"à°ķà°²à°²":1582,"ĠâĢĮ":1583,"à°¦à°¦":1584,"Ġà°ħà°¨à°Ĺ":1585,"à°ĩà°µà°¨":1586,"as":1587,"Ġà°ªà°°à°¸":1588,"à°ĺà°ķ":1589,"à°Īà°µ":1590,"à°µà°¡à°®":1591,"Ġà°ķà°¥à°²":1592,"à°³à°¨à°²":1593,"Ġ%":1594,"à°®à°ļ":1595,"à°¥à°µ":1596,"Ġà°ıà°ľ":1597,"à°Łà°¬":1598,"à°°à°¤à°²":1599,"Ġà°ªà°¬":1600,"Ġà°Ĳà°°":1601,"Ġà°ıà°²":1602,"Ġà°¸à°¦à°¸":1603,"à°¸à°Ńà°²":1604,"Ġà°µà°°à°¦":1605,"Ġà°¸à°®à°Ĺ":1606,"Ġà°¬à°ľ":1607,"Ġà°Ĳà°¡":1608,"Ġà°ĺà°Łà°¨à°ķ":1609,"...":1610,"à±ģ(":1611,"he":1612,"ĠG":1613,"Ġà°ľà°Ĺ":1614,"di":1615,"Ġà°īà°ªà°°":1616,"à°Īà°¯à°¨":1617,"à°°à°ªà°°":1618,"ĠD":1619,"à°Ĳà°¦":1620,"Ġà°¹à°¨":1621,"Ġà°ľà°°à°Ĺà°¡":1622,"à°µà°¸à°°":1623,"Ġà°°à°ķà°®":1624,"Ġà°¯à°ľà°®":1625,"Ġ37":1626,"à°Łà°£à°®":1627,"Ġà°¸à°®à°¨":1628,"à°°à°µà°ķ":1629,"à°¶à°¯":1630,"28":1631,"âĢį":1632,"ĠF":1633,"à°Ĳà°¤":1634,"999":1635,"Ġà°°à°ľà°¨":1636,"am":1637,"2019":1638,"à°¡à°³":1639,"à°¨à°¬à°¡":1640,"Ġ199":1641,"à°ķà°¥":1642,"à°µà°¸à°°à°®":1643,"Ġà°¹à°¸":1644,"Ġà°µà°¸à°¤":1645,"48":1646,"à°®à°¨à°ķ":1647,"à°¦à°µà°ļ":1648,"à°¡à°Ĺà°²":1649,"Ġà°°à°¹à°¸":1650,"il":1651,"à°Ĺà°³à°µ":1652,"à°Ĳà°İ":1653,"à°²à°¨à°²":1654,"à°ħà°¦à°¨":1655,"à°¦à°ķà°°à°®":1656,"Ġ48":1657,"à°¶à°®à°¨":1658,"Ġ400":1659,"Ġ2017":1660,"Ġà°°à°ļ":1661,"Ġà°¯à°¥":1662,"Ġà°īà°ªà°¸":1663,"26":1664,"à°¾âĢ¦":1665,"à°¯à°ªà°°":1666,"à°ħà°Ĺ":1667,"à°ľà°¯à°¨":1668,"47":1669,"à°¦à°ķà°°":1670,"and":1671,"âĸ":1672,"Ġà°Īà°®":1673,"à°°à°Łà°°":1674,"Ġ36":1675,"Ġ2014":1676,"ing":1677,"à°³à°¤":1678,"à°ħà°¡":1679,"à°¿âĢĻâĢĻ":1680,"à°ĸà°®":1681,"à°¸à°¨à°®":1682,"ĠH":1683,"à°İà°¯":1684,"400":1685,"à°ªà°ķà°²":1686,"à°Ĩà°Ł":1687,"à°¿(":1688,"Ġ75":1689,"à±ĭ!":1690,"à°°à°ĸ":1691,"à°ĩà°¤à°¨":1692,"à°Ĵà°ķà°µ":1693,"32":1694,"Ġà°īà°¸":1695,"Ġin":1696,"Ġo":1697,"ame":1698,"ac":1699,"Ġ34":1700,"à°Ĩà°«":1701,"à°ıà°¡":1702,"Ġà°ļà°¤":1703,"à°§à°²":1704,"Ġf":1705,"à°īà°Ĺ":1706,"85":1707,"à°ķà°µà°°":1708,"à°ªà°¯":1709,"à°Ĵà°ķà°°":1710,"à°¯à°®à°¯":1711,"Ġà°ħà°¥":1712,"Ġà°°à°ĺ":1713,"à°¥à°²à°®":1714,"à¤":1715,"Ġb":1716,"à°ķà°¬":1717,"à°²à°µà°²":1718,"à°°à°£à°¨":1719,"à°Łà°¬à°¡":1720,"à°¯à°Łà°¨à°²":1721,"um":1722,"à°°à°Ĺà°¤":1723,"Ġà°ħà°ªà°°":1724,"à°²à°ķà°°":1725,"à±ģ/":1726,"27":1727,"Ġà°ķà°£":1728,"à°¯à°¨à°¤":1729,"th":1730,"à°Ĺà°®à°¨":1731,"Ġà°ħà°Łà°µ":1732,"à°·à°£à°ķ":1733,"2014":1734,"à°¾à°ĤâĢĻ":1735,"à°łà°®":1736,"Ġà°Ńà°Ĺ":1737,"à°¨à°¬":1738,"33":1739,"à°¯à°ļ":1740,"à°¤à°²à°¤":1741,"à°ıà°ķ":1742,"om":1743,"Ġà°Ĵà°ķà°¡":1744,"Ġà°ķà°²à°ķà°²":1745,"à°°à°£à°®à°¨":1746,"Ġà°ªà°Ĺ":1747,").":1748,"Ġà°·à°®":1749,"us":1750,"Ġà°ľà°¨à°¤":1751,"à°ľà°µ":1752,"à°°à°®à°¨":1753,"Ġn":1754,"à°·à°£à°¨":1755,"à°ªà°ª":1756,"à°®à°¨à°¸":1757,"Ġà°¤à°¤":1758,"à°¥à°²à°ķ":1759,"à°Īà°²":1760,"Ġà°Ĵà°ķà°¸":1761,"à±ģ),":1762,"à°¶à°¨à°®":1763,"à°®à°¬":1764,"Ġà°Īà°°":1765,"Ġà°¬à°ķ":1766,"à°®à°¨à°®":1767,"à±ĩà°Ĥ.":1768,"Ġà°¤à°¨à°¯":1769,"à°¯à°µà°²à°¸":1770,"Ġà°ªà°¡à°Ĺ":1771,"Ġà°ķà°¨à°¬à°°":1772,"à°¯à°µà°§":1773,"Ġd":1774,"à°¬à°ķ":1775,"à°¹à°°à°£à°²":1776,"95":1777,"37":1778,"à°¨à°µà°¨":1779,"à°¦à°°à°£":1780,"à°ĸà°ķ":1781,"Ġà°¬à°²à°µ":1782,"Ġ125":1783,"Ġ2016":1784,"à°£à°¸":1785,"à±ĩâĢ¦":1786,"âĢĮ.":1787,"à°ľà°Ĺ":1788,"âĸº":1789,"Ġà°ķà°°à°£":1790,"Ġ|":1791,"à°ªà°£à°²à°¨":1792,"à°ħà°µà°¸à°°à°®":1793,"Ġà°Īà°¡":1794,"ĠE":1795,"un":1796,"Ġà°¨à°Ĺ":1797,"ol":1798,"à°µà°£":1799,"Ġà°ıà°®à°¨":1800,"55":1801,"Ġà°·à°°":1802,"à±Ģ(":1803,"ĠV":1804,"à±įâĢĮ'":1805,"à°·à°¤à°¨":1806,"à°µà°°à°°":1807,"à°°à°µà°¹":1808,"à°ĸà°ªà°Ł":1809,"Ġà°²à°¤":1810,"ation":1811,"Ġà°ľà°¨à°µà°°":1812,"Ġ38":1813,"Ġà°ļà°µ":1814,"ur":1815,"à±Ģ!":1816,"à°¤à°ªà°¡":1817,"Ġà°¸à°Ĺ":1818,"à°Łà°¸":1819,"ĠL":1820,"à°µà°²à°ª":1821,"à°ªà°µà°°":1822,"Ġà°Ŀ":1823,"à°¨à°ªà°¡":1824,"Ġ>":1825,"Ġà°¶à°¶":1826,"Ġà°¶à°¨":1827,"à°¾'":1828,"Ġà°¶à°°à°µ":1829,"Ġà°µà°°à°¦à°²":1830,"à°¶à°¸":1831,"à°¯à°¡à°®":1832,"à°¶à°¨à°²":1833,"Ġà°ķà°²à°µ":1834,"77":1835,"Ġà°ħà°µà°®":1836,"ĠO":1837,"36":1838,"id":1839,"Ġà°¸à°µà°°":1840,"à±ģà°ĥ":1841,"à°ļà°¬à°¡à°¤":1842,"à±ģ]":1843,"Ġ44":1844,"Ġà°Ľà°¤":1845,"Ġà°Ĵà°¬":1846,"à°²à°µà°°":1847,"Ġà°ĵà°°":1848,"Ġà°¸à°°à°¦":1849,"à°ľà°¶":1850,"à°ħà°¬":1851,"49":1852,"Ġà°ĺà°¨à°¤":1853,"ĠW":1854,"à°¯à°¸à°Ńà°²":1855,"Ġà°Ĳà°¶":1856,"à°¤à°®à°¨":1857,"Ġà°¡à°¯":1858,"Ġà°ķà°µà°°":1859,"Ġà°Īà°ľ":1860,"Ġà°īà°ķ":1861,"29":1862,"Ġà°ľà°°à°Ĺà°ķ":1863,"Ġà°¤à°²à°ªà°¡":1864,"à°Ĺà°Ĺ":1865,"Ġà°¸à°°à°³":1866,"à°ľà°¯à°¸":1867,"à±ģ...":1868,"et":1869,"à°Ĩà°µ":1870,"à°°à°¥à°®":1871,"Ġ250":1872,"à°Ńà°®à°¯":1873,"à°Łà°µà°¶":1874,"Ġà°¸à°¦à°°":1875,"à°¨à°ļ":1876,"à°Ĺà°°à°Ĺ":1877,"à°¯à°²à°¤":1878,"Ġà°ķà°¦à°²":1879,"ig":1880,"à°¸à°Ł":1881,"à°ªà°µà°²":1882,"à°·à°²à°²":1883,"à°Ńà°µà°¨":1884,"Ġà°ļà°²à°¨":1885,"38":1886,"Ġà°¹à°²":1887,"Ġà°ªà°°à°²":1888,"ome":1889,"Ġà°ķà°ķ":1890,"à°¤à°¨à°¨":1891,"à°¯à°µà°°":1892,"Ġà°«à°¡":1893,"64":1894,"39":1895,"à°īà°²":1896,"Ġ49":1897,"Ġ(_":1898,"Ġà°®à°Ĺ":1899,"Ġà°®à°°à°²":1900,"Ġà°µà°ķ":1901,"à°ľà°°à°µ":1902,"à°¦à°¶":1903,"à°Ĺà°²à°°":1904,"Ġà°¬à°¨":1905,"à±¦":1906,"Ġà°¹à°¤à°®":1907,"ĠÂ":1908,"Ġà°Ĳà°Ĺ":1909,"à°¯à°ķà°ª":1910,"Ġ64":1911,"à°Łà°ªà°°":1912,"à±ĢâĢĻ":1913,"à°µà°¸à°¨":1914,"Ġà°¯à°¤":1915,"Ġà°ªà°¤à°¨":1916,"Ġà°ķà°¬":1917,"à°ĺà°µ":1918,"Ġà°ħà°µà°¤à°°":1919,"à°Ĺà°¶":1920,"à°¸à°¯":1921,"Ġà°ħà°¡à°Ĺ":1922,"à°īà°¦à°¯":1923,"à°£à°ª":1924,"Ġà°ĵà°ķ":1925,"199":1926,"à°¤à°°à°®":1927,"à°°à°ķà°²":1928,"ec":1929,"à°Łà°Ł":1930,"à°¥à°²à°¨":1931,"Ġ42":1932,"34":1933,"à°ķà°¬à°¡":1934,"Ġà°µà°£":1935,"à°¥à°¤":1936,"à°ĺà°°":1937,"à±ĭ:":1938,"à°°à°¸à°¨à°ķ":1939,"78":1940,"à°Ńà°®à°µ":1941,"à°Īà°¡":1942,"ĠX":1943,"Ġà°ıà°¨":1944,"Ġà°¨à°¯à°¨à°¤":1945,"Ġà°ıà°¸":1946,"à°Ĺà°¯":1947,"à°Ĳà°¡":1948,"Ġ2015":1949,"Ġà°īà°ªà°¦":1950,"Ġw":1951,"Ġ65":1952,"Ġof":1953,"à°¡à°¤à°²":1954,"Ġ198":1955,"76":1956,"150":1957,"à°¦à°¯à°®":1958,"Ġà°ľà°¯à°²à°²":1959,"Ġà°¹à°¯":1960,"Ġà°Ĩà°¯à°¨à°¤":1961,"à°¯à°Ń":1962,"à°ļà°®à°¨":1963,"ow":1964,"âĢĮâĢĮ":1965,"Ġà°Ĵà°ķà°¦":1966,"à°¿?\"":1967,"à°ĵà°Ł":1968,"à°ļà°¯à°®":1969,"600":1970,"à°¦à°°à°ª":1971,"à°ĩà°¶":1972,"à°°à°¤à°ķ":1973,"Ġà°°à°®à°£":1974,"Ġà°ħà°ªà°µ":1975,"à°²à°ķà°ª":1976,"à°ĩà°ķà°ª":1977,"à°¿),":1978,"à±į/":1979,"à°Ĩà°¯à°¨à°¤":1980,"à°µà°ľ":1981,"à°§à°¨à°²à°¨":1982,"à°Ĥ\"\"":1983,"à°ªà°°à°®":1984,"Ġ55":1985,"Ġà°īà°ªà°¶à°®à°¨":1986,"à°Ĩà°¶":1987,"Ġg":1988,"Ġà°¦à°¯à°ļ":1989,"à°¡à°µà°¦":1990,"à°Ĵà°ķà°Ł":1991,"à°Ĺà°²à°¦":1992,"à°Ĺà°°à°ķ":1993,"à°¤à°²à°ª":1994,"46":1995,"à°İà°°":1996,"Ġà°Ĵà°°":1997,"Ġà°¤à°¡":1998,"Ġà°¬à°²à°ªà°°":1999,"Ġa":2000,"à°Ĥ'":2001,"42":2002,"Ġà°Ĩà°Ĺà°¸":2003,"31":2004,"Ġà°¶à°°à°¦":2005,"ov":2006,"à°°à°£à°¬":2007,"Ġl":2008,"à°¾à°Ĥ?":2009,"st":2010,"Ġ120":2011,"Ġà°°à°ª":2012,"72":2013,"2018":2014,"à°²à°²à°¤":2015,"Ġh":2016,"Ġà°Łà°ļ":2017,"à°¦à°°à°ĸ":2018,"à°¦à°²à°¨":2019,"Ġ39":2020,"à°¶à°®à°¯":2021,"à°§à°®à°µ":2022,"Ġà°¨à°¯":2023,"à°ľà°Ł":2024,"à°Ĺà°µà°°":2025,"68":2026,"Ġà°¦à°¸":2027,"à°¹à°¬":2028,"à°ĺà°®":2029,"à°®à°°à°¸":2030,"à°Ĩà°¡":2031,"Ġà°Īà°¯à°¨":2032,"à°ľà°¨à°®":2033,"à±ĭâĢĻ":2034,"Ġà°¶à°¬":2035,"250":2036,"Ġ144":2037,"Ġà°ľà°²à°®":2038,"Ġ2021":2039,"à±Ĥ!":2040,"à°¤à°ªà°°":2041,"à±Ĩà±ĸà°Ĥ":2042,"44":2043,"à°ŀà°¤":2044,"à°¾?\"":2045,"nt":2046,"à°Łà°ªà°¡à°¤":2047,"à°¬à°®":2048,"Ġà°°à°¤":2049,"Ġ46":2050,"à°ªà°¨à°²":2051,"à°Ķ":2052,"Ġà°Ĩà°¶à°²":2053,"à°Ĳà°İà°¸":2054,"Ġà°®à°ķ":2055,"à°µà°¹à°°":2056,"à°ļà°¦à°Ĺ":2057,"Ġà°¤à°²à°ª":2058,"Ġ43":2059,"à°®à°ľ":2060,"à°¯à°µà°¦":2061,"à°²à°µà°¡":2062,"à°İà°µ":2063,"Ġà°ľà°¨à°®":2064,"Ġà°¹à°µ":2065,"Ġà°Īà°ķ":2066,"56":2067,"à°¯à°µà°²":2068,"à°¯à°Łà°¨à°ķ":2069,"à°İà°Ĺ":2070,"Ġà°ĺà°Ł":2071,"à±Ģ),":2072,"à°ĵà°ª":2073,"ra":2074,"Ġà°İà°¡à°®":2075,"à±įâĢį":2076,"Ġ$":2077,"à°Ĥ(":2078,"à±ĩ:":2079,"à°Ĥ.\"":2080,"à°ľà°¯à°¨à°Ĺà°°":2081,"Ġà°Ĩà°ķà°²":2082,"à°¤à°ķà°¨":2083,"à°²à°ķà°¡à°Ĺ":2084,"à°¸à°¸":2085,"à°·à°µà°°":2086,"Ġà°ľà°¬":2087,"Ġà°ĩà°ľ":2088,"Ġà°ķà°²à°²":2089,"tion":2090,"Ġà°¬à°²à°ªà°¡":2091,"Ġà°Ĩà°¦à°°à°£":2092,"ĠK":2093,"Ġà°¶à°µ":2094,"ug":2095,"à°Ńà°¨":2096,"à±ģ).":2097,"Ġà°ĩà°Łà°²":2098,"Ġà°ĵà°¦":2099,"Ġà°¬à°Łà°¨":2100,"à°Ńà°ªà°¡":2101,"Ġà°Ķà°Ł":2102,"à°ķà°°à°£à°ķ":2103,"à°ľà°¨à°¸":2104,"198":2105,"66":2106,"Ġà°®à°¯":2107,"à°ıà°ı":2108,"Ġà°Ńà°Ĺà°µ":2109,"79":2110,"58":2111,"Home":2112,"Ġà°ķà°®à°°":2113,"à±ģ?\"":2114,"Ġà°ľà°²à°ª":2115,"à°²à°Ńà°®":2116,"Ġà°ľà°Ĺà°ªà°¤":2117,"à°ħà°¹":2118,"Ġà°Īà°²":2119,"à±Ī.":2120,"à°°à°®à°ķ":2121,"Ġ41":2122,"Ġà°Ĭà°°à°Ł":2123,"74":2124,"à°Ĩà°²à°¯":2125,"à°°à°µà°ļ":2126,"Ġà°²à°Ĺ":2127,"Ġà°Ĺà°®":2128,"à°¤à°°à°£":2129,"Ġà°§à°°à°²à°¨":2130,"à°ķà°ľ":2131,"Ġà°Ĳà°«":2132,"à°ıà°¸":2133,"ul":2134,"à°ļà°¨à°²à°¨":2135,"à°¾(":2136,"Ġà°Ĺà°ľ":2137,"Ġ350":2138,"à°ķà°·":2139,"Ġ`":2140,"à°Ĺà°¬":2141,"Ġà°Ĩà°¯à°¨à°ª":2142,"à°Īà°ĵ":2143,"71":2144,"Ġà°®à°ļ":2145,"Ġà°°à°ľà°¤":2146,"à°°à°ªà°ķ":2147,"à°£à°µ":2148,"à°Ĩà°¯à°¨à°¨":2149,"à°Ńà°¤":2150,"Ġà°ªà°¡à°ķ":2151,"à°Ĺà°°à°²":2152,"800":2153,"Ġà°¤à°°à°µ":2154,"Ġv":2155,"à°°à°®à°¶":2156,"à°·à°¸":2157,"à°¦à°¨à°ķ":2158,"Ġthe":2159,"à°¥à°¨à°²":2160,"Ġà°¤à°²à°ķ":2161,"43":2162,"Ġà°¤à°¨à°ª":2163,"Ġà°ªà°¡à°¤":2164,"à°¦à°²à°¤":2165,"Name":2166,"à°§à°Ĺ":2167,"Ġà°¦à°¹à°¨":2168,"Ġà°ħà°¯à°¨":2169,"Ġ59":2170,"Ġà°ľà°¤à°ļ":2171,"à°µà°°à°®":2172,"Ġà°ľà°°à°ª":2173,"à°¶à°¬":2174,"Ġà°ªà°¯à°¨":2175,"Ġ52":2176,"Ġà°ªà°ª":2177,"à°¿...":2178,"à°ªà°°à°ļà°¡":2179,"Ġà°µà°ļà°¨":2180,"Ġà°ľà°µà°¹à°°":2181,"Ġ47":2182,"à°¨à°·":2183,"à°¯à°¸à°®":2184,"Ġà°¬à°¬":2185,"\"\"\"\"":2186,"Ġ+":2187,"ut":2188,"ot":2189,"so":2190,"à±Ĥ?":2191,"Ġà°¦à°¶à°ķ":2192,"Ġà°¸à°¯":2193,"à°°à°®à°¯":2194,"69":2195,"à°¦à°¯à°ļ":2196,"Ġà°Īà°ļ":2197,"à°°à°µà°¡":2198,"ĠâĢĺâĢĺ":2199,"à°¹à°¦à°ªà°¡":2200,"2017":2201,"2016":2202,"à°°à°²à°¨":2203,"à°Ĵà°¤":2204,"à°³à°¡":2205,"à°ļà°µà°¦":2206,"Ġà°ħà°·":2207,"Ġà°¸à°®à°¯à°®":2208,"à°«à°²à°®à°¯":2209,"Ġà°ķà°¨à°ªà°¡":2210,"à±ģ.\"\"\"":2211,"Ġà°Ĩà°Łà°²":2212,"Ġà°ħà°¨à°¡":2213,"à°İà°¦":2214,"res":2215,"à°ķà°²à°¤":2216,"à°µà°ļà°¨":2217,"52":2218,"à°¥à°ª":2219,"Ġà°ªà°ł":2220,"Ġà°®à°¨à°¦":2221,"à°ķà°²à°ª":2222,"Ġ51":2223,"Ġ800":2224,"Ġà°ļà°¦à°µà°¡":2225,"Ġà°ħà°¨à°°":2226,"à°İà°²à°ķ":2227,"à±ģ''":2228,"Ġà°ıà°¬":2229,"à±ĩâĢĻ":2230,"Ġ58":2231,"Ġà°Ĩà°µà°°à°£":2232,"62":2233,"à°Łà°¦":2234,"Ġà°ļà°¦à°°à°ª":2235,"à°łà°ª":2236,"à°ķà°¤à°¨":2237,"à°µà°ľà°®":2238,"umb":2239,"61":2240,"à°ªà°§":2241,"à°³à°®":2242,"Ġà°ħà°µà°¸à°°à°®à°¨":2243,"à°¥à°Ĺ":2244,"Ġà°§à°°à°¨":2245,"à°ĩà°·":2246,"à°²à°ªà°²":2247,"51":2248,"à°¯à°¤à°²à°¨":2249,"à°°à°µà°ļà°¨":2250,"à±Ģ/":2251,"Ġk":2252,"à°Ĵà°¡":2253,"Ġ128":2254,"à°¶à°¤":2255,"Ġà°¶à°°à°£":2256,"à°²à°§à°¨":2257,"à°µà°¤à°²":2258,"67":2259,"Ġà°µà°¦à°²":2260,"à°°à°ªà°°à°ļ":2261,"Ġà°ıà°ķà°Ĺ":2262,"Ġà°ĩà°¤à°¨":2263,"à°ħà°µà°¨":2264,"à°İà°¤":2265,"à°§à°ª":2266,"Ġà°¸à°®à°¤":2267,"700":2268,"à°µà°²à°ķ":2269,"Ġà°ķà°²à°¯":2270,"à°µà°¬":2271,"à°°à°µà°¨":2272,"Ġà°Īà°¨":2273,"Ġà°°à°ķà°°à°ķ":2274,"à°ĺà°Łà°¨à°ķ":2275,"à±įâĢĮ/":2276,"à°Ĳà°ı":2277,"à°Ńà°°à°£":2278,"à°µà°¤à°ķ":2279,"dia":2280,"à°Łà°®à°¨":2281,"Ġà°īà°ľ":2282,"à°īà°®":2283,"à°ħà°¦à°¨à°ª":2284,"à°Ĥ),":2285,"à°¹à°ª":2286,"à°¤à°¨à°²":2287,"41":2288,"à°µà°°à°¨":2289,"Ġà°Ńà°°à°¤":2290,"Ġ99":2291,"à°ªà°¡à°Ł":2292,"Â»":2293,"à±Ī-":2294,"à°Ĩà°ªà°°":2295,"à°°à°£à°®à°µ":2296,"Ġà°Ĵà°ķà°µ":2297,"ter":2298,"à°Ĺà°£à°¨à°²":2299,"ead":2300,"Ġà°Ĩà°ĸà°°":2301,"à°ĩà°¤à°¡":2302,"à°ĺà°Ł":2303,"ĠTel":2304,"Ġà°¶à°°à°¤":2305,"à°ľà°Ĺà°¨":2306,"Ġà°ħà°µà°²":2307,"à°Īà°¨":2308,"05":2309,"Ġà°ľà°°à°Ĺà°¬":2310,"à°Ĳà°²":2311,"Ġà°Ĺà°²à°µ":2312,"II":2313,"Ġà°¨à°¶":2314,"à°³à°²à°ª":2315,"à°µà°¤à°®":2316,"à°ħà°ľ":2317,"à°¤à°®à°ķ":2318,"à°ķà°°à°£à°¨":2319,"Ġà°§à°°à°ķ":2320,"Ġà°¸à°Ńà°ķ":2321,"Ġà°®à°¹à°°":2322,"à°¨à°µà°ļ":2323,"à°ķà°¤à°²":2324,"Ġà°°à°ļà°¨à°²":2325,"Ġà°®à°°à°ļ":2326,"88":2327,"à°§à°¨à°¨":2328,"63":2329,"Ġà°Ĩà°ļà°°à°£":2330,"à°§à°°à°£":2331,"à°Łà°¬à°¦":2332,"à°ħà°¶":2333,"à°Ĳà°¬":2334,"ri":2335,"à°¨à°²à°¨":2336,"à°°à°¯à°²":2337,"Ġà°Ĩà°ļà°°":2338,"Ġà°īà°ªà°Ĺ":2339,"ch":2340,"à°Īà°¶":2341,"Ġà°¤à°²à°¨":2342,"od":2343,"59":2344,"Ġà°ĩà°¯":2345,"à°ķà°®à°²":2346,"Ġà°¶à°¸":2347,"Ġà°ĺà°Łà°¨à°¤":2348,"Ġà°ħà°¸à°¹":2349,"Ġà°ħà°¤à°²":2350,"à°¯à°Ĺà°²à°°":2351,"Ġà°Ĵà°ķà°ª":2352,"ht":2353,"Ġà°ªà°¯":2354,"à±įâĢĮ!":2355,"à°¨à°µà°¤":2356,"à°¡à°²à°¨":2357,"Ġà°®à°ľ":2358,"Ġà°ļà°ļ":2359,"à±Ĥ-":2360,"à°Ĩà°Ĺ":2361,"Ġ130":2362,"Ġà°°à°¬":2363,"à°ĤâĢ¦":2364,"ine":2365,"ugu":2366,"73":2367,"Ġà°ľà°Ĺà°¦":2368,"Ġà°¹à°®":2369,"à°¤à°°à°ļ":2370,"à°³à°µ":2371,"à°¨à°¤à°¨":2372,"à°µà°ľà°¨":2373,"Ġà°¤à°¨à°¤":2374,"Ġà°®à°¹à°¬":2375,"à°ªà°¨à°ķ":2376,"Ġ56":2377,"fo":2378,"Ġà°ĩà°µà°¨":2379,"Ġà°Ńà°¯à°®":2380,"Ġà°ħà°¸à°®":2381,"Ġ72":2382,"âĻ":2383,"Ġà°īà°ªà°®":2384,"ent":2385,"Ġà°īà°ªà°ķà°°à°£":2386,"2015":2387,"Ġà°ĸà°®":2388,"Ġà°·à°°à°¤":2389,"54":2390,"à±ģ\"":2391,"à°ªà°¦à°®":2392,"oc":2393,"Ġà°¸à°®à°°à°¯":2394,"à°Ľà°¤":2395,"à°°à°ªà°Ł":2396,"à°¤à°¨à°ª":2397,"ĠâĢ¦":2398,"Ġà°ĵà°²":2399,"Ġà°¸à°¹à°¨":2400,"à°Ŀ":2401,"Ġà°ķà°¡à°Ĺ":2402,"Ġà°ħà°°à°£":2403,"ir":2404,"à°¾à°Ĥ!":2405,"Ġà°¯à°¡":2406,"Ġ54":2407,"à°²à°ªà°Ł":2408,"em":2409,"à°¡à°ķà°ª":2410,"Ġà°īà°§":2411,"Ġà°ħà°°à°¬":2412,"ĠTelugu":2413,"ay":2414,"à°¤à°®à°®":2415,"à°°à°®à°µ":2416,"à°ķà°¡à°¨":2417,"ag":2418,"à°¸à°ļ":2419,"Ġà°¸à°¡à°²":2420,"Ġà°ħà°¨à°²":2421,"à°°à°¹à°®":2422,"ab":2423,"à°²à°¨à°¨":2424,"Ġ62":2425,"à°ıà°µ":2426,"53":2427,"Ġà°Ĳà°Ĳà°Ł":2428,"à°·à°Ĺ":2429,"Ġà°ĸà°²":2430,"Ġà°Ĩà°¡à°ª":2431,"à°«à°¸":2432,"à°¤à°ķà°®":2433,"Ġ600":2434,"57":2435,"Ġà°¬à°¯à°Łà°ª":2436,"Ġà°°à°ļà°¨":2437,"à°§à°¨à°²à°ķ":2438,"à°¦à°ªà°¡":2439,"à±ĢâĢĮ":2440,"à°¥à°¤à°ķ":2441,"à°¨à°µà°²":2442,"à°·à°¬":2443,"à°°à°ľà°¨":2444,"à°®à°¨à°Ĺ":2445,"Ġà°Ĳà°ı":2446,"à°µà°¯à°¸":2447,"à°§à°¨à°ķ":2448,"à±įâĢĿ":2449,"à°¦à°°à°²":2450,"ire":2451,"à°¦à°¬":2452,"à°İà°¡":2453,"Ġà°ªà°°à°ļ":2454,"Ġà°İà°µà°¡":2455,"Ġà°µà°¤":2456,"Ġà°¸à°¹à°ļà°°":2457,"Ġ160":2458,"à°¦à°¯à°ª":2459,"Ġ67":2460,"Ġ2009":2461,"à°²à°ªà°¡":2462,"âĢĻ.":2463,"à°Ĩà°¸à°ķ":2464,"à°µà°¹à°£à°ķ":2465,"à°¤à°¦à°¨":2466,"Ġà°İà°¨à°°":2467,"Ġà°Łà°®":2468,"à°ıà°²":2469,"à°¸à°¬":2470,"Ġà°¥à°°":2471,"Ġà°¤à°¨à°¦":2472,"à°ªà°¦à°¨":2473,"à°¡à°µà°²à°¸":2474,"Ġà°ľà°¹":2475,"à°£à°¦":2476,"Ġ180":2477,"à°¤à°°à°ķ":2478,"à°¨à°®à°¯":2479,"à°°à°²à°²":2480,"à°¦à°ļ":2481,"Ġà°¹à°¦":2482,"ment":2483,"Ġà°¨à°Łà°¨à°ķ":2484,"à°§à°®à°¨":2485,"Ġà°ĵà°µ":2486,"à°ĸà°°à°°":2487,"à°¯à°Ĺà°²à°¦":2488,"à°¿''":2489,"à±įâĢĮ?":2490,"Ġto":2491,"à°ħà°µà°ķ":2492,"à°²à°ķà°¨":2493,"Ġà°Ĺà°µ":2494,"Ġ108":2495,"à±ĩà±į":2496,"Ġà°¹à°¸à°¨":2497,"Ġà°ĭ":2498,"à°Ĺà°£à°²":2499,"à°¬à°¯à°Ł":2500,"à°³à°²à°¨":2501,"Ġà°ĩà°ķà°ª":2502,"Ġà°®à°¨à°µ":2503,"à°ļà°¬à°¡à°²":2504,"à°§à°®à°¯":2505,"ID":2506,"à±ĩ-":2507,"à°§à°°à°²":2508,"thumb":2509,"Ġà°¯à°¶":2510,"à°²à°®à°¨":2511,"à°Ĳà°°":2512,"à°ªà°Ĺà°²":2513,"Ġà°µà°¯":2514,"à°¬à°ľ":2515,"1000":2516,"à±ĭâĢ¦":2517,"à°¹à°¨à°¦":2518,"Ġà°īà°¯":2519,"ort":2520,"Ġ2000":2521,"Ġ110":2522,"Ġà°ķà°¸à°°à°¤":2523,"Ġà°ªà°¡à°Ł":2524,"Ġ68":2525,"Ġ2013":2526,"ce":2527,"à°Ĵà°¯":2528,"à°°à°®à°®":2529,"Ġ53":2530,"Ġà°®à°¤à°ª":2531,"Ġà°Ĩà°Ńà°°à°£":2532,"Ġà°®à°¡":2533,"à°ľà°¡":2534,"à°ĸà°ļ":2535,"à°¿âĢĻ.":2536,"98":2537,"à°¾\"\"":2538,"Ġ1000":2539,"à°ķà°£":2540,"à±Ģ'":2541,"à°®à°Ń":2542,"à°ħà°µà°¸à°°":2543,"Ġà°ħà°µà°¸":2544,"à°Łà°²à°²":2545,"à°³à°Ĺ":2546,"Ġà°ħà°µà°¨":2547,"Ġà°ħà°¸à°¦":2548,"à°¤à°¶":2549,"Ġ105":2550,"Ġà°Īà°¦":2551,"Ġà°ķà°¡à°ª":2552,"à°µà°ķà°®":2553,"à°§à°¸":2554,"os":2555,"à°Ĺà°¤à°¨":2556,"Ġà°ĺà°Łà°¨à°¨":2557,"à±Ĩà±į":2558,"à°¹à°¤à°²":2559,"à°®à°ªà°ķ":2560,"Ġà°ªà°°à°¦":2561,"à°®à°¨à°²":2562,"Ġà°¨à°®à°¸":2563,"Ġ\"\"\"\"":2564,"à°¾à°Ĥ'":2565,"à±Ĩà°Ĥ.":2566,"Ġà°¶à°¤à°ķ":2567,"Ġà°ıà°Ĳà°¸":2568,"à°¦à°²à°ļ":2569,"à°Ĺà°ļ":2570,"à°°à°¹à°¦":2571,"à°Ĭà°°":2572,"à°¨à°ªà°¦":2573,"à±ĭ'":2574,"Ġà°ªà°¡à°²":2575,"à°²à°¨à°ķ":2576,"Ġ71":2577,"à°®à°²à°¨":2578,"Ġà°¹à°ľ":2579,"Ġà°īà°ªà°¨":2580,"Ġ\"\"\"":2581,"à°Īà°ķ":2582,"à°ĩà°³":2583,"iv":2584,"à°¯à°¦à°¨":2585,"Ġà°ħà°µà°¸à°°à°®à°µ":2586,"à°°à°¸à°ķ":2587,"Ġà°¤à°²à°¸":2588,"à±įâĢĮâĢĮâĢĮâĢĮ":2589,"Ġà°ķà°²à°µà°°":2590,"à°Īà°°":2591,"Ġ119":2592,"à°ıà°Ł":2593,"à°¾à°Ĥ:":2594,"Ġà°İà°µà°°à°¨":2595,"Ġ2008":2596,"ĠJ":2597,"à°ļà°¦à°µ":2598,"Ġà°Ĩà°ļà°°à°£à°²":2599,"ww":2600,"Ġà°ļà°ª":2601,"à°¨à°µà°°":2602,"à°ļà°Ĺà°²à°°":2603,"Ġ85":2604,"à°Łà°ªà°°à°®":2605,"à°¯à°ķà°®":2606,"Ġà°°à°Ĺ":2607,"à°¬à°£":2608,"Ġ74":2609,"à±į.\"":2610,"Ġ78":2611,"à°°à°¹à°£":2612,"Ġ95":2613,"à°¾),":2614,"à°¨à°µà°ľ":2615,"Ġ69":2616,"09":2617,"à°¿).":2618,"Ġ{":2619,"à°¿\"":2620,"à°°à°Ĺà°¨":2621,"350":2622,"à°ħà°ļ":2623,"à°£à°¨à°·":2624,"à°Łà°ļ":2625,"à°ªà°ķà°®":2626,"Ġà°²à°¡":2627,"à°°à°¬à°¡":2628,"Ġà°ªà°³":2629,"à°ĩà°¡":2630,"à°ĵà°µà°°":2631,"Ġà°ħà°¦à°°à°Ĺ":2632,"à°ĸà°¤":2633,"Ġre":2634,"à°¤à°¤à°²":2635,"à°ļà°¨à°¨":2636,"à°µà°¡à°²":2637,"à°ľà°¯à°®":2638,"à±Ĥ)":2639,"Ġà°Ĩà°¡à°¨":2640,"à°Ĵà°ķà°¸":2641,"à°ļà°Ĺà°²à°¦":2642,"à°¶à°¨à°ķ":2643,"Ġà°īà°Ńà°¯":2644,"à°¸à°¹à°ľ":2645,"à°¨à°®à°¨":2646,"Ġà°µà°§":2647,"à°®à°²à°¯":2648,"Ġà°ľà°°à°Ĺà°¦":2649,"Ġà°¤à°µ":2650,"à°¿âĢĮ":2651,"à°īà°°":2652,"Ġà°ĺà°¨à°µ":2653,"ap":2654,"2000":2655,"à°Ĵà°ª":2656,"fox":2657,"âĻ¦":2658,"à°¡à°°à°²":2659,"Ġà°®à°Ĺà°µ":2660,"Ġà°Ĳà°İ":2661,"irefox":2662,"à°°à°ľà°²à°¤":2663,"Ġà°Ĩà°¡à°µ":2664,"2022":2665,"Ġà°Ĳà°ļ":2666,"Ġà°®à°°à°£à°¶":2667,"RR":2668,"og":2669,"à±ĩ)":2670,"à°¦à°¨à°²à°¨":2671,"à°²à°Ńà°¤à°°":2672,"Ġà°ħà°µà°¤":2673,"à°ķà°¸à°Ń":2674,"à°¸à°¨à°²":2675,"à°Łà°³":2676,"à°łà°ķ":2677,"Ġà°ªà°¡à°ķà°²":2678,"Ġà°ıà°ķà°ķ":2679,"Ġ57":2680,"à°ķà°°à°¨":2681,"Ġà°ĸà°¡":2682,"89":2683,"Ġà°¹à°¡":2684,"à°·à°²à°¤":2685,"Ġà°ħà°£à°ļ":2686,"à°¦à°°à°®":2687,"à°¾à°ĤâĢĻâĢĻ":2688,"à°¿à±į":2689,"Al":2690,"Ġr":2691,"Ġà°Ĩà°¡à°Ł":2692,"à°¿.\"\"\"":2693,"Ġand":2694,"Ġà°®à°¤à°ªà°°à°®":2695,"Ġ73":2696,"Ġà°¦à°µ":2697,"à°®à°¹à°°":2698,"Ġ63":2699,"Ġà°ľà°¨à°¨":2700,"rand":2701,"Ġà°¹à°¤à°®à°¯":2702,"im":2703,"à°³à°ª":2704,"à°¦à°µà°Ĺ":2705,"à°¯à°¬à°¡à°¤":2706,"Ġà°ħà°¨à°¨":2707,"Ġà°ħà°¹à°°":2708,"ĠUS":2709,"ity":2710,"à°Łà°µà°ļ":2711,"à°¿.)":2712,"à°¯à°ľà°¨":2713,"à°ıà°³":2714,"Ġà°®à°°à°£à°®":2715,"Ġà°Īà°Łà°²":2716,"à°°à°ļà°¯":2717,"à°Ĺà°²à°¨":2718,"à°Ĳà°İà°²":2719,"à°ľà°¯à°¶":2720,"à°ªà°£à°²à°ª":2721,"à°ıà°°":2722,"Ġà°Ĺà°£à°¤":2723,"Ġ2011":2724,"à°¸à°¨à°¸à°Ńà°²":2725,"Ġà°¦à°Ł":2726,"Ġà°ħà°Ńà°¯":2727,"ĠRead":2728,"Ġà°ħà°²à°¸":2729,"à°µà°¹à°£à°²":2730,"à±įâĢĮâĢĵ":2731,"Ġ175":2732,"Ġ2007":2733,"à°®à°¨à°¦":2734,"Ġà°Ĩà°µà°¶":2735,"à°ļà°ª":2736,"à°īà°·":2737,"à°īà°ªà°¯":2738,"900":2739,"à°¿..":2740,"Ġà°¨à°µà°²":2741,"86":2742,"Ġà°İà°ľ":2743,"à°²à°ªà°°":2744,"Ġà°ħà°µà°§":2745,"à°¤à°¬":2746,"Ġà°ªà°¡à°µ":2747,"Ġà°®à°°à°®":2748,"à°īà°ļ":2749,"à°¤à°°à°Ĺà°¤":2750,"Ġà°Ĩà°µà°°à°£à°²":2751,"Ġà°¯à°®":2752,"à°²à°²à°²":2753,"qu":2754,"à°Ľà°®":2755,"à°ľà°¬":2756,"87":2757,"Ġ2012":2758,"ang":2759,"à°µà°¨à°°":2760,"Ġà°Ĺà°¡à°ļ":2761,"à°ķà°°à°²":2762,"ĠÂ°":2763,"à°µà°Ĺà°¨":2764,"à°ľà°¨à°µà°°":2765,"à±įâĢĻ.":2766,"à°²à°¤à°²":2767,"Ġà°ħà°¨à°µà°¸à°°":2768,"à°Łà°®à°µ":2769,"à°°à°®à°¬à°¦":2770,"Ġà°¨à°ª":2771,"Ġà°Īà°Ł":2772,"à°Ĵà°²":2773,"à°µà°Ĺà°²":2774,"à°ļà°µà°²":2775,"à°ªà°¡à°ķ":2776,"à±ģ..":2777,"OS":2778,"ex":2779,"Ġà°µà°ľ":2780,"à°·à°¦":2781,"à°Ńà°¸":2782,"Ġà°ħà°²à°¹":2783,"Ġà°Ĵà°ķà°¨":2784,"Ġà°ħà°¸à°¹à°¨":2785,"ist":2786,"Ġà°ªà°²à°ķ":2787,"Ġà°İà°®à°°":2788,"Ġà°ĵà°¸":2789,"Ġà°Ĳà°°à°¨":2790,"Ġà°ħà°µà°¯à°µ":2791,"à°¤à°µà°®":2792,"Ġà°ķà°²à°¹":2793,"à°µà°¨à°¸":2794,"à°±à°ª":2795,"ure":2796,"Ġà°ªà°¦à°®":2797,"Ġà°ļà°²à°¨à°ļ":2798,"83":2799,"ĠIn":2800,"à°Ńà°µà°¤":2801,"Ġà°«à°¨":2802,"à°¶à°¦":2803,"Ġà°Ĩà°²à°ķ":2804,"Ġ140":2805,"94":2806,"à°°à°ķà°®":2807,"à°¢à°®":2808,"à°¦à°¨à°®":2809,"à°²à°²à°ª":2810,"97":2811,"Ġà°Ĩà°Ĺà°²":2812,"à°µà°¡à°¨":2813,"ers":2814,"à°·à°£à°Ĺ":2815,"Ġ96":2816,"Ġà°¸à°«":2817,"à°ĺà°²":2818,"Ġà°¹à°ł":2819,"à°«à°¨":2820,"ps":2821,"Ġà°Łà°µà°°":2822,"Ġà°·à°Ł":2823,"à°ľà°¯à°²à°²":2824,"à°Ĵà°ķà°ª":2825,"à°²à°µà°¬à°¡":2826,"Ġà°°à°¥":2827,"Ġà°ĩà°¯à°°":2828,"Ġà°Ńà°²":2829,"à°¦à°°à°¦":2830,"Ġà°ľà°¯à°ª":2831,"à°°à°ķà°¡":2832,"2009":2833,"à°°à°ľà°²à°²":2834,"à°ĵà°¸":2835,"à±ĢâĢ¦":2836,"Ġà°īà°¬":2837,"à°Ńà°§":2838,"Ġà°ķà°²à°Ĺ":2839,"Ġ2006":2840,"à°ĩà°®":2841,"Ġà°Īà°ª":2842,"Ġà°®à°¨à°²à°¨":2843,"Ġà°ħà°Łà°²":2844,"96":2845,"à°Ĳà°«":2846,"à°Ĥ]":2847,"Ġ2004":2848,"IP":2849,"__":2850,"à°ħà°ĸ":2851,"ĠÂł":2852,"Ġà°ľà°¯à°°":2853,"à°¾.\"":2854,"Ġà°īà°ªà°ķ":2855,"Ġ66":2856,"84":2857,"à°¥à°²à°²":2858,"à°³à°¦":2859,"à°ªà°°à°¸":2860,"à°Ĺà°ķà°°":2861,"à°ĩà°¬":2862,"Ġà°¯à°¸":2863,"Ġx":2864,"à°²à°¯à°®":2865,"à°Łà°²à°¤":2866,"à°®à°²à°ķ":2867,"Ġà°ħà°µà°°":2868,"Ġà°ħà°ľà°°":2869,"à°ľà°¨à°ķ":2870,"Ġà°İà°¬":2871,"à°ĩà°ļ":2872,"Ġà°ķà°²à°µà°¡":2873,"à°µà°¨à°¶":2874,"Ġà°Ĩà°ķà°¸":2875,"à°§à°µà°¨":2876,"Ġ700":2877,"ight":2878,"BI":2879,"à±įâĢ¦":2880,"à°ªà°°à°ļà°¬à°¡":2881,"à°Ĳà°¨":2882,"Ġà°¨à°µà°¦":2883,"Ġà°ľà°ķ":2884,"à°°à°ķà°°":2885,"à°ľà°¨à°²":2886,"Ġà°ıà°®à°¯":2887,"2013":2888,"ĠY":2889,"à°¶à°ªà°°":2890,"à°¤à°¨à°¤":2891,"Ġà°ħà°ĺ":2892,"04":2893,"82":2894,"à¥":2895,"à°µà°ªà°¡":2896,"Ġà°ĩà°¤à°¡":2897,"Ġà°Ĳà°ıà°İà°¸":2898,"à°°à°¸à°®":2899,"op":2900,"03":2901,"à°¥à°²à°¤":2902,"à°°à°¤à°¤":2903,"Ġ104":2904,"ind":2905,"à±įâĢĮâĢĻ.":2906,"2011":2907,"ne":2908,"à°Ĺà°¬à°¡":2909,"Ġà°¦à°¨":2910,"Ġà°İà°Ĺà°¸":2911,"à°°à°µà°£":2912,"à°ķà°°à°£à°²à°¨":2913,"Ġà°Ĩà°³":2914,"à°ıà°Ĳ":2915,"à°¨à°ķà°µ":2916,"à°¡à°Łà°®":2917,"à°ļà°¦à°¨":2918,"Ġà°ıà°®à°µ":2919,"Ġà°Ĩà°¡à°²":2920,"ft":2921,"à°¨à°¶":2922,"%)":2923,"à°Ĩà°¯à°¨à°ª":2924,"à°¡à°¡à°®":2925,"750":2926,"91":2927,"up":2928,"Ġà°§à°¨à°µ":2929,"Ġà°īà°ªà°µ":2930,"av":2931,"à°µà°§":2932,"à°µà°°à°¦":2933,"Ġà°Łà°¯":2934,"Ġà°ħà°¸à°Ń":2935,"Ġà°Ĵà°µ":2936,"Ġà°¦à°«":2937,"ub":2938,"ak":2939,"à°¬à°²à°®":2940,"Ġ''":2941,"Also":2942,"à°¡à°ļ":2943,"à°ªà°¡à°¡":2944,"à°ıà°¹":2945,"Ġà°¤à°²à°ªà°¡à°¨":2946,"Ġ}":2947,"Ġà°ĵà°¬":2948,"à°¯à°£à°°":2949,"à°ķà°¹":2950,"Ġà°Ĩà°ªà°²":2951,"Ġ61":2952,"à°Ĺà°ķà°°à°®":2953,"120":2954,"93":2955,"ate":2956,"Ġà°¨à°¡à°µ":2957,"à°¾!\"":2958,"Ġà°ľà°¨à°°":2959,"Ġà°Ĺà°¡à°ª":2960,"à°¡à°¬à°¡":2961,"\"\".\"":2962,"1500":2963,"92":2964,"à°¤à°Ń":2965,"à°Ĩà°ļ":2966,"Ġà°Ĩà°¸à°¨":2967,"à±ĤâĢ¦":2968,"Ġà°®à°³à°¯":2969,"à°¸à°Ńà°ķ":2970,"à°²à°¯à°¨à°Ĺ":2971,"à°Ķà°·à°§":2972,"à°²à°µà°Ĺ":2973,"Ġ76":2974,"Ġà°ªà°²à°ķà°°":2975,"à°¾à°ĤâĢĿ":2976,"\"\"\"\"\"\"\"":2977,"à±į\"\"\"":2978,"Ġà°ªà°¤à°¨à°®":2979,"Ġà°ķà°§":2980,"Ġà°¨à°¬":2981,"à°¦à°²à°Ĺ":2982,"ress":2983,"ia":2984,"à°¨à°ªà°°":2985,"Ġà°¤à°Ĺà°²":2986,"à°Ńà°°à°¤":2987,"Ġà°Ĳà°İà°¨":2988,"2008":2989,"Ġà°Łà°¬":2990,"02":2991,"à°µà°®à°¨":2992,"Ġà°Ĵà°®à°°":2993,"Ġ88":2994,"IC":2995,"Ġà°µà°°à°¸":2996,"à°·à°Ń":2997,"Ġà°Ńà°¨":2998,"06":2999,"à°°à°²à°ķ":3000,"Ġ81":3001,"à°ļà°¤":3002,"à°ļà°²à°ķ":3003,"Ġà°¦à°¹":3004,"à°¯à°ªà°¡à°¤":3005,"à±ģâĢĻ.":3006,"01":3007,"ew":3008,"à°ħà°«":3009,"Ġà°¯à°§":3010,"Ġà°¸à°µà°°à°£à°²":3011,"Ġà°¸à°¹à°µ":3012,"Ġà°ªà°¡à°¨":3013,"à°¯à°ªà°°à°®":3014,"Ġà°ıà°¯":3015,"2004":3016,"à°İà°¡à°®":3017,"Ġst":3018,"Ġ77":3019,"à°®à°µà°°":3020,"à°Ĵà°°":3021,"Ġ2005":3022,"brand":3023,"à°¤à°¬à°¡":3024,"à°ļà°¸":3025,"à°§à°µà°°":3026,"Ġà°¸à°¹à°ľà°®":3027,"Ġà°¨à°ľ":3028,"à°°à°£à°ķà°°":3029,"Ġ83":3030,"ĠNW":3031,"Ġ#":3032,"Ġà°Ĳà°İà°¸":3033,"ill":3034,"à°Ľà°Ĺ":3035,"Ġà°Ńà°Ĺà°µà°¤":3036,"à°¤à°ªà°¦":3037,"à°¦à°İà°¤":3038,"Ġà°®à°¦à°¨":3039,"hort":3040,"):":3041,"Ġà°ªà°¡à°¡":3042,"à°¦à°µà°¶":3043,"à°¨à°¤à°®":3044,"à°Ĳà°İà°¨":3045,"2021":3046,"Ġ2022":3047,"Ġà°ªà°¥":3048,"Ġ84":3049,"à°¦à°Ĺà°²":3050,"à°Īà°ª":3051,"Ġi":3052,"à°ħà°¯à°¨":3053,"Ġà°ľà°°à°ªà°¡":3054,"Ġ82":3055,"à°¯à°¤à°¤":3056,"Ġ91":3057,"à°ĵà°İà°¸":3058,"Ġâ":3059,"à±ģâĢĮ":3060,"à°¦à°®à°¨":3061,"Ġà°«à°²à°®":3062,"à°¨à°¤à°²":3063,"Ġà°ĸà°ľ":3064,"à°ªà°Ĺà°²à°¨":3065,"Ġà°ħà°¤à°£":3066,"à°³à°¨à°ķà°°":3067,"à°£à°¯à°®":3068,"à°ľà°¨à°°à°²":3069,"à°¯à°¤à°ķ":3070,"à°Ĭà°ª":3071,"Ġà°ľà°µà°¦":3072,"Ġà°Ńà°¯à°ª":3073,"à°Ĺà°®à°§":3074,"990":3075,"à°ŀà°²":3076,"Ġà°¸à°ķà°²":3077,"à°İà°µà°¡":3078,"Ġà°Ĳà°Ĩà°°":3079,"à°ķà°ªà°ķ":3080,"à°¸à°®à°°":3081,"à°²à°Łà°°":3082,"à°¹à°µ":3083,"à°ªà°¡à°²":3084,"2012":3085,"Ġà°ĩà°¡":3086,"ore":3087,"Ġà°¦à°¯à°¨":3088,"à°Ńà°Ĺ":3089,"à°¯à°¬à°Ł":3090,"Ġà°°à°«":3091,"à°Ĭà°¹":3092,"08":3093,"Ġà°ķà°Łà°ķ":3094,"à°¡à°²à°ķ":3095,"Ġà°¸à°°à°¸à°®":3096,"à°¯à°²à°²":3097,"à°ķà°Łà°°":3098,"à°¶à°¬à°°":3099,"Ġà°¨à°¡à°ªà°¡":3100,"à°°à°ķà°Łà°¨à°¨":3101,"à°¥à°¨à°¨":3102,"Ġ2010":3103,"est":3104,"Ġà°ıà°Ĩà°°":3105,"CO":3106,"Ġà°ħà°°à°Ł":3107,"à°ĤâĢĿ":3108,"Ġà°īà°Ł":3109,"à°¯à°¨à°¨":3110,"à°ģ":3111,"à°¡à°Ĺà°Ł":3112,"Ġ97":3113,"à°ĵà°Łà°°":3114,"07":3115,"à°¨à°ķà°Ł":3116,"Ġ92":3117,"à°¯à°¸à°Ńà°ķ":3118,"ical":3119,"Ġà°Ĺà°Ĺà°¨":3120,"à°¯à°¤à°Ĺ":3121,"Ġ256":3122,"low":3123,"à°¿]":3124,"Ġ650":3125,"à°¯à°ªà°¡à°²":3126,"à°°à°¸à°¨à°Ĺ":3127,"Ġà°ĺà°¨à°¤à°¨":3128,"à±ĩ'":3129,"à°¸à°¦à°°":3130,"Ġà°²à°µà°°":3131,"Ġ86":3132,"Ġà°Ĭà°¡":3133,"à°²à°ķà°¤":3134,"à°°à°¸à°µ":3135,"Ġà°ķà°²à°Ĺà°²":3136,"Ġà°¯à°ľ":3137,"81":3138,"à°¡à°µà°¨":3139,"à°¯à°²à°¸":3140,"Ġà°ªà°Ĺà°²":3141,"Ġà°¨à°¤":3142,"à°¦à°Łà°Ĺ":3143,"à°£à°Ĺ":3144,"à°¤à°¥":3145,"Ġà°Ĺà°¢":3146,"Ġà°Ĩà°ªà°¡":3147,"Ġà°Ĺà°¬":3148,"Ġà°Ńà°Ĺà°¤":3149,"Ġà°ķà°°à°µ":3150,"Ġà°¨à°°à°ķ":3151,"à°ĵà°²":3152,"à°ĩà°¤":3153,"Ġà°¥à°®à°¨":3154,"à°¦à°¶à°²":3155,"à°¦à°¨à°Ĺ":3156,"ect":3157,"name":3158,"Ġà°Ķà°°":3159,"à°¨à°°à°¯":3160,"à°ªà°¦à°²":3161,"Ġà°®à°¹à°²":3162,"à°®à°¦à°Ĺ":3163,"ev":3164,"à°¶à°Ńà°ķ":3165,"Ġ98":3166,"Ġ2002":3167,"ho":3168,"à°¸à°«":3169,"à°°à°¤à°°":3170,"Ġà°Ĳà°¦à°µ":3171,"à°·à°ķà°°à°®":3172,"Ġà°®à°ł":3173,"Ġà°¯à°¨":3174,"à°¨à°¤à°¸":3175,"à°Ĩà°Ĺà°¸":3176,"à°¥à°®à°µ":3177,"Ġà°ķà°¡à°Ĺà°¡":3178,"Ġà°Ķà°¤":3179,"//":3180,"à°ħà°°à°µ":3181,"Ġ87":3182,"à°Łà°ķà°°":3183,"Ġà°®à°¹à°¤":3184,"india":3185,"Ġà°Ĩà°²à°ª":3186,"Ġà°ıà°¡à°µ":3187,"à°µà°¨à°Ĺ":3188,"à°ŀà°¨":3189,"à°ķà°¥à°²":3190,"à°¦à°²à°²":3191,"à°ħà°ľà°¯":3192,"Ġà°¶à°¬à°°":3193,"Ġà°§à°°à°²à°ķ":3194,"GB":3195,"à°²à°µà°¨":3196,"à°Ĳà°µ":3197,"à°¨à°ªà°¤":3198,"âĢĮà°Ĥ":3199,"à°¹à°¶":3200,"Ġà°¬à°¹à°¦":3201,"Ġà°İà°ķà°¨":3202,"à±ģ!\"":3203,"hi":3204,"à°¸à°¦":3205,"à°®à°¹à°®":3206,"://":3207,"à°®à°²à°¤":3208,"à°°à°£à°®à°¯":3209,"à°Ĺà°®à°ķ":3210,"à°ľà°«à°°":3211,"Ġfor":3212,"Ġ--":3213,"125":3214,"Ġà°ľà°¯à°¸":3215,"Ġà°¦à°¸à°°":3216,"Ġà°¯à°®à°¹":3217,"Ġà°ħà°¸à°¤":3218,"à°¡à°Ĺà°²à°°":3219,"Ġà°Ĵà°Ł":3220,"Ġà°Ńà°°à°¦":3221,"à°¤à°°à°¹":3222,"à°Ĺà°¡à°ļ":3223,"à°Ńà°²":3224,"à°Ńà°Ł":3225,"Ġà°®à°¨à°µà°¡":3226,"à°īà°¡":3227,"130":3228,"à°¡à°®à°¨":3229,"Ġà°ªà°¡à°¦":3230,"à°Ĳà°Ĳà°Ł":3231,"à°ıà°¨":3232,"Ġà°ªà°Ĺà°Ł":3233,"Ġà°Ĩà°·":3234,"Ġ2001":3235,"Ġà°ªà°§à°ķ":3236,"à°¨à°¦à°®":3237,"Ġ450":3238,"Ġ170":3239,"Ġà°°à°£à°µ":3240,"Ġ=":3241,"à°µà°¶à°ķ":3242,"à°²à°Ĺà°¡":3243,"Ġ89":3244,"Ġ*":3245,"à°¾âĢĿ":3246,"à°Ńà°Ĺà°µ":3247,"Ġà°Ĭà°¦":3248,"2007":3249,"à°ħà°®à°²":3250,"Ġà°ħà°µà°¡":3251,"Ġà°ħà°ķà°¸":3252,"à°²à°µà°¦":3253,"Ġà°Ĭà°¸":3254,"ail":3255,"ph":3256,"2006":3257,"Ġà°¡à°ķ":3258,"Ġà°°à°¸à°µà°¤":3259,"à±ģâĢ¦.":3260,"Â°":3261,"à°·à°²à°®":3262,"ction":3263,"à°°à°¬à°²":3264,"à°¹à°°à°£à°Ĺ":3265,"if":3266,"à±ģ\"\"\"":3267,"Ġà°¹à°¬":3268,"Ġà°ħà°µà°¸à°°à°®à°¯":3269,"à°µà°¤à°¨":3270,"Ġ.\"":3271,"à±įâĢĭ,":3272,"Ġà°İà°¡à°¤":3273,"Ġà°Ĵà°®":3274,"à°¶à°ķà°§":3275,"à°·à°£à°¶":3276,"Ġà°ħà°¨à°¸":3277,"à°³à°¨à°²à°ķ":3278,"Ġà°ķà°³à°²":3279,"ME":3280,"Ġà°£":3281,"ly":3282,"Ġà°¸à°°à°³à°®":3283,"oun":3284,"Ġ94":3285,"urb":3286,"à°ķà°ł":3287,"à±Ĥ:":3288,"Ġà°°à°¤à°¨":3289,"Ġà°Ĩà°Ĺà°¡":3290,"à°¨à°µà°¸à°°":3291,"à°¨à°ªà°°à°ļ":3292,"Ġà°Ĩà°¬":3293,"à°°à°¤à°ª":3294,"Ġà°Ĩà°¡à°¤":3295,"Ġà°¦à°¦":3296,"Ġà°ħà°µà°¶":3297,"à°°à°³à°ķ":3298,"450":3299,"Ġà°¸à°¹à°¸":3300,"Ġà°Ĭà°Ĺ":3301,"à±į).":3302,"à°¯à°Ĺà°²à°¨":3303,"Ġà°¦à°¹à°¨à°¬à°²":3304,"à°¾âĢĻâĢĻ":3305,"à°°à°Ĺà°²":3306,"à°¥à°¸":3307,"Ġà°ıà°ļ":3308,"à°®à°ķà°¥":3309,"Ġà°¸à°Ńà°¨":3310,"Ġ1999":3311,"ign":3312,"à°¨à°Ń":3313,"à°µà°°à°¦à°²":3314,"MS":3315,"are":3316,"à°°à°¯à°®":3317,"à°¨à°Ĺà°²":3318,"à°§à°ªà°°à°ļ":3319,"ud":3320,"à°°à°µà°²":3321,"à°¤à°Ĺà°¤":3322,"à°¡à°¤à°¨":3323,"SA":3324,"Ġà°µà°Ł":3325,"à°īà°¸":3326,"for":3327,"Ġà°Ĺà°Ĺ":3328,"à°ĩà°Ĵ":3329,"Ġà°Łà°ķ":3330,"Ġà°ĸà°Ł":3331,"à°µà°Ĺà°£":3332,"PI":3333,"har":3334,"Ġà°ĩà°Ĺ":3335,"à°¨à°Ĺà°¦":3336,"à°§à°¤à°¨":3337,"à°ĺà°Łà°¨à°¨":3338,"à°¥à°®à°¯":3339,"Ġà°ľà°¨à°¸à°®":3340,"à°°à°®à°²à°ķ":3341,"à°¦à°ªà°²":3342,"Ġà°Ĩà°¨à°ķà°Ł":3343,"à°ªà°ªà°¡":3344,"à°§à°²à°¨":3345,"à°Īà°ļ":3346,"à°¦à°°à°ķ":3347,"à°¸à°µà°°à°£":3348,"Ġà°¨à°ķà°²":3349,"Ġà°µà°²à°¸à°¦":3350,"à²":3351,"à°ľà°®à°¨":3352,"à°Ĩà°ĸà°°":3353,"Ġà°ħà°¡à°Ĺà°¡":3354,"à°¯à°Ĺà°²à°µ":3355,"Ġ900":3356,"pp":3357,"à°¨à°°à°²":3358,"à°ªà°µà°²à°¸":3359,"Ġà°ķà°²à°ļ":3360,"à°Ĳà°Ĳ":3361,"Ġà°²à°¡à°ĸ":3362,"à°°à°¸à°°":3363,"à°®à°Ĺà°²":3364,"Ġà°¨à°Ń":3365,"à°¬à°Ĺ":3366,"à°Ĩà°ķà°²":3367,"à°°à°²à°¤":3368,"Ġ2003":3369,"à°¾âĢĮ":3370,"à°¶à°²à°¨":3371,"à°ĵà°¹":3372,"à°ķà°®à°¨":3373,"à°¶à°¶":3374,"à°°à°ļà°¨":3375,"à°ľà°¹":3376,"Ġà°İà°Ĺà°¬":3377,"Ġà°¦à°¶à°²à°¨":3378,"Ġà°¸à°«à°²":3379,"age":3380,"Ġà°·à°¬":3381,"à°¯à°¸à°¨":3382,"âĢįà±į":3383,"à°®à°²à°²":3384,"à°ĩà°ľ":3385,"Ġà°ķà°¥à°ķ":3386,"à°¤à°°à°µ":3387,"Ġà°ħà°²à°µà°°":3388,"à°ŀà°²à°¨":3389,"Ġà°Ĩà°¨à°µ":3390,"à°Īà°Ī":3391,"à°ªà°¦à°µ":3392,"à°ļà°¯à°®à°µ":3393,"à°¿âĢ¦.":3394,"Ġà°Ĩà°Łà°¨":3395,"à°£à°¹":3396,"Ġà°Ńà°¯à°ªà°¡à°ķ":3397,"Ġj":3398,"à°°à°µà°§":3399,"Ġy":3400,"Ġà°µà°¶":3401,"à°¡à°²à°²":3402,"ĠOne":3403,"VID":3404,"à°¿`":3405,"ib":3406,"à°¤à°²à°²":3407,"à°ªà°¤à°¨":3408,"Ġà°¦à°®":3409,"à°²à°¡à°¯":3410,"à°ıà°¯":3411,"ĠII":3412,"à°®à°Ĺà°¡":3413,"à°¬à°¬":3414,"à°¿!\"":3415,"à°µà°µà°ļ":3416,"Ġà°µà°²à°¯":3417,"à°¦à°°à°°":3418,"Ġà°®à°¤à°¸":3419,"Ġà°¤à°Łà°¸":3420,"ant":3421,"Ġvs":3422,"à°²à°µà°°à°ķ":3423,"à°¶à°²à°ķ":3424,"à°°à°¸à°°à°£":3425,"à°¯à°µà°¤":3426,"Ġà°ĵà°¡à°²":3427,"Ġà°īà°ªà°İà°¨":3428,"Ġà°īà°Ń":3429,"Ġà°·à°ķ":3430,"à°¨à°®à°µ":3431,"Ġà°°à°£à°¬":3432,"à°Ĩà°²à°¸":3433,"Ġà°ħà°¡à°Ĺà°²":3434,"à°¨à°¯à°¨à°¤":3435,"à°¤à°¨à°ķà°°":3436,"à°ĺà°¡":3437,"Ġ79":3438,"à°Ńà°µà°®":3439,"Ġ'%":3440,"ach":3441,"à°¿à°Ĥ,":3442,"Ġ220":3443,"Ġ93":3444,"à°¾âĢ¦?":3445,"AT":3446,"Ġor":3447,"à°ªà°²à°¨":3448,"à°¦à°¨à°¡":3449,"à°Łà°µà°²à°¨":3450,"à°Łà°Ńà°¦":3451,"à°·à°µ":3452,"à°ªà°²à°ķ":3453,"Ġà°¸à°°à°ķ":3454,"Ġà°¤à°²à°®":3455,"Ġà°§à°°à°¤":3456,"Ġà°¤à°²à°¦":3457,"Ġ103":3458,"à°ªà°®à°¨":3459,"à°¹à°£":3460,"à°Īà°ľ":3461,"Ġà°Ĩà°¶à°¯":3462,"Ġcon":3463,"à°ªà°£à°®":3464,"à±ģ\"\".\"":3465,"IPL":3466,"Ġà°Ĳà°µ":3467,"à°¡à°µà°ķ":3468,"Ġà°ķà°¥à°¤":3469,"Ġà°ªà°³à°¨":3470,"à°ĩà°Łà°²":3471,"Ġà°ħà°µà°¤à°²":3472,"right":3473,"à°ħà°¡à°µ":3474,"à°²à°ªà°ķ":3475,"à°¬à°¯à°Łà°ķ":3476,"indow":3477,"à°¨à°°à°ª":3478,"à°ªà°¡à°¨":3479,"à°Ĺà°¡à°ª":3480,"à°Ĺà°³à°Ĺ":3481,"our":3482,"px":3483,"Ġà°¤à°¨à°µ":3484,"Ġà°Ĳà°ľ":3485,"à°ªà°Ĺà°²à°°":3486,"à±ģ....":3487,"Ġà°ĵà°İà°¸":3488,"2005":3489,"Ġà°¨à°Łà°¨à°¤":3490,"Ġgov":3491,"à°Ĺà°µà°ļ":3492,"à°ľà°¨à°ķà°°":3493,"à°¨à°ªà°²":3494,"Ġà°¨à°¡à°µà°¡":3495,"Ġà°¨à°Ĺà°²":3496,"à°ħà°¬à°¦":3497,"à°İà°Ĳ":3498,"à°µà°¤à°²à°¨":3499,"Ġà°ļà°ķà°ļà°ķ":3500,"Ġpro":3501,"à°¯à°¥":3502,"Ġà°Īà°¤":3503,"à°¬à°ļ":3504,"à°¾à°Ĥ\"\"":3505,"Ġà°ħà°²à°¸à°Ł":3506,"PS":3507,"2003":3508,"ĠFirefox":3509,"à±ĩà°Ĥ?":3510,"Ġà°Ĩà°°à°µ":3511,"à°¤à°ķà°¬":3512,"Ġà°ľà°²à°®à°¯":3513,"ric":3514,"Ġà°²à°ª":3515,"à°ĸà°²à°¨":3516,"ass":3517,"Ġà°ªà°łà°¨":3518,"RS":3519,"âľ":3520,"à°¸à°Ĺà°Ł":3521,"à°ĸà°²à°¯":3522,"Ġ107":3523,"Ġà°ľà°²à°®à°¯à°®à°¯":3524,"ĠOneindia":3525,"Ġà°¤à°²à°²":3526,"Ġà°İà°µà°¨":3527,"à°¹à°ľ":3528,"Ġà°ħà°®à°²à°µ":3529,"Ġà°®à°¹à°¦":3530,"Ġà°Ĩà°ªà°¦":3531,"Ġà°¦à°²":3532,"à°¦à°²à°ª":3533,"à°ıà°Ī":3534,"Ġà°µà°°à°²à°ķ":3535,"à°¦à°Ĺà°®à°¨":3536,"com":3537,"à°²à°¶":3538,"à°¯à°Ńà°°":3539,"Ġà°¸à°¬à°°":3540,"Ġà°µà°¡à°Ĺ":3541,"à±Ī)":3542,"à°¦à°¨à°¤":3543,"à±ĭà°Ĥ,":3544,"à°ľà°¨à°ķà°°à°®":3545,"tps":3546,"à°µà°ķà°ª":3547,"Ġà°ħà°¨à°ķ":3548,"Ġà°¡à°¸":3549,"à°°à°ľà°²à°ª":3550,"Ġ106":3551,"Ġ145":3552,"CA":3553,"ff":3554,"Ġ),":3555,"Ġà°ĩà°°à°µ":3556,"à°¾/":3557,"à°·à°£à°¤":3558,"Ġ1990":3559,"Ġ124":3560,"Ġà°Ńà°¯à°Ńà°ķ":3561,"art":3562,"à°¨à°ľ":3563,"Ġà°Ĳà°¬":3564,"Ġà°Ĺà°¡à°ªà°¡":3565,"Ġth":3566,"ob":3567,"Ġà°¤à°®à°¦":3568,"à°¾..":3569,"Com":3570,"MA":3571,"à°Ńà°£":3572,"Ġà°ıà°·":3573,"à±ĭ(":3574,"Ġà°²à°¦":3575,"à°¦à°ķà°¤":3576,"2001":3577,"Ġà°¨à°Ĺà°°à°®":3578,"à°Łà°Ĺà°Ł":3579,"RA":3580,"Ġà°®à°¯à°¨":3581,"à°¾...":3582,"à°¾à°Ĥ.\"":3583,"Ġà°ķà°µà°ļ":3584,"Ġà°ľà°¯à°¦":3585,"eed":3586,"à±Ĩà°Ĥ,":3587,"à°ıà°Ĩà°°":3588,"Ġà°¤à°®à°ª":3589,"à°īà°ķ":3590,"à°Īà°¯à°¨à°ķ":3591,"Ġen":3592,"à°ķà°Ń":3593,"à°ķà°Łà°°à°®à°£":3594,"Ġà°Ĩà°µà°°":3595,"à°°à°¤à°°à°¤":3596,"à°°à°£à°¯":3597,"2010":3598,"à°µà°¸à°¤":3599,"180":3600,"370":3601,"ST":3602,"à°®à°ķà°°à°£":3603,"à°ªà°¥à°ķ":3604,"Ġ118":3605,"à°ļà°¬à°¡à°¡":3606,"IN":3607,"à°¯à°¨à°Ł":3608,"à°ķà°¡à°ª":3609,"à±įâĢĮâĢĮ,":3610,"ell":3611,"5000":3612,"ial":3613,"à°Łà°ľ":3614,"Ġà°ķà°¯":3615,"Ġ115":3616,"'.":3617,"499":3618,"à°¿/":3619,"Ġà°¤à°°à°¬à°¡":3620,"à°ļà°¨à°ķ":3621,"ĠCO":3622,"à°Łà°¤à°¡":3623,"Ġà°ķà°¨à°¬à°¡à°²":3624,"à°ħà°£":3625,"Ġà°ħà°¨à°§":3626,"Ġ750":3627,"ct":3628,"à°Īà°¦":3629,"Ġà°¬à°²à°ªà°°à°ļ":3630,"ive":3631,"à°¸à°²à°¨":3632,"à°®à°²à°®":3633,"à°Ĺà°ªà°¡à°¤":3634,"à°ĸà°ª":3635,"à±į!\"":3636,"Ġà°¸à°¤à°®":3637,"Ġà°«à°ķ":3638,"Ġ230":3639,"%.":3640,"à°¦à°¸à°®":3641,"à°¸à°²à°°":3642,"à°Ĳà°İà°«":3643,"Ġ109":3644,"ess":3645,"ĠSt":3646,"Ġis":3647,"à°ķà°ªà°°":3648,"Ġà°ļà°µà°ķ":3649,"à°£à°§":3650,"à°¤à°¹":3651,"à°¹à°¨à°¨":3652,"à°ħà°ªà°°":3653,"à°ªà°°à°²":3654,"Ġà°ĸà°¤":3655,"ep":3656,"à°ĤâĢĻâĢĻ":3657,"à°ļà°Łà°Ĺ":3658,"à°Ĺà°£à°¨":3659,"128":3660,"à°Ĥ).":3661,"à°Łà°ķà°ª":3662,"Ġà°¬à°¤à°ķ":3663,"à°°à°Ńà°¦":3664,"Ġà°ĵà°İà°¨":3665,"1999":3666,"Ġà°ľà°°à°Ĺà°µà°ļ":3667,"à°±à°²":3668,"indows":3669,"?\"":3670,"à°®à°¶à°ķ":3671,"à°§à°°à°¨":3672,"Ġà°Ĵà°³":3673,"à°Ĳà°ľ":3674,"à±ĩ.\"":3675,"Ġà°¨à°µà°ľ":3676,"à°¸à°¹à°ķ":3677,"Ġà°Ĳà°²":3678,"Ġà°Ĩà°Ĺà°·":3679,"Ġ135":3680,"Ġà°ħà°°à°ķ":3681,"à°µà°²à°ªà°°":3682,"à°ıà°ľ":3683,"Ġà°ĺà°¨à°®":3684,"....":3685,"à°ħà°Łà°µ":3686,"à°¨à°¡à°²":3687,"Ġà°¤à°¦à°¨":3688,"à°ħà°°à°Ł":3689,"à°¥à°¤à°¨":3690,"à°ķà°°à°°":3691,"Ġon":3692,"Ġà°ıà°ķà°¤":3693,"Ġà°ħà°ªà°¹à°°":3694,"Ġ114":3695,"à°ļà°Ĺà°²à°µ":3696,"BS":3697,"à°Ĩà°¡à°µ":3698,"à°µà°¨à°¨":3699,"à°¨à°³":3700,"Ġà°ķà°¬à°¡":3701,"à°Ńà°¯à°ªà°¡":3702,"Ġ(\"\"":3703,"nd":3704,"Ġà°¯à°°":3705,"à°°à°¦à°®":3706,"à°µà°¨à°²":3707,"Ġà°Ĭà°³":3708,"à°ĤâĢĮ":3709,"Ġà°Ĳà°ĵà°İà°¸":3710,"Ġà°ľà°¨à°ľ":3711,"Ġ102":3712,"à°¦à°ķà°¦":3713,"Ġà°İà°Ĺà°µ":3714,"à°Ĺà°¤à°®":3715,"Ġà°ıà°ķà°ªà°ķ":3716,"Ġà°µà°²à°¸à°²":3717,"ĠâĢĻâĢĻ":3718,"Ġà°°à°£à°¦":3719,"Ġcom":3720,"Ġà°¨à°Łà°°":3721,"Ġà°¨à°¯à°®":3722,"all":3723,"110":3724,"à°£à°ªà°¡":3725,"à±įâĢĮ`":3726,"à°¶à°µà°°":3727,"Ġà°¨à°¡à°ļ":3728,"à°ļà°ľ":3729,"Ġà°ħà°²à°ľà°¡":3730,"à°¨à°ķà°°":3731,"Ġà°¨à°µà°°":3732,"à°Ĩà°¤à°°":3733,"Ġà°¯à°·":3734,"oo":3735,"Ġà°²à°ĺ":3736,"à°ĵà°°":3737,"à°ĵà°ķ":3738,"ĠOS":3739,"à°°à°ķà°¦":3740,"Ġà°Ĩà°¯à°¨à°¯":3741,"Ġà°¤à°®à°¤":3742,"à±ģâĢľ":3743,"Ġà°®à°¤à°®":3744,"à°ħà°¨à°Ĺ":3745,"à±ĩâĢ¦.":3746,"FC":3747,"gov":3748,"à°ļà°ļ":3749,"à°¯à°µà°¸à°°à°®":3750,"Ġ122":3751,"Ġ116":3752,"Ġà°ħà°®à°°à°µ":3753,"à°ĵà°µ":3754,"à°±à°®":3755,"à°µà°ªà°°":3756,"âĢĮ:":3757,"à±Ģà°Ĥ,":3758,"à°ħà°¨à°µà°¸à°°":3759,"à°ļà°¬à°¡à°¦":3760,"à°Łà°¡à°®":3761,"Ġà°ľà°¯à°¶":3762,"Ġ1998":3763,"âĢĮà±į":3764,"Ġà°ķà°¨à°ķ":3765,"à°µà°¯à°ķà°°":3766,"pl":3767,"Ġà°¤à°¨à°²":3768,"à°¡à°µà°¸":3769,"à°ªà°£à°²à°¤":3770,"Ġà°®à°²à°ļ":3771,"Ġà°Ķà°¨":3772,"140":3773,"à°¿âĢľ":3774,"à°¯à°¤à°°à°Ĺà°¤":3775,"à°ľà°¦":3776,"à°¹à°Ł":3777,"Ġà°ªà°¦à°ķ":3778,"à°¯à°ħà°¤":3779,"ast":3780,"à°¬à°¡à°¤":3781,"Ġ240":3782,"DA":3783,"Ġà°ķà°²à°ķà°¤":3784,"esign":3785,"à°¿'.":3786,"iz":3787,"à°ªà°ķà°ª":3788,"à°Ĳà°Ĺ":3789,"à°µà°¨à°ķ":3790,"à°¨à°®à°²":3791,"à°ķà°ªà°°à°®":3792,"à°¯à°ªà°¡à°Ł":3793,"à°¡à°²à°ª":3794,"à°¡à°¦à°Ĺ":3795,"RL":3796,"à°°à°µà°ª":3797,"Ġme":3798,"à°¸à°²à°ķ":3799,"Ġ151":3800,"Ġ117":3801,"Ġà°®à°¦à°°":3802,"à°·à°ªà°¡":3803,"à°¦à°®à°¯":3804,"Ġà¤":3805,"à°ķà°¥à°¨":3806,"à°Ĩà°Łà°Ĺ":3807,"à°ķà°®à°µ":3808,"à°°à°ķà°¨":3809,"à°ıà°²à°¯à°¨à°Ĺ":3810,"Ġà°Ĩà°¡à°®":3811,"ide":3812,"Ġà°¬à°Ĺ":3813,"à°°à°ķà°°à°£":3814,"à°ıà°¬":3815,"à®":3816,"à°Łà°Ĺà°¦":3817,"à°Łà°®à°¯":3818,"à°¦à°®à°µ":3819,"Ġà°¨à°µà°²à°²":3820,"int":3821,"à°ķà°¤à°ķ":3822,"à°¡à°ķà°Ł":3823,"à°¹à°¯":3824,"à°¡à°¨à°¨":3825,"à°ľà°¯à°ķ":3826,"à°ľà°ªà°ķ":3827,"Ġà°¹à°Ĺ":3828,"Ġà°¯à°¦":3829,"Ġ101":3830,"Ġ190":3831,"Ġà°Ĭà°¤":3832,"SS":3833,"Short":3834,"ĠZ":3835,"à°Łà°Ĺà°²":3836,"à°¸à°®à°¨":3837,"Ġà°µà°°à°ª":3838,"à°²à°ķà°§":3839,"à°ĸà°²à°ķ":3840,"Ġà°§à°¨à°®":3841,"à°°à°¶à°ķ":3842,"à°ķà°²à°°":3843,"con":3844,"à°¨à°ķà°°à°¨":3845,"à°ĵà°Łà°®":3846,"RC":3847,"à°¶à°¨à°¨":3848,"à°§à°®à°¤":3849,"à°¹à°ķà°°":3850,"Ġà°ĵà°¡à°°":3851,"à°¤à°ķà°Ł":3852,"à°ĺà°¶":3853,"à°®à°ķà°¤":3854,"Comment":3855,"ix":3856,"per":3857,"à°¯à°®à°®":3858,"\"\",":3859,"Ġ360":3860,"Ġà°Ĩà°Łà°¤":3861,"à°µà°²à°¨à°¨":3862,"à¦":3863,"Ġà°ªà°ķà°¡":3864,"à°ªà°ķà°¶à°ķ":3865,"à°ĵà°¡":3866,"ock":3867,"Ġà°¸à°®à°·":3868,"à°®à°°à°²":3869,"à°Ĺà°²à°¦à°¨":3870,"à°ļà°°à°°":3871,"Ġà°ħà°ªà°¹":3872,"ery":3873,"NA":3874,"ha":3875,"lad":3876,"à°¯à°¬à°¦":3877,"à°ļà°¨à°Ĺ":3878,"à°ľà°¨à°¨":3879,"à°°à°³à°¯":3880,"ace":3881,"pe":3882,"Ġà°ķà°²à°¤":3883,"1990":3884,"Ġà°Ĺà°²à°¦":3885,"à°°à°ªà°°à°ļà°¡":3886,"ran":3887,"Ġac":3888,"à°Ĺà°²à°ķ":3889,"à°£à°¶":3890,"Ġà°¤à°²à°µ":3891,"Ġà°Ĺà°Ĺà°¨à°¤à°²":3892,"ies":3893,"à°¨à°ķà°¡":3894,"à°ķà°ªà°Ł":3895,"à°ļà°°à°²":3896,"Ġà°ľà°°à°Ĺà°Ł":3897,"à°ħà°²à°¹":3898,"Ġmo":3899,"âĩ":3900,"à°ķà°°à°ķ":3901,"à±ĢâĢĵ":3902,"à°·à°ľ":3903,"Ġà°Ĵà°¦":3904,"Ġà°İà°¨à°²":3905,"Ġ\"\".\"":3906,"Ġ113":3907,"ard":3908,"itation":3909,"TC":3910,"à°¨à°ķà°²":3911,"à°¯à°¨à°ķ":3912,"à°°à°¹à°¸":3913,"Ġà°¬à°²à°µà°¨":3914,"à°·à°°à°¤":3915,"Ġ(%":3916,"Ġà°ħà°Ĺà°¸":3917,"à±įâĢĻâĢĻ":3918,"à°¯à°ªà°¨":3919,"à°£à°°":3920,"à°³à°¨à°¨":3921,"Ġà°®à°¨à°·":3922,"à°µà°°à°£à°²":3923,"Ġ1500":3924,"Ġ1996":3925,"à°·à°¯à°®à°¨":3926,"à°²à°®à°Ł":3927,"à°ĺà°Łà°¨à°¤":3928,"ĠTV":3929,"Ġà°²à°µà°£":3930,"ust":3931,"In":3932,"à°ĭ":3933,"Ġà°ľà°ªà°¨":3934,"à°°à°¯à°§à°¨":3935,"Ġpp":3936,"%,":3937,"'s":3938,"à°ļà°ªà°°":3939,"Ġ112":3940,"ĠHD":3941,"Ġà°¨à°Ĺà°°à°ª":3942,"yn":3943,"à°®à°¥":3944,"Ġà°ĸà°Ĺ":3945,"à°łà°²":3946,"ith":3947,"Ġà°Ĺà°¯":3948,"à°ķà°°à°£à°²à°ķ":3949,"à°¯à°§à°°":3950,"2002":3951,"ics":3952,"NO":3953,"Ġam":3954,"à°¨à°°à°¸":3955,"à°²à°¬à°°":3956,"à°¤à°ªà°¦à°®":3957,"à°ľà°®à°¹":3958,"Ġà°ıà°İ":3959,"Ġneed":3960,"175":3961,"à°µà°Ńà°ķ":3962,"Ġà°°à°¥à°®":3963,"à°§à°¨à°®":3964,"Ġ...":3965,"Ġht":3966,"IV":3967,"à±į\"":3968,"Ġà°µà°¶à°®":3969,"à°İà°İ":3970,"à°Ľà°ķ":3971,"ĠQ":3972,"Ġà°¤à°¹à°¸":3973,"Ġà°¡à°ļ":3974,"à°Ĵà°ķà°¡":3975,"sp":3976,"Ġà°Ĥ":3977,"à°¬à°°à°®":3978,"Ġà°ĩà°ķà°¨":3979,"Ġà°ıà°İà°¸":3980,"à°¢à°¤":3981,"à°¿\"\".\"":3982,"650":3983,"hn":3984,"à°Ļ":3985,"Ġà°¦à°¬":3986,"Ġà°Ĺà°¸":3987,"à°ĸà°¡":3988,"Ġà°ķà°²à°µà°¨":3989,"à°ıà°®à°¨":3990,"ase":3991,"ĠÂ»":3992,"____":3993,"Ġun":3994,"à±Ģ\"\"":3995,"Ġà°īà°®à°°":3996,"Ġà°¬à°¦à°²":3997,"Ġà°¹à°«":3998,"oz":3999,"à°¸à°°à°¸":4000,"à°®à°µà°¦":4001,"à°§à°ķà°¤":4002,"à°Łà°°à°¨":4003,"ÂłÂł":4004,"à°ľà°¯à°²à°ķ":4005,"Ġà°¤à°ªà°¸":4006,"à°®à°¹à°¬":4007,"Ġà°¤à°¡à°¬à°¡":4008,"160":4009,"BM":4010,"à°°à°ĺ":4011,"Ġà°ķà°¡à°¤":4012,"Ġà°¤à°°à°®":4013,"à°Ĺà°°à°ªà°¡":4014,"Ġà°ªà°¡à°µà°²":4015,"Ġ302":4016,"Ġà°ħà°ľà°¹à°°":4017,"Ġ@":4018,"Ġe":4019,"à°¬à°³":4020,"à°¾à°Ĥ''":4021,"à°°à°£à°¤":4022,"à°Ĥ...":4023,"Ġà°Ĩà°¯à°¨à°²":4024,"à°¨à°µà°¦":4025,"à°ķà°Łà°¯":4026,"Ġà°¨à°¡à°ķ":4027,"à°ĤâĢĻ.":4028,"Ġà°ĩà°¤à°°à°¤":4029,"ump":4030,"ĠVs":4031,"ik":4032,"Ġà°¸à°¦à°¨à°®":4033,"Ġà°ľà°¯à°ķ":4034,"Ġà°ĵà°ľ":4035,"à°Łà°£à°ª":4036,"ED":4037,"Ġà°²à°ĸ":4038,"Ġà°«à°²à°ķ":4039,"Ġ..":4040,"Ġà°ªà°¡à°®à°Ł":4041,"ice":4042,"à°¨à°ķà°ª":4043,"à°²à°¦à°¨":4044,"à°®à°®à°¤":4045,"à°¹à°ªà°°":4046,"Ġ320":4047,"Ġà°¨à°¸":4048,"à°Ńà°ª":4049,"Ġà°ıà°Ĳ":4050,"Ġà°ªà°¦à°¬":4051,"à°Ńà°µà°ľ":4052,"à¤¾":4053,"Ġneeded":4054,"à°¯à°ªà°°à°ļ":4055,"Ġà°İà°Ĺà°°":4056,"à°¯à°¬à°¡à°²":4057,"erv":4058,"à±ģ(_":4059,"FS":4060,"ime":4061,"à±ĩ\"\"":4062,"à°¡à°°à°¨":4063,"Ġà°īà°¦à°¯à°®":4064,"à°¯à°ªà°¡à°Ĺ":4065,"Ġà°ķà°£à°ľ":4066,"DP":4067,"Firefox":4068,"à°²à°®à°§":4069,"Ġà°®à°²à°¬à°¦":4070,"à±ĭâĢĻ.":4071,"press":4072,"à°¥à°²à°ª":4073,"à°¦à°°à°¸à°¹":4074,"Ġà°Ķà°·":4075,"urbine":4076,"Ġdi":4077,"à±įâĢĮà±ģ":4078,"à°Īà°®à°§":4079,"Ġà°¶à°ª":4080,"à°¦à°°à°¨":4081,"Ġà°®à°¨à°ª":4082,"à°Łà°²à°ª":4083,"à°·à°£à°ª":4084,"Ġà°īà°ªà°ķà°°":4085,"à°Ĵà°¸":4086,"à°¸à°²à°¹":4087,"Ġ126":4088,"à°¯à°Ĺà°²à°¡":4089,"ĠâĢ¦.":4090,"der":4091,"à°²à°¯à°²":4092,"à°¯à°¤à°°à°¹":4093,"à°ªà°¨à°¨":4094,"Ġà°ħà°¨à°¬à°¡":4095,"Ġà°ªà°°à°¶":4096,"Ġà°Ĳà°¨":4097,"à°¨à°®à°¸":4098,"à°²à°µà°²à°¨":4099,"à°ĵà°¯":4100,"Ġ288":4101,"Ġdesign":4102,"US":4103,"à°²à°·":4104,"à°ķà°¤à°¤":4105,"à°¾âĢ¦.":4106,"www":4107,"à°¹à°°à°®":4108,"Ġà°ĺà°¨à°¸":4109,"à±į'.":4110,"Ġ1991":4111,"Ġà°İà°Ĺà°¤":4112,"à°ħà°²à°¨":4113,"à°°à°®à°²à°¨":4114,"Ġà°Ĵà°¸":4115,"Ġà°¤à°®à°µ":4116,"à°īà°ľ":4117,"Ġà°¤à°²à°ļ":4118,"à°Łà°ªà°¡à°²":4119,"à°¿âĢ¦?":4120,"âĸª":4121,"à°Ĥ/":4122,"à°¦à°¸à°°":4123,"à°¿....":4124,"à°µà°°à°¸":4125,"à°Ĩà°Łà°²":4126,"à°¾âĢĻ.":4127,"yst":4128,"à°¨à°¤à°°":4129,"Ġà°Ńà°°à°£":4130,"Ġà°Īà°İà°¸":4131,"Ġ1950":4132,"BC":4133,"lu":4134,"à°ľà°¤":4135,"à°ıà°Ĳà°¸":4136,"à°¡à°¤à°¡":4137,"à±į\"\"\"\"":4138,"RI":4139,"à°¨à°ļà°°":4140,"âĢ¦.":4141,"ĠRRR":4142,"Â§":4143,"à°ļà°¨à°¤":4144,"à°Łà°ªà°¡à°°":4145,"Ġà°µà°¡à°ª":4146,"Ġ1993":4147,"Ġà°ķà°Łà°ķà°Ł":4148,"à°°à°Ĺà°¦":4149,"1998":4150,"SO":4151,"à°§à°Ń":4152,"à°ľà°¨à°°":4153,"Ġà°¤à°Ĺà°¦":4154,"Ġà°ķà°§à°¨":4155,"à°ħà°µà°Ĺ":4156,"Ġà°ıà°ķà°®":4157,"à°°à°¨à°Ĺà°°":4158,"ines":4159,"Ġà°¤à°Ĺà°²à°¬":4160,"'%":4161,"à°¤à°²à°®":4162,"Ġà°īà°¦à°¹à°°":4163,"à±į?\"":4164,"cl":4165,"se":4166,"Ġà°ªà°¹":4167,"Ġà°ªà°²à°ķà°²":4168,"Ġà°ķà°²à°µà°²":4169,"Ġ390":4170,"Ġ1956":4171,"à°Łà°¡à°²à°¨":4172,"ary":4173,"à°Łà°µà°²":4174,"à°¶à°¤à°ķ":4175,"Ġà°²à°Ĺà°¡à°ª":4176,"à°¤à°°à°²":4177,"à°ķà°¡à°²":4178,"Ġ1200":4179,"ovid":4180,"TP":4181,"ian":4182,"à°¦à°µà°²":4183,"à°ªà°ªà°°":4184,"à°¸à°®à°Ĺ":4185,"à°¯à°ªà°¡à°ķ":4186,"à°ķà°ļà°ķ":4187,"Ġà°ľà°¤à°ķà°Ł":4188,"à°Īà°İà°¸":4189,"Ġà°¹à°·":4190,"Ġà°ķà°²à°Ĺà°ķ":4191,"Ġà°ĺà°ľ":4192,"à°ªà°£à°²à°ķ":4193,"à°§à°ķà°¶à°ķ":4194,"à°«à°²à°®à°µ":4195,"Ġà°ķà°²à°¨":4196,"à°¥à°¡":4197,"à°ĸà°¦":4198,"à°¥à°¨à°ļ":4199,"Ġà°Ķà°Łà°¯":4200,"à±Ĥ/":4201,"Ġà°²à°¯":4202,"Ġà°ıà°²à°¯à°¨à°Ĺ":4203,"Ġ121":4204,"Ġà°ĭà°£":4205,"ain":4206,"Ġà°¸à°ĸ":4207,"à°¬à°¶":4208,"à°®à°ķà°¸":4209,"1980":4210,"Ġ1989":4211,"à°Łà°¤à°¨":4212,"à°¸à°ķà°°":4213,"Ġà°¬à°³":4214,"Ġà°²à°¯à°¨":4215,"Ġà°ıà°¶":4216,"Ġà°®à°¨à°¤":4217,"Ġà°¤à°²à°¸à°°":4218,"Ġà°Ĩà°¡à°¬":4219,"à°ļà°Ĺà°²à°®":4220,"ĠWindows":4221,"à°°à°Ĺà°°":4222,"Ġà°ľà°Ĺà°¤":4223,"Ġ420":4224,"Ġà°ľà°°à°Ĺà°ķà°ª":4225,"ata":4226,"MP":4227,"Ġà°Ĺà°ª":4228,"à°°à°¤à°®":4229,"à°²à°®à°¯":4230,"Ġ?\"":4231,"Ġ1980":4232,"à°ļà°Ĺà°²à°¨":4233,"ĠUn":4234,"ShortName":4235,"eb":4236,"à±ģ`":4237,"à°¡à°¤à°Ĺ":4238,"Ġà°Ĩà°¸à°°":4239,"à°²à°¨à°Ĺ":4240,"à°Ĩà°¡à°ª":4241,"à°°à°ķà°°à°ķ":4242,"à°ļà°¨à°ª":4243,"Ġà°ħà°°à°ļ":4244,"à°Ľà°²":4245,"à°¹à°°à°£à°¨":4246,"Ġà°Ńà°¯à°Ń":4247,"Ġà°ľà°²à°µà°¨à°°":4248,"ult":4249,"CD":4250,"citation":4251,"à°ķà°·à°¨":4252,"Ġà°¬à°²à°°":4253,"Ġà°Īà°·":4254,"à°Ĳà°¶":4255,"Ġà°īà°ªà°ĸ":4256,"Ġà°ħà°¸à°®à°°":4257,"à°¤à°µà°°":4258,"à°®à°Łà°²":4259,"à°¬à°¯à°²":4260,"Ġà°Ĺà°¡à°Ĺ":4261,"Ġà°ıà°¬à°¦":4262,"à°®à°¹à°²":4263,"à°¡à°µà°ªà°¡":4264,"à°¯à°Łà°¨à°¨":4265,"ystem":4266,"à°²à°¤à°¨":4267,"à°¤à°¤à°¨":4268,"à°īà°ªà°°":4269,"à°łà°Ń":4270,"Ġ127":4271,"Ġ[âĢľ":4272,"âĪ":4273,"à±ĭ...":4274,"à°ªà°³":4275,"à°¬à°µ":4276,"Ġà°«à°¤":4277,"à°µà°²à°¤":4278,"ĠÂłĠÂł":4279,"à°Łà°¹":4280,"à°ĸà°¨à°®":4281,"Ġà°ľà°¨à°Ĺ":4282,"Ġ138":4283,"Ġà°ĺà°¨à°ªà°°":4284,"à°®à°ľà°¨":4285,"à°¹à°¨à°ķ":4286,"à°Īà°Ł":4287,"Ġà°¸à°¹à°µà°¸":4288,"à°łà°Ĺ":4289,"à°°à°Ĺà°Ł":4290,"Ġread":4291,"eat":4292,"Ġà°ķà°±":4293,"Ġà°ħà°¨à°µà°¸à°°à°®":4294,"Ġà°Ńà°¤":4295,"à°Ĺà°²à°¡":4296,"ational":4297,"Ġwww":4298,"à°°à°ĸà°¨":4299,"à°¨à°Łà°¨":4300,"à±Ĩ-":4301,"Ġà°¨à°ľà°°":4302,"Ġà°Ĩà°Łà°ķ":4303,"à°¸à°°à°¦":4304,"à°¶à°®à°µ":4305,"Ġ153":4306,"à±ĭ),":4307,"à°ªà°µà°¦":4308,"à°Ĺà°°à°¨":4309,"à°£à°Ń":4310,"Ġà°¶à°µà°®":4311,"2030":4312,"à°¬à°²à°¹":4313,"Ġ182":4314,"Ġ!\"":4315,"à°Łà°¤à°°à°®":4316,"Ġà°ķà°¨à°¬à°°à°ļ":4317,"à°¿\"\"\"":4318,"à±ģà±ģ":4319,"à°²à°µà°ļ":4320,"Ġà°ªà°°à°µ":4321,"à°ªà°¡à°®":4322,"à°¡à°²à°®":4323,"Ġà°Ĩà°²à°¯à°®":4324,"âĩĴ":4325,"ozill":4326,"PV":4327,"à°ªà°£à°¨":4328,"Ġ\"\"%":4329,"Ġ376":4330,"à°¡à°Ĺà°²à°¦":4331,"han":4332,"à°¯à°¶à°ķ":4333,"à°ªà°Łà°²":4334,"à°ķà°°à°£à°ªà°¤":4335,"Ġà°Ĭà°¬":4336,"Ġ1994":4337,"flow":4338,"à°¨à°²à°¤":4339,"Ġà°ħà°²à°ķ":4340,"à°°à°ªà°°à°ļà°¬à°¡":4341,"ry":4342,"à±Ĩ:":4343,"à°Łà°ķà°ķ":4344,"à°Łà°ķà°°à°®à°¨":4345,"end":4346,"Ġ1992":4347,"Ġ1997":4348,"ack":4349,"--":4350,"550":4351,"EA":4352,"Ġà°Ĺà°²à°¤":4353,"à°¦à°°à°ªà°¡":4354,"Ġà°ľà°°à°ªà°¨":4355,"à°¯à°®à°¹":4356,"à°¸à°°à°«à°°":4357,"à°łà°¨":4358,"Ġà°İà°¦à°Ĺ":4359,"Ġà°ħà°µà°ķà°¤à°µ":4360,"à°¶à°¨à°Ĺ":4361,"Ġ139":4362,"à°ļà°²à°¨à°®":4363,"à°¯à°£à°ª":4364,"1200":4365,"à°®à°°à°ķ":4366,"Ġà°®à°Ĺà°ª":4367,"Ġà°¨à°ĸ":4368,"Ġà°¨à°¡à°ª":4369,"Ġ1960":4370,"à°ļà°°à°£à°¨":4371,"ram":4372,"Ġà°µà°Ĺ":4373,"à°°à°®à°Ĺ":4374,"Ġ5000":4375,"ue":4376,"à°¤à°ķà°°":4377,"à°ĺà°ª":4378,"à°¯à°£à°¨":4379,"à°¸à°¨à°¸à°Ńà°ķ":4380,"CP":4381,"aw":4382,"Ġhe":4383,"à°¡à°µà°¡":4384,"Ġà°ıà°ķà°°":4385,"Ġà°ıà°İà°¨":4386,"Ġà°«à°²à°µ":4387,"à°µà°²à°®":4388,"à°°à°Ĺà°¬à°¡":4389,"ĠThe":4390,"¸Â°":4391,"Ġà°®à°¤à°¨":4392,"Ġà°ªà°¡à°®à°°":4393,"Ġ147":4394,"org":4395,"à°Łà°µà°²à°¸":4396,"âĢĮ-":4397,"à°·à°°à°®":4398,"à°ľà°¯à°°":4399,"à°²à°¨à°ª":4400,"à°°à°µà°®":4401,"Ġà°ĵà°®":4402,"à°¦à°²à°®":4403,"Ġà°Ĳà°¤":4404,"ite":4405,"ence":4406,"118":4407,"à°®à°Ĺà°µ":4408,"Ġà°¤à°®à°²":4409,"2500":4410,"à°¿\"\"\"\"":4411,"Ġkm":4412,"Ġà°ķà°²à°µà°°à°ª":4413,"à±ģà±į":4414,"à°ķà°³à°²":4415,"à°¤à°µà°¤":4416,"Ġà°µà°°à°¦à°¨":4417,"à°¨à°ķà°¬à°¡":4418,"Ġ243":4419,"ile":4420,"à°¯à°¹":4421,"à°¯à°ªà°Ł":4422,"à°Ĺà°²à°²":4423,"à±ĤâĢĻ":4424,"à°°à°£à°µ":4425,"à°²à°¯à°¤":4426,"à±į.âĢĮ":4427,"Ġ2024":4428,"Ġ1971":4429,"à°°à°Ĺà°ķ":4430,"ork":4431,"360":4432,"à°¸à°µà°°":4433,"à°¸à°²à°¤":4434,"à°®à°ķà°ª":4435,"à°°à°ķà°ª":4436,"à°¢à°ļ":4437,"à°ĺà°Łà°¨à°²à°¨":4438,"Ġas":4439,"à±ĭâĢĮ":4440,"à°¯à°®à°ķ":4441,"à°ļà°¨à°²à°ķ":4442,"Ġà°Ĭà°¬à°ķ":4443,"à°ªà°¬à°¡à°¤":4444,"1991":4445,"IA":4446,"ou":4447,"à°¦à°µà°¡":4448,"à°µà°µà°²à°¸":4449,"Ġà°®à°Ń":4450,"à°¶à°¨à°¤":4451,"à°¹à°¨à°ª":4452,"à°³à°µà°ļ":4453,"à°Īà°Ĩà°°":4454,"144":4455,"Ġsp":4456,"out":4457,"à°¦à°ķà°ª":4458,"à°Ĺà°ªà°°":4459,"Ġà°Ĩà°¯à°¨à°¦":4460,"Ġ512":4461,"Ġ1995":4462,"Ġà°Īà°¯":4463,"à°¸à°°à°ª":4464,"à°ıà°ıà°ķ":4465,"Ġà°Ĩà°Ĺà°ķ":4466,"1996":4467,"pt":4468,"à°Łà°¤à°°":4469,"à°²à°ķà°®à°¨":4470,"à°¦à°¨à°ª":4471,"à°°à°ªà°¦":4472,"Ġà°Ĳà°İà°«":4473,"erg":4474,"Ġà°Ĺà°£à°ªà°¤":4475,"ord":4476,"uc":4477,"Ġà°®à°°à°£à°µ":4478,"Ġ1970":4479,"ĠâĢĭâĢĭ":4480,"also":4481,"Ġsc":4482,"Ġà°µà°¯à°¨":4483,"à°Ńà°ľà°²":4484,"à°ıà°¡à°µ":4485,"105":4486,"170":4487,"hy":4488,"à°µà°Łà°®":4489,"à°®à°ķà°°":4490,"à°ľà°ľ":4491,"à°²à°ķà°¡":4492,"à°İà°¡à°¤":4493,"Ġà°ķà°¥à°²à°¨":4494,"ates":4495,"Ġ01":4496,"rol":4497,"Â§à±įâĢĮà±ģ":4498,"PC":4499,"eg":4500,"à°Ĺà°µà°²":4501,"à°ľà°ªà°¨":4502,"à°¹à°³":4503,"Ġà°Ĺà°³":4504,"Ġà°Īà°¬":4505,"à±ĭà°Ĥ.":4506,"108":4507,"Ġà°§à°°à°²à°ª":4508,"ern":4509,"ĠNew":4510,"Ġby":4511,"TS":4512,"Ġà°Ĺà°ļ":4513,"à°Ĥ..":4514,"ĠCD":4515,"à°Ķà°¨":4516,"à°²à°¡à°µ":4517,"à°§à°ķà°®":4518,"à°ĩà°İ":4519,"Ġà°ªà°°à°ªà°¤":4520,"à°µà°¤à°²à°ķ":4521,"Ġ155":4522,"Ġà°ľà°®à°ļ":4523,"à°ļà°Ĺà°²à°¦à°¨":4524,"ory":4525,"Ġpl":4526,"ection":4527,"ML":4528,"PA":4529,"TE":4530,"à°¯à°Łà°ķ":4531,"à°¯à°¦à°Ĺ":4532,"à°¡à°ļà°°":4533,"Ġà°Īà°İ":4534,"Ġà°ķà°²à°Ĺà°¡":4535,"à°ľà°¯à°ª":4536,"Ġà°Ĩà°¡à°¡":4537,"ication":4538,"Ġà°Ŀà°²à°ķ":4539,"Ġà°Ĳà°ıà°İà°«":4540,"Ġà°ĭà°¤":4541,"Ġà°µà°°à°¸à°Ĺ":4542,"Ġà°ħà°µà°ķà°¤à°µà°ķà°²":4543,"ma":4544,"Ġà°īà°ªà°¨à°¦":4545,"à°ľà°¯à°¦":4546,"Cl":4547,"Ġà°īà°¡à°ķ":4548,"à°£à°®à°¨":4549,"ĠâĢĿâĢľ":4550,"à°±à°²à°¨":4551,"pro":4552,"Ġà°Ĩà°Ĺà°¦":4553,"Ġà°īà°¦à°°":4554,"Ġà°ľà°¤à°²":4555,"à°µà°¤à°¹":4556,"Ġ2030":4557,"Ġà°īà°µ":4558,"à°Ńà°¯à°®":4559,"à°ħà°·":4560,"à°¥à°¬à°²":4561,"Ġà°¹à°¡à°²":4562,"Ġà°ĺà°¡":4563,"Ġ1947":4564,"Ġ162":4565,"ree":4566,"ĠGB":4567,"COVID":4568,"à°®à°ªà°°":4569,"à°ļà°Łà°®":4570,"à°¥à°ªà°°":4571,"à±į...":4572,"2024":4573,"Ġat":4574,"Ġà°µà°²à°²":4575,"à°ľà°Ńà°µà°¨":4576,"à°¬à°²à°Ĺ":4577,"à±ĩ...":4578,"Ġ550":4579,"Ġà°Ĭà°¤à°®":4580,"Ġ149":4581,"Ġ224":4582,"ĠCh":4583,"ark":4584,"SL":4585,"ple":4586,"à±ĩ(":4587,"Ġà°İà°Ĩà°°":4588,"à°³à°²à°¤":4589,"à°ªà°£à°ķ":4590,"104":4591,"Ġà°¸à°¹à°ľà°µ":4592,"à±ģâĢ¦?":4593,"left":4594,"ear":4595,"à±ĪâĢĻ":4596,"à°¥à°®à°¨":4597,"Ġà°¯à°µ":4598,"Ġà°¡à°®":4599,"one":4600,"à°¨à°¬à°¡à°²":4601,"3000":4602,"à°²à°¹":4603,"à°µà°ªà°¤":4604,"à°Ĺà°ªà°Ł":4605,"à°¶à°¯à°®":4606,"à°İà°Ĩà°°":4607,"à°ĺà°µà°¨":4608,"\"\"\"%":4609,"à°µà°°à°ķà°Ł":4610,"Ġà°Ĭà°°à°ķ":4611,"olog":4612,"SBI":4613,"ii":4614,"à°Ĺà°°à°¯":4615,"à±Ĩ)":4616,"à°Ĩà°¦à°°":4617,"Ġ310":4618,"à°Ĺà°²à°®":4619,"1977":4620,"à°Ĺà°¡à°®":4621,"à°¹à°°à°£à°²à°¨":4622,"220":4623,"âĢĮ)":4624,"Ġà°²à°·":4625,"à°Ĩà°ķà°°":4626,"à±ĩ..":4627,"à°·à°£à°²à°¨":4628,"Ġà°ħà°ªà°¸":4629,"à°ľà°ķà°°à°®":4630,"à°¤à°µà°®à°¤":4631,"à°ķà°°à°£à°¤":4632,"Ġ111":4633,"ond":4634,"à±ģ'.":4635,"ount":4636,"à°Ĵà°¬":4637,"Ġ166":4638,"ong":4639,"Ġml":4640,"RRR":4641,"ĠIndia":4642,"CS":4643,"Ġà°¶à°¨à°Ĺ":4644,"Ġà°Īà°®à°§":4645,"Ġà°ıà°İà°®":4646,"Ġ270":4647,"1950":4648,"à°ħà°ªà°µ":4649,"Ġ123":4650,"à°Łà°ªà°¡à°¨":4651,"ĠUN":4652,"Ġan":4653,"à°®à°¤à°²":4654,"à°ķà°²à°®":4655,"Ġà°®à°¨à°¨":4656,"Ġ3000":4657,"Ġà°Ĩà°¶à°¤":4658,"Ġ1985":4659,"à°Ĺà°®à°¯":4660,"à°µà°¹à°£à°ª":4661,"Ġà°ĩà°¥":4662,"à°¥à°ķà°®":4663,"à°¤à°°à°£à°ķ":4664,"Ġà°Ĩà°°à°¬":4665,"Ġ1978":4666,"à°ıà°®à°¯":4667,"à°Łà°µà°¦":4668,"à±Ģà±į":4669,"à±įâĢĮâĢĿ":4670,"à°°à°®à°¦":4671,"ah":4672,"à°¦à°Ńà°°":4673,"à°¸à°¦à°¸":4674,"à°¡à°²à°¤":4675,"Ġà°ļà°¹à°²":4676,"Ġà°²à°¸":4677,"à°³à°¯":4678,"Ġà°¯à°¨à°®à°²":4679,"à°ķà°²à°µ":4680,"Ġà°¤à°®à°¤à°®":4681,"à°ªà°ķà°¤":4682,"à°¯à°£à°¸":4683,"à°¾).":4684,"Ġà°İà°¡à°®à°µ":4685,"able":4686,"MI":4687,"ef":4688,"les":4689,"à°¨à°µà°²à°¸":4690,"à°Łà°µà°°":4691,"à°µà°°à°ª":4692,"à°ļà°²à°µ":4693,"Ġ148":4694,"Ġ165":4695,"à±ģ].":4696,"1989":4697,"Ġà°¸à°¤à°®à°¤à°®à°µ":4698,"Ġit":4699,"à°¸à°ľ":4700,"Ġà°ķà°ľ":4701,"Ġà°Łà°µà°²":4702,"Ġà°ħà°¯à°¸":4703,"Ġà°ĸà°¨à°¨":4704,"à°¶à°¨à°®à°¨":4705,"ĠÂ¸Â°":4706,"Ġà°¶à°µà°ªà°°":4707,"III":4708,"lade":4709,"io":4710,"à°¾à±į":4711,"à°¬à°²à°µ":4712,"à°¾à°ĤâĢ¦":4713,"à°°à°¤à°²à°¨":4714,"ĠâĢľ[":4715,"Ġ1961":4716,"ĠURL":4717,"ish":4718,"à°ľà°Ĺà°ªà°¤":4719,"St":4720,"ge":4721,"à°¾]":4722,"à°ħà°¥":4723,"à°°à°£à°²à°¨":4724,"à°¯à°¤à°Ĺà°²":4725,"1978":4726,"Ġà°ĩà°ķà°®":4727,"Ġ1972":4728,"à°ªà°¦à°Ĺ":4729,"Ġ129":4730,"Ġ146":4731,"Ġ136":4732,"Ġ164":4733,"ank":4734,"à°ķà°¨à°ª":4735,"à°¤à°¦à°°":4736,"à°°à°¶à°¸":4737,"à°ļà°¬à°¡à°¨":4738,"à°¤à°µà°®à°¨":4739,"à°¦à°µà°¦":4740,"à°¯à°Ĺà°²à°®":4741,"à°ļà°Ĺà°²à°¡":4742,"ozilla":4743,"BA":4744,"HO":4745,"ld":4746,"Ø§":4747,"à°¦à°µà°²à°¸":4748,"à°Ĺà°°à°µ":4749,"à°¦à°°à°¦à°¨":4750,"399":4751,"à°¿à±ģ.":4752,"à°¯à°ľà°®":4753,"Ġà°ªà°£":4754,"Ġà°İà°ķà°¨à°®":4755,"Ġ137":4756,"à°¤à°ªà°¨":4757,"à°¦à°ľà°²":4758,"à°¸à°ªà°¡":4759,"à°Ĺà°µà°¦":4760,"à°§à°°à°£à°ķ":4761,"Ġà°Ĵà°ķà°Łà°¨":4762,"Ġ2025":4763,"Ġ133":4764,"Ġà°¦à°¶à°²à°²":4765,"ens":4766,"à±įâĢĮ'.":4767,"Ġhttps":4768,"gine":4769,"à±ĩ/":4770,"à°Ĺà°ķà°ª":4771,"Ġà°İà°Ĳà°¸":4772,"Ġà°·à°¹":4773,"à±į..":4774,"Ġ132":4775,"ilm":4776,"Ġà°ħà°µà°¤à°°à°£":4777,"Ġ1988":4778,"HA":4779,"IF":4780,"à°ªà°ķà°°":4781,"à±Ĭ.":4782,"à°°à°£à°Ĺ":4783,"Ġà°ķà°²à°ªà°¡":4784,"Ġà°®à°¨à°¶":4785,"à°ļà°¡à°®à°¨":4786,"à°ļà°¨à°²à°¤":4787,"à°¨à°¦à°Ĺ":4788,"à°ľà°¯à°®à°¨":4789,"à°Łà°ķà°®":4790,"à°ĵà°¬":4791,"Ġ142":4792,"à°ªà°Ĺà°Ł":4793,"à°ķà°°à°®à°¨":4794,"à°²à°¬à°¡à°²":4795,"à°Ńà°ľà°¨à°ķ":4796,"echn":4797,"à±įâĢįâĢĮ":4798,"ÃĹ":4799,"Ġà°ķà°ªà°Ł":4800,"à°¯à°¨à°Ĺà°°":4801,"1970":4802,"Ġ1962":4803,"à°°à°ªà°¡à°Ł":4804,"ĠPC":4805,"Ġbe":4806,"DL":4807,"Ġà°ļà°®à°¤":4808,"à°ħà°°à°¬":4809,"Ġà°¡à°ľà°¨":4810,"à°ŀà°ķ":4811,"Ġà°Ĩà°¶à°²à°¨":4812,"Ġà°§à°°à°²à°¤":4813,"Ġ354":4814,"Ġ377":4815,"à±Ģ!\"":4816,"ĠCOVID":4817,"à°¸à°®à°ķ":4818,"Ġà°ĩà°İà°¸":4819,"à°«à°Ł":4820,"Ġà°ĵà°¨":4821,"Ġà°ķà°°à°ļ":4822,"à°łà°Ńà°°":4823,"1947":4824,"à°³à°¨à°²à°¨":4825,"à°Łà°ªà°¡à°Ł":4826,"à°°à°®à°£à°ķ":4827,"Ġmin":4828,"230":4829,"320":4830,"à°ķà°®à°°":4831,"à°Īà°¯":4832,"à°Ĩà°ľ":4833,"à°¦à°¨à°²à°ķ":4834,"à°¤à°°à°¦":4835,"Ġ260":4836,"Ġà°§à°°à°®":4837,"à°¶à°ķà°¨":4838,"à°Ĵà°³":4839,"Ġà°Ĩà°¶à°Ĺ":4840,"Ġ143":4841,"Ġà°µà°¨à°ªà°°":4842,"ana":4843,"rection":4844,"à°§à°ªà°¡à°¤":4845,")\"":4846,"RO":4847,"à°µà°¤à°°":4848,"à°¡à°µà°°":4849,"Ġà°µà°®":4850,"à°µà°°à°ªà°°":4851,"à°¢à°ļà°°":4852,"à°¯à°£à°Ĺ":4853,"Ġà°¬à°¯à°Łà°ªà°¡à°Ł":4854,"Ġà°ħà°£à°Ĺ":4855,"Ġ1984":4856,"à°¤à°°à°ķà°°":4857,"CC":4858,"nail":4859,"à°¤à°ļ":4860,"à°Ĺà°µà°¤":4861,"Ġà°¡à°²":4862,"à°°à°§à°®":4863,"Ġà°ªà°¦à°ľ":4864,"Ġà°ķà°°à°ªà°¤":4865,"à°ŀà°¤à°¤":4866,"à°¥à°¨à°²à°ķ":4867,"Ġà°Ĭà°°à°Łà°¨":4868,"thumbnail":4869,"DR":4870,"ip":4871,"à°®à°µà°ļ":4872,"à°¹à°ķà°°à°®":4873,"à°°à°®à°°":4874,"à°°à°µà°¤":4875,"à°¯à°¤à°ª":4876,"Ġ1940":4877,"1993":4878,"DE":4879,"oint":4880,"Ġà°¸à°£":4881,"Ġà°®à°ķà°°":4882,"à°¬à°§":4883,"à°¹à°ªà°¡":4884,"à°°à°®à°ªà°¡":4885,"Ġà°ĵà°¨à°°":4886,"à°Ĵà°ķà°¦":4887,"à¥į":4888,"NOME":4889,"4000":4890,"RT":4891,"ss":4892,"à°¾à°¾":4893,"à°¹à°¨à°°":4894,"Ġà°ĵà°¹":4895,"à°ĩà°ķà°¨":4896,"Ġ154":4897,"à°²à°Ńà°¨":4898,"à±ģâĢĻâĢĻ.":4899,"à¤°":4900,"Ġà°µà°°à°¦à°²à°¤":4901,"Ġà°ªà°¤à°¨à°®à°¯":4902,"https":4903,"brandShortName":4904,"à°²à°¸à°°":4905,"Ġà°¨à°³":4906,"Ġà°ĺà°Łà°¨à°²à°ª":4907,"Ġ188":4908,"old":4909,"850":4910,"ton":4911,"à°°à°³à°¨":4912,"Ġà°¤à°¸":4913,"à°¶à°°à°µ":4914,"Ġà°°à°¹à°®":4915,"à°ªà°°à°¦":4916,"à°²à°®à°²":4917,"à°µà°°à°£à°®":4918,"à±Ģ.\"":4919,"Ġ176":4920,"à±ģ\"\"\"\"":4921,"ĠUK":4922,"1984":4923,"Ġà°Ĺà°ľà°ªà°¤":4924,"ext":4925,"à°¤à°ªà°Ł":4926,"à°¤à°ļà°°":4927,"Ġà°ķà°²à°¬":4928,"Ġà°§à°µà°¨":4929,"à°Ĩà°¯à°¨à°²":4930,"Ġà°¦à°¶à°²à°µ":4931,"Ġà°ħà°¡à°Ĺà°µà°ļ":4932,"pressure":4933,"Ġà°Ĺà°¡à°Ĺà°¡à°²":4934,"à±ĭ\"\"":4935,"à°¸à°¹à°¨":4936,"à°µà°²à°²":4937,"à°Ĺà°Ń":4938,"Ġà°Ĵà°ķà°ļ":4939,"Ġà°¤à°ªà°¨":4940,"à°ļà°¬à°¡à°µ":4941,"1975":4942,"Ġ737":4943,"à°¥à°¨à°²à°¨":4944,"ari":4945,"Ġà°īà°¡à°ķà°¬":4946,"AM":4947,"à°®à°¦à°°":4948,"Ġà°ļà°¸":4949,"à°ĸà°°à°¨":4950,"à°·à°£à°²à°ķ":4951,"1972":4952,"à°³à°¨à°¤":4953,"243":4954,"act":4955,"Ġflow":4956,"ters":4957,"TV":4958,"ee":4959,"à°¾''":4960,"à°Ĺà°¬à°¦":4961,"Ġà°ħà°²à°¨":4962,"à°İà°¬":4963,"à°°à°®à°°à°£":4964,"Ġà°ªà°°à°ļà°¡":4965,"à°µà°¡à°®à°¨":4966,"à°ıà°İà°¸":4967,"Ġà°¸à°¹à°ľà°¸":4968,"Ġ174":4969,"Ġà°Ńà°¯à°ªà°¡à°¨":4970,"ĠIP":4971,"more":4972,"âį":4973,"Ġà±į":4974,"à°¤à°Łà°¨":4975,"à°®à°¯à°®":4976,"Ġà°ķà°Ĺ":4977,"à°Ńà°®à°¨":4978,"à°¨à°ªà°¨":4979,"Ġà°ĺà°Łà°¨à°²à°ķ":4980,"Ġà°ļà°¦à°µà°²":4981,"à±ĢâĢĻ.":4982,"India":4983,"âįŁ":4984,"119":4985,"à°¯à°³":4986,"Ġà°ķà°²à°ķ":4987,"Ġà°¦à°¶à°¨":4988,"Ġ1914":4989,"Ġ304":4990,"rad":4991,"à°¯à°£à°®":4992,"à±ĩâĢĿ":4993,"à°¡à°¨à°Ł":4994,"Ġà°ķà°°à°®":4995,"Ġà°¬à°·":4996,"Ġà°¡à°¨":4997,"à°·à°²à°ª":4998,"Ġà°®à°¨à°µà°°":4999,"à°Ĳà°¯":5000,"à°ħà°¤à°£":5001,"Ġ245":5002,"à°Ĺà°£à°¤":5003,"ering":5004,"Ġà°ĺà°¨à°ªà°°à°ļ":5005,"eloc":5006,"1997":5007,"ook":5008,"EC":5009,"ux":5010,"à±Ģ+":5011,"Ġà°°à°Ł":5012,"à°¯à°¨à°Ń":5013,"à°Łà°¨à°°":5014,"à°ªà°¡à°µà°ļ":5015,"Ġà°ķà°¨à°ªà°¡à°¤":5016,"Ġà°Ĳà°¯":5017,"à°³à°¨à°Ĺ":5018,"à°°à°¸à°¨à°²à°ķ":5019,"Ġ%(":5020,"1994":5021,"ver":5022,"à°¤à°¤à°ķ":5023,"à°ªà°Ń":5024,"Ġà°Ĺà°¤à°µ":5025,"à°¤à°¨à°¯":5026,"à°¨à°ķà°°à°®":5027,"Ġ720":5028,"Ġà°Ĭà°Ł":5029,"Ġà°«à°¡à°£à°µ":5030,"Ġà°ķà°¨à°ªà°¡à°²":5031,"UN":5032,"ie":5033,"à°²à°µà°ķ":5034,"à°ªà°¸à°®":5035,"âĢĶ":5036,"Ġà°¨à°°à°®":5037,"à°ľà°¨à°¤":5038,"à°ŀà°¤à°¨":5039,"à°¨à°¡à°ķà°¨":5040,"à°Ńà°ľà°¨à°¨":5041,"à°Łà°ªà°°à°ļà°¬à°¡":5042,"Ġwith":5043,"elocity":5044,"!\"":5045,").\"":5046,"PF":5047,"à°¤à°¬à°¸":5048,"à°¡à°ķà°¨":5049,"à°Ĺà°¡à°²":5050,"à°Ĺà°®à°¤":5051,"Ġà°İà°¥":5052,"Ġà°ħà°§à°¸":5053,"à±Ĥ.\"":5054,"Ġà°ħà°Ńà°¦":5055,"1960":5056,"à°µà°°à°£à°¶":5057,"à°°à°Ĺà°µà°ļ":5058,"à°¶à°¨à°¶":5059,"Ġ177":5060,"à°Ĥ?\"":5061,"ĠCP":5062,"ES":5063,"short":5064,"à±ĩâĢĻâĢĻ":5065,"à°¸à°³":5066,"à°ĩà°İà°¸":5067,"à°İà°ľ":5068,"à°°à°®à°£à°²":5069,"à°¯à°®à°£":5070,"Ġ225":5071,"à°µà°¨à°®":5072,"Ġà°ħà°²à°®":5073,"à°¯à°ªà°¡à°¡":5074,"Ġ185":5075,"Ġmm":5076,"Ġà°Ĩà°µà°°à°£à°®":5077,"Ġà°ªà°²à°ķà°¡":5078,"ĠâĤ":5079,"AN":5080,"ai":5081,"à°¨à°¸à°°":5082,"à°ķà°®à°ķ":5083,"à°¤à°ķà°²":5084,"à°¸à°®à°¤":5085,"à°µà°Ĺà°²à°¦":5086,"Ġà°ħà°²à°²":5087,"Ġà°¬à°¯à°ªà°¡à°ķ":5088,"à°Ĩà°ķà°Ł":5089,"à°°à°£à°ª":5090,"Ġ:-":5091,"à°ľà°°à°µà°¡":5092,"form":5093,"%),":5094,"/-":5095,"à°²à°Ĺà°²":5096,"à°¡à°ªà°²":5097,"à°Ĺà°Ńà°¦":5098,"Ġà°¤à°¥":5099,"à°Ĩà°«à°°":5100,"Ġà°ħà°²à°¯à°¨":5101,"Ġ131":5102,"à°±à°¨":5103,"Ġà°ĩà°³à°¯à°°":5104,"VD":5105,"Ġro":5106,"à°¾âĢĵ":5107,"à°ļà°¯à°®à°¯":5108,"à°ıà°İà°²":5109,"à°¬à°°à°ªà°¡":5110,"à°Ĺà°¨à°Ĺ":5111,"Ġà°¬à°¸à°µà°¤":5112,"Ġà°Ńà°¯à°ªà°¡à°¤":5113,"à°ıà°ıà°¨":5114,"IS":5115,"ĠÎ":5116,"à°¨à°°à°ķ":5117,"à°¤à°ªà°²":5118,"à±Ģà°¿":5119,"à°Ĺà°¡à°ķ":5120,"Ġà°µà°£à°ķ":5121,"à°³à°Ł":5122,"à°²à°¨à°Ł":5123,"à°°à°®à°Ł":5124,"à°¯à°²à°¯":5125,"à°¢à°¨à°®":5126,"à±įâĢĻ,":5127,"icro":5128,"%(":5129,"à°¤à°ķà°¡":5130,"à°¸à°¨à°¨":5131,"à°·à°¶":5132,"à°ħà°Łà°²":5133,"Ġà°ªà°°à°ķ":5134,"à°ľà°¯à°Ń":5135,"à°²à°Ĺà°ķ":5136,"Ġ161":5137,"Ġà°İà°Ĺà°¬à°¡":5138,"ink":5139,"à°µà°¹à°£à°¨":5140,"Ġà°Ńà°¯à°ªà°¡à°²":5141,"Ġà°Ĳà°İà°İà°¸":5142,"quare":5143,"âĿ":5144,"à°Łà°¤à°²":5145,"à°£à°¤à°¤":5146,"à°Ĺà°¤à°µ":5147,"à°łà°¤":5148,"Ġ203":5149,"à°ķà°°à°£à°ª":5150,"à°°à°ķà°Łà°¨à°ª":5151,"Ġ1983":5152,"à°Ĩà°Ĺà°·":5153,"ey":5154,"à°®à°¤à°®":5155,"à°£à°¤à°¨":5156,"Ġà°Ńà°µà°¤":5157,"à°ĩà°¯":5158,"Ġà°¹à°¯à°¤":5159,"Ġà°Ĵà°°à°µà°¡":5160,"Ġà°¡à°Ĺ":5161,"Ġà°ľà°¨à°Ĺà°£à°¨":5162,"à°ĵà°ı":5163,"ĠAl":5164,"Ġ1986":5165,"PD":5166,"PM":5167,"sh":5168,"Ġà°¤à°¬":5169,"à°¥à°¯":5170,"Ġà°ľà°°à°Ĺà°µ":5171,"2025":5172,"à°Łà°ªà°Ĺà°²":5173,"Ġ172":5174,"à°Ķà°Ł":5175,"Ġà°īà°ªà°ķà°°à°£à°®":5176,"à°Ĩà°ļà°°à°£à°²":5177,"ae":5178,"odi":5179,"ru":5180,"à±Ĩà±ģ":5181,"à°£à°ļ":5182,"à±ģ,âĢĿ":5183,"Ġà°®à°°à°ª":5184,"à°Ĳà°ļ":5185,"Ġà°ħà°ªà°ľà°¯":5186,"Ġà°¨à°¡à°µà°²":5187,"Ġ1976":5188,"PN":5189,"ng":5190,"à°¸à°ķà°°à°®":5191,"à°ªà°ķà°°à°£":5192,"à°Ĺà°°à°®":5193,"à°ļà°ķà°®":5194,"Ġà°µà°°à°®":5195,"à°§à°²à°ķ":5196,"à°Īà°İ":5197,"Ġà°¶à°ķà°Ł":5198,"à°ĸà°¸":5199,"à°¦à°°à°¡":5200,"à°Ĩà°¯à°¨à°¦":5201,"1971":5202,"Ġ168":5203,"ĠAr":5204,"imp":5205,"``":5206,"ces":5207,"à°²à°ĸ":5208,"Ġà°ªà°§":5209,"âĢĮà°¾":5210,"à°£à°¶à°ķ":5211,"à°µà°°à°ªà°¡":5212,"à°°à°®à°ª":5213,"Ġà°ħà°²à°®à°Ł":5214,"Ġà°¬à°¯à°Łà°ªà°¡à°¤":5215,"à°Ńà°Ĺà°µà°¦":5216,"ci":5217,"pump":5218,"Ġ]":5219,"à°¦à°¶à°ķ":5220,"Ġà°¸à°Ĺà°®":5221,"à°ľà°²à°ª":5222,"Ġà°°à°Ĺà°¡":5223,"à°§à°ªà°°":5224,"Ġà°¬à°²à°¯":5225,"Ġà°ªà°°à°Ĺà°£":5226,"à°°à°¦à°ķ":5227,"à°¨à°ªà°°à°®":5228,"à±Ĩà±ĸ.":5229,"à°¤à°Ĺà°¡":5230,"Ġ1975":5231,"iss":5232,"rom":5233,"ower":5234,"1983":5235,"à±ĤâĢ¦.":5236,"240":5237,"EE":5238,"MO":5239,"à°²à°µà°²à°¸":5240,"à°®à°¬à°¡":5241,"Ġà°¸à°¨à°¨":5242,"à°ľà°²à°¨":5243,"Ġà°Ĩà°µà°²":5244,"à°ķà°¡à°®":5245,"\"\"\",":5246,"Ġ159":5247,"Ġ134":5248,"Ġà°ľà°°à°Ĺà°¦à°¨":5249,"à±į\"\".\"":5250,"âĻª":5251,"oog":5252,"à°¶à°°à°£":5253,"Ġà°¦à°¯à°¤":5254,"à°¸à°®à°¯à°®":5255,"Ġ280":5256,"Ġ).":5257,"Ġà°¨à°Łà°¨à°¨":5258,"ther":5259,"ood":5260,"Ġle":5261,"à°¸à°ķà°²":5262,"Ġà°¸à°«à°²à°®":5263,"à°ľà°¸à°®":5264,"Ġà°Īà°Ĺ":5265,"Ġà°Łà°ª":5266,"ĠâĢ¢":5267,"Ġà°§à°°à°ª":5268,"à°°à°²à°µ":5269,"Ġà°Ľà°Łà°°":5270,"à°§à°ķà°¤à°¨":5271,"Ġ2500":5272,"ĠID":5273,"Ġ272":5274,"1992":5275,"Ġà°ķà°²à°µà°°à°ªà°¡":5276,"Ġrho":5277,"ergy":5278,"ost":5279,"put":5280,"Â«":5281,"à°¦à°ªà°°":5282,"à°®à°ªà°°à°ļ":5283,"Ġà°ħà°Łà°ķ":5284,"à°³à°¹à°¸":5285,"Ġà°Ĵà°®à°¨":5286,"à°¤à°ķà°¥":5287,"Ġ2023":5288,"Ġ4000":5289,"à°µà°¸à°Ń":5290,"à±Ģ).":5291,"ĠSam":5292,"à°ıà°İà°¨":5293,"à°ĩà°ķà°®":5294,"ere":5295,"à°ļà°Ĺà°²à°®à°¨":5296,"135":5297,"use":5298,"à°ĤâĢ¦.":5299,"man":5300,"tp":5301,"Ġra":5302,"à°¯à°Łà°®":5303,"Ġà°ķà°µà°²":5304,"à°¶à°²à°ª":5305,"à°®à°¨à°µ":5306,"à°°à°µà°¬à°¡":5307,"à°ħà°²à°°":5308,"Ġà°İà°¦à°Ĺà°¡":5309,"à°§à°¤à°¤":5310,"Ġwh":5311,"Ġengine":5312,"à±įà°ĥ":5313,"à°¨à°¯à°¨":5314,"Ġà°Ĺà°¨à°ķ":5315,"à°µà°°à°ķà°°":5316,"à°¯à°¨à°®":5317,"à°ªà°¤à°ķ":5318,"à°Ĳà°İà°®":5319,"inux":5320,"Ġ06":5321,"ĠSA":5322,"oogle":5323,"pos":5324,"à°Łà°ªà°Ł":5325,"Ġà°¤à°®à°°":5326,"Ġà°¦à°ª":5327,"à°ıà°·":5328,"à°Ĵà°®":5329,"à°¤à°µà°¯à°¸":5330,"ĠCE":5331,"à°²à°¬à°¡à°¤":5332,"Ġà°Ńà°Ĺà°µà°¦":5333,"ode":5334,"The":5335,"blade":5336,"à±ģâĢĵ":5337,"à°ªà°¦à°ķ":5338,"Ġà°¨à°¹":5339,"à°·à°ļ":5340,"à°¯à°®à°Ĺ":5341,"à°¯à°ªà°¦":5342,"Ġà°Ĩà°¡à°ķ":5343,"Ġà°®à°¤à°Ń":5344,"Ġ1987":5345,"115":5346,"CL":5347,"Co":5348,"à±Ĩ?":5349,"Ġà°¸à°°à°¯":5350,"Ġà°ľà°¬à°²":5351,"à°°à°®à°²à°²":5352,"à°°à°ķà°³":5353,"Ġà°ķà°²à°²à°¨":5354,"à°¯à°°à°¶":5355,"à°¨à°µà°¹à°ķ":5356,"Ġà°ĺà°Łà°¨à°²à°¨":5357,"à°īà°¯":5358,"à°®à°¤à°ªà°°à°®":5359,"1974":5360,"Ġ497":5361,"310":5362,"vi":5363,"à¯":5364,"à°İà°®à°°":5365,"à°°à°¸à°¨à°¨":5366,"à°īà°Ńà°¯":5367,"à°£à°¯à°®à°¨":5368,"à°ĵà°¨":5369,"à±į):":5370,"à±įâĢĮ).":5371,"ĠIII":5372,"480":5373,"à°µà°®à°°":5374,"à°¤à°¨à°¡à°ķà°¨":5375,"Ġ330":5376,"à°·à°£à°²à°²":5377,"Ġà°¸à°¬à°¬":5378,"ĠIBM":5379,"und":5380,"ox":5381,"ï»":5382,"à°¯à°¯à°®":5383,"à°®à°°à°®":5384,"Ġà°ħà°®à°¨":5385,"Ġà°İà°±":5386,"à°¥à°ªà°°à°ļ":5387,"à°°à°£à°ļ":5388,"Ġà°Ĳà°·":5389,"à°²à°¡à°ĸ":5390,"à°Ľà°ª":5391,"Ġ189":5392,"Ġ282":5393,"AS":5394,"Ġà°³":5395,"à°²à°ĺ":5396,"à°¸à°°à°£":5397,"à°ļà°²à°®":5398,"Ġà°¨à°¯à°¨":5399,"à°§à°¶à°¤à°ķ":5400,"Ġà°ľà°²à°µ":5401,"à°ħà°¸à°®":5402,"à°¯à°¨à°ª":5403,"à°¯à°ķà°¯":5404,"à°ªà°¡à°µ":5405,"à°¤à°®à°ª":5406,"à°ıà°İ":5407,"Ġ480":5408,"à°¢à°ķ":5409,"à°ľà°®à°¯":5410,"âĢľ%":5411,"Ġ195":5412,"Ġ1974":5413,"à±įâĢĮâĢĮâĢĮ":5414,"ath":5415,"ition":5416,"dian":5417,"ular":5418,"ĠâĪ":5419,"112":5420,"NS":5421,"sc":5422,"val":5423,"à°¸à°¨à°ķ":5424,"Ġà°Ĩà°¤à°°":5425,"Ġà°ĩà°°à°ķ":5426,"à°ĩà°Ĺ":5427,"à°ļà°¬à°¡à°µà°²":5428,"à°°à°ķà°Łà°¨à°²à°¨":5429,"oll":5430,"olu":5431,"soft":5432,"luid":5433,"à°¦à°Ľ":5434,"à°®à°·":5435,"à°İà°ķà°°":5436,"Ġà°¯à°Ĺ":5437,"Ġà°ķà°¨à°ªà°°":5438,"Ġà°ħà°ªà°ķ":5439,"Ġ->":5440,"190":5441,"à°¡à°µà°µ":5442,"Ġ303":5443,"ont":5444,"Ġà°ħà°£à°Ĺà°¦":5445,"direction":5446,"ï»¿":5447,"270":5448,"Ġel":5449,"à°ļà°°à°¨":5450,"Ġà°ķà°ľà°ķ":5451,"à°¿à°Ĥ.":5452,"Ġà°¨à°µà°¨":5453,"à°¹à°¹":5454,"à°°à°¤à°°à°®":5455,"Ġà°ķà°²à°Ĺà°ľ":5456,"Ġà°ħà°°à°Ĺ":5457,"à°īà°¬":5458,"à°¨à°¤à°²à°¨":5459,"Ġ163":5460,"à°²à°¬à°¡à°Ł":5461,"ĠFilm":5462,"CE":5463,"aj":5464,"cess":5465,"ÙĦ":5466,"à°¨à°¬à°²":5467,"à°¤à°ĸ":5468,"à±ĢâĢĿ":5469,"à°§à°¦":5470,"Ġà°ĩà°«":5471,"à°¸à°°à°³":5472,"Ġà°ĵà°¯":5473,"Ġ1948":5474,"Ġ1977":5475,"à±ģ\"\",":5476,"Ġà°ķà°¨à°¬à°¡à°Ł":5477,"à±į\"\",":5478,"Ġà°ħà°²à°µà°°à°ļ":5479,"à°¾`":5480,"à°°à°¦à°¨":5481,"à°¯à°·":5482,"à°¸à°Łà°Ĺ":5483,"Ġà°¬à°ł":5484,"Ġà°Ĩà°¯à°¨à°®":5485,"à±Ĥ..":5486,"Ġà°ķà°¨à°ķà°°":5487,"à°¯à°ªà°¡à°¦":5488,"à°¡à°µà°Ĺ":5489,"Ġ194":5490,"Ġ1949":5491,"129":5492,"ĠApp":5493,"à¤¿":5494,"Ġà°¨à°Ĺà°°à°µ":5495,"à°¡à°Ĺà°¨":5496,"à°¦à°°à°¬":5497,"Ġà°ķà°¨à°ķà°®":5498,"à°µà°¤à°ª":5499,"à°ľà°®à°µ":5500,"Ġ141":5501,"à±ĭ.\"":5502,"256":5503,"à°ªà°¬à°¡à°²":5504,"port":5505,"à³":5506,"à°¾âĢľ":5507,"à°ķà°µà°²":5508,"à°ķà°¸à°Ńà°²":5509,"à±ĩâĢĮ":5510,"Ġà°¸à°¨à°¤":5511,"à°·à°ªà°°":5512,"à°ľà°ªà°°":5513,"à°¹à°²à°¨":5514,"à°¹à°°à°¨":5515,"à°¦à°°à°¸":5516,"âĢĻ,":5517,"Ġà°ħà°¡à°Ĺà°ķ":5518,"Ġà°Ĩà°¶à°ªà°¡":5519,"Ġ191":5520,"à°¨à°¡à°®":5521,"Ġà°Ĩà°ļà°°à°£à°ķ":5522,"ĠSBI":5523,"Ġà°Īà°¯à°¨à°ķ":5524,"à°ĭà°¤":5525,"225":5526,"NU":5527,"Ġà°µà°¨à°¸":5528,"Ġà°¤à°³":5529,"à°§à°Ĺà°²":5530,"à°Īà°ı":5531,"à°°à°¤à°²à°ķ":5532,"Ġà°¹à°¬à°ķ":5533,"à°°à°®à°¸":5534,"à°«à°°à°¸":5535,"à°°à°ķà°°à°®":5536,"Ġ210":5537,"à°ªà°¡à°¦":5538,"à°®à°°à°ª":5539,"à°¨à°µà°¯à°¸":5540,"à°ĺà°¨à°²":5541,"à°ķà°¨à°Ĺ":5542,"à°°à°¹à°°":5543,"à°§à°¨à°²à°²":5544,"ater":5545,"Ġà°ľà°²à°¦":5546,"ĠMP":5547,"ash":5548,"Ġbl":5549,"Ġ1982":5550,"ĠNews":5551,"co":5552,"turbine":5553,"à°¦à°¤à°¨":5554,"à°µà°¸à°®":5555,"âĢİ":5556,"à±įâĢĮâĢ¦":5557,"à°ľà°µà°¹à°°":5558,"à°ĸà°µ":5559,"à°ĸà°Ĺ":5560,"à±ĭà°Ĥ:":5561,"à°°à°¸à°°à°£à°¨":5562,"à°ķà°ªà°²":5563,"Ġà°ħà°¡à°ª":5564,"1976":5565,"à°²à°µà°®":5566,"à°¨à°¡à°¤":5567,"Ġ152":5568,"Ġ173":5569,"à±ĩ!\"":5570,"Ġmach":5571,"ayam":5572,"EAD":5573,"du":5574,"à°ķà°µà°ļ":5575,"Ġà°®à°¬":5576,"à°·à°ªà°°à°ļ":5577,"à°§à°¯":5578,"à°£à°¤à°ķ":5579,"à°Łà°¨à°Ł":5580,"à°¯à°µà°¨":5581,"Ġà°·à°µà°°":5582,"à°ħà°¨à°¸":5583,"Ġà°ħà°®à°²à°¯":5584,"Ġà°ĸà°µ":5585,"Ġà°ħà°²à°¯":5586,"à°ĺà°µà°°":5587,"Ġ202":5588,"1995":5589,"à°¡à°Ĺà°²à°¨":5590,"Ġà°µà°²à°¸à°µ":5591,"à°®à°²à°¬à°¦":5592,"Ġ1952":5593,"Ġ158":5594,"à°£à°®à°¯":5595,"Ġ169":5596,"ĠCA":5597,"à°°à°¸à°°à°«à°°":5598,"IX":5599,"MOS":5600,"ject":5601,"Ġex":5602,"à°µà°Ĺà°²à°°":5603,"à°¡à°ķà°²":5604,"à°İà°¨à°°":5605,"Ġà°¸à°®à°ļ":5606,"à°®à°°à°¥":5607,"à°Ĳà°Ĳà°¸":5608,"Ġà°ħà°¤à°Ĺ":5609,"à°Ĵà°Ł":5610,"à°Ĵà°ķà°¨":5611,"Ġ204":5612,"Ġ855":5613,"Ġà°Ĵà°ķà°Łà°µ":5614,"Ġ183":5615,"Ġà°ħà°£à°ķ":5616,"Ġà°ĩà°ľà°¬":5617,"IM":5618,"à°¨à°¯à°®":5619,"à°¦à°Ĺà°²à°°":5620,"à°¯à°¦à°²":5621,"à°ªà°Ĺà°²à°µ":5622,"Ġà°ªà°ľ":5623,"Ġà°®à°¥":5624,"à°·à°¡":5625,"Ġà°¤à°¹":5626,"à°ħà°Ĺà°°":5627,"à±ģ,,":5628,"Ġà°«à°£":5629,"Ġà°¡à°°":5630,"à°Ĳà°Ĳà°²":5631,"Ġà°īà°ªà°ª":5632,"Ġà°µà°°à°ķà°Ł":5633,"Ġ1945":5634,"106":5635,"à°¤à°¯à°Ĺ":5636,"1800":5637,"ĠSD":5638,"à°ķà°¦à°³":5639,"à±ģâĢĿ.":5640,"à°Łà°¬à°¯à°²":5641,"Ġà°ĭà°·":5642,"ĠSamayam":5643,"720":5644,"IT":5645,"à±į`":5646,"à°²à°ªà°¤":5647,"à°¦à°¯à°µ":5648,"à°Łà°¸à°Ńà°²":5649,"Ġà°ļà°¡":5650,"à°¬à°Łà°¨":5651,"à°¹à°ł":5652,"à°ħà°°à°£":5653,"à°«à°¯à°°":5654,"à°®à°¨à°Ĺà°°":5655,"à°µà°²à°¯":5656,"à°¬à°¡à°¡":5657,"à°¤à°ķà°³":5658,"à°ķà°°à°£à°®":5659,"Ġ1930":5660,"Ġ1957":5661,"à°¹à°¦à°ªà°¡à°¤":5662,"Ġ184":5663,"Ġ178":5664,"à°¯à°Ĺà°²à°¦à°¨":5665,"ĠÂ£":5666,"âľº":5667,"\\\"\"":5668,"hot":5669,"à±ĭ..":5670,"à°ªà°ł":5671,"Ġà°¤à°¹à°¶":5672,"à°ĩà°°à°µ":5673,"Ġ324":5674,"à°²à°®à°µ":5675,"Ġ660":5676,"ĠâĢľ%":5677,"Ġ193":5678,"Ġ1919":5679,"Ġ1966":5680,"Ġ1958":5681,"103":5682,"Ġà°Ķà°¦":5683,"à°°à°®à°£à°¨":5684,"280":5685,"à¨":5686,"Ġ000":5687,"à°¦à°¡à°®":5688,"à±ĭâĢĿ":5689,"à°ľà°µà°°":5690,"à°¶à°°à°¦":5691,"Ġà°ľà°¶":5692,"à°¤à°¨à°¦":5693,"Ġà°µà°ļà°¨à°®":5694,"Ġà°¤à°¨à°ĸ":5695,"à°¯à°¸à°²":5696,"Ġà°¨à°°à°¹":5697,"à°Ĥ!\"":5698,"Ġturbine":5699,"ology":5700,"ok":5701,"à°¦à°¨à°°":5702,"à°¯à°ķà°ļà°°":5703,"à°¤à°°à°£à°²":5704,"à°°à°¦à°Ĺ":5705,"1948":5706,"à°ĺà°Łà°¨à°²à°ķ":5707,"102":5708,"Ġà°¨à°²à°Ń":5709,"men":5710,"Ġ235":5711,"Ġà°ħà°µà°¯à°µà°®":5712,"ound":5713,"icrosoft":5714,"',":5715,"AC":5716,"RE":5717,"gram":5718,"à°¿âĢĺ":5719,"à°¦à°¹":5720,"à°ļà°²à°¤":5721,"Ġà°®à°¸à°ķ":5722,"à°¹à°Ĺ":5723,"à°ĩà°Ĩà°°":5724,"à°°à°¤à°Ĺ":5725,"à°ľà°¨à°Ĺà°°":5726,"à°¤à°ķà°£":5727,"à°ļà°¬à°¡à°µà°ļ":5728,"1985":5729,"1962":5730,"à°ķà°®à°¯":5731,"à°¨à°¡à°ķ":5732,"âĢ¦]":5733,"Ġ156":5734,"eric":5735,"orld":5736,"117":5737,"ĠREAD":5738,"add":5739,"Ġ[âĢ¦]":5740,"ĠDC":5741,"Ġà°¦à°¹à°¨à°®à°¯":5742,"Hz":5743,"Read":5744,"à°²à°ªà°°à°ļ":5745,"à°®à°¯à°¨":5746,"à°ļà°Łà°¨":5747,"Ġà°¤à°°à°£":5748,"à°¹à°¡":5749,"à°³à°¶":5750,"Ġà°¯à°ķ":5751,"à°Łà°¨à°·":5752,"Ġ192":5753,"Ġà°ķà°³à°ķà°³à°²":5754,"à°ħà°ķà°¸":5755,"à°¦à°¡à°ª":5756,"à°²à°¬à°¸":5757,"145":5758,"Ġà°ķà°¨à°¬à°¡à°¤":5759,"ĠGDP":5760,"1986":5761,"3500":5762,"PP":5763,"uk":5764,"à°Łà°ªà°°à°ļ":5765,"à°§à°ªà°°à°ļà°¬à°¡":5766,"à°³à°®à°¨":5767,"Ġà°¡à°¯à°²":5768,"à°ķà°²à°¯":5769,"à°µà°¡à°¦":5770,"Ġà°Ĳà°Ĳà°İ":5771,"Ġà°ªà°¦à°¹":5772,"à°®à°ķà°¦":5773,"1956":5774,"Ġ850":5775,"Ġ1969":5776,"à°¿âĢĻ,":5777,"Ġ167":5778,"à°§à°ªà°¡à°²":5779,"ĠSMS":5780,"ĠBS":5781,"Ġnot":5782,"Ġà°®à°Ĺà°§":5783,"oss":5784,"MOST":5785,"UV":5786,"pen":5787,"square":5788,"uar":5789,"à°¿âĢĵ":5790,"à°®à°²à°ª":5791,"Ġà°ķà°§à°²":5792,"à°§à°²à°¤":5793,"Ġà°¦à°®à°¸":5794,"Ġà°İà°İ":5795,"à°ħà°°à°ķ":5796,"à°¥à°¨à°ķ":5797,"Ġà°ħà°¨à°µà°ļ":5798,"à°ĸà°ªà°¡":5799,"Ġà°Ĵà°İà°¨":5800,"à°Ĳà°Ĳà°İà°¸":5801,"à°°à°¨à°¡":5802,"à°µà°¤à°¶":5803,"à°¦à°ķà°®":5804,"Ġ506":5805,"ĠMac":5806,"ĠHPV":5807,"Ġ||":5808,"1982":5809,"1987":5810,"1988":5811,"210":5812,"330":5813,"Ã©":5814,"Ġà°ķà°¡à°²":5815,"à°·à°ķà°°":5816,"à°ľà°Ĺà°¦":5817,"Ġà°ħà°¨à°Ł":5818,"Ġà°¤à°¨à°®":5819,"Ġà°ķà°¨à°Ĺà°°":5820,"à°Łà°ķà°°à°®":5821,"à°§à°¨à°²à°¤":5822,"Ġ911":5823,"ors":5824,"ĠPro":5825,"à±ĭâĢ¦.":5826,"Ġà°ªà°Ĺà°²à°Ĺ":5827,"âľ¦":5828,"________":5829,"ax":5830,"ype":5831,"à°µà°µà°¦":5832,"à°¶à°¤à°®":5833,"Ġà°¦à°¡":5834,"Ġà°¹à°ľà°°":5835,"à°Ĩà°ķà°¸":5836,"à°«à°¤":5837,"à°°à°ķà°ķ":5838,"à°°à°µà°¸":5839,"à°²à°ªà°¨":5840,"à°ķà°¨à°¬":5841,"à°ķà°°à°£à°²à°¤":5842,"à°µà°¦à°¹à°¨":5843,"à±įâĢĮ...":5844,"à°§à°ªà°¡à°Ł":5845,"Ġman":5846,"à°Ķà°°":5847,"umber":5848,"ibeat":5849,"ĠFilmibeat":5850,"HT":5851,"à°¨à°¯à°¸":5852,"à°Ĥà°Ĥ":5853,"à°¸à°¸à°°":5854,"à°¸à°ĺ":5855,"Ġà°¸à°Ł":5856,"Ġà°®à°²à°ª":5857,"à°¯à°ķà°Ł":5858,"126":5859,"1600":5860,"Ġpoint":5861,"à±ĭ'.":5862,".-":5863,"uery":5864,"à±ģ@":5865,"à°Ĥ''":5866,"à°¦à°Ĺà°¤":5867,"Ġà°Ĩà°Ń":5868,"Ġà°¬à°«":5869,"Ġà°¯à°²à°®":5870,"Ġà°¬à°²à°ªà°¡à°¤":5871,"Ġ1951":5872,"Ġà°Ĭà°°à°Ĺ":5873,"Ġà°Ĭà°ļà°ķ":5874,"Ġà°®à°¤à°ªà°°":5875,"122":5876,"à°°à°ªà°¡à°¤":5877,"Ġà°¬à°¯à°Łà°ªà°¡à°²":5878,"Ġà°ķà°¨à°¬à°¡à°ķ":5879,"Ġmod":5880,"Ġengineering":5881,"GNOME":5882,"tr":5883,"à°°à°¬à°Ł":5884,"à°¤à°Ńà°¤":5885,"à±Ģà°ĥ":5886,"à°ļà°¯à°¤":5887,"Ġà°ķà°¹":5888,"Ġà°¸à°Ĺà°°":5889,"Ġà°ħà°Ĺà°®":5890,"Ġà°¶à°¯à°¨":5891,"à°ıà°ıà°ª":5892,"à°·à°®à°¯":5893,"Ġà°ľà°°à°Ĺà°Ĺ":5894,"ature":5895,"à±į',":5896,"à°ķà°²à°ķà°¤":5897,"à°µà°¬à°¡à°¤":5898,"132":5899,"ĠNT":5900,"RX":5901,"land":5902,"à°®à°®à°¨":5903,"Ġà°¸à°µà°¤":5904,"Ġà°®à°µ":5905,"Ġà°ļà°²à°®":5906,"à°·à°¹à°°":5907,"à°¶à°°à°¤":5908,"à°¶à°²à°¤":5909,"Ġà°İà°¡à°¬":5910,"Ġà°ªà°°à°µà°¶":5911,"Ġà°Ĵà°¨":5912,"Ġà°īà°¨à°¦":5913,"Ġà°«à°°à°µ":5914,"Ġ215":5915,"à°īà°Ń":5916,"1973":5917,"à°§à°¨à°¤":5918,"Ġà°¬à°¸à°ļ":5919,"ĠCom":5920,"Ġà°ķà°µà°²à°²":5921,"Ġà°¸à°µà°°à°£à°ķ":5922,"Ġà°¨à°°à°¸à°°":5923,"ĠTh":5924,"ĠHT":5925,"à±Ĥ!\"":5926,"à°¨à°ªà°Ł":5927,"à°¨à°¤à°ķ":5928,"à°¦à°¬à°¡":5929,"à°µà°¦à°°":5930,"à±Ĩ!":5931,"Ġà°µà°¡à°¦":5932,"Ġà°Ĺà°¹":5933,"Ġà°Ĺà°«":5934,"à°°à°ķà°µ":5935,"Ġ275":5936,"à°ªà°°à°¶":5937,"Ġà°ĵà°µà°²":5938,"à°īà°Ł":5939,"Ġ1946":5940,"Ġ1973":5941,"à°¯à°¬à°¡à°¡":5942,"Ġ1800":5943,"Ġ213":5944,"ĠDVD":5945,"ĠEx":5946,"ĠLED":5947,"emb":5948,"ube":5949,"ĠiOS":5950,"olume":5951,"440":5952,"AI":5953,"ĠØ":5954,"à°ªà°¦à°²à°ļ":5955,"à±Ĥ),":5956,"à°¬à°ª":5957,"Ġà°Ĩà°ªà°ķ":5958,"Ġà°īà°¹":5959,"à°İà°İà°¸":5960,"Ġà°¹à°Ł":5961,"Ġà°¹à°ľà°°à°¯":5962,"Ġà°Ĳà°ĵà°¸":5963,"Ġà°¸à°Ńà°²à°¨":5964,"à°µà°°à°£à°¨":5965,"Ġà°¨à°¡à°ªà°¨":5966,"Ġ1968":5967,"Ġ1979":5968,"à°°à°ķà°Łà°¨à°ķ":5969,"ated":5970,"Ġà°°à°£à°°":5971,"Ġch":5972,"Ġà°¬à°¤à°ķà°²":5973,"let":5974,"Ġminus":5975,"ral":5976,"ule":5977,"à°ĤâĢĵ":5978,"à°²à°ķà°Ł":5979,"Ġà°ıà°¥":5980,"Ġ340":5981,"à°¨à°¨à°²":5982,"à°Ľà°°":5983,"à°ħà°µà°¤à°²":5984,"Ġ306":5985,"Ġ307":5986,"123":5987,"Ġsystem":5988,"à°Ĥ\"\"\"\"":5989,"force":5990,"li":5991,"ys":5992,"à°¨à°Ī":5993,"Ġà°ªà°Ĺà°¤":5994,"Ġà°ľà°¯à°®":5995,"à°Ĩà°¬":5996,"à°¯à°ķà°®à°¨":5997,"à°°à°¯à°¦":5998,"à°¢à°¨":5999,"à°µà°°à°£à°µ":6000,"à°°à°¬à°²à°®":6001,"à°«à°²à°¦":6002,"Ġ222":6003,"Ġ234":6004,"Ġname":6005,"PIB":6006,"340":6007,"Ah":6008,"TA":6009,"VI":6010,"dra":6011,"rit":6012,"Ġà°µà°¨à°®":6013,"à°§à°¤à°ķ":6014,"à°ĸà°²à°¤":6015,"Ġà°¯à°¯":6016,"à°«à°ķ":6017,"à°ħà°²à°¸":6018,"à°ħà°²à°µ":6019,"à°ļà°¬à°¡à°Ł":6020,"1979":6021,"à°¡à°Ĺà°¡":6022,"Ġ6000":6023,"101":6024,"Ġ242":6025,"Ġ244":6026,"ons":6027,"atic":6028,"à°§à°ªà°¡à°¡":6029,"Ġà°µà°¦à°²à°¡":6030,"Ġà°£à°®":6031,"data":6032,"Ġres":6033,"âĢĮà±ĥ":6034,"Ġà°¦à°¶à°®":6035,"Ġà°ħà°¨à°¤":6036,"à°²à°ķà°µà°°":6037,"à°ĩà°ĵ":6038,"à°¦à°¨à°²à°¤":6039,"à°¯à°®à°¤":6040,"2023":6041,"1961":6042,"à°³à°¨à°²à°¤":6043,"Ġ1959":6044,"Ġà°ĸà°°à°Ĺ":6045,"109":6046,"Ġ187":6047,"Ġ251":6048,"tern":6049,"ification":6050,"ĠCPU":6051,"114":6052,"540":6053,"à°°à°«à°°":6054,"à°·à°®à°¨":6055,"à°§à°¨à°µ":6056,"Ġà°¬à°§":6057,"Ġà°ľà°°à°ķ":6058,"à°Łà°¨à°µ":6059,"à°ķà°²à°¹":6060,"à°°à°ľà°²à°®":6061,"à°µà°¤à°Ĺ":6062,"à°Łà°ķà°¨":6063,"à°Łà°ķà°Ł":6064,"Ġà°¤à°Ĺà°¦à°¨":6065,"1952":6066,"Ġ1955":6067,"Ġà°Ĩà°ķà°¤":6068,"à±Ģ...":6069,"ĠâĢĻ.":6070,"à°°à°ªà°¡à°¡":6071,"à°¯à°Łà°¨à°ª":6072,"atch":6073,"ict":6074,"à±ģâĢ¦!":6075,"288":6076,"ĠHead":6077,"Ġ1981":6078,"ody":6079,"ĠUSB":6080,"echnical":6081,"JP":6082,"TO":6083,"à°°à°¦à°²":6084,"à°¹à°¨à°®":6085,"à°°à°®à°ªà°¦":6086,"Ġà°ħà°§à°°":6087,"Ġà°·à°«":6088,"Ġà°Ĳà°·à°°":6089,"Ġ1965":6090,"Ġ1964":6091,"Ġ157":6092,"à°Łà°ªà°¡à°¡":6093,"Ġà°ľà°°à°Ĺà°µà°²à°¸":6094,"à°¨à°Ĺà°ª":6095,"Ġ07":6096,"133":6097,"Ġà°ķà°¬à°³":6098,"%).":6099,"ER":6100,"Fi":6101,"ual":6102,"ve":6103,"à±įà°Ĥ":6104,"à°¤à°«":6105,"à°ľà°²à°®":6106,"Ġà°Ĩà°ªà°¨":6107,"à°£à°¬":6108,"Ġà°ľà°¨à°ķ":6109,"à°µà°¨à°µ":6110,"à°¨à°µà°¸":6111,"à°łà°°":6112,"Ġà°Ľà°²":6113,"Ġ950":6114,"Ġ999":6115,"149":6116,"à°¾):":6117,"Ġfrom":6118,".,":6119,"290":6120,"ck":6121,"cy":6122,"fw":6123,"min":6124,"à°¿à±Ĥ":6125,"à°¤à°®à°°":6126,"Ġà°ħà°¹à°®":6127,"Ġà°Ĩà°£":6128,"à°£à°ªà°Ł":6129,"à°³à°°":6130,"Ġà°Īà°Ĺà°²":6131,"Ġà°¸à°®à°¶":6132,"à°®à°¨à°¨":6133,"à°Ĳà°¦à°µ":6134,"à°µà°¨à°¤":6135,"Ġ325":6136,"à°Ĺà°²à°µà°¨":6137,"à°¯à°¡à°®à°¨":6138,"à°Ĵà°İà°¸":6139,"à°ķà°Łà°¸":6140,"Ġ1967":6141,"Ġ1100":6142,"reen":6143,"à°¾âĢĻ,":6144,"ĠNo":6145,"à°¿âĢĿ.":6146,"Ġà°ªà°¯à°¨à°®à°¯":6147,"angle":6148,"Ġà°°à°¥à°¯":6149,"Ġà°¤à°Ĺà°²à°¡":6150,"116":6151,"299":6152,"à°¦à°°à°¤":6153,"Ġà°ħà°¦à°°":6154,"Ġà°İà°İà°¸":6155,"Ġà°Ĺà°¤à°ķ":6156,"Ġà°Ńà°ľà°¨":6157,"à±ģ,\"\"":6158,"à°ĸà°°à°®":6159,"à°¦à°°à°ķà°ª":6160,"Ġà°ıà°«":6161,"à°ªà°°à°¨":6162,"à°ļà°¨à°µà°¸à°°":6163,"Ġà°īà°¤à°ª":6164,"à°ªà°ķà°¯":6165,"107":6166,"152":6167,"127":6168,"Ġ227":6169,"à°§à°ªà°¡à°ķ":6170,"ĠAn":6171,"ĠAnd":6172,"Ġ326":6173,"Ġco":6174,"ise":6175,"HD":6176,"IL":6177,"cri":6178,"Ġà°ķà°°à°¨":6179,"Ġà°¸à°¡":6180,"à±įâĢĮ\"\"":6181,"à±Ĭ,":6182,"à°³à°¸":6183,"à°Ĩà°·":6184,"Ġà°¯à°²":6185,"Ġà°«à°²à°ª":6186,"Ġà°ľà°°à°ªà°²":6187,"à°¬à°¡à°¨":6188,"à°Ĳà°°à°¨":6189,"à°¨à°ªà°®":6190,"à°¨à°ķà°¯":6191,"à°¨à°ķà°®":6192,"à°ħà°²à°¸à°Ł":6193,"à°µà°¦à°¤":6194,"à°ħà°µà°®":6195,"arn":6196,"ĠSo":6197,"1300":6198,"Ġà°Ĳà°ķà°®à°¤":6199,"ays":6200,"à°ĩà°¤à°°à°¤":6201,"à°ľà°¯à°¦à°¶à°®":6202,"235":6203,"FA":6204,"MC":6205,"df":6206,"à°¦à°ķà°¡":6207,"à°Ĺà°µà°²à°¸":6208,"Ġà°ķà°«":6209,"Ġà°¨à°«":6210,"à°¶à°§":6211,"à°¥à°°à°¹":6212,"à°Ĩà°¶à°²":6213,"à°°à°¦à°¤":6214,"Ġ205":6215,"à°¡à°¨à°Ĺ":6216,"à°²à°¡à°®":6217,"à°£à°®à°µ":6218,"ative":6219,"à±įâĢĮ):":6220,"111":6221,"138":6222,"à¤²":6223,"Ġà°®à°Ĺà°¬":6224,"raph":6225,"à°Īà°ĵà°Ĺ":6226,"Ġà°ħà°¸à°¹à°ľ":6227,"CoV":6228,"ya":6229,"à±į&":6230,"à°¿à°¿":6231,"à°¿à±ģ":6232,"à°¡à°¦à°²":6233,"Ġà°¤à°¹à°¤":6234,"Ġà°°à°ļà°¨à°²à°¨":6235,"à°§à°¡à°ķ":6236,"à°²à°ķà°±":6237,"Ġà°ıà°ıà°ª":6238,"à°¿,.":6239,"à°¤à°®à°Ĺ":6240,"à°łà°¸":6241,"Ġ208":6242,"Ġ499":6243,"à°¯à°¬à°¡à°¦":6244,"esh":6245,"ited":6246,"ĠIM":6247,"ĠLinux":6248,"à°Ńà°ªà°¡à°Ĺ":6249,"DO":6250,"TI":6251,"cov":6252,"hfw":6253,"ption":6254,"Ùħ":6255,"à°¯à°¦à°²à°ļ":6256,"Ġà°ķà°°à°ķ":6257,"à±įâĢĮ''":6258,"Ġà°Ĩà°¡à°¦":6259,"Ġà°Ĩà°¯à°ķà°Ł":6260,"Ġà°²à°ļ":6261,"à°Īà°¬":6262,"à°Īà°ĺà°Łà°¨à°²":6263,"à°«à°¯":6264,"à°¯à°ķà°³":6265,"à°ħà°¨à°°":6266,"Ġà°Ĩà°®à°°à°£":6267,"à°ıà°Īà°²":6268,"à°ķà°Łà°µ":6269,"Ġ241":6270,"à°±à°¤":6271,"Ġ211":6272,"Ġ02":6273,"162":6274,"ĠMicrosoft":6275,"à°¶à°¨à°®à°¯":6276,"ynam":6277,"uarters":6278,"ĠHeaduarters":6279,"Ø±":6280,"à°Ĥ\"":6281,"à°Ĺà°Ńà°°":6282,"à°ļà°¨à°Ł":6283,"à°·à°Ńà°°":6284,"Ġà°¬à°µ":6285,"à°³à°ľ":6286,"à°Īà°İà°²":6287,"à°ķà°°à°µ":6288,"Ġà°«à°µ":6289,"Ġà°ĵà°¡à°¨":6290,"à°ĺà°ľ":6291,"à°ĺà°¨à°ķ":6292,"Ġà°µà°²à°¸à°ķ":6293,"à°²à°µà°¬":6294,"Ġ1954":6295,"Ġà°Ĩà°Łà°ª":6296,"Ġà°Ĩà°¡à°ķà°ª":6297,"ann":6298,"à°ļà°¦à°µà°¡":6299,"itle":6300,"ĠUSA":6301,"Ġà°®à°¦à°¨à°ªà°²":6302,"RCTC":6303,"get":6304,"à°Ĥ\"\"\"":6305,"à±ĩà±ĩ":6306,"à°·à°¯à°µ":6307,"Ġà°ĩà°¥à°¨":6308,"Ġà°ľà°²à°¸":6309,"à°ĩà°¥":6310,"à°Ĩà°ļà°°à°£":6311,"à°°à°¸à°ªà°¡":6312,"Ġà°®à°¹à°¨":6313,"Ġà°īà°¦à°¯à°ª":6314,"Ġà°ħà°¸à°®à°¤":6315,"Ġ543":6316,"Ġà°¬à°¤à°ķà°¡":6317,"à°Ĭà°³":6318,"Ġft":6319,"Ġab":6320,"\"(":6321,"fluid":6322,"oy":6323,"oad":6324,"à°ķà°¸à°²":6325,"à°¦à°¯à°¨":6326,"à°ªà°¨à°ª":6327,"à°ªà°¨à°µà°¸à°°":6328,"Ġà°®à°·":6329,"à°¦à°°à°µ":6330,"à°«à°£":6331,"à°¾.)":6332,"à°ªà°ķà°³":6333,"Ġà°¸à°Ńà°°":6334,"Ġ1920":6335,"Ġ1963":6336,"à°ķà°¤à°²à°¨":6337,"Ġ04":6338,"als":6339,"Ġmore":6340,"ations":6341,"ull":6342,"ake":6343,"Ġspec":6344,"CR":6345,"à°ķà°¶à°ķ":6346,"à°¤à°ªà°¤":6347,"à°¡à°Ĺà°²à°µ":6348,"à°ļà°Ń":6349,"Ġà°ķà°¤à°°":6350,"à°¶à°¨à°ª":6351,"Ġà°°à°§":6352,"à°²à°¨à°¤":6353,"à°°à°®à°£à°®":6354,"Ġà°¸à°®à°¦":6355,"à°ķà°²à°¬":6356,"à°ħà°¨à°¡":6357,"âĢĺà±į":6358,"Ġà°Ĳà°Ĳà°İà°¸":6359,"Ġ1939":6360,"Ġà°Ĭà°ķ":6361,"à°ªà°¦à°²à°¨":6362,"à°¯à°¬à°¡à°¨":6363,"à°¸à°µà°®":6364,"ĠâĢĻ?":6365,"Ġ509":6366,"à°ªà°¬à°¡à°¨":6367,"137":6368,"eng":6369,"à°Ńà°ľà°¨à°²":6370,"abad":6371,"Ġmohfw":6372,"DC":6373,"sel":6374,"à°¯à°ļà°°":6375,"Ġà°ªà°®":6376,"Ġà°ķà°³à°¨":6377,"Ġà°ļà°¦à°°":6378,"à°¶à°¯à°ªà°¡":6379,"Ġà°ħà°µà°Ł":6380,"à°ªà°¡à°Ĺ":6381,"à°Ĳà°Ĳà°İ":6382,"à°Ĺà°¤à°ķ":6383,"Ġà°µà°¦à°²à°ķ":6384,"194":6385,"Ġ171":6386,"ala":6387,"Ġà°¸à°µà°°à°£à°²à°¨":6388,"Ġ294":6389,"à°¦à°ķà°°à°®à°¨":6390,"à°Ĥ'.":6391,"line":6392,"Ġà°¤à°°à°¤à°°à°®":6393,"Ġà°°à°¶":6394,"à°¬à°Ĺà°³":6395,"à°¬à°µà°³":6396,"à°³à°¬":6397,"à°Ĩà°°à°µ":6398,"Ġà°ıà°ľà°¨":6399,"Ġà°ªà°°à°¬":6400,"Ġà°ķà°²à°Ĺà°¨":6401,"Ġà°Ĩà°°à°¨":6402,"Ġà°§à°®à°¨":6403,"à°ļà°¨à°®":6404,"Ġà°ħà°ªà°¹à°°à°£":6405,"à°ªà°ķà°¨":6406,"1969":6407,"1967":6408,"Ġ845":6409,"à°Ĺà°®à°µ":6410,"à°ķà°¤à°¡":6411,"à±ģ):":6412,"Ġ08":6413,"Ġ239":6414,"à±ĭ).":6415,"à±Ģ?\"":6416,"à°°à°¥à°®à°¸":6417,"()":6418,"LE":6419,"OC":6420,"Î±":6421,"à°µà°¦à°¨":6422,"à°Ĺà°²à°¤":6423,"à°Ĺà°¸à°®":6424,"Ġà°®à°¡à°Ĺ":6425,"à±įâĢĮ]":6426,"à°ħà°¤à°Ĺ":6427,"à°Łà°°à°²":6428,"à°Łà°¨à°¬":6429,"Ġ290":6430,"à°ķà°²à°¸":6431,"Ġà°¤à°°à°Ĺ":6432,"1955":6433,"à°°à°ķà°Łà°¨à°¤":6434,"ert":6435,"Ġà°µà°°à°¦à°²à°ķ":6436,"à°Ĥ\"\".\"":6437,"1100":6438,"260":6439,"à°¿à°ĥ":6440,"à°ķà°§":6441,"à°¤à°µà°ļ":6442,"à°¤à°µà°ķ":6443,"à°Łà°¸à°Ń":6444,"Ġà°®à°²à°ķ":6445,"à°·à°¹":6446,"Ġà°¦à°µà°¡":6447,"à°³à°²à°²":6448,"Ġà°¶à°²":6449,"Ġà°¶à°ķà°²":6450,"à°İà°ĩ":6451,"à°ķà°¡à°ªà°²":6452,"Ġà°®à°¨à°¯":6453,"à°¤à°²à°¬":6454,"à°ħà°¨à°µà°¸à°°à°®":6455,"Ġ365":6456,"à°¯à°¤à°²à°ķ":6457,"Ġà°ħà°ªà°¶":6458,"à°ªà°²à°µ":6459,"1939":6460,"à°°à°Ĺà°¡à°®":6461,"à°īà°¦à°¯à°®":6462,"Ġà°ľà°²à°¶à°ķ":6463,"224":6464,"its":6465,"ĠMi":6466,"Ġà°ļà°¦à°µà°Ł":6467,"à°Ńà°ľà°¨à°ª":6468,"led":6469,"rop":6470,"ush":6471,"unction":6472,"Ġà°¸à°°à°³à°¤à°°":6473,"1981":6474,"app":6475,"ĠHDFC":6476,"`.":6477,"à°ĤâĢį":6478,"à°¤à°ªà°°à°ļ":6479,"à°¯à°¬à°°":6480,"Ġà°®à°¤à°Ĺ":6481,"à°·à°ķà°®":6482,"à°§à°ļ":6483,"Ġà°¬à°²à°ª":6484,"à°¥à°¤à°¤":6485,"à°Łà°²à°°":6486,"Ġà°¸à°Ńà°²à°ķ":6487,"1940":6488,"ero":6489,"Ġà°µà°²à°¨à°¨":6490,"Ġà°¬à°¯à°Łà°ªà°¡à°¡":6491,"ick":6492,"ĠGT":6493,"ample":6494,"Ġout":6495,"igh":6496,"RAID":6497,"325":6498,"DS":6499,"system":6500,"à±į|":6501,"à°ªà°²à°ª":6502,"à°ªà°Ĺà°²à°¦":6503,"Ġà°¤à°ľ":6504,"Ġà°Ĩà°¡à°Ĺ":6505,"à°¹à°¤à°ķ":6506,"à°£à°¹à°¤":6507,"Ġà°ľà°¤à°Ĺ":6508,"à°Īà°İà°«":6509,"Ġà°ıà°²à°¨":6510,"à±ĩà°Ĥ!":6511,"à°°à°£à°°":6512,"à°®à°¨à°¤":6513,"Ġ186":6514,"à°°à°ªà°¡à°ķ":6515,"à°ļà°Ĺà°²à°Ĺ":6516,"Ġ03":6517,"à°®à°³à°¯":6518,"Ġ287":6519,"à°īà°ªà°ķà°°à°£":6520,"113":6521,"Ġà°Ĩà°¦à°°à°£à°¨":6522,"ĠAm":6523,"ĠMS":6524,"rot":6525,"ings":6526,"Ġà°µà°°à°¸à°²":6527,"Ġ---":6528,"arend":6529,"380":6530,"IR":6531,"à°¾Â§à±įâĢĮà±ģ":6532,"à±ģà±Ĥ":6533,"à°Łà°¶":6534,"à°ªà°Ńà°°":6535,"à°Ĺà°§":6536,"à±ģ.)":6537,"à°§à°¶":6538,"à°¹à°Ń":6539,"à°£à°°à°¤":6540,"Ġà°¦à°¯à°Ĺà°²":6541,"Ġà°Ĵà°ķà°®":6542,"à°¬à°¡à°²":6543,"à°µà°¹à°Ł":6544,"1968":6545,"à°§à°¨à°Ĺ":6546,"Ġà°ķà°¥à°Ĺ":6547,"Ġà°«à°²à°¦":6548,"à°¤à°¤à°²à°ķ":6549,"Ġà°Ķà°Łà°°":6550,"à°¨à°Ĺà°ªà°ª":6551,"185":6552,"050":6553,"Brand":6554,"ET":6555,"GS":6556,"MR":6557,"MW":6558,"VM":6559,"ool":6560,"à±į+":6561,"à°ķà°ªà°¡":6562,"à°¦à°¯à°¸":6563,"à°ªà°¹":6564,"à°®à°¦à°¨":6565,"Ġà°¨à°°à°ķà°¡":6566,"à±Ī'":6567,"Ġà°¦à°¯à°Ĺ":6568,"Ġà°ĩà°°à°Ĺà°¦":6569,"Ġà°¶à°¤à°µ":6570,"Ġà°Ĵà°¹":6571,"Ġà°ľà°°à°ªà°Ĺ":6572,"Ġ311":6573,"à°Ĺà°²à°®à°¨":6574,"à°¡à°²à°µ":6575,"Ġà°ħà°¡à°Ĺà°Ł":6576,"1965":6577,"Ġ197":6578,"Ġ1931":6579,"à°²à°Ńà°®à°¯":6580,"Ġà°ķà°¦à°²à°ķ":6581,"à°¸à°¹à°ķà°°":6582,"165":6583,"Ġtri":6584,"Ġ269":6585,"ĠIC":6586,"elhi":6587,"ĠUV":6588,"à°Ĭà°¬à°ķ":6589,"row":6590,"Ġà°İà°¡à°®à°ļ":6591,"à±įâĢ¦.":6592,"ourt":6593,"ffer":6594,"\"âĢľ":6595,"AP":6596,"à°®à°°à°£à°®":6597,"à°ļà°°à°£à°²":6598,"à±Ĥ'":6599,"Ġà°¤à°£":6600,"Ġà°°à°¯":6601,"à°§à°¨à°ª":6602,"à°¹à°®à°¨":6603,"à°Īà°²à°ķ":6604,"à°µà°°à°¨à°Ĺ":6605,"à±į,,":6606,"Ġà°Ĵà°ķà°²":6607,"à°¤à°°à°¨":6608,"Ġ212":6609,"Ġà°ĵà°·":6610,"à°¤à°²à°¸":6611,"à°Łà°²à°¯":6612,"à°ĺà°¸":6613,"Ġ206":6614,"à°¡à°µà°Ł":6615,"Ġà°Ĩà°¶à°¨":6616,"Ġà°Ńà°¯à°¬":6617,"ance":6618,"oron":6619,"energy":6620,"à°ħà°®à°°à°µ":6621,"ĠDNA":6622,"Ġà°ķà°¦à°²à°¡":6623,"Ġkg":6624,"Ġà°µà°¡à°Ĺà°³":6625,"375":6626,"az":6627,"ron":6628,"udi":6629,"Ġà°¾":6630,"à°ķà°Łà°ķ":6631,"à°ķà°¨à°ķ":6632,"à°¸à°ªà°°":6633,"à°Ĺà°Ĺà°¨":6634,"Ġà°®à°®à°ķ":6635,"Ġà°°à°¬à°¡":6636,"Ġà°Ĩà°®à°¨":6637,"à°°à°ªà°¨":6638,"à°ıà°Ĳà°¬":6639,"Ġ375":6640,"à°¢à°µ":6641,"Ġà°¢à°ķ":6642,"Ġ1953":6643,"Ġ\"\",":6644,"Ġà°Ĩà°Ĺà°Ł":6645,"à°¡à°¬à°¦":6646,"Ġ403":6647,"147":6648,"ĠGoogle":6649,"à°¾'.":6650,"view":6651,"510":6652,"mun":6653,"Ã§":6654,"Ġal":6655,"à°¯à°¤à°®":6656,"à±ĩ),":6657,"à°¸à°°à°¸à°®":6658,"à°µà°¯à°¨":6659,"à°Ĺà°ªà°°à°ļ":6660,"à°¿à°Ĥ:":6661,"Ġà°Ĩà°Ĺà°®":6662,"Ġà°ĩà°ķà°²":6663,"à°ħà°¹à°°":6664,"Ġà°Ńà°ľà°°":6665,"à°µà°°à°¯":6666,"Ġà°Ĩà°¯à°¨à°µ":6667,"à°ħà°¨à°¨":6668,"à°¶à°ķà°®":6669,"à°Ĺà°²à°Ĺ":6670,"\"\"\"'":6671,"Ġà°¤à°²à°¶":6672,"Ġà°§à°°à°²à°²":6673,"Ġ665":6674,"Ġ1942":6675,"à°¦à°ķà°¤à°¨":6676,"à°²à°Ĺà°ª":6677,"à±Ģ..":6678,"à°¶à°¨à°²à°¨":6679,"Ġ255":6680,"à°±à°ķ":6681,"ating":6682,"751":6683,"ĠInt":6684,"249":6685,"Ġbody":6686,"user":6687,"Ġà°ľà°²à°®à°¯à°®":6688,"rans":6689,"Ġaction":6690,"Ġmodi":6691,"ĠUnix":6692,"430":6693,"460":6694,"OH":6695,"UI":6696,"covid":6697,"dy":6698,"Ġà±":6699,"à°¦à°µà°°":6700,"Ġà°®à°¤à°²à°¬":6701,"Ġà°ļà°¹à°°":6702,"à°§à°°à°ķ":6703,"Ġà°ıà°İà°²":6704,"Ġà°ıà°¥à°°":6705,"à°ķà°¡à°Ĺ":6706,"Ġà°Ĩà°¯à°¨à°ªà°Ł":6707,"à°ļà°¬à°¡à°°":6708,"1949":6709,"Ġ196":6710,"Ġà°İà°Ĺà°°à°µ":6711,"155":6712,"156":6713,"Ġ214":6714,"Ġ216":6715,"Ġà°µà°¡à°ķà°Ł":6716,"ents":6717,"à¥¥":6718,"Windows":6719,"ms":6720,"à°°à°µà°²à°¸":6721,"à°ķà°¥à°ķ":6722,"Ġà°¨à°°à°µà°£":6723,"à°³à°µà°²à°¸":6724,"à°®à°°à°ļ":6725,"Ġà°ĸà°¯":6726,"à°¨à°®à°Ĺ":6727,"1920":6728,"1966":6729,"à°Ĺà°®à°®":6730,"Ġà°Ķà°ļ":6731,"att":6732,"182":6733,"Ġcol":6734,"edia":6735,"ife":6736,"udy":6737,"Ġthat":6738,"ĠÂłĠÂłĠÂłĠÂł":6739,"GA":6740,"Wh":6741,"à°ķà°µà°¡":6742,"à°Ĺà°¨à°¨":6743,"Ġà°¸à°ªà°°":6744,"Ġà°Ĩà°¹à°°":6745,"à°¹à°¤à°ª":6746,"Ġà°¬à°«à°°":6747,"Ġà°İà°¸à°°":6748,"Ġà°Īà°İà°®":6749,"à°ĸà°ľ":6750,"Ġà°ıà°¦à°¨":6751,"Ġà°ªà°°à°ļà°¬à°¡":6752,"Ġà°®à°¨à°ªà°Ł":6753,"à°ħà°¨à°Ĺà°¨à°Ĺ":6754,"à°ľà°¨à°Ĺ":6755,"à°¨à°¨à°Ĺ":6756,"ĠâĢĺ%":6757,"à°°à°Ĺà°Ĺ":6758,"à°ªà°£à°ª":6759,"Ġà°İà°¡à°ª":6760,"Ġ223":6761,"Ġà°ķà°¡à°ªà°Ł":6762,"ĠIN":6763,"Ġsh":6764,"Ġà°µà°²à°¸à°ª":6765,"roid":6766,"oment":6767,"own":6768,"à±įâĢĿ.":6769,"Ġà°ķà°²à°µà°°à°ªà°°":6770,"avir":6771,"à°¿].":6772,"ffic":6773,"à°®à°²à°®à°¡":6774,"ĠâĤ¬":6775,"470":6776,"SC":6777,"firefox":6778,"velocity":6779,"}}":6780,"à°¸à°°à°ķ":6781,"à°µà°µà°²":6782,"Ġà°®à°ĸ":6783,"Ġà°¤à°¡à°¬":6784,"à°¬à°²à°ķ":6785,"Ġà°Ĩà°¤à°¨":6786,"à°µà°°à°¤":6787,"Ġà°®à°°à°ķà°²":6788,"Ġà°Łà°µ":6789,"à±ĩà°Ĥ,":6790,"Ġà°ħà°µà°¦":6791,"à°Ĳà°ĵà°¸":6792,"Ġ380":6793,"Ġà°ªà°¡à°µà°ļ":6794,"à°ļà°¬à°¡à°ķ":6795,"Ġ1941":6796,"âĢĿ.":6797,"à°¯à°Ĺà°²à°®à°¨":6798,"à±įâĢĮâĢĻâĢĻ":6799,"Ġ295":6800,"Ġchar":6801,"à°¡à°Ĺà°²à°¡":6802,"Ġà°¨à°Ĺà°²à°¨":6803,"olar":6804,"à±Ĥ?\"":6805,"ATO":6806,"Ġcont":6807,"ideo":6808,"560":6809,"mm":6810,"Ġar":6811,"à°ķà°ªà°°à°ļ":6812,"à°¸à°ķà°¤":6813,"Ġà°®à°¤à°µ":6814,"à±įâĢĮâĢį":6815,"Ġà°¤à°²à°°":6816,"à±ģ,...":6817,"Ġà°ıà°ı":6818,"à°®à°¨à°°":6819,"Ġ221":6820,"Ġà°İà°²à°°":6821,"Ġ319":6822,"à°ĺà°ļà°¤":6823,"Ġ430":6824,"Ġà°¤à°²à°ªà°¡à°¤":6825,"à°°à°ľà°²à°ªà°Ł":6826,"à°§à°¨à°ªà°Ł":6827,"Ġ730":6828,"à°°à°¬à°¦":6829,"à°Ĺà°®à°£":6830,"à°°à°ķà°Łà°¨à°²à°¤":6831,"Ġ179":6832,"Ġ257":6833,"Ġ232":6834,"Ġ286":6835,"ĠCS":6836,"ĠCl":6837,"Ġsl":6838,"Ġà°¨à°Łà°¨à°²":6839,"à°µà°ļà°¨à°®":6840,"ĠReadmore":6841,"urbo":6842,"âĪĻ":6843,"ĠApple":6844,"Th":6845,"Ġqu":6846,"à°ķà°¦à°²":6847,"à°¦à°¹à°¨":6848,"à°®à°ł":6849,"à±įâĢĮâĢĭ":6850,"Ġà°¤à°¡à°µ":6851,"à°¶à°ªà°¡":6852,"à°Ńà°¯à°ª":6853,"Ġà°Ĺà°³à°®":6854,"à°Īà°Ĺ":6855,"à°¯à°¨à°¡":6856,"Ġ(âĢĺ":6857,"à°°à°µà°Ĺ":6858,"Ġà°ĵà°·à°¨":6859,"à°µà°¡à°Ĺ":6860,"à°¤à°ķà°³à°²":6861,"à°¯à°¸à°¹à°ķ":6862,"à°ªà°¨à°¤":6863,"Ġ790":6864,"âĢĭâĢĭ":6865,"ane":6866,"Ġà°Ńà°¯à°ªà°¡à°¡":6867,"Ġ231":6868,"148":6869,"Ġà°ħà°°à°µà°¡":6870,"ĠAM":6871,"à°Ĺà°ªà°°à°®":6872,"Ġ498":6873,"Ġag":6874,"Ġare":6875,"Ġà°ķà°²à°Ĺà°µà°ļ":6876,"upright":6877,"CAA":6878,"(_":6879,"410":6880,"490":6881,"950":6882,"TM":6883,"eal":6884,"work":6885,"Ġz":6886,"Ġà°Ĩà°¥":6887,"Ġà°ªà°°à°§":6888,"à°°à°£à°¹":6889,"à°ħà°¯à°¤":6890,"Ġà°§à°®":6891,"Ġà°·à°°à°ª":6892,"Ġà°īà°ªà°ļ":6893,"à°²à°®à°Ĺ":6894,"1951":6895,"à°¯à°ªà°¡à°µà°ļ":6896,"Ġ865":6897,"Ġà°Ńà°¯à°ªà°¡à°Ł":6898,"à°°à°®à°£à°¦":6899,"139":6900,"Ġ265":6901,"Ġhis":6902,"Ġà°Ĺà°ľà°Ĺà°ľ":6903,"impell":6904,",,":6905,"390":6906,"mail":6907,"ta":6908,"à±į''":6909,"à°¦à°Ń":6910,"à°¯à°°à°¨":6911,"à°µà°Ńà°¯":6912,"à±ĢâĢĻâĢĻ":6913,"à°·à°°à°¸":6914,"à°Ńà°°à°®":6915,"à°°à°µà°£à°¤":6916,"Ġà°ħà°¡à°Ĺà°¨":6917,"à°µà°¹à°ķ":6918,"à°¹à°¨à°¤":6919,"1964":6920,"Ġ1935":6921,"à°¶à°µà°ªà°°":6922,"à°¯à°Ĺà°²à°µà°¨":6923,"Ġ09":6924,"à°ħà°¸à°¤":6925,"Ġ264":6926,"ĠHIV":6927,"342":6928,"expos":6929,"UMO":6930,"mb":6931,"à°¿.,":6932,"à°ľà°ķà°°":6933,"Ġà°īà°¬à°°":6934,"à°£à°ķà°³":6935,"Ġà°İà°ļ":6936,"Ġà°ľà°²à°ķ":6937,"Ġà°Ńà°ľ":6938,"à°ĩà°«":6939,"à°İà°ķà°¨":6940,"Ġà°ıà°¦à°¯":6941,"à°¤à°°à°£à°¨":6942,"à°²à°²à°®":6943,"à°¤à°®à°¦":6944,"à°ľà°¨à°ª":6945,"à°µà°¨à°Ĺà°°":6946,"Ġà°µà°°à°µà°°à°°":6947,"à°¤à°ķà°ķ":6948,"Ġà°ħà°¡à°Ĺà°°":6949,"1963":6950,"à°¡à°¨à°¡":6951,"Ġ765":6952,"Ġà°¨à°¡à°µà°¨":6953,"Ġà°Ľà°Ł":6954,"Ġà°Ĩà°Łà°ªà°Ł":6955,"Ġà°ķà°¦à°²à°²":6956,"Ġ181":6957,"ins":6958,"Ġ248":6959,"à°¤à°¤à°²à°¨":6960,"121":6961,"ati":6962,"Ġà°ľà°¯à°µà°°":6963,"Ġ226":6964,"Ġà°Ĭà°¹à°²":6965,"Ġà°Ĭà°¹à°ķ":6966,"à°ķà°¶à°°":6967,"173":6968,"à°²à°¬à°¡à°¡":6969,"Ġmg":6970,"ĠPh":6971,"Ġ336":6972,"Ġ443":6973,"Ġà°ıà°Ĳà°ıà°¡":6974,"âĪĴ":6975,"Ġà°¤à°¹à°¤à°¹à°²":6976,".\"\"\"":6977,"425":6978,"DF":6979,"Int":6980,"LL":6981,"Un":6982,"pre":6983,"à±į]":6984,"à°¤à°§":6985,"à°¶à°²à°²":6986,"à°Ńà°ªà°°":6987,"Ġà°²à°°":6988,"Ġà°İà°¹":6989,"Ġà°Īà°ķà°²":6990,"à°Ĩà°Ĺà°¡":6991,"à°®à°¨à°µà°®":6992,"à°ķà°²à°¦":6993,"à°¸à°°à°ªà°ª":6994,"à°®à°°à°¨":6995,"à°Ĳà°¹":6996,"à°²à°¤à°¤":6997,"à°µà°¨à°²à°¨":6998,"à°¶à°ķà°°à°®":6999,"203":7000,"Ġà°ľà°¨à°¶à°ķ":7001,"à°§à°¨à°ļ":7002,"à°¸à°Ńà°¨":7003,"Ġà°®à°²à°¬":7004,"à°°à°¸à°¨à°²à°¤":7005,"à°ļà°²à°¨à°ļ":7006,"ats":7007,"ale":7008,"ĠIV":7009,"ĠPl":7010,"Ġ371":7011,"à°¡à°Ĺà°²à°®":7012,"Ġà°ªà°¤à°¨à°®à°µ":7013,"ute":7014,"Ġà°µà°¶à°ªà°°à°ļ":7015,"Ġprogram":7016,"derabad":7017,")(":7018,"DI":7019,"DOS":7020,"LS":7021,"Mo":7022,"cc":7023,"à±ĭ]":7024,"à±ĭà±į":7025,"à°Łà°ªà°²":7026,"Ġà°¬à°¨à°Ĺ":7027,"à°Ĩà°³":7028,"Ġà°ıà°¹":7029,"Ġà°ıà°Ĳà°İ":7030,"Ġà°¸à°¹à°¨à°®":7031,"à°²à°¯à°ª":7032,"à°¨à°ªà°ª":7033,"à°īà°¦à°°":7034,"\"\"\"-":7035,"1945":7036,"1957":7037,"à°²à°µà°Ł":7038,"à°ĵà°İà°¨":7039,"Ġà°Ĭà°¤à°ª":7040,"à±ģâĢĻ,":7041,"305":7042,"à°¨à°Ĺà°°à°®":7043,"orth":7044,"1700":7045,"ism":7046,"231":7047,"ĠIndian":7048,"ubl":7049,"........":7050,"lades":7051,"earch":7052,"NG":7053,"New":7054,"WHO":7055,"ĹĨ":7056,"à°°à°ļà°°":7057,"à°Łà°«":7058,"à°ªà°¨à°®":7059,"à°µà°Ĺà°²à°µ":7060,"âĢĮà±ģ":7061,"à°¶à°ªà°ķ":7062,"Ġà°¯à°¶à°¸":7063,"Ġà°Łà°«":7064,"à°ķà°°à°ª":7065,"à°¤à°¨à°ªà°°":7066,"Ġà°Ĩà°°à°Ĺ":7067,"à°ľà°ķà°¤":7068,"Ġà°¨à°°à°¹à°¤":7069,"Ġà°ĺà°¨à°ķ":7070,"Ġ1938":7071,"à°ĵà°ľ":7072,"Ġ1400":7073,"à°¬à°²à°ªà°°":7074,"à°Łà°£à°¸":7075,"Ġ249":7076,"err":7077,"à°¯à°Łà°¨à°²à°ķ":7078,"Ġ406":7079,"Ġà°ķà°®à°²à°¹":7080,"172":7081,"Ġà°ķà°¨à°¬à°¡à°¨":7082,"Ġ337":7083,"à±ĩâĢ¦!":7084,"stant":7085,"ĠInc":7086,"ave":7087,"Ġà°īà°Ńà°¯à°¸à°Ńà°²":7088,"bi":7089,"tri":7090,"ument":7091,"à°ķà°ķà°ª":7092,"à±ĩ''":7093,"à°Łà°¡à°²":7094,"à°ļà°¦à°²":7095,"Ġà°®à°¸à°²":7096,"à°§à°°à°®":7097,"à±Ĭà±Ģ":7098,"à°¾à°ĤâĢľ":7099,"à°¯à°ķà°¤à°¨":7100,"Ġà°ķà°²à°¹à°®":7101,"Ġà°ħà°®à°ľ":7102,"Ġà°ħà°²à°¸à°¤":7103,"Ġà°ªà°¡à°ķà°ª":7104,"Ġà°ħà°ªà°¹à°¸":7105,"à°Ĵà°®à°°":7106,"1914":7107,"1946":7108,"Ġ1918":7109,"à°µà°¦à°¹":7110,"Ġà°Ĩà°ªà°¦à°²":7111,"à±įâĢĭ.":7112,"Ġ305":7113,"Ġà°Ĺà°£à°¨à°²":7114,"ars":7115,"ĠSach":7116,"à±ĩ?\"":7117,"Ġà°ķà°¨à°¬à°¡à°¦":7118,"Ġ323":7119,"Ġmark":7120,"Ġà°łà°ķ":7121,"ĠBMW":7122,"Ġfunction":7123,"Ġà°ıà°®à°¨à°Ĺ":7124,"ĠÂ·":7125,"âĢĮâĢĮâĢĮâĢĮ":7126,"à¥Ģ":7127,"Ġforce":7128,"Ġhttp":7129,"arendra":7130,".)":7131,"275":7132,"590":7133,"LA":7134,"RBI":7135,"ÙĪ":7136,"à±įâĢİ":7137,"à°¾\"\"\"":7138,"à°µà°ķà°°":7139,"à°ļà°²à°²":7140,"Ġà°ħà°¶à°ķ":7141,"Ġà°ħà°ľà°®":7142,"Ġà°Ĩà°ľà°®":7143,"Ġà°¬à°ľà°°":7144,"à°ªà°°à°ļà°²":7145,"à°°à°§à°¨":7146,"Ġà°·à°²":7147,"Ġà°ķà°¨à°ķà°¦":7148,"Ġà°ħà°ªà°¨à°®":7149,"205":7150,"Ġ1936":7151,"à°°à°Ĺà°¬":7152,"à°¹à°¦à°¦":7153,"Ġà°¨à°µà°ķà°²":7154,"158":7155,"à°¤à°¤à°¤":7156,"à°ļà°Ĺà°²à°°à°¨":7157,"à°ķà°²à°ķà°²":7158,"à°¿',":7159,"ich":7160,"ĠRes":7161,"Ġ292":7162,"Ġcub":7163,"isk":7164,"lection":7165,"Ġ[âĢĺ":7166,"ĠDP":7167,"264":7168,"à°¾âĢ¦!":7169,"à°¿âĢĻâĢĻ.":7170,"Ġapp":7171,"Ġà°°à°ļà°¨à°²à°²":7172,"à°¶à°¨à°ķà°°à°®":7173,"angular":7174,"Ġà°ļà°µà°ķà°Ĺ":7175,"aceae":7176,"Ġà°®à°¸à°ķà°¬":7177,"à°µà°¦à°¹à°¨à°®à°¯":7178,"599":7179,"EM":7180,"à°¤à°¸à°°":7181,"à°µà°¨à°Ł":7182,"Ġà°ķà°°à°¸":7183,"Ġà°®à°¡à°®":7184,"Ġà°Ĩà°µà°¹":7185,"Ġà°Ĩà°Ĺà°¨":7186,"à°Īà°¤":7187,"à°¦à°°à°£à°¨":7188,"à°«à°®":7189,"Ġà°¡à°¯à°¬":7190,"à°¤à°°à°Ń":7191,"à°Łà°¨à°ª":7192,"Ġà°ķà°²à°Ĺà°¦":7193,"à°Ĥ.\"\"\"":7194,"à°°à°¯à°£":7195,"à°°à°²à°ª":7196,"à°Ĳà°ıà°ķ":7197,"à°²à°¤à°²à°¨":7198,"Ġ207":7199,"à°ħà°ªà°¸":7200,"à°§à°¨à°²à°ª":7201,"Ġ7000":7202,"à°ķà°°à°£à°²à°²":7203,"à°Ľà°¯":7204,"Ġ960":7205,"Ġ\"\"?\"":7206,"âĢ¦!":7207,"Ġà°İà°¡à°®à°ķ":7208,"168":7209,"ĠServ":7210,"134":7211,"178":7212,"ional":7213,"ĠBC":7214,"ĠTelang":7215,"ĠâĤ¹":7216,"à¯į":7217,"ynamics":7218,"265":7219,"CB":7220,"jp":7221,"of":7222,"Õ¡":7223,"ÙĬ":7224,"âŀ":7225,"ĠÃĹ":7226,"à°Ĺà°¦à°¨":7227,"à°¹à°²à°ķ":7228,"à°¦à°¨à°Ł":7229,"Ġà°Ĵà°ķà°°à°ķ":7230,"à°°à°²à°¹à°°":7231,"à°¤à°²à°ļ":7232,"à°¤à°²à°®à°µ":7233,"à°ľà°¨à°Ńà°°":7234,"à°¨à°¦à°Ł":7235,"à°ıà°ķà°ķ":7236,"Ġà°īà°ªà°ªà°¤":7237,"Ġà°Ĳà°İà°²":7238,"Ġà°ªà°¡à°ķà°²à°¤":7239,"à°īà°ªà°®":7240,"Ġà°µà°¦à°²à°¨":7241,"1958":7242,"à°°à°¹à°ķ":7243,"Ġà°ĺà°¨à°ªà°¦":7244,"Ġà°¥à°¨":7245,"Ġà°İà°Ĺà°¶":7246,"era":7247,"à±įâĢĮâĢĻ,":7248,"ĠAs":7249,"ĠName":7250,"Ġcl":7251,"roup":7252,"à°¿âĢ¦!":7253,"Ġà°ĭà°ľ":7254,"addon":7255,"640":7256,"DM":7257,"mi":7258,"pan":7259,"ures":7260,"yderabad":7261,"Â½":7262,"Ġass":7263,"à±ģà°ģ":7264,"à°®à°¤à°¨":7265,"à°¡à°¨à°ķ":7266,"Ġà°ħà°¡à°²":7267,"Ġà°¨à°°à°µ":7268,"à°¬à°²à°¨":7269,"à°¹à°¤à°¨":7270,"Ġà°¬à°¸à°µ":7271,"à°¿,âĢĿ":7272,"Ġ299":7273,"\"\"\"\"\"":7274,"à°ªà°°à°ļà°¨":7275,"à°ļà°¨à°ļ":7276,"Ġ399":7277,"Ġà°µà°¦à°²à°²":7278,"Ġà°µà°²à°¸à°°":7279,"Ġ1944":7280,"à°¶à°¨à°²à°ķ":7281,"Ġà°®à°¤à°¤à°¤":7282,"Ġà°¬à°¸à°µà°°":7283,"à°¿--":7284,"166":7285,"à±ģ\"\")":7286,"226":7287,"Ġtechnical":7288,"136":7289,"245":7290,"ĠPM":7291,"ild":7292,"ett":7293,"ĠâĪĴ":7294,"Ġblock":7295,"UK":7296,"ÙĨ":7297,"à§":7298,"àª":7299,"à°°à°¡à°®":7300,"à°¨à°®à°¨à°¸":7301,"Ġà°®à°¡à°¤":7302,"à±įâĢĮà°ĥ":7303,"Ġà°īà°°à°ķà°²":7304,"à°£à°Ńà°¯":7305,"Ġà°Ĺà°²à°°":7306,"à°İà°¹":7307,"à°¦à°°à°Ń":7308,"Ġà°®à°°à°ķ":7309,"à°¿,,":7310,"\"\")":7311,"à°¤à°®à°¤":7312,"Ġ209":7313,"Ġà°Ĩà°¡à°ªà°¡":7314,"Ġà°Ĩà°Ĺà°®à°¨":7315,"à°°à°¸à°¨à°²à°¨":7316,"216":7317,"à°µà°¶à°°":7318,"146":7319,"Ġtr":7320,"Ġ279":7321,"Ġ353":7322,"Ġà°ļà°¦à°µà°Ĺà°²":7323,"488":7324,"Ġindia":7325,"ident":7326,"à°Ĳà°Ĳà°İà°®":7327,"à°¿``":7328,"ING":7329,"uck":7330,"Ġplus":7331,"Ġà°ķà°ªà°Łà°®":7332,"680":7333,"960":7334,"AR":7335,"SR":7336,"TB":7337,"UC":7338,"mit":7339,"à°ķà°¤à°ª":7340,"à°¡à°ľ":7341,"à°¡à°®à°°":7342,"Ġà°ħà°Ĺà°¤":7343,"à°£à°ªà°¤à°ķ":7344,"Ġà°¬à°ĺ":7345,"Ġà°ľà°ł":7346,"à°ħà°Ĺà°¸":7347,"à°ĩà°ĩ":7348,"à±ģ,.":7349,"Ġà°¶à°°à°¨":7350,"à°«à°²à°ķ":7351,"Ġà°Łà°¸":7352,"à°°à°ķà°¥":7353,"Ġà°ķà°¨à°¡":7354,"à°ħà°¨à°¤":7355,"à°ľà°¨à°ªà°¦":7356,"à°ıà°İà°«":7357,"Ġ316":7358,"Ġà°Ĳà°¹":7359,"Ġà°ªà°¡à°°":7360,"Ġà°¸à°®à°¯à°®à°¨":7361,"à°¿:-":7362,"à°Łà°ªà°¡à°ķ":7363,"à°¯à°£à°ķ":7364,"ator":7365,"ĠSh":7366,"ener":7367,"à°ļà°°à°£à°ª":7368,"à°¿\"\",":7369,"Ġpress":7370,"Ġà°ķà°¨à°ªà°¡à°Ł":7371,"à±ĩâĢĻ.":7372,"Ġrate":7373,"Ġone":7374,"ync":7375,"Ġà°¶à°¨à°Ĺà°ª":7376,"ĠIPL":7377,"512":7378,"899":7379,"830":7380,"WE":7381,"bot":7382,"fric":7383,"pm":7384,"sà°¨":7385,"yl":7386,"à°ĤâĢĭ":7387,"à°ķà°«":7388,"à±ĭâĢĻâĢĻ":7389,"à°µà°¯à°®":7390,"à°ļà°¤à°Ĺ":7391,"Ġà°¸à°¡à°¨":7392,"Ġà°®à°¶":7393,"Ġà°ļà°Łà°°":7394,"à°ľà°²à°ķ":7395,"à°¬à°°à°²":7396,"à°¾à°Ĥ)":7397,"Ġà°®à°°à°¯":7398,"à°¤à°¨à°µ":7399,"Ġà°¸à°°à°³à°¤":7400,"202":7401,"à°¨à°¸à°®":7402,"à°¡à°µà°²à°ķ":7403,"Ġ675":7404,"à°®à°²à°ļ":7405,"à°¡à°¦à°µ":7406,"à°²à°µà°Ĺà°²":7407,"Ġ1943":7408,"à°Ľà°¨à°ª":7409,"à°ĵà°İ":7410,"à°ĵà°Ĩà°°":7411,"Ġà°Ĩà°Łà°²à°¨":7412,"Ġà°Ĩà°Łà°²à°²":7413,"à°¯à°¬à°¡à°µà°²":7414,"251":7415,"Ġ218":7416,"Ġà°Ķà°·à°¦":7417,"à°ļà°Ĺà°²à°µà°¨":7418,"Ġ05":7419,"Ġà°ķà°¡à°ªà°²":7420,"à°ħà°¸à°¹à°¨":7421,"Ġà°Ńà°¯à°ªà°¡à°µà°¦":7422,"à°³à°¨à°ķà°°à°®":7423,"ĠAI":7424,"ĠIS":7425,"ĠRed":7426,"Ġ329":7427,"Ġ338":7428,"239":7429,"à°¤à°®à°¨à°Ł":7430,"386":7431,"aka":7432,"ĠâĦ":7433,"à°Ńà°¯à°ªà°¡à°ķ":7434,"ards":7435,"ĠSARS":7436,")-":7437,"311":7438,"HF":7439,"HPV":7440,"ient":7441,"Ġ\\\"\"":7442,"à°¸à°²à°²":7443,"à°µà°µà°¸":7444,"à°®à°Łà°¨":7445,"à°®à°Ĵà°¡":7446,"à°¡à°¦à°Ł":7447,"Ġà°ªà°²à°ķà°¨":7448,"à°ļà°µà°¨":7449,"Ġà°²à°®":7450,"Ġà°ľà°«à°°":7451,"Ġà°Īà°İà°¨":7452,"Ġà°¸à°®à°®":7453,"Ġà°·à°£":7454,"Ġà°ħà°Ńà°¯à°®":7455,"à°ľà°¨à°¸à°®":7456,"Ġ318":7457,"Ġ313":7458,"à°·à°£à°ķà°°":7459,"Ġà°ªà°¡à°¬":7460,"Ġà°ªà°¡à°µà°¦":7461,"à±Ĩà±ĸ,":7462,"à°īà°ªà°¨":7463,"Ġà°ķà°¥à°²à°ķ":7464,"à°°à°Ĺà°£":7465,"Ġà°Ĩà°Łà°µ":7466,"151":7467,"255":7468,"à°¯à°Ĺà°²à°°à°¨":7469,"Ġ217":7470,"à°īà°ªà°µ":7471,"ions":7472,"ĠMA":7473,"ĠMB":7474,"Ġà°ķà°¨à°¬à°¡à°¡":7475,"Ġ298":7476,"Ġà°ªà°°à°®à°¹":7477,"ross":7478,"andhi":7479,"à¤¦":7480,"367":7481,"ĠWi":7482,"ĠWHO":7483,"Ġ`%":7484,"ocument":7485,"impeller":7486,"799":7487,"au":7488,"bit":7489,"oor":7490,"à°ķà°±":7491,"à°¯à°Ĩà°°":7492,"à°Łà°¤à°ķ":7493,"à°Łà°Ńà°°":7494,"âĢĮ(":7495,"à°ľà°¬à°²":7496,"Ġà°°à°Ńà°¸":7497,"à°¹à°²à°²":7498,"à°ħà°¦à°²":7499,"Ġà°Ńà°¸":7500,"à°µà°°à°²à°ķ":7501,"à°¸à°°à°µ":7502,"à°¸à°°à°Ĺ":7503,"à°°à°§à°°":7504,"à°Łà°ķà°·":7505,"Ġà°ªà°¡à°µà°²à°¸":7506,"à°ĺà°µà°ª":7507,"2050":7508,"à°ķà°°à°£à°²à°ª":7509,"à°Ńà°µà°ª":7510,"Ġ1917":7511,"Ġ247":7512,"Ġà°ĺà°¨à°¤à°ķ":7513,"ream":7514,"188":7515,"142":7516,"à±ģ--":7517,"à°īà°ªà°¸":7518,"eld":7519,"à¤¤":7520,"ĠXI":7521,"Ġline":7522,"à°Ĳà°ıà°İà°«":7523,"à°ĩà°³à°¯à°°":7524,"à¥ģ":7525,"Ġà°¨à°°à°ķà°¯":7526,"ize":7527,"ĠHDL":7528,"ĠSachs":7529,"EG":7530,"Sev":7531,"iet":7532,"à°¿âĢĭ":7533,"à°²à°¯à°ķ":7534,"à°¸à°¡":7535,"à±Ĥ).":7536,"Ġà°²à°¡à°ķ":7537,"à°¥à°¹":7538,"à°µà°°à°¦à°²à°¤":7539,"Ġà°®à°°à°¦à°²":7540,"à°ķà°°à°Ĺ":7541,"Ġà°Ĵà°ķà°¤":7542,"à°¸à°°à°³à°®":7543,"Ġà°§à°°à°£":7544,"à°ľà°°à°Ĺ":7545,"Ġ542":7546,"à°®à°ķà°¥à°²":7547,"192":7548,"à°°à°¹à°ª":7549,"Ġ8000":7550,"Ġ1932":7551,"1080":7552,"153":7553,"254":7554,"à°ªà°¬à°¡à°ķ":7555,"onal":7556,"red":7557,"Ġ233":7558,"Ġ285":7559,"164":7560,"167":7561,"174":7562,"Ġà°°à°£à°§":7563,"heck":7564,"ility":7565,"unt":7566,"ĠLT":7567,"Ġà°¬à°²à°ªà°¡à°Ł":7568,"Ġà°ħà°µà°¸à°°à°¤à°¨":7569,"SSL":7570,"cont":7571,"Ġcubes":7572,"Õ¡Õ":7573,"525":7574,"7000":7575,"Br":7576,"bl":7577,"de":7578,"link":7579,"Ġim":7580,"ĨĴ":7581,"à°¾\"\"\"\"":7582,"à°¨à°²à°ª":7583,"à°ķà°¦à°¨":7584,"à°¤à°£":7585,"à°¦à°¦à°¨":7586,"à°ªà°²à°¤":7587,"Ġà°ķà°°à°¦":7588,"à±įâĢĮâĢľ":7589,"à°·à°°à°¶":7590,"à°¬à°ł":7591,"à°¹à°ªà°¡à°ķ":7592,"Ġà°İà°Ĳà°İ":7593,"à°¥à°Ł":7594,"Ġà°¶à°Ń":7595,"Ġà°¯à°µà°¨":7596,"Ġà°ħà°µà°¹":7597,"ĠâĢį":7598,"à°ªà°¡à°¬":7599,"Ġà°§à°µà°³":7600,"Ġà°ĵà°Ĺ":7601,"à°¤à°²à°¦":7602,"à°ļà°¡à°¨":7603,"à°ıà°¥à°°":7604,"à°¤à°ķà°ª":7605,"à°¨à°®à°¤":7606,"à°ĺà°¨à°²à°ķ":7607,"à°īà°ªà°¦":7608,"Ġ439":7609,"à°µà°¹à°¤":7610,"Ġà°ķà°®à°²à°¨":7611,"à°°à°¹à°¸à°¨":7612,"à°µà°ķà°£":7613,"atus":7614,"à°®à°Ĺà°§":7615,"143":7616,"227":7617,"Ġà°¸à°µà°°à°£à°²à°ķ":7618,"ĠModi":7619,"Ġ352":7620,"ĠNPS":7621,"ĠPr":7622,"Ġncov":7623,"398":7624,"ulation":7625,"à°°à°µà°ļà°¨à°®":7626,"à°Ĳà°ıà°İà°¸":7627,"Ġprocess":7628,"6000":7629,"gress":7630,"vers":7631,"à´":7632,"à±ģ%":7633,"à°°à°¨à°Ł":7634,"à°Ĥà°ĥ":7635,"à°¦à°¯à°²":7636,"à°ļà°°à°£à°ķ":7637,"Ġà°ħà°¥à°µ":7638,"à°¹à°¨à°²":7639,"à°İà°µà°¨":7640,"à°¿,\"\"":7641,"à°¯à°ķà°¨":7642,"Ġà°Ĵà°ķà°¤à°¨":7643,"à°¤à°°à°«":7644,"à°¤à°²à°®à°¯":7645,"à°ħà°¨à°§":7646,"Ġ348":7647,"193":7648,"195":7649,"Ġà°ħà°µà°ķà°¤à°µà°ķ":7650,"à°¸à°¨à°Ĺà°²":7651,"à°ªà°¨à°²à°ķ":7652,"Ġà°Ĺà°¡à°ªà°Ł":7653,"à°İà°µà°°à°¨":7654,"Ġà°ķà°¦à°²à°¨":7655,"ans":7656,"187":7657,"ara":7658,"Ġ263":7659,"à°ķà°³à°ķ":7660,"Ġ296":7661,"Ġà°ªà°°à°®à°¶":7662,"Ġpart":7663,"Ġ349":7664,"à¤¨":7665,"eta":7666,"irst":7667,"abel":7668,"ICI":7669,"Ġthis":7670,"Ġà°¸à°¤à°®à°¤":7671,"ĠUnited":7672,"ĠCEO":7673,"Ġpressure":7674,"770":7675,"CI":7676,"Ch":7677,"Char":7678,"Pl":7679,"ble":7680,"ĠÏ":7681,"à°¡à°ľà°¨":7682,"Ġà°ªà°Ĺà°¡à°ª":7683,"Ġà°ħà°³à°Ĺ":7684,"Ġà°ħà°ķà°¡à°®":7685,"à°·à°ªà°¤":7686,"à°§à°¤à°ª":7687,"Ġà°Ĩà°¶à°ķ":7688,"à°£à°°à°ķ":7689,"Ġà°¬à°²à°¨":7690,"à°Ńà°ķà°°à°®":7691,"Ġà°İà°·":7692,"à°Ĩà°²à°ķ":7693,"Ġà°«à°¸à°²":7694,"à°®à°¨à°¡":7695,"à°ªà°¡à°®à°Ł":7696,"Ġà°·à°ķà°²à°ķ":7697,"Ġà°¸à°¹à°¯":7698,"à°²à°ªà°¦":7699,"Ġà°ĺà°Łà°¨à°¸":7700,"à°īà°ªà°Ĺ":7701,"191":7702,"à°ŀà°²à°ķ":7703,"à°ĺà°Łà°¨à°Ĺ":7704,"Ġ1080":7705,"Ġà°ıà°¡à°µà°¡":7706,"à°¿):":7707,"Ġ246":7708,"à°Ĺà°£à°ªà°¤":7709,"à°ªà°¬à°¡à°¡":7710,"Ġà°Ķà°¨à°¨":7711,"186":7712,"Ġ274":7713,"Ġà°µà°²à°¸à°µà°ļ":7714,"ister":7715,"ĠâĢĮ(":7716,"ĠGNU":7717,"ĠFM":7718,"Ġnice":7719,"à±įâĢĮ',":7720,"à°Ĥ\"\",":7721,"embly":7722,"ĠSoC":7723,"416":7724,"City":7725,"IRCTC":7726,"SM":7727,"bon":7728,"pr":7729,"rame":7730,"Ġ00":7731,"à°¨à°¤à°°à°¹":7732,"à°ķà°Łà°¨":7733,"à°®à°¡à°®":7734,"à±Ģà°Ĥ.":7735,"à°ļà°¯à°¸":7736,"Ġà°®à°Łà°¨":7737,"Ġà°Ĩà°ªà°¤":7738,"Ġà°¬à°¡à°²":7739,"à°ħà°¸à°Ń":7740,"à°¥à°ķà°°":7741,"Ġà°Īà°ĵ":7742,"à°İà°İà°¨":7743,"à°¯à°²à°®":7744,"Ġ('":7745,"à°¸à°°à°¡":7746,"à°Łà°²à°µ":7747,"Ġà°īà°ªà°īà°·":7748,"Ġà°Ĳà°Łà°®":7749,"à°Ĵà°µ":7750,"à°¢à°¸":7751,"à±į)-":7752,"à°¹à°°à°£à°®":7753,"à°¸à°¹à°ļà°°":7754,"à°¸à°¹à°ľà°®":7755,"217":7756,"Ġte":7757,"ĠRe":7758,"ĠBL":7759,"ĠGiz":7760,"ĠFA":7761,"ama":7762,"333":7763,"à±ĩâĢ¦?":7764,"ĠEU":7765,"ĠLDL":7766,"Ġà°¶à°°à°µà°£à°¨":7767,"iga":7768,"rav":7769,"ograph":7770,"ateg":7771,"urbines":7772,"Ġmachines":7773,"fferent":7774,"Ġmarket":7775,"ĠâĦĸ":7776,"520":7777,"699":7778,"Turbo":7779,"ij":7780,"mer":7781,"mozilla":7782,"word":7783,"ÛĮ":7784,"ĠÃ":7785,"à°¨à°«":7786,"à°ķà°Ĺà°²":7787,"à°µà°Ľ":7788,"à°®à°¥à°¨":7789,"à°®à°Ĺà°²à°µ":7790,"à°ļà°¦à°²à°ļ":7791,"Ġà°µà°¡à°Ĺà°Ł":7792,"à°§à°ķà°²":7793,"Ġà°İà°¦à°°":7794,"à°¥à°¬":7795,"à°Ĩà°¸à°°":7796,"à°«à°¡":7797,"à°°à°ķà°°à°®à°¨":7798,"Ġà°ľà°°à°ªà°Ł":7799,"Ġ219":7800,"Ġà°¸à°¹à°°":7801,"Ġ317":7802,"ĠâĢĺà±į":7803,"Ġà°ªà°²à°®à°¨":7804,"à°°à°ľà°²à°ļ":7805,"1936":7806,"1942":7807,"Ġ672":7808,"Ġ1933":7809,"à°¨à°¤à°ªà°°":7810,"Ġà°¸à°¤à°¤":7811,"Ġà°¡à°¬à°²":7812,"à°¹à°¤à°Ĺà°²":7813,"Ġà°ļà°²à°ªà°¤":7814,"ĠCon":7815,"Ġtime":7816,"ĠAd":7817,"Ġà°¸à°µà°°à°£à°¨":7818,"Ġ334":7819,"Ġint":7820,"Ġnew":7821,"376":7822,"à°ľà°Ĺà°¨à°¨":7823,"ĠEng":7824,"à°¨à°ªà°¡à°Ł":7825,"387":7826,"Ġho":7827,"Ġvelocity":7828,"Ġcons":7829,"ĠGizbot":7830,"212":7831,"475":7832,"App":7833,"File":7834,"UPS":7835,"way":7836,"à±ģâĢĺ":7837,"à°¦à°µà°¨":7838,"à°Łà°ªà°¤":7839,"Ġà°ªà°Ĺà°¡":7840,"Ġà°¨à°°à°ķà°®":7841,"Ġà°¤à°°à°¤à°°":7842,"à°¾à°Ĥ-":7843,"Ġà°¶à°ªà°¥":7844,"Ġà°¸à°®à°µ":7845,"à°®à°¨à°·":7846,"à°Łà°¨à°ķ":7847,"à°¤à°¨à°ªà°°à°ļ":7848,"à°ªà°¡à°µà°²":7849,"Ġà°ħà°²à°ª":7850,"à°¤à°ķà°±":7851,"Ġà°¸à°®à°¯à°ª":7852,"à°®à°¤à°¤":7853,"1930":7854,"1953":7855,"Ġà°Ĭà°®":7856,"à°¨à°¤à°¤":7857,"ina":7858,"Ġà°ıà°ķà°¶":7859,"Ġ308":7860,"à°ħà°Ńà°¯":7861,"icle":7862,"ĠURI":7863,"298":7864,"à°¤à°°à°ķà°°à°®":7865,"ike":7866,"ections":7867,"Ġabout":7868,"%%)":7869,"215":7870,"323":7871,"715":7872,"Mozilla":7873,"TR":7874,"af":7875,"count":7876,"ml":7877,"net":7878,"à°²à°µà°¡à°®":7879,"à°¯à°¯à°¤":7880,"à°Łà°Ń":7881,"à°Łà°Ĺà°²à°°":7882,"à°®à°²à°°":7883,"à°ļà°µà°°":7884,"à±Ĩ(":7885,"à°¶à°ļ":7886,"à°§à°¤à°²":7887,"à°ħà°ľà°°":7888,"à°ħà°¡à°Ĺ":7889,"Ġà°¹à°¨à°¨":7890,"à°¦à°¨à°²à°ª":7891,"à°¤à°¨à°²à°¨":7892,"à°ķà°¡à°¤":7893,"Ġà°·à°īà°Ł":7894,"Ġà°¨à°Łà°¸":7895,"à°ıà°¶":7896,"Ġ347":7897,"Ġà°Ĳà°µà°°":7898,"à°Ĺà°²à°°à°¨":7899,"Ġ490":7900,"à°ŀà°¤à°Ĺ":7901,"à°²à°µà°£":7902,"Ġ1900":7903,"Ġ1260":7904,"306":7905,"à°ªà°¬à°¡à°µà°²":7906,"Ġà°ľà°®à°¯":7907,"Ġ228":7908,"à°®à°°à°£à°¶":7909,"ĠCM":7910,"ĠAP":7911,"Ġ276":7912,"Ġcase":7913,"Ġpric":7914,"Ġ373":7915,"amil":7916,"ĠEM":7917,"ugh":7918,"à°Ńà°¨à°·":7919,"Ġà°ķà°¨à°ªà°¡à°¦":7920,"à°ķà°¸à°Ńà°ķ":7921,"ista":7922,"Ġà°ªà°²à°ķà°²à°¨":7923,"RAN":7924,"ovidIndia":7925,"ÙĦØ":7926,"Ġtechnicaluery":7927,"Seva":7928,"ovidIndiaSeva":7929,"385":7930,"4500":7931,"543":7932,"bh":7933,"Ġà²":7934,"à±ĩ]":7935,"à±ĩâĢľ":7936,"à±ĩ).":7937,"à°Łà°µà°¸":7938,"à°ªà°¤à°¨à°®":7939,"à°µà°·":7940,"Ġà°ķà°¦à°®":7941,"à°¬à°·":7942,"à°¹à°«":7943,"à°¹à°²à°¤":7944,"à°¹à°¸à°¨":7945,"à°£à°ªà°°":7946,"Ġà°¬à°Łà°°":7947,"Ġà°ĩà°¦à°¨":7948,"Ġà°Ńà°°à°¤à°¨":7949,"à°²à°ķà°¶":7950,"à°ĩà°İà°²":7951,"à°İà°¡à°¬":7952,"à°İà°Ĳà°¸":7953,"à°ªà°¡à°°":7954,"à°µà°¡à°¤":7955,"Ġà°·à°¹à°°":7956,"Ġà°ĸà°¦":7957,"à°ıà°¤":7958,"Ġ395":7959,"à°¨à°µà°®":7960,"Ġà°īà°ªà°¶":7961,"à°µà°¤à°¤":7962,"Ġà°¤à°Ĺà°¨":7963,"à°¸à°¨à°¤":7964,"à°®à°²à°Ĺ":7965,"Ġ1937":7966,"à±įâĢĮ..":7967,"Ġ1300":7968,"252":7969,"Ġà°ħà°®à°°à°¨":7970,"Ġà°Ńà°µà°¨à°®":7971,"reat":7972,"403":7973,"213":7974,"161":7975,"131":7976,"Ġ268":7977,"ĠAC":7978,"ĠAD":7979,"itter":7980,"2400":7981,"ĠHS":7982,"Ġ342":7983,"Ġno":7984,"Ġà°¸à°Ĺà°Ń":7985,"econd":7986,"Ġhas":7987,"chan":7988,"Ġ{{":7989,"Ġà°¤à°Ĺà°²à°¬à°¡":7990,"ĠStates":7991,"ĠUNIX":7992,"Ġspecification":7993,"349":7994,"940":7995,"BN":7996,"EF":7997,"Mac":7998,"test":7999,"Â·":8000,"Ġà°ĥ":8001,"à°ķà°°à°¤":8002,"à°¤à°µà°¡":8003,"à°ªà°°à°ķ":8004,"à°ļà°¦à°°à°ª":8005,"à±įâĢĮà±įâĢĮ":8006,"à°ľà°°à°¸":8007,"Ġà°¤à°²à°¤":8008,"Ġà°°à°¸à°®":8009,"Ġà°°à°¸à°ķ":8010,"à°£à°ľ":8011,"Ġà°¬à°¯à°ªà°¡":8012,"Ġà°²à°¹":8013,"Ġà°²à°µà°ķ":8014,"Ġà°ľà°µà°¡":8015,"Ġà°¹à°°à°ª":8016,"Ġà°ıà°Ĳà°İà°¸":8017,"à°¯à°ķà°Ĺ":8018,"à°¸à°°à°¨":8019,"à°°à°¯à°§à°¨à°®":8020,"à°¨à°¨à°¨":8021,"à°¨à°²à°Ĺà°¡":8022,"à°®à°ķà°¤à°¨":8023,"Ġà°¸à°Ńà°²à°²":8024,"196":8025,"à°¡à°Ĺà°¦":8026,"à°¹à°°à°ļà°¨":8027,"à°ĵà°®":8028,"Ġà°«à°²à°¹":8029,"à°ķà°Ĺà°Ł":8030,"Ġ1600":8031,"Ġ254":8032,"Ġà°ħà°¹à°·":8033,"ĠISO":8034,"ĠMy":8035,"ĠMan":8036,"ĠMozilla":8037,"Ġsub":8038,"Ġmi":8039,"ĠpH":8040,"hem":8041,"à¤®":8042,"ung":8043,"ĠWorld":8044,"istan":8045,"à±ĢâĢ¦.":8046,"oper":8047,"forces":8048,"ocket":8049,"âĿĤ":8050,"KDE":8051,"ON":8052,"URL":8053,"kt":8054,"oh":8055,"à°ķà°µà°Ĺ":8056,"à°¯à°ļà°ķ":8057,"à°ļà°²à°ª":8058,"à°ļà°¯à°¤à°¤":8059,"à±Ī!":8060,"à°¹à°Ńà°°":8061,"Ġà°Ĺà°¡à°µ":8062,"Ġà°ľà°«":8063,"Ġà°ľà°Ĺà°®":8064,"Ġà°ľà°²à°ľ":8065,"à°¥à°°à°¨":8066,"Ġà°Īà°¤à°ķ":8067,"Ġà°«à°¯":8068,"Ġà°«à°Ł":8069,"Ġà°¡à°ª":8070,"Ġà°Ĵà°ķà°³":8071,"Ġà°ľà°°à°Ĺà°°":8072,"à°ķà°¡à°µ":8073,"Ġà°Ĩà°¯à°¨à°ļ":8074,"à°Ĺà°¤à°ľ":8075,"à°°à°ľà°¤":8076,"Ġ312":8077,"à°¨à°µà°µà°¨à°°":8078,"Ġà°īà°ªà°¸à°°":8079,"à°ľà°¯à°¢":8080,"à±į.-":8081,"Ġ540":8082,"197":8083,"1959":8084,"ĠâĢĿ.":8085,"à°ķà°°à°£à°Ĺ":8086,"Ġà°¨à°¡à°ªà°Ł":8087,"à°ķà°®à°Ł":8088,"Ġà°Ĵà°ķà°Łà°¯":8089,"à°ļà°ķà°ķ":8090,"303":8091,"Ġ229":8092,"Ġà°ħà°¹à°ľ":8093,"Ġà°¦à°¶à°°à°¥":8094,"à±ĭ?\"":8095,"ĠSp":8096,"ĠIs":8097,"Ġ273":8098,"248":8099,"453":8100,"Ġà°¤à°Łà°ªà°Ł":8101,"286":8102,"ĠFor":8103,"Ġinter":8104,"omain":8105,"Ġde":8106,"ĠVI":8107,"ĠOF":8108,"Ġà°ĺà°¨à°¤à°¯":8109,"Ġà°¸à°¦à°°à°¨":8110,"642":8111,"ĠÂ©":8112,"586":8113,"ector":8114,"Ġyou":8115,"Ġà¤ľ":8116,"à¤¾)":8117,"format":8118,"value":8119,"olaris":8120,"537":8121,"MD":8122,"aun":8123,"mass":8124,"à°¨à°°à°¨":8125,"à°ķà°µà°¦":8126,"à°¤à°¬à°Ł":8127,"à°Łà°ªà°¨":8128,"Ġà°ªà°Ĺà°µ":8129,"à±ĤâĢĮ":8130,"à°¬à°¹à°¦":8131,"Ġà°Ĩà°¨à°®":8132,"à°ħà°°à°Ĺ":8133,"à°¥à°¶":8134,"à°³à°Ĺà°²":8135,"à°Ĩà°Łà°¨":8136,"à°Ĩà°Ńà°°à°£":8137,"Ġà°ıà°²à°ķ":8138,"Ġà°ıà°Łà°¨":8139,"à±Ĥ...":8140,"à°¤à°®à°²":8141,"à°¤à°®à°Ł":8142,"à°¤à°®à°µà°¡":8143,"à°Ĳà°²à°ķ":8144,"à°²à°¤à°ķ":8145,"Ġà°¸à°°à°¬":8146,"Ġ530":8147,"1941":8148,"Ġ630":8149,"à°ĺà°Łà°¨à°²à°ª":8150,"à°ªà°¨à°²à°¤":8151,"Ġà°¢à°®":8152,"à°°à°ķà°Łà°¨à°²à°ķ":8153,"Ġà°Ĵà°ķà°°à°¨":8154,"à°¡à°¡à°®à°¨":8155,"à°µà°®à°¯":8156,"Ġ301":8157,"Ġà°§à°¨à°²à°ķ":8158,"124":8159,"214":8160,"ali":8161,"1400":8162,"à°īà°ªà°¶à°®à°¨":8163,"arg":8164,"229":8165,"Ġtest":8166,"171":8167,"Ġ271":8168,"Ġ351":8169,"Ġ356":8170,"ĠNA":8171,"Ġper":8172,"Ġà°ıà°Łà°µ":8173,"2397":8174,"ĠGNOME":8175,"Ġ369":8176,"à±ĭ!\"":8177,"277":8178,"Ġwork":8179,"stit":8180,"ivers":8181,"à°ĤâĢĿ.":8182,"evel":8183,"IND":8184,"Ġmachine":8185,"221":8186,"Im":8187,"NL":8188,"PO":8189,"ks":8190,"mod":8191,"pdf":8192,"ris":8193,"ts":8194,"Ġus":8195,"à±ģ&":8196,"à°²à°Ĺà°¨":8197,"à°¤à°¤à°°":8198,"à°¸à°¬à°°":8199,"à°ªà°²à°²":8200,"à°µà°¦à°²":8201,"âĢĮ?":8202,"à±Ī),":8203,"à°¶à°ķà°°":8204,"à°¬à°ľà°¨":8205,"à°£à°¤à°²":8206,"à°µà°°à°¸à°Ĺ":8207,"à°ĸà°²à°²":8208,"à°¯à°¨à°¶":8209,"à°ķà°°à°ªà°¡":8210,"à°¦à°¨à°¯":8211,"à°µà°²à°¸à°²":8212,"à°°à°µà°¦":8213,"Ġà°®à°¨à°µà°³":8214,"à°µà°¡à°ª":8215,"à°ļà°¨à°²à°ª":8216,"à°µà°¨à°ª":8217,"à°¨à°µà°¹":8218,"Ġ470":8219,"à°¯à°¸à°¨à°ªà°°":8220,"Ġ1924":8221,"à°Ľà°Ń":8222,"à°ªà°¦à°®à°¯":8223,"Ġà°Ĺà°¡à°ªà°µà°ļ":8224,"à°µà°²à°¸à°¦":8225,"Ġà°¨à°µà°²à°¨":8226,"inc":8227,"157":8228,"Ġ253":8229,"Ġà°ĩà°®à°¡à°²":8230,"603":8231,"à±ģ',":8232,"ĠSUMO":8233,"ĠAB":8234,"ĠRAM":8235,"Ġmy":8236,"Ġcount":8237,"à±į\"\")":8238,"ĠBe":8239,"ĠBBC":8240,"à°¶à°¨à°®à°Ĺ":8241,"378":8242,"ĠList":8243,"ĠWh":8244,"786":8245,"query":8246,"cript":8247,"710":8248,"GST":8249,"OR":8250,"ky":8251,"mon":8252,"rid":8253,"à±įâĢĵ":8254,"à°ķà°ļà°°":8255,"à°¯à°¹à°°":8256,"à°ªà°²à°°":8257,"à°µà°§à°°":8258,"à±Ĩ),":8259,"Ġà°Ĩà°ĺ":8260,"Ġà°ĩà°Ľ":8261,"Ġà°¶à°µà°ª":8262,"à°İà°İà°²":8263,"Ġà°ıà°Ĳà°Ł":8264,"Ġà°ıà°¦à°¨à°Ĺ":8265,"à±ĩà°ĤâĢĻ":8266,"\"\".":8267,"à°¸à°°à°¯":8268,"à°ªà°°à°ļà°Ĺ":8269,"à°ªà°°à°ļà°Ł":8270,"à°¯à°µà°µ":8271,"à°¤à°²à°µ":8272,"Ġà°ķà°¨à°ķà°¯":8273,"Ġ415":8274,"1938":8275,"à°¯à°ªà°¡à°Ĺà°²à°¦":8276,"à°®à°¹à°¦":8277,"à°ķà°Łà°Ĺ":8278,"ĠâĢľâĢĺ":8279,"Ġà°¬à°¯à°³":8280,"à°®à°£à°°":8281,"à°¯à°£à°¤":8282,"Ġà°ķà°¡à°¸":8283,"elton":8284,"ada":8285,"Ġ458":8286,"Ġ361":8287,"Ġ341":8288,"Ġfl":8289,"urn":8290,"à°Ķà°Łà°°":8291,"ched":8292,"Ġrec":8293,"à°İà°¡à°®à°µ":8294,"Ġmet":8295,"ernational":8296,"KChar":8297,"Me":8298,"aut":8299,"book":8300,"fer":8301,"sample":8302,"âĺ":8303,"à°¿âĢĮ.":8304,"à°²à°§":8305,"à°²à°°à°¦":8306,"à°¦à°«":8307,"à°¡à°°à°®":8308,"Ġà°®à°²à°µ":8309,"à°·à°Ł":8310,"à°¹à°¸à°®":8311,"à°ħà°µà°°":8312,"à°ĩà°¯à°°":8313,"Ġà°¶à°®":8314,"Ġà°ķà°²à°µà°ķ":8315,"Ġ({":8316,"ÂłĠ":8317,"à°·à°£à°²à°¤":8318,"Ġà°Ĳà°İà°®":8319,"207":8320,"1937":8321,"1954":8322,"Ġ710":8323,"à°¤à°ªà°°à°®":8324,"à°Łà°ªà°®":8325,"154":8326,"Ġ236":8327,"Ġ284":8328,"8046":8329,"Ġà°µà°°à°¦à°²à°¨":8330,"284":8331,"285":8332,"276":8333,"ments":8334,"Ġà°īà°Ńà°¯à°ļà°°":8335,"à°®à°µà°°à°ª":8336,"à³į":8337,"friction":8338,"Ġà°ħà°µà°ķà°¤à°µà°ķà°²à°ķ":8339,"321":8340,"395":8341,"760":8342,"PG":8343,"vis":8344,"Ġup":8345,"à°¾à°ģ":8346,"à±ģâĢĭ":8347,"à°ªà°ļà°°":8348,"à°µà°ªà°Ł":8349,"Ġà°ļà°¬":8350,"à±Ĥ\"\"":8351,"à°¶à°Ń":8352,"Ġà°Ńà°³":8353,"Ġà°Ńà°¯à°ķ":8354,"à°²à°ķà°¨à°Ĺ":8355,"Ġà°Īà°«":8356,"à°¤à°°à°ªà°¡":8357,"à°®à°¨à°²à°¨":8358,"à°°à°µà°ªà°¦":8359,"à°Ĳà°ĵà°İà°¸":8360,"Ġ3500":8361,"à°²à°®à°¤":8362,"Ġ2050":8363,"à°Łà°®à°Ł":8364,"Ġ649":8365,"Ġà°Ĭà°¡à°¦":8366,"à°ªà°£à°¤":8367,"à°ªà°¦à°¹":8368,"à±Ĩ.)":8369,"159":8370,"à°¹à°¤à°²à°¨":8371,"Ġà°Ĩà°ļà°°à°£à°¨":8372,"ren":8373,"à°ķà°²à°¨à°®":8374,"163":8375,"à°µà°¬à°¡à°²":8376,"à°¸à°¨à°¸à°Ńà°²à°ķ":8377,"arm":8378,"222":8379,"ĠTr":8380,"elf":8381,"els":8382,"ĠNO":8383,"ĠNam":8384,"Ġnumber":8385,"à°¶à°¨à°®à°µ":8386,"Ġà°ķà°¨à°¬à°°à°ļà°¡":8387,"ĠWatch":8388,"Ġwas":8389,"à°¯à°Ńà°Ł":8390,"à°ªà°Ĺà°²à°®":8391,"à±Ģ'.":8392,"opulation":8393,"à°ķà°ªà°Łà°®":8394,"ustom":8395,"ĠHTML":8396,"HDFC":8397,"23978046":8398,"\"'":8399,"415":8400,"790":8401,"hra":8402,"na":8403,"wo":8404,"ĠØ§":8405,"à°¨à°²à°²":8406,"à°¯à°°à°ķ":8407,"à°¯à°ªà°ķ":8408,"à±ĭ/":8409,"à°¡à°ķà°®":8410,"à°Ĺà°¸à°Ńà°²":8411,"Ġà°¸à°«à°²à°®à°¯":8412,"Ġà°µà°¨à°µ":8413,"Ġà°®à°«":8414,"à°·à°¯à°ķ":8415,"Ġà°¦à°®à°¨à°ķ":8416,"Ġà°ľà°¯à°¤":8417,"à°İà°İà°«":8418,"à°Ĩà°¤à°¨":8419,"à°«à°ľ":8420,"à°«à°²à°¯à°¤":8421,"à°°à°£à°ľà°¨":8422,"à°²à°²à°¯":8423,"à°ķà°¡à°¯":8424,"à°°à°²à°¯":8425,"Ġà°·à°¨":8426,"Ġà°ķà°¨à°Ĺ":8427,"à°Ĳà°²à°¨":8428,"Ġà°Ĳà°®":8429,"à°¨à°²à°¡":8430,"à°Ĵà°İ":8431,"à°¨à°¸à°²":8432,"Ġ560":8433,"à°®à°¤à°¸":8434,"à°Ĵà°ķà°°à°ķ":8435,"à°°à°ľà°²à°¦":8436,"1944":8437,"à°°à°Ĺà°µ":8438,"Ġà°¨à°µà°®":8439,"à°Łà°ªà°¡à°ķà°ª":8440,"Ġ10000":8441,"Ġ237":8442,"ĠCBS":8443,"223":8444,"ital":8445,"ĠTower":8446,"Ġà°ļà°¦à°µà°µà°ļ":8447,"Ġ297":8448,"356":8449,"ĠNH":8450,"ĠPIN":8451,"232":8452,"ask":8453,"à°¡à°Ĺà°²à°¦à°¨":8454,"Ġ366":8455,"Ġoper":8456,"ĠEn":8457,"unit":8458,"à°ĤâĢ¦!":8459,"emper":8460,"à°µà°Ĺà°²à°¡":8461,"à°Łà°µà°²à°¨à°¨":8462,"à±ģ``":8463,"ESCO":8464,"mens":8465,"ĠAndroid":8466,"ĠICICI":8467,"530":8468,"670":8469,"780":8470,"840":8471,"LT":8472,"SI":8473,"Sp":8474,"à°¨à°¤à°Ĺ":8475,"à°¨à°¤à°µ":8476,"à°¨à°Ĺà°²à°°":8477,"à°ķà°ľà°ķ":8478,"à±ĭâĢĵ":8479,"à°Ĺà°²à°ª":8480,"à°Ĺà°£à°®":8481,"âĢ²":8482,"Ġà°ķà°°à°¤":8483,"Ġà°°à°ķà°ª":8484,"à°¹à°§":8485,"à°£à°®à°¨à°¸":8486,"Ġà°¬à°ķà°°":8487,"Ġà°²à°¹à°°":8488,"Ġà°Ĺà°¤à°¨":8489,"à°ħà°°à°ļ":8490,"à°ħà°¸à°¹":8491,"à°°à°¤à°ķà°²":8492,"à°°à°¤à°ķà°¡":8493,"Ġà°¯à°¨à°Ĺ":8494,"à±Į,":8495,"Ġà°ķà°²à°µà°Ł":8496,"à°ªà°¡à°µà°¦":8497,"Ġ(-":8498,"Ġà°ªà°¡à°ķà°²à°¨":8499,"à°ĺà°¦à°°":8500,"208":8501,"Ġ5500":8502,"Ġà°ĺà°¨à°ª":8503,"Ġà°¨à°¡à°ķà°¨":8504,"Ġ1923":8505,"Ġ9000":8506,"à°ªà°¦à°¤":8507,"à°¯à°¬à°¡à°ķ":8508,"Ġà°Ĺà°¡à°ªà°²":8509,"à°¦à°®à°¸":8510,"à±Ĩ.\"":8511,"Ġà°µà°¨à°ľ":8512,"Ġ259":8513,"à°°à°ªà°¡à°¦à°Ĺ":8514,"Ġà°ľà°¯à°ļ":8515,"ese":8516,"ĠMTV":8517,"Ġcourt":8518,"459":8519,"Ġ332":8520,"281":8521,"à¤¯":8522,"379":8523,"ĠEd":8524,"urv":8525,"496":8526,"Ġà°ħà°µà°¸à°°à°¤":8527,"akistan":8528,"Ġà°ªà°¥à°ķà°®":8529,"Ġà°¶à°¨à°Ĺà°ªà°ª":8530,"________________":8531,"select":8532,"avirus":8533,"ĠLTTE":8534,"ĠNamast":8535,"))":8536,"316":8537,"365":8538,"Ar":8539,"HE":8540,"HP":8541,"PR":8542,"Res":8543,"aid":8544,"by":8545,"cut":8546,"een":8547,"por":8548,"ty":8549,"à±įâĢĺ":8550,"à±ģâĢĮ.":8551,"à°¨à°°à°¸à°°":8552,"à°¸à°ĸ":8553,"à°®à°¸à°°":8554,"à°®à°¬à°²":8555,"à±Ĩà±Ĩ":8556,"âĢĮ!":8557,"à°¬à°¨à°Ĺ":8558,"à°¹à°£à°®":8559,"Ġà°ľà°µà°¹":8560,"à°ĩà°¹":8561,"à°¯à°¨à°µà°¸à°°":8562,"à°¦à°°à°£à°ķ":8563,"Ġà°¯à°µà°²":8564,"Ġà°ıà°¤":8565,"à°°à°£à°²à°ķ":8566,"Ġà°ķà°²à°ªà°¬à°¡":8567,"à°ªà°Łà°¡":8568,"à°¤à°²à°¸à°°":8569,"à°µà°¨à°¦":8570,"Ġ315":8571,"à°·à°£à°°":8572,"à°ĺà°µà°¯":8573,"Ġà°¤à°Ĺà°µ":8574,"1919":8575,"à°¤à°µà°Ĺ":8576,"à°¸à°Ńà°¤":8577,"à±įâĢĭ)":8578,"à°§à°°à°°":8579,"à°ıà°®à°µ":8580,"à°¯à°¯à°¨à°®":8581,"à°°à°®à°²à°¶":8582,"Ġ281":8583,"Ġà°ļà°¦à°µà°®à°¨":8584,"ĠRA":8585,"Ġ293":8586,"Ġcm":8587,"amp":8588,"279":8589,"rain":8590,"à°ªà°Ĺà°²à°¡":8591,"udget":8592,"Ġitem":8593,"duct":8594,"hoto":8595,"ĠGTK":8596,"oronavirus":8597,"332":8598,"420":8599,"574":8600,"636":8601,"860":8602,"BD":8603,"ium":8604,"lob":8605,"mAh":8606,"tot":8607,"volume":8608,"Äģ":8609,"à°¾à°ĥ":8610,"à°ķà°Łà°®":8611,"à°¤à°Ĺà°²":8612,"à±ĭâĢĭ":8613,"à°ªà°łà°¨":8614,"à°¡à°¬à°²":8615,"à±Ģ\"\"\"":8616,"à±ĨâĢĻ":8617,"Ġà°¤à°¡à°ķ":8618,"Ġà°°à°¸à°®à°¯":8619,"à°¹à°¬à°ķ":8620,"à°£à°¸à°°":8621,"Ġà°¬à°¤à°ķà°¨":8622,"Ġà°İà°µà°²":8623,"Ġà°İà°İà°¨":8624,"à°²à°ķà°²à°Ĺ":8625,"à°°à°®à°ªà°°à°ļ":8626,"à°¦à°°à°ªà°¡à°ķ":8627,"à°¤à°°à°¸à°°":8628,"à°®à°¨à°ª":8629,"Ġ(.":8630,"à°µà°¡à°Ł":8631,"à°ļà°¨à°¯":8632,"à°°à°¦à°¶à°²":8633,"204":8634,"Ġà°¤à°Ĺà°²à°ķ":8635,"Ġ435":8636,"Ġ538":8637,"1918":8638,"à±ģ:-":8639,"à°ļà°ķà°ļà°ķ":8640,"à±į)âĢĮ":8641,"Ġà°¨à°µà°Ń":8642,"301":8643,"à°ªà°®à°°à°£":8644,"ret":8645,"aly":8646,"alys":8647,"Ġ283":8648,"141":8649,"ĠCovidIndiaSeva":8650,"ĠSS":8651,"ities":8652,"Ġset":8653,"ĠRec":8654,"different":8655,"ingh":8656,"334":8657,"oman":8658,"Ġà°Ŀà°²":8659,"ĠOpen":8660,"293":8661,"etrol":8662,"à°Īà°ĵà°²":8663,"Ġvari":8664,"http":8665,"Ġà°°à°ļà°¨à°²à°ķ":8666,"ose":8667,"Ġà°Ĳà°İà°İà°«":8668,"ange":8669,"Ġstr":8670,"ude":8671,"constant":8672,"ustral":8673,"Ġà°ıà°ķà°®à°¯":8674,"outh":8675,"IFA":8676,"Ġmodule":8677,"ublic":8678,"Image":8679,"424":8680,"975":8681,"HR":8682,"Query":8683,"ault":8684,"aana":8685,"ift":8686,"Ã³":8687,"Ġu":8688,"à°¾à±ģ":8689,"à°¤à°µà°²":8690,"à°¯à°ªà°²":8691,"à°¸à°ªà°°à°ļ":8692,"à°Ĺà°¹":8693,"à°¿à°Ĥà°Ĥ":8694,"à°ħà°¦à°°à°Ĺ":8695,"à°ĸà°·":8696,"Ġà°ªà°°à°ª":8697,"à°¿,...":8698,"à°°à°µà°µà°ļ":8699,"Ġà°§à°¨à°¸":8700,"à°ħà°¨à°ķ":8701,"à°ıà°ķà°Ĺ":8702,"Ġ321":8703,"à°Łà°²à°®":8704,"Ġà°ªà°Łà°®":8705,"à°¯à°¡à°¨":8706,"Ġà°īà°¦à°¯à°ķ":8707,"à°¨à°ªà°³":8708,"à°¨à°¸à°¸à°Ń":8709,"Ġà°ªà°¦à°¸":8710,"Ġà°¤à°Ĺà°²à°¨":8711,"Ġà°ħà°¡à°ķ":8712,"Ġà°Ĩà°²à°µ":8713,"à°¡à°µà°®":8714,"à°³à°¨à°ªà°¡":8715,"à°Ľà°²à°¨":8716,"Ġ1280":8717,"Ġ1700":8718,"Ġ252":8719,"Ġ258":8720,"à°°à°ªà°¡à°²":8721,"406":8722,"ency":8723,"176":8724,"Ġà°ķà°¨à°¬à°¡à°ķà°ª":8725,"elp":8726,"ĠRE":8727,"Ġà°ªà°°à°®à°ªà°¦":8728,"à°Ĭà°Ł":8729,"Ġ333":8730,"Ġ339":8731,"236":8732,"Ġ363":8733,"Ġ346":8734,"555":8735,"498":8736,"Ġà°¤à°²à°ªà°¡à°Ĺ":8737,"Ġà°ĭà°£à°ªà°¡":8738,"à°ħà°£à°ļ":8739,"BSD":8740,"HTML":8741,"ĠTelangaana":8742,"emperature":8743,"ĠNamasthe":8744,"535":8745,"632":8746,"730":8747,"712":8748,"737":8749,"8000":8750,"885":8751,"Key":8752,"NH":8753,"Video":8754,"air":8755,"loc":8756,"time":8757,"Ø¯":8758,"Ġev":8759,"à°¤à°¹à°¸":8760,"à°¤à°Ļ":8761,"à°®à°µà°²à°¨":8762,"à°Ĺà°¡à°¨":8763,"Ġà°ķà°£à°®":8764,"à±Ĭ-":8765,"à°¹à°¤à°®":8766,"à°¥à°ļ":8767,"à°Ĩà°¸à°®à°¯":8768,"Ġà°Ĵà°·":8769,"Ġà°Ĵà°ķà°¡à°¨":8770,"Ġà°ħà°µà°¤à°²à°ķ":8771,"à°¬à°¡à°ķ":8772,"à°¦à°²à°¶":8773,"Ġà°¨à°®à°²":8774,"Ġà°ĸà°·":8775,"à°¶à°ķà°¤à°¨":8776,"Ġà°īà°ªà°¸à°Ń":8777,"à°Ĵà°¨":8778,"Ġ410":8779,"Ġ425":8780,"1931":8781,"Ġ636":8782,"à°ªà°¨à°²à°¨":8783,"Ġà°¨à°¡à°ªà°¬à°¡":8784,"Ġ1928":8785,"Ġ1934":8786,"Ġà°ĩà°¸à°¬":8787,"à°²à°Ĺà°¡à°ª":8788,"à°¯à°¬à°¡à°µ":8789,"à°°à°ķà°Łà°¨à°²à°²":8790,"à°¤à°ªà°¸":8791,"à°²à°Ńà°¤à°°à°®":8792,"Ġà°®à°²à°ļà°¡":8793,"inical":8794,"Ġ309":8795,"Ġà°ĺà°¨à°¤à°²":8796,"405":8797,"184":8798,"ĠCo":8799,"iter":8800,"enn":8801,"à°¶à°°à°¥":8802,"242":8803,"244":8804,"ĠMe":8805,"355":8806,"ased":8807,"278":8808,"thers":8809,"omi":8810,"Ġà°ªà°Ĺà°ªà°Ł":8811,"Ġdo":8812,"Ġà°ħà°¡à°Ĺà°µà°¦":8813,"ries":8814,"ible":8815,"Ġà°ķà°µà°ļà°®":8816,"Ġà°¨à°µà°°à°¤":8817,"âĺħ":8818,"alysis":8819,"570":8820,"747":8821,"920":8822,"UD":8823,"document":8824,"gn":8825,"iew":8826,"ield":8827,"ket":8828,"pi":8829,"type":8830,"Ġad":8831,"à°ķà°¤à°Ĺ":8832,"à°ķà°¬à°²":8833,"à°¦à°¯à°ķ":8834,"à°ļà°¦à°°":8835,"Ġà°®à°¥à°¨":8836,"Ġà°ħà°ķà°°":8837,"à±ģ.(":8838,"à°£à°²à°ķ":8839,"Ġà°²à°ľ":8840,"Ġà°²à°¯à°®":8841,"Ġà°İà°¡à°²":8842,"Ġà°ľà°¨à°ªà°¨":8843,"à°¥à°¦":8844,"à°²à°¨à°°":8845,"à°°à°®à°²à°¤":8846,"à°¯à°®à°µà°¡":8847,"Ġà°ķà°²à°ªà°¨":8848,"à°ªà°Łà°ķ":8849,"Ġ(âĢľ":8850,"à°°à°µà°ªà°°":8851,"à°¤à°²à°¯":8852,"Ġà°¸à°¹à°¦":8853,"à°·à°£à°¯":8854,"Ġà°ķà°°à°¡":8855,"à°īà°§":8856,"509":8857,"à°²à°µà°ķà°ª":8858,"à°µà°Ĺà°²à°¨":8859,"à°ĵà°¦":8860,"à°°à°¬à°²à°ķ":8861,"Ġ'.":8862,"Ġà°ļà°¦à°µà°¨":8863,"à°®à°£à°Ĺà°²":8864,"à°¯à°Łà°¨à°¤":8865,"Ġà°ľà°¯à°²à°ķ":8866,"Ġà°ľà°²à°¦à°°":8867,"169":8868,"icode":8869,"246":8870,"ĠMo":8871,"351":8872,"Ġpol":8873,"lect":8874,"237":8875,"262":8876,"à¤ķ":8877,"Ġlb":8878,"rap":8879,"ulse":8880,"Ġà°ªà°¡à°ķà°Ĺà°¦":8881,"ches":8882,"à±įâĢĮâĢĮâĢĮâĢĮâĢĮâĢĮâĢĮâĢĮ":8883,"ific":8884,"ological":8885,"iii":8886,"ategory":8887,"610":8888,"Ex":8889,"IG":8890,"LIC":8891,"PU":8892,"Pelton":8893,"Re":8894,"des":8895,"mo":8896,"à±ģà±ģà°Ĥ":8897,"à°²à°¯à°°":8898,"à°²à°·à°£":8899,"à°ķà°³à°¨":8900,"à°¯à°Ĺà°¡":8901,"à°µà°ķà°²":8902,"à°®à°µà°²":8903,"à±ĨâĢĮ":8904,"à±ĤâĢĵ":8905,"à°¶à°ªà°°à°ļ":8906,"Ġà°Ĩà°µà°ķ":8907,"Ġà°Ĩà°¥à°°":8908,"à°£à°¶à°¯":8909,"Ġà°¦à°¶à°Ĺ":8910,"à°Ńà°Ĺà°²":8911,"Ġà°İà°Ĳà°Ĳà°İà°®":8912,"Ġà°Ĺà°ľà°²":8913,"Ġà°ľà°¬à°°":8914,"à°¾à°ĤâĢ¦.":8915,"à°Īà°ĺà°Łà°¨":8916,"à°Īà°ĺà°Łà°¨à°ª":8917,"à°ĸà°¶":8918,"Ġà°ªà°°à°Ĺà°¡":8919,"à°°à°ķà°¸":8920,"à°°à°ķà°°à°£à°®":8921,"Ġà°Ĵà°¯":8922,"Ġà°«à°¹":8923,"à°¯à°²à°ļ":8924,"001":8925,"à°°à°¯à°ª":8926,"à°°à°µà°µ":8927,"à°¤à°®à°¯à°®":8928,"Ġà°¸à°°à°¨":8929,"à°ıà°Ĳà°İ":8930,"Ġà°īà°ªà°ľ":8931,"à°²à°ªà°Ĺ":8932,"1929":8933,"à°¡à°°à°°":8934,"Ġ747":8935,"506":8936,"Ġà°ķà°³à°ķ":8937,"Ġà°ķà°³à°²à°ķ":8938,"Ġà°ļà°¦à°µà°¡à°®":8939,"à°²à°Ńà°®à°¨":8940,"à°¸à°¹à°¸":8941,"à°ķà°¸à°¦":8942,"257":8943,"à°ªà°¬à°¡à°¦":8944,"anc":8945,"à°¬à°¯à°Łà°ªà°¡":8946,"à°ļà°Ĺà°²à°¡à°¨":8947,"à°¯à°¤à°²à°¤":8948,"à°¹à°¸à°¯":8949,"Ġ238":8950,"estion":8951,"Ġà°Ĩà°¦à°°à°£à°ķ":8952,"à°·à°ªà°¦à°µ":8953,"Ġ267":8954,"ica":8955,"Ġ278":8956,"354":8957,"ĠPA":8958,"à°ĤâĢĻ,":8959,"ĠBi":8960,"ases":8961,"à¤ª":8962,"à°ķà°¬à°³":8963,"Ġ384":8964,"Ġà°ķà°²à°µà°¬":8965,"Ġà°¬à°²à°ªà°°à°ļà°¡":8966,"ĠKDE":8967,"Ġà°ªà°¯à°¨à°®":8968,"ives":8969,"aper":8970,"à°İà°¡à°®à°ļ":8971,"Ġcongress":8972,"MAPI":8973,"ization":8974,"à¦¾":8975,"Ġà°Ĺà°¸à°Ĺà°¸":8976,"Ġunit":8977,"Ġunicode":8978,"radesh":8979,"PDF":8980,"menu":8981,"ĠNTFS":8982,"error":8983,"HFW":8984,"Ġprice":8985,"KCharselect":8986,"075":8987,"As":8988,"Covid":8989,"ECD":8990,"LC":8991,"LED":8992,"bps":8993,"ipp":8994,"ware":8995,"âĤ":8996,"à°¨à°¡à°¨":8997,"à°Ĥ`":8998,"à°ªà°³à°¨":8999,"à°µà°¥":9000,"Ġà°®à°±":9001,"Ġà°ħà°°à°²":9002,"à°ľà°Ń":9003,"à°¶à°ķà°²":9004,"à°Ńà°¶":9005,"Ġà°ľà°Ĺà°¡à°®":9006,"à°ħà°µà°¸":9007,"à°¥à°¨à°ª":9008,"à°Ĩà°ªà°¦":9009,"à°¦à°°à°¯":9010,"à°ķà°°à°¯":9011,"Ġà°¤à°¨à°ļ":9012,"à°µà°¨à°ªà°°":9013,"Ġà°īà°ªà°ªà°°":9014,"à°®à°ķà°¯":9015,"à°ļà°¬à°¡à°ķà°ª":9016,"à°¢à°ªà°°à°ļ":9017,"à±ģ:%":9018,"Ġ1921":9019,"à°ĵà°İà°«":9020,"à°ħà°µà°§":9021,"à°¦à°¯à°Ĺ":9022,"Ġà°ļà°¦à°µà°ķ":9023,"Ġà°°à°®à°£à°®":9024,"ataka":9025,"à°¨à°Ĺà°°à°ª":9026,"228":9027,"Ġ262":9028,"Ġ266":9029,"ĠAt":9030,"Ġ708":9031,"Ġà°¸à°¹à°ľà°¤":9032,"ĠMar":9033,"ĠRX":9034,"Ġmoment":9035,"ĠBJP":9036,"ĠGe":9037,"Ġà°ľà°Ĺà°¨à°¨":9038,"ĠDR":9039,"289":9040,"ilot":9041,"268":9042,"à¤µ":9043,"à¤¸":9044,"271":9045,"igid":9046,"ech":9047,"789":9048,"Ġà°ªà°¯à°¨à°®à°µ":9049,"Ġred":9050,"angu":9051,"à¥ĩ":9052,"âľª":9053,"Ġà°¸à°¤à°®à°¤à°®":9054,"Ġdies":9055,"eath":9056,"odies":9057,"Ġà°¦à°¶à°®à°Ń":9058,"arnataka":9059,"080":9060,"735":9061,"742":9062,"870":9063,"AA":9064,"PDA":9065,"`%":9066,"ied":9067,"loss":9068,"miss":9069,"witter":9070,"ym":9071,"||":9072,"ðŁ":9073,"à°¨à°¦à°²":9074,"à°²à°°à°¸":9075,"à°ķà°¬à°°":9076,"à°ķà°Ĺà°¨":9077,"à°¤à°³":9078,"à±ĩ\"\"\"":9079,"à°Łà°ªà°Łà°²":9080,"à°Ĺà°µà°¸":9081,"Ġà°®à°²à°®":9082,"à°ľà°Ĺà°¤":9083,"Ġà°ľà°¡à°¤":9084,"à°³à°ļ":9085,"Ġà°ıà°µà°°":9086,"Ġà°¸à°®à°ª":9087,"Ġà°«à°ľà°²":9088,"à°ªà°°à°°":9089,"Ġà°®à°¨à°ķà°¨":9090,"à°Ĳà°Ī":9091,"à°°à°ªà°²":9092,"à°°à°¨à°¨":9093,"à°Łà°²à°µà°°à°ķ":9094,"à°Łà°ķà°¶":9095,"à°Ĵà°¹":9096,"à°¨à°ķà°ķ":9097,"à°ŀà°¡":9098,"Ġà°®à°°à°£à°¦":9099,"à°Ńà°µà°®à°¨":9100,"à°Ĺà°³à°ª":9101,"Ġà°Ĩà°Ĺà°¦à°¨":9102,"à°°à°³à°¯à°®":9103,"à°¯à°Ĺà°²à°¨à°¨":9104,"à°¯à°Ĺà°²à°Ĺ":9105,"à°¨à°Ĺà°²à°¨":9106,"Ġà°ľà°²à°ļà°°":9107,"Ġmill":9108,"Ġà°µà°²à°¸à°²à°¨":9109,"Ġà°ĩà°¤à°°à°®":9110,"à°Ĺà°ªà°¡à°¨":9111,"ĠGST":9112,"Ġ372":9113,"iles":9114,"Ġover":9115,"à¤¼":9116,"Ġbjp":9117,"à°ªà°µà°°à°ª":9118,"777":9119,"Ġwe":9120,"Ġwho":9121,"ĠKB":9122,"Ġkil":9123,"à±ĭâĢ¦?":9124,"cept":9125,"agement":9126,"Readmore":9127,"295":9128,"348":9129,"428":9130,"628":9131,"648":9132,"7500":9133,"740":9134,"An":9135,"CBS":9136,"FF":9137,"SE":9138,"ÃŃ":9139,"Ø¨":9140,"Ġà®":9141,"à°¾\"":9142,"à°¨à°Ĺà°¨":9143,"à°²à°¬à°¦":9144,"à°¤à°°à°¤à°°":9145,"à°Łà°¦à°¨":9146,"à°Łà°¤à°¤":9147,"à°µà°µà°°":9148,"à°®à°ļà°°":9149,"à°®à°¸à°®":9150,"à°ļà°°à°®":9151,"Ġà°®à°Ĺà°¤":9152,"Ġà°ļà°°à°®":9153,"à°·à°¤à°ķ":9154,"à°·à°ªà°¦":9155,"à±Ī/":9156,"Ġà°°à°ľà°ķ":9157,"à°§à°¬":9158,"à°¹à°ªà°°à°ļ":9159,"à°£à°ªà°¤":9160,"Ġà°ľà°¯à°¨à°Ĺà°°":9161,"à°ħà°µà°¤":9162,"à°ħà°¡à°ª":9163,"à°ĸà°Ń":9164,"à°ķà°°à°²à°¤":9165,"Ġ(%.":9166,"0000":9167,"à°¬à°¡à°Ł":9168,"à°·à°¯à°¸":9169,"Ġà°®à°¨à°Ĺà°²":9170,"à°°à°¦à°®à°¯":9171,"Ġà°Ĳà°Ĳà°İà°«":9172,"Ġà°Ĳà°Ĵà°¸":9173,"Ġà°ĺà°Łà°¨à°Ĺ":9174,"Ġ440":9175,"Ġ411":9176,"à°®à°ķà°±":9177,"à°®à°ķà°¥à°Ĺ":9178,"1943":9179,"Ġ7500":9180,"Ġà°¬à°²à°µà°°":9181,"Ġ835":9182,"Ġ885":9183,"Ġ1075":9184,"à°ĵà°¡à°²":9185,"Ġà°Ĺà°¡à°µà°¡":9186,"ani":9187,"à°±à°¸à°®":9188,"Ġ401":9189,"Ġà°ľà°¯à°Ń":9190,"ĠSUV":9191,"179":9192,"ĠMin":9193,"Ġsign":9194,"Ġpr":9195,"234":9196,"à°¿(_":9197,"à¤Ĥ":9198,"à¤Ĺ":9199,"à°Łà°¬à°¡à°¤":9200,"274":9201,"à°¨à°ªà°¡à°ķ":9202,"à°¨à°ªà°¡à°¡":9203,"etail":9204,"Ġwill":9205,"ove":9206,"uld":9207,"ĠYou":9208,"Ġà°ªà°Ĺà°²à°¬à°¡":9209,"à°Ĳà°Ĳà°İà°«":9210,"MART":9211,"Ġenergy":9212,"ternal":9213,"exposure":9214,"onald":9215,"ĠEngland":9216,"315":9217,"347":9218,"426":9219,"427":9220,"575":9221,"545":9222,"612":9223,"890":9224,"BR":9225,"Cont":9226,"EX":9227,"LDL":9228,"ao":9229,"cur":9230,"dis":9231,"kiga":9232,"non":9233,"âĹĨ":9234,"Ġet":9235,"Ġall":9236,"à°²à°ľà°¨à°ķ":9237,"à°¯à°¤à°°":9238,"à°¯à°ļà°°à°£":9239,"à°¯à°¯à°®à°µ":9240,"à°ªà°¨à°¸":9241,"à°Ĺà°ªà°¤":9242,"à°ļà°ªà°°à°ļ":9243,"Ġà°µà°³":9244,"Ġà°µà°§à°ķ":9245,"à°¬à°®à°¨":9246,"à°¬à°²à°¤":9247,"à°£à°¨à°²":9248,"à°£à°ªà°¨":9249,"Ġà°ľà°¨à°ª":9250,"à°Ĩà°Łà°ª":9251,"à°Ĩà°¨à°ķà°Ł":9252,"Ġ(à±į":9253,"à°¬à°¡à°¦":9254,"à°ľà°¯à°ªà°¥":9255,"Ġà°ħà°ªà°¸à°µ":9256,"Ġà°ķà°°à°Ĺ":9257,"Ġ412":9258,"à°®à°¤à°¯":9259,"à°¯à°¸à°¹":9260,"Ġà°§à°°à°ĸ":9261,"Ġ777":9262,"Ġ1925":9263,"à°Ľà°¤à°¨":9264,"à°Ľà°¨à°®":9265,"à°®à°¦à°Ĺà°¨":9266,"à°°à°ķà°Łà°¨à°ļ":9267,"à°°à°¸à°¨à°²à°ª":9268,"Ġ504":9269,"à°§à°°à°²à°¨":9270,"Ġà°ľà°°à°Ĺà°µà°¨":9271,"à°±à°²à°ķ":9272,"Ġà°¦à°³à°ªà°¤":9273,"à°µà°¹à°£à°¤":9274,"med":9275,"607":9276,"ĠSoc":9277,"Ġ277":9278,"ĠTRAN":9279,"Ġso":9280,"Ġcovid":9281,"261":9282,"331":9283,"Ġdis":9284,"553":9285,"383":9286,"396":9287,"à°¦à°¶à°²à°µ":9288,"461":9289,"Ġà°ķà°¨à°ªà°¡à°¡":9290,"ables":9291,"ĠInd":9292,"à¥¤":9293,"orea":9294,"SARS":9295,"SLATO":9296,"formation":9297,"ktop":9298,"INDIA":9299,"ĠTRANSLATO":9300,"ĠTRANSLATORS":9301,"219":9302,"919":9303,"930":9304,"961":9305,"CF":9306,"Well":9307,"bar":9308,"cle":9309,"creen":9310,"ds":9311,"dro":9312,"date":9313,"la":9314,"ous":9315,"uel":9316,"uth":9317,"uide":9318,"ËĪ":9319,"Ġ\\":9320,"Ġem":9321,"à±įà°¾":9322,"à°²à°Ĺà°²à°¦":9323,"à°ķà°¸à°®":9324,"à°ķà°¬à°¦":9325,"à°¯à°¸à°°":9326,"à°¯à°ľà°¨à°®":9327,"à°Łà°¬à°Ł":9328,"à°Łà°¬à°²":9329,"à°¡à°¬à°Ł":9330,"à°Ĺà°°à°¤":9331,"Ġà°ªà°ĸ":9332,"à°ļà°Łà°ķ":9333,"âĢĮ),":9334,"à±Ī(":9335,"à±ĪâĢ¦":9336,"Ġà°İà°Ĳ":9337,"Ġà°İà°°à°Ĺ":9338,"Ġà°ľà°¦":9339,"à°İà°İà°®":9340,"à°¯à°¨à°¯":9341,"à°°à°®à°®à°¨":9342,"Ġà°®à°°à°Ĺ":9343,"Ġà°ªà°°à°µà°³":9344,"Ġà°Ĵà°¨à°Ĺ":9345,"Ġà°«à°Ĺ":9346,"à°°à°£à°Ń":9347,"à°Łà°¨à°²":9348,"à°°à°¸à°µà°µ":9349,"Ġà°¤à°°à°Ĺà°¨":9350,"002":9351,"Ġà°İà°¨à°Ń":9352,"Ġà°®à°¨à°Ĺ":9353,"à°ıà°Ĳà°Ł":9354,"à°·à°£à°Ĺà°²":9355,"Ġà°ħà°ªà°¹à°°à°£à°ķ":9356,"Ġà°ķà°°à°Ĺà°²":9357,"à°¨à°ķà°¨":9358,"Ġ699":9359,"à°ķà°®à°Ĺà°³":9360,"à°¶à°¨à°²à°²":9361,"à°¶à°¨à°Ĺà°ª":9362,"à°¤à°Łà°µ":9363,"258":9364,"Ġà°ĵà°¡à°²à°¨":9365,"Ġà°Ńà°¯à°ªà°¡à°°":9366,"ĠSup":9367,"ĠMI":9368,"Ġ359":9369,"Ġà°ķà°¨à°¬à°¡à°µ":9370,"ely":9371,"Ġmu":9372,"ĠNational":9373,"ision":9374,"238":9375,"Ġà°ľà°¤à°ªà°°":9376,"ĠâĢĮ:":9377,"2800":9378,"ams":9379,"âĸ¡":9380,"329":9381,"action":9382,"858":9383,"Ġbodies":9384,"336":9385,"à°¾',":9386,"etic":9387,"Ġ467":9388,"Ġthey":9389,"ott":9390,"ĠJo":9391,"Ġrigid":9392,"Ġà°¸à°ķà°²à°®":9393,"à±įâĢĮ`.":9394,"ozillian":9395,"echnology":9396,"Ġelections":9397,"aterial":9398,"Ġoutput":9399,"Ġchart":9400,"Ġagain":9401,"ijay":9402,"422":9403,"432":9404,"495":9405,"542":9406,"722":9407,"921":9408,"917":9409,"AF":9410,"UE":9411,"bo":9412,"bab":9413,"bsp":9414,"box":9415,"cent":9416,"kin":9417,"title":9418,"uz":9419,"Ð¾":9420,"Ġà¦":9421,"Ġext":9422,"Ġï»¿":9423,"Ġà°¿":9424,"à°°à°°à°ķ":9425,"à°²à°¹à°°":9426,"à°ķà°¸à°¹":9427,"à°¯à°«":9428,"à°¸à°²à°¯":9429,"à°®à°·à°®":9430,"à°Ĺà°®à°²":9431,"Ġà°µà°Ĺà°°":9432,"Ġà°¨à°°à°ª":9433,"Ġà°¨à°µà°Ĺ":9434,"à±įâĢĮ&":9435,"à°§à°ķà°°":9436,"Ġà°Ĩà°Łà°®":9437,"Ġà°¦à°¡à°ª":9438,"Ġà°ĩà°¤à°Ĺ":9439,"à°Īà°Ĺà°²":9440,"Ġà°Īà°¤à°Ĺ":9441,"à°°à°¤à°ľà°Ł":9442,"à°İà°¥":9443,"à°°à°ķà°ķà°ª":9444,"à°¤à°°à°£à°ª":9445,"à°¤à°¨à°ĸ":9446,"à°ªà°¡à°®à°°":9447,"Ġ($":9448,"à°ķà°¡à°²à°¨":9449,"Ġà°®à°¨à°®à°²":9450,"Ġà°ĵà°¨à°®":9451,"Ġ....":9452,"Ġà°ķà°¨à°ª":9453,"à°ıà°²à°ķ":9454,"Ġà°Ĳà°Īà°¡":9455,"à°µà°¤à°²à°²":9456,"à°ľà°¯à°µà°°":9457,"à°Łà°ķà°¤":9458,"à°¡à°²à°°":9459,"à°īà°¹":9460,"Ġ510":9461,"à°Ĵà°ķà°Łà°µ":9462,"à°¸à°®à°·":9463,"1900":9464,"1932":9465,"Ġà°ħà°µà°ķà°²à°¨":9466,"à°¡à°µà°³":9467,"à°ĺà°Łà°¨à°¸":9468,"à°ªà°¨à°ļ":9469,"Ġ1911":9470,"Ġ1922":9471,"Ġ1926":9472,"Ġ1929":9473,"à°¦à°Ĺà°²à°¨":9474,"à°£à°®à°§":9475,"à°Łà°ªà°¡à°¦":9476,"à±Ģ):":9477,"à°¯à°£à°ĸ":9478,"Ġà°¶à°¤à°ľà°¯":9479,"183":9480,"Ġà°ķà°¸à°¬":9481,"Ġà°ķà°¡à°µà°°":9482,"à°«à°²à°®à°µà°¡":9483,"ĠABC":9484,"ĠMr":9485,"ĠTo":9486,"ĠRaj":9487,"Ġà°ªà°¤à°ķà°®":9488,"Ġpass":9489,"269":9490,"à°¯à°ªà°°à°ļà°¡":9491,"476":9492,"Ġinfo":9493,"Ġob":9494,"Ġblade":9495,"273":9496,"ĠVista":9497,"491":9498,"à°Ĥ',":9499,"stru":9500,"à°¤à°ªà°°à°ļà°¡":9501,"rag":9502,"Ġà°µà°¦à°²à°°":9503,"apt":9504,"angles":9505,"Ġ}âĢĮ":9506,"Ġorg":9507,"clinical":9508,"ĠUNESCO":9509,"Stream":9510,"trl":9511,"ĠHTTP":9512,"ĠPhil":9513,"ĠNPSH":9514,"421":9515,"615":9516,"723":9517,"835":9518,"Am":9519,"BLE":9520,"Gen":9521,"Google":9522,"Linux":9523,"lish":9524,"now":9525,"part":9526,"uro":9527,"ÉĻ":9528,"Ð°":9529,"Ġed":9530,"à±įà±į":9531,"à°¤à°µà°¨":9532,"à°¤à°µà°°à°£":9533,"à°¡à°ļà°ķ":9534,"à°ļà°°à°ª":9535,"Ġà°µà°¡à°²":9536,"Ġà°¨à°¯à°®à°µ":9537,"Ġà°Ĩà°¨à°°":9538,"à°£à°²à°¤":9539,"à°Ńà°Ĺà°¤":9540,"à°ħà°µà°²":9541,"à°²à°ķà°²à°ķ":9542,"à°Īà°·":9543,"à°Īà°¤à°ķ":9544,"à°µà°°à°¦à°¨":9545,"à°ĩà°¤à°Ĺ":9546,"à°ĸà°¯":9547,"à°ĸà°ķà°°à°®":9548,"Ġà°ªà°°à°ļà°²":9549,"Ġà°¡à°µ":9550,"Ġà°ķà°²à°¦à°¨":9551,"Ġà°ĵà°ĸ":9552,"Ġà°ĵà°Ĩà°°":9553,"Ġà°¤à°¨à°ªà°Ł":9554,"à°ľà°¨à°¶":9555,"Ġà°ĸà°®à°°":9556,"à°Ĺà°°à°¹":9557,"à°Łà°²à°ļ":9558,"à°Łà°²à°ľ":9559,"à°¨à°µà°ķ":9560,"Ġ580":9561,"à°¬à°°à°ļ":9562,"à°¹à°¨à°¯":9563,"à°®à°¤à°Ń":9564,"Ġà°Ĩà°¶à°²à°ķ":9565,"Ġà°ķà°¥à°ª":9566,"Ġà°ķà°¥à°²à°¤":9567,"Ġ1927":9568,"à°²à°Ĺà°¡à°¦":9569,"à°ªà°¥à°®":9570,"à°§à°ķà°°à°®":9571,"302":9572,"308":9573,"253":9574,"rest":9575,"ĠCol":9576,"Ġà°īà°¦à°¯à°Ń":9577,"752":9578,"Ġà°¬à°¯à°Łà°ªà°¡à°Ĺ":9579,"ĠAir":9580,"ĠATM":9581,"177":9582,"Ġmap":9583,"ĠPDA":9584,"Ġpres":9585,"ĠBank":9586,"à°Ĭà°°à°Ĺ":9587,"ĠDA":9588,"ĠFree":9589,"482":9590,"à¤¹":9591,"371":9592,"Ġ381":9593,"394":9594,"Ġlabel":9595,"669":9596,"ĠJan":9597,"Ġà°ħà°²à°¸à°Łà°¤":9598,"ricket":9599,"Ġcommun":9600,"ika":9601,"Ġà°İà°Ĺà°°à°¡":9602,"CPU":9603,"ĠURLs":9604,"BrandShortName":9605,"MoHFW":9606,"âŀ¦":9607,"Ġmomentum":9608,"016":9609,"442":9610,"526":9611,"749":9612,"821":9613,"Bi":9614,"Con":9615,"Ph":9616,"SD":9617,"SP":9618,"Sh":9619,"WA":9620,"blades":9621,"my":9622,"})":9623,"Ïģ":9624,"à±ģâĢĶ":9625,"à°¨à°Ĺà°¡":9626,"à°²à°«":9627,"à°¦à°Łà°¨":9628,"à°¦à°ķà°¨":9629,"à°ªà°°à°¤":9630,"à°µà°®à°¤":9631,"Ġà°¸à°¨à°®":9632,"Ġà°¸à°¡à°ķ":9633,"Ġà°ħà°°à°¸":9634,"à°ľà°²à°¤":9635,"à°¶à°¹à°°":9636,"Ġà°°à°¡":9637,"Ġà°Ĩà°ĸ":9638,"à°¹à°£à°ķ":9639,"à°¹à°µà°¸à°¤":9640,"Ġà°²à°¢à°ķ":9641,"Ġà°İà°İà°«":9642,"Ġà°İà°İà°®":9643,"Ġà°İà°¹à°¸":9644,"Ġà°ľà°¤à°¨":9645,"à°¾à°Ĥ`":9646,"à°Īà°Ĳ":9647,"à°Īà°¸à°®":9648,"à°°à°¤à°¸":9649,"à°Ĩà°µà°°":9650,"Ġà°Ĵà°ķà°°à°ķà°®":9651,"à°°à°£à°²à°¤":9652,"à°Łà°¨à°Ĺà°°":9653,"à°¯à°²à°µà°²":9654,"à°ªà°°à°¹":9655,"à°°à°µà°®à°¨":9656,"à°°à°²à°®":9657,"Ġà°ªà°¨à°¯":9658,"Ġà°ħà°²à°¬":9659,"Ġà°ħà°²à°µà°¡":9660,"Ġà°īà°¦à°¯à°Ĺ":9661,"Ġà°ĺà°Łà°¨à°²à°¤":9662,"Ġà°ħà°¡à°Ĺà°Ĺ":9663,"1921":9664,"Ġ620":9665,"501":9666,"à°²à°µà°µà°ļ":9667,"à°¹à°°à°£à°ª":9668,"à°ļà°¯à°¤à°¨":9669,"inter":9670,"995":9671,"218":9672,"2100":9673,"orn":9674,"ĠCR":9675,"arri":9676,"Ġ802":9677,"ĠICC":9678,"Ġà°ļà°¦à°µà°¬à°¡":9679,"ĠmAh":9680,"Ġmake":9681,"652":9682,"233":9683,"Ġ452":9684,"287":9685,"472":9686,"Ġ362":9687,"Ġbut":9688,"à°Ĺà°®à°¨à°®":9689,"337":9690,"778":9691,"391":9692,"666":9693,"588":9694,"Ġ998":9695,"ava":9696,"ICC":9697,"Ġstudy":9698,"Ġ*]":9699,"Ġà°ķà°²à°¤à°ļ":9700,"à°ĭà°£":9701,"ious":9702,"udio":9703,"Ġassembly":9704,"mensional":9705,"'d":9706,"313":9707,"511":9708,"580":9709,"660":9710,"675":9711,"711":9712,"880":9713,"985":9714,"AE":9715,"CM":9716,"En":9717,"IO":9718,"OO":9719,"Press":9720,"TF":9721,"case":9722,"km":9723,"lim":9724,"mat":9725,"vel":9726,"Ðµ":9727,"ãĥ":9728,"à°¿à°ģ":9729,"à°²à°Ĺà°°":9730,"à°²à°ļà°ķ":9731,"à°¯à°Ľ":9732,"à±ĭ`":9733,"à°¸à°ªà°¤":9734,"à°¸à°«à°°":9735,"à°ªà°ľà°¯":9736,"Ġà°ªà°¹à°²":9737,"à°ļà°µà°ķ":9738,"à°ļà°Ĺà°¡":9739,"à±Ĥà°Ĥ,":9740,"à°·à°°à°ķ":9741,"à°·à°°à°¹":9742,"à°¬à°¸à°®":9743,"Ġà°Ĩà°²à°®":9744,"Ġà°İà°°à°µ":9745,"Ġà°Ńà°ľà°¨à°²":9746,"à°²à°ķà°¡à°²":9747,"à°ĩà°İà°«":9748,"Ġà°Ĵà°Ĺ":9749,"Ġà°¸à°®à°¤à°²":9750,"Ġà°«à°ľ":9751,"à°¤à°¨à°¡à°ķ":9752,"à°²à°²à°ªà°Ł":9753,"Ġà°ķà°²à°¶":9754,"à°°à°Ńà°°":9755,"à°ªà°°à°ļà°ķ":9756,"Ġà°®à°¨à°µà°²":9757,"Ġà°®à°¨à°¦à°Ĺ":9758,"à°ıà°İà°®":9759,"à°°à°ľà°ķ":9760,"à°°à°ľà°²à°¯":9761,"Ġ335":9762,"Ġà°Ĳà°²à°¯":9763,"à°¯à°¤à°µà°¹":9764,"à°²à°®à°£":9765,"Ġ416":9766,"1922":9767,"1933":9768,"Ġ625":9769,"Ġà°®à°°à°£à°ķà°°à°®":9770,"à°²à°µà°¶à°®":9771,"à°µà°°à°£à°ķ":9772,"à°¯à°ªà°¦à°®":9773,"Ġà°¬à°¯à°Łà°¨":9774,"à°ªà°¦à°¸":9775,"à°¡à°ķà°¯":9776,"à°¹à°°à°£à°²à°²":9777,"inal":9778,"à°¤à°Łà°¦":9779,"Ġ505":9780,"Ġà°Ĺà°£à°¨à°¨":9781,"à°Ĺà°ľà°ªà°¤":9782,"redi":9783,"Ġ289":9784,"ĠCV":9785,"1150":9786,"ĠAR":9787,"ĠAb":9788,"ĠRO":9789,"ĠRT":9790,"Ġ328":9791,"357":9792,"ĠNY":9793,"ĠNBA":9794,"à°Ńà°ľà°¨à°¤":9795,"Ġcent":9796,"Ġcustom":9797,"Ġph":9798,"Ġà°¨à°Łà°¨à°ª":9799,"654":9800,"Ġà°Ķà°·à°§à°Ĺ":9801,"283":9802,"ĠFound":9803,"267":9804,"Ġà°ªà°Ĺà°¬à°Ł":9805,"Ġdist":9806,"377":9807,"ĠOr":9808,"ĠOTP":9809,"292":9810,"omen":9811,"omet":9812,"Ġload":9813,"umbai":9814,"riv":9815,"ages":9816,"apan":9817,"qual":9818,"à²¿":9819,"object":9820,"ynold":9821,"Ġaspx":9822,"erica":9823,"ĠService":9824,"eneral":9825,"ustralia":9826,"324":9827,"412":9828,"447":9829,"528":9830,"548":9831,"695":9832,"745":9833,"765":9834,"Des":9835,"EN":9836,"HC":9837,"QL":9838,"].":9839,"go":9840,"ipe":9841,"kar":9842,"lan":9843,"ling":9844,"pib":9845,"site":9846,"te":9847,"ues":9848,"ways":9849,"ËĲ":9850,"Ġâĸª":9851,"à°°à°ļà°¨à°²":9852,"à°ķà°¯à°²":9853,"à°¤à°ªà°¡à°¤":9854,"à°¡à°²à°¯":9855,"à°Ĺà°°à°£":9856,"Ġà°¸à°µà°¨":9857,"Ġà°®à°¯à°®":9858,"Ġà°®à°°à°®à°¤":9859,"à°§à°µà°¹":9860,"Ġà°Ĩà°ªà°Ł":9861,"Ġà°¬à°®":9862,"Ġà°İà°«à°°":9863,"Ġà°ľà°²à°Ĺ":9864,"Ġà°ľà°¨à°ªà°¦":9865,"à°¾à°Ĥ\"\"\"\"":9866,"Ġà°¹à°µà°²":9867,"Ġà°¹à°®à°¦":9868,"Ġà°ıà°Ī":9869,"Ġà°ªà°°à°ļà°¨":9870,"à°°à°ķà°¤":9871,"Ġà°¸à°®à°²":9872,"à°ķà°°à°¸":9873,"à°ķà°°à°£à°¯":9874,"à°Łà°°à°¯":9875,"à°°à°£à°²à°²":9876,"à°¤à°¨à°¶":9877,"à°°à°¸à°Ĺ":9878,"à°¨à°Łà°¸":9879,"à±į.)":9880,"à±į.\"\"\"":9881,"Ġà°ħà°ªà°ļ":9882,"à°ĺà°¨à°¤":9883,"2026":9884,"à°īà°ªà°ķ":9885,"Ġ520":9886,"Ġ585":9887,"à°®à°¤à°Ĺ":9888,"Ġà°İà°µà°°à°¯":9889,"Ġà°¤à°²à°ªà°Ł":9890,"à°¡à°µà°ª":9891,"ĠâĢĿ?":9892,"à°ķà°Łà°ª":9893,"à°µà°ķà°¤":9894,"à°§à°¨à°¶":9895,"Ġà°¨à°¡à°ªà°²":9896,"Ġ1908":9897,"Ġà°Ĭà°¸à°°à°µ":9898,"à°·à°®à°Ĺ":9899,"Ġà°Ĩà°µà°ª":9900,"ini":9901,"à°¤à°Łà°¸":9902,"Ġà°ľà°®à°µ":9903,"à±įâĢĻâĢĮ":9904,"à°°à°ªà°¡à°¨":9905,"Ġ409":9906,"à°Ĥ):":9907,"189":9908,"alk":9909,"ĠCan":9910,"Ġtitle":9911,"ĠST":9912,"ĠAg":9913,"ĠMHz":9914,"Ġsup":9915,"ĠPDF":9916,"655":9917,"à°Ĺà°ªà°¡à°²":9918,"Ġà°ľà°¤à°ªà°°à°ļ":9919,"ĠDOS":9920,"ĠDelhi":9921,"ĠFIFA":9922,"ampl":9923,"473":9924,"373":9925,"olt":9926,"492":9927,"Ġgroup":9928,"Ġloss":9929,"ste":9930,"ĠKhan":9931,"589":9932,"à±įâĢ¦!":9933,"Ġstatus":9934,"ĠâĨĴ":9935,"Ġconf":9936,"ooth":9937,"Shortcut":9938,"Ġact":9939,"âĩĶ":9940,"à°²à°¬à°°à°ļà°¡":9941,"endor":9942,"ĠÎ±":9943,"cription":9944,"control":9945,"ography":9946,"lobal":9947,"024":9948,"419":9949,"585":9950,"541":9951,"630":9952,"617":9953,"718":9954,"728":9955,"732":9956,"API":9957,"BO":9958,"Ev":9959,"NC":9960,"Others":9961,"Rel":9962,"WS":9963,"Work":9964,"cel":9965,"eet":9966,"face":9967,"gen":9968,"hul":9969,"moment":9970,"nb":9971,"sà°ķ":9972,"tk":9973,"the":9974,"toc":9975,"vari":9976,"Ã¦":9977,"Î¸":9978,"à©":9979,"à°°à°¯à°¨":9980,"à°ĤâĢľ":9981,"à°ķà°µà°¸à°¤":9982,"à°¤à°ľà°¨":9983,"à°¦à°Ńà°®":9984,"à°¯à°¯à°ª":9985,"à±ĭà±ĭ":9986,"à°ªà°ķà°¡":9987,"à°µà°£à°®":9988,"à°Ĺà°µà°¨":9989,"à°Ĺà°¸à°Ń":9990,"Ġà°ªà°¸à°²":9991,"Ġà°ķà°°à°ª":9992,"Ġà°ķà°°à°ķà°Ł":9993,"Ġà°ķà°µà°¯":9994,"Ġà°®à°¡à°µ":9995,"Ġà°¤à°³à°¤":9996,"à°¹à°ķà°¤":9997,"Ġà°İà°Ĺà°¨":9998,"Ġà°Ĺà°®à°²":9999,"Ġà°ľà°ľ":10000,"à°ħà°¡à°²":10001,"à°Ĩà°Ĺà°¨":10002,"à°«à°°à°²":10003,"Ġà°ıà°İà°«":10004,"Ġà°ıà°ķà°®à°µ":10005,"Ġà°ķà°²à°Ĺà°Ł":10006,"à°ªà°¡à°ķà°²":10007,"Ġà°¤à°°à°¨":10008,"à°ªà°°à°µ":10009,"à°°à°µà°Ł":10010,"Ġà°§à°¨à°¨":10011,"Ġà°ĵà°¬à°¦":10012,"Ġà°ĵà°·à°§":10013,"à°Ĳà°ĵ":10014,"à°Ĳà°Ĳà°ª":10015,"Ġà°µà°°à°¦à°°":10016,"Ġ314":10017,"à°¨à°µà°¶à°ķ":10018,"Ġà°ªà°¡à°¨à°µà°¸à°°":10019,"à°ļà°²à°ªà°¤":10020,"Ġ460":10021,"Ġ537":10022,"1934":10023,"à°Ĩà°®à°§":10024,"Ġà°Ĩà°¶à°ª":10025,"Ġ821":10026,"Ġ1910":10027,"Ġ1907":10028,"à°¯à°¬à°¡à°µà°ļ":10029,"à°¸à°Ńà°°":10030,"à°ľà°²à°µà°¨à°°":10031,"à°°à°³à°¤":10032,"Ġà°Ńà°¯à°®à°¨":10033,"708":10034,"reme":10035,"rent":10036,"181":10037,"Ġà°ħà°¹à°®à°¦":10038,"10000":10039,"Ġà°Īà°¸à°¡":10040,"Ġtext":10041,"Ġtrans":10042,"Ġ291":10043,"à°Ĭà°¦":10044,"Ġ379":10045,"266":10046,"Ġbank":10047,"272":10048,"ural":10049,"Ġà°Ŀà°³":10050,"771":10051,"362":10052,"Ġ444":10053,"ĠÂ½":10054,"ĠXML":10055,"Ġoff":10056,"Ġaf":10057,"Ġà°Īà°¯à°¨à°¨":10058,"à°Ķà°¤":10059,"Ġà°µà°ļà°¨à°¬à°¦":10060,"Ġà°ķà°¨à°ªà°¡à°¨":10061,"ĠkW":10062,"Ġà°ħà°²à°¸à°Łà°Ĺ":10063,"ights":10064,"à¥ĭ":10065,"COPD":10066,"hip":10067,"Ġ----":10068,"à°ĭà°Ĺ":10069,"Ġdirection":10070,"impulse":10071,"CLR":10072,"draul":10073,"draft":10074,"\"(\"\"":10075,"Ġà°İà°Ĳà°İà°¡":10076,"stitute":10077,"Ġcountries":10078,"ĠFoundation":10079,"025":10080,"3200":10081,"322":10082,"529":10083,"820":10084,"912":10085,":%":10086,"Budget":10087,"EL":10088,"FD":10089,"GH":10090,"Hy":10091,"KL":10092,"NB":10093,"VP":10094,"VPN":10095,"]]":10096,"cr":10097,"help":10098,"jw":10099,"log":10100,"mp":10101,"mach":10102,"Ġ~":10103,"ĠÐ":10104,"à±Ħ":10105,"à°¨à°ľà°°":10106,"à°¨à°¯à°ª":10107,"à°¨à°§à°°":10108,"à°²à°¦à°Ĺ":10109,"à°Łà°¡à°¨":10110,"à°Łà°Ĺà°¡":10111,"à°¸à°¡à°¨":10112,"à°ªà°¯à°¨":10113,"à°¡à°ªà°Ł":10114,"à°¡à°¦à°²à°ļ":10115,"à°¡à°¨à°µà°¸à°°":10116,"à°ļà°ķà°°":10117,"Ġà°µà°¦à°°":10118,"Ġà°®à°¯à°¶":10119,"à±įâĢĮ+":10120,"Ġà°¤à°ļ":10121,"à±Ī...":10122,"Ġà°¬à°¦à°°":10123,"à°Ńà°ķà°°":10124,"à°µà°°à°¸à°²":10125,"à°İà°İà°ª":10126,"à°Ĩà°¨à°°":10127,"à°®à°¨à°®à°²":10128,"Ġà°ħà°µà°Ĺà°¤":10129,"Ġà°ķà°²à°ªà°ķ":10130,"à°ķà°²à°ļ":10131,"Ġà°ĩà°¦à°®":10132,"à°°à°µà°¶":10133,"à°¦à°²à°µà°²":10134,"Ġà°ħà°®à°°à°¤":10135,"à°°à°¦à°ª":10136,"à°°à°¦à°¶":10137,"à°ľà°¯à°Ĺ":10138,"à°ľà°¯à°¬":10139,"Ġà°ħà°ªà°ĸ":10140,"à°īà°¡à°ķ":10141,"Ġ414":10142,"à°®à°¤à°²à°ķ":10143,"Ġà°İà°µà°°à°¨à°Ĺ":10144,"à°µà°°à°ķà°¦":10145,"Ġà°Ĩà°¶à°²à°¤":10146,"502":10147,"508":10148,"Ġà°¨à°¡à°ķà°²":10149,"Ġ1913":10150,"Ġà°ķà°³à°²à°¨":10151,"à°²à°Ĺà°¦":10152,"à°²à°Ĺà°Ł":10153,"Ġà°Ĩà°¡à°µà°ļ":10154,"Ġà°¥à°Ĺ":10155,"à°£à°®à°Ĺ":10156,"à°²à°Ńà°®à°µ":10157,"à±ģ)-":10158,"Ġ1750":10159,"à±įâĢĭâĢĭ":10160,"à±įâĢĮâĢĮ.":10161,"993":10162,"304":10163,"706":10164,"erb":10165,"Ġ2100":10166,"409":10167,"met":10168,"609":10169,"Ġà°Ńà°¯à°ªà°¡à°¨à°¨":10170,"ĠCU":10171,"ĠCr":10172,"Ġtel":10173,"Ġtube":10174,"ĠSc":10175,"iction":10176,"Ġà°ľà°¤à°ķà°²":10177,"amb":10178,"484":10179,"ĠHigh":10180,"Ġinput":10181,"umar":10182,"uss":10183,"à°ħà°µà°¸à°°à°®à°¨":10184,"une":10185,"unn":10186,"à°µà°£à°Ĺ":10187,"558":10188,"à°¤à°ªà°¡à°Ł":10189,"364":10190,"idd":10191,"296":10192,"384":10193,"Ġ492":10194,"ĠXR":10195,"Ġgandhi":10196,"466":10197,"study":10198,"444":10199,"743":10200,"soci":10201,"à°Ŀà°°":10202,"984":10203,"à°°à°¬à°¡à°¨":10204,"Ġà°ĩà°°à°µà°¯":10205,"Ġà°ħà°°à°ķà°ª":10206,"BMW":10207,"ervation":10208,"Ġà°Ķà°·à°§à°®":10209,"oldS":10210,"âĿĳ":10211,"Ġà±©":10212,"draulic":10213,"049":10214,"326":10215,"433":10216,"439":10217,"539":10218,"579":10219,"614":10220,"622":10221,"633":10222,"726":10223,"810":10224,"823":10225,"971":10226,"967":10227,"Ad":10228,"Cr":10229,"DD":10230,"FT":10231,"MB":10232,"file":10233,"law":10234,"ness":10235,"ration":10236,"son":10237,"sync":10238,"ĠâĻª":10239,"à°¿|":10240,"à°¾Â«":10241,"à°ĤâĢĺ":10242,"à°¯à°£à°²":10243,"à°¯à°¸à°®à°¸":10244,"à°®à°ķà°²":10245,"à°®à°¦à°µ":10246,"à°Ĺà°¬à°Ł":10247,"Ġà°¸à°ľà°²":10248,"à°¿.\\":10249,"à°¬à°«":10250,"Ġà°Ĩà°¯à°¤":10251,"Ġà°¦à°¯à°Ĺà°²à°µ":10252,"Ġà°ľà°²à°¨":10253,"à°ħà°²à°²":10254,"à°ħà°ĺ":10255,"Ġà°ħà°¨à°®":10256,"à°°à°¤à°Ĺà°²":10257,"à°Ĩà°ķà°¤":10258,"à°¦à°°à°¹":10259,"Ġà°¯à°ª":10260,"à°«à°°à°µ":10261,"Ġà°«à°¹à°¦":10262,"Ġà°¡à°«":10263,"Ġà°§à°¡à°ķ":10264,"à°¾?\"\"\"":10265,"Ġà°ķà°¨à°²":10266,"à°ļà°¨à°²à°²":10267,"à°ıà°ķà°ªà°ķ":10268,"Ġà°¸à°¹à°¨à°Ł":10269,"âĢĺâĢĻ":10270,"à°¨à°°à°¹":10271,"à°ļà°°à°ļ":10272,"Ġà°īà°¦à°¯à°¨":10273,"à°Ĵà°İà°¨":10274,"206":10275,"Ġ431":10276,"Ġ471":10277,"à°®à°ķà°®à°¯":10278,"1924":10279,"à°ŀà°¯":10280,"à°ŀà°Ĺ":10281,"à°¡à°Ĺà°ķ":10282,"Ġ640":10283,"à°ĺà°Łà°¨à°²à°²":10284,"Ġà°ĩà°¤à°°à°¦":10285,"à°²à°µà°²à°¨à°¨":10286,"Ġà°ķà°¥à°²à°²":10287,"à°¡à°ķà°¶":10288,"à°¶à°¨à°²à°¤":10289,"Ġà°¬à°¡à°¤":10290,"à°¹à°°à°£à°¤":10291,"Ġà°İà°Ĺà°°à°²":10292,"inf":10293,"à°ļà°Ĺà°²à°Ĺà°¡":10294,"Ġ405":10295,"atter":10296,"atab":10297,"402":10298,"à°µà°°à°Ĺà°®à°¨":10299,"Ġ2300":10300,"ĠCC":10301,"ĠCent":10302,"ĠCBI":10303,"759":10304,"ĠSE":10305,"ĠSci":10306,"ĠAct":10307,"ĠIRCTC":10308,"Ġà°ķà°²à°ªà°µà°ļ":10309,"241":10310,"Ġ355":10311,"Ġsu":10312,"Ġsection":10313,"Ġsee":10314,"352":10315,"359":10316,"Ġcur":10317,"Ġà°ªà°°à°®à°Ĺ":10318,"Ġpm":10319,"Ġà°īà°¡à°ķà°¨":10320,"ĠGIF":10321,"ĠDr":10322,"487":10323,"Ġind":10324,"Ġinmenu":10325,"Ġdef":10326,"ĠVo":10327,"ĠOECD":10328,"493":10329,"497":10330,"à°°à°¥à°®à°«à°²à°®":10331,"à°Łà°ªà°°à°ļà°¡":10332,"783":10333,"767":10334,"769":10335,"static":10336,"Ġhand":10337,"681":10338,"Ġ463":10339,"Ġà°ĺà°Łà°¸à°°":10340,"Ġà°Ĩà°¦à°°à°£à°ķà°°":10341,"Ġà°µà°¦à°²à°¦":10342,"ird":10343,"irat":10344,"apoor":10345,"que":10346,"Ġà°¨à°¡à°µà°Ł":10347,"Ġii":10348,"à°Ńà°Ĺà°µà°¤":10349,"Ġà°Ĺà°¬à°Ĺà°¬":10350,"hief":10351,"rict":10352,"Ġscrap":10353,"DRF":10354,"ĠAll":10355,"à§į":10356,"iety":10357,"Õ¡Õ¶":10358,"Ġrecord":10359,"018":10360,"011":10361,"035":10362,"046":10363,"082":10364,"448":10365,"515":10366,"649":10367,"814":10368,"911":10369,"At":10370,"Full":10371,"GL":10372,"HIV":10373,"MM":10374,"cav":10375,"day":10376,"ea":10377,"eth":10378,"kg":10379,"sl":10380,"tbsp":10381,"vest":10382,"vendor":10383,"Î¿":10384,"à¬":10385,"Ġ_":10386,"à°¿&":10387,"à±ģâĢĮ,":10388,"à°¨à°¥":10389,"à°²à°¸à°®":10390,"à°Łà°¶à°ķ":10391,"à°Łà°Ńà°¯":10392,"à°¸à°¡à°²":10393,"à°µà°ķà°¨":10394,"à°®à°°à°£à°ķ":10395,"à°ļà°³":10396,"Ġà°ķà°¯à°ª":10397,"âĢĮà°¿":10398,"Ġà°ħà°¥à°°":10399,"Ġà°¨à°¹à°°":10400,"Ġà°¨à°¡à°µà°¦":10401,"à°·à°¯à°¨":10402,"à°ľà°ļ":10403,"Ġà°¤à°ľà°ķ":10404,"à±Ī?":10405,"à°¶à°²à°¯":10406,"Ġà°Ĩà°²à°¨":10407,"Ġà°Ĩà°Ĺà°°":10408,"Ġà°¦à°²à°ļ":10409,"Ġà°ľà°¤à°ķ":10410,"Ġà°ľà°Ĺà°¡":10411,"à°ĩà°²à°ķ":10412,"à±ģ,âĢĻ":10413,"à°Ĩà°®à°¨":10414,"Ġà°¯à°¹":10415,"Ġà°®à°°à°µà°²":10416,"Ġà°®à°°à°µà°ķ":10417,"à°®à°¨à°µà°¡":10418,"Ġà°ķà°²à°¡":10419,"à°ķà°²à°Ĺ":10420,"à°ªà°°à°Ĺ":10421,"Ġà°ĵà°İ":10422,"à°¦à°²à°µà°¨":10423,"à°¤à°²à°ªà°Ł":10424,"à°¿?\"\"\"":10425,"à°ļà°¨à°ķà°°":10426,"à°ħà°¨à°²":10427,"à°Ĳà°Ĵà°¸":10428,"Ġà°ªà°¨à°¸":10429,"à°°à°¨à°ķ":10430,"à°·à°£à°²à°ª":10431,"Ġà°Ĳà°Ĳà°İà°®":10432,"à°ľà°°à°°":10433,"Ġà°ħà°ªà°¨":10434,"à°Ĵà°®à°¨":10435,"Ġ445":10436,"Ġ570":10437,"à°¥à°²à°ļ":10438,"Ġ-.":10439,"Ġà°¸à°Ńà°¤":10440,"Ġà°İà°¦à°Ĺà°²":10441,"1935":10442,"à°¯à°µà°¸à°°à°®à°¨":10443,"à°¸à°¨à°Ĺ":10444,"Ġà°İà°ªà°«":10445,"Ġà°Ĭà°Łà°²":10446,"à°¯à°¬à°¡à°Ł":10447,"à°ļà°ķà°¤":10448,"à°Łà°ªà°¡à°µà°ļ":10449,"Ġ1860":10450,"Ġà°ıà°ķà°§":10451,"à°¡à°¤à°²à°¨":10452,"à°Ĺà°£à°®à°¨":10453,"701":10454,"eration":10455,"à°ªà°°à°ļà°µà°²":10456,"à°¯à°Ĺà°²à°¡à°¨":10457,"rect":10458,"Ġ407":10459,"407":10460,"à°¦à°²à°ķà°¡":10461,"802":10462,"Ġturbines":10463,"Ġà°¸à°µà°°à°£à°²à°¤":10464,"906":10465,"ĠMa":10466,"Ġ358":10467,"Ġsquare":10468,"Ġsched":10469,"ĠUP":10470,"457":10471,"ĠPri":10472,"à°Ĭà°ķ":10473,"651":10474,"ĠFl":10475,"ĠHow":10476,"Ġblades":10477,"ĠEMI":10478,"772":10479,"ĠOn":10480,"Ġà°¤à°²à°ªà°¡à°¬":10481,"Ġà°ļà°²à°¨à°¶":10482,"à±ĢâĢĻ,":10483,"Ġà°°à°®à°£à°¤":10484,"à°Ĥ\"\")":10485,"Ġgr":10486,"Ġaut":10487,"Ġhim":10488,"Ġhave":10489,"Ġ391":10490,"686":10491,"rail":10492,"ught":10493,"667":10494,"584":10495,"Ġval":10496,"882":10497,"à°ĤâĢ¦?":10498,"iron":10499,"emi":10500,"IDAI":10501,"Ġ692":10502,"à°µà°Ĺà°²à°¦à°¨":10503,"Ġstate":10504,"pha":10505,"ource":10506,"ourse":10507,"obile":10508,"à°¤à°¹à°·à°¸":10509,"Â§à±įâĢĮ":10510,"Ġà°ħà°¨à°µà°¸à°°à°®à°¨":10511,"Ġwhich":10512,"duction":10513,"minus":10514,"Ġ--->":10515,"Ġoperation":10516,"PressRel":10517,"tocol":10518,"\",":10519,"513":10520,"549":10521,"534":10522,"576":10523,"572":10524,"620":10525,"677":10526,"678":10527,"679":10528,"795":10529,"746":10530,"970":10531,"916":10532,"946":10533,"968":10534,"AD":10535,"DG":10536,"DVD":10537,"EU":10538,"KCS":10539,"NRC":10540,"Sà°¨":10541,"nit":10542,"num":10543,"sm":10544,"ser":10545,"sub":10546,"ÏĤ":10547,"ĠĠ":10548,"à°¾âĢĭ":10549,"à°¨à°§":10550,"à°µà°ľà°¸":10551,"à°µà°¤à°°à°£":10552,"Ġà°ªà°¹à°°":10553,"Ġà°ķà°¦à°°":10554,"Ġà°ķà°¦à°¨":10555,"âĢĮâĢĻ":10556,"à°§à°¨à°°":10557,"à±Ĭ?":10558,"Ġà°¦à°¡à°¦":10559,"Ġà°¬à°ª":10560,"à°Ńà°³":10561,"à°Ńà°¨à°ķ":10562,"à°ħà°£à°ķ":10563,"à°µà°°à°µ":10564,"à°µà°°à°ªà°²":10565,"à°°à°¤à°¯":10566,"à°İà°¹à°¸":10567,"Ġà°¹à°ª":10568,"à°°à°®à°²à°ª":10569,"à±ĩà°Ĥ:":10570,"Ġà°ķà°²à°¤à°²":10571,"à°ªà°Łà°®":10572,"à°¯à°²à°°":10573,"à°¯à°²à°µ":10574,"à±Ģà°Ĥ:":10575,"Ġà°§à°¨à°²":10576,"Ġà°·à°¡":10577,"Ġà°¨à°®à°ķ":10578,"Ġà°®à°¹à°µ":10579,"Ġ385":10580,"à°Łà°²à°¦":10581,"à°ľà°¯à°¤":10582,"à°Ĺà°²à°¡à°¨":10583,"à°ķà°ªà°¦":10584,"Ġ448":10585,"Ġ575":10586,"Ġà°İà°µà°°à°®":10587,"1923":10588,"à°¯à°ªà°¡à°Ĺà°²":10589,"Ġ670":10590,"Ġ632":10591,"à°ħà°ªà°¹":10592,"à°®à°²à°¬":10593,"à°³à°¨à°²à°ª":10594,"Ġ824":10595,"Ġ888":10596,"à°µà°°à°£à°¹":10597,"Ġà°Ľà°ª":10598,"Ġà°Ľà°Ĺà°¨":10599,"à°¯à°¬à°¡à°°":10600,"Ġà°¨à°µà°¯":10601,"à±ģ).\"":10602,"Ġà°Ĩà°Ĺà°µ":10603,"Ġ1885":10604,"à°°à°³à°µ":10605,"309":10606,"705":10607,"ones":10608,"à°ħà°¸à°¦":10609,"601":10610,"606":10611,"à°®à°³à°®":10612,"ĠCa":10613,"ĠCourt":10614,"à°¸à°¨à°¸à°Ńà°¨":10615,"arbon":10616,"ĠTime":10617,"Ġsecond":10618,"ĠRep":10619,"à±ģâĢ¦âĢĿ":10620,"ĠPol":10621,"Ġ[(":10622,"657":10623,"rome":10624,"ĠGHz":10625,"à°Īà°¯à°¨à°¤":10626,"282":10627,"andra":10628,"uman":10629,"Ġdynamics":10630,"ĠElection":10631,"Ġ388":10632,"363":10633,"ĠWTO":10634,"ets":10635,"etooth":10636,"393":10637,"à°®à°ľà°µà°°à°Ĺà°®à°¨":10638,"583":10639,"resp":10640,"Ġà°ħà°¸à°¹à°ľà°®":10641,"Ġà°¸à°¹à°¨à°¶":10642,"irc":10643,"abha":10644,"Ġà°°à°ļà°¨à°ķ":10645,"Ġà°ĭà°Ĺ":10646,"à°¾\"\".\"":10647,"891":10648,"Ġrank":10649,"Ġà°¨à°¡à°µà°ķ":10650,"Ġif":10651,"à²°":10652,"Ġà°īà°Ńà°¯à°¸à°Ń":10653,"compress":10654,"à®¿":10655,"USB":10656,"luetooth":10657,"ebsite":10658,"TScreen":10659,"maz":10660,"ericName":10661,"version":10662,"words":10663,"iversity":10664,"ĠRAID":10665,"Keywords":10666,"anguage":10667,"(%":10668,"070":10669,"028":10670,"319":10671,"465":10672,"449":10673,"685":10674,"639":10675,"824":10676,"876":10677,"879":10678,"9000":10679,"924":10680,":-":10681,"Ac":10682,"BG":10683,"CN":10684,"ND":10685,"Red":10686,"Web":10687,"eh":10688,"lin":10689,"list":10690,"pol":10691,"sa":10692,"wn":10693,"ward":10694,"Ùĩ":10695,"à°²à°°à°¨":10696,"à°¤à°µà°¸":10697,"à°¦à°¦à°¯":10698,"à°¦à°¸à°µ":10699,"à°¯à°ªà°¤":10700,"à°ªà°²à°ķà°²":10701,"à°¡à°¡à°¨":10702,"à±Ģ`":10703,"à°Ĺà°¡à°Ĺ":10704,"Ġà°ªà°·":10705,"Ġà°ªà°Ĺà°³":10706,"Ġà°ªà°ķà°ªà°ķ":10707,"Ġà°ķà°¡à°®":10708,"Ġà°µà°·":10709,"à±Ĥ(":10710,"Ġà°¤à°ĸ":10711,"à±ĪâĢĮ":10712,"à°§à°ľà°²à°®":10713,"à°¬à°¤à°Ĺ":10714,"à°¹à°ļà°°":10715,"à°¹à°ªà°¡à°²":10716,"Ġà°īà°ĸ":10717,"à°£à°¯à°ķ":10718,"Ġà°¦à°ĸà°²":10719,"Ġà°ĩà°¹":10720,"à°³à°ķà°°":10721,"à°²à°¨à°¡":10722,"Ġà°¶à°¤à°ķà°®":10723,"Ġà°Īà°¡à°¬":10724,"Ġà°¹à°³":10725,"à°°à°®à°µà°¡":10726,"Ġà°Łà°²":10727,"Ġà°ıà°®à°°":10728,"à°¿,âĢľ":10729,"à°¾,,":10730,"à°ªà°°à°ļà°¡à°®":10731,"à°°à°¯à°µ":10732,"Ġà°İà°¨à°®":10733,"Ġà°ħà°°à°¡à°ľà°¨":10734,"Ġà°®à°¹à°ľà°¨":10735,"Ġ322":10736,"à°¨à°²à°Ń":10737,"à°łà°µ":10738,"à°¨à°ķà°³":10739,"Ġ432":10740,"à°®à°ķà°®à°¨":10741,"\"\"\"(":10742,"Ġà°İà°¦à°Ĺà°¨":10743,"à°ŀà°®":10744,"à°ŀà°ļ":10745,"à°¸à°¨à°ķà°°":10746,"Ġ774":10747,"Ġà°Ĭà°²":10748,"Ġ1250":10749,"à°ħà°µà°¯à°µ":10750,"à°ķà°¤à°²à°ķ":10751,"à°Ĺà°³à°¸":10752,"Ġà°¸à°¦à°µà°ķ":10753,"inlet":10754,"à°¸à°¹à°ľà°¸":10755,"Ġà°ıà°ķà°¸":10756,"à°¶à°µà°ª":10757,"Ġ501":10758,"703":10759,"1897":10760,"602":10761,"à°ķà°µà°²à°²":10762,"à°µà°¬à°¡à°¦":10763,"ĠCar":10764,"ĠCSS":10765,"à°¸à°¨à°¸à°Ńà°ªà°ķ":10766,"Ġà°¬à°¯à°Łà°µ":10767,"Ġ607":10768,"enc":10769,"Ġà°°à°£à°¤":10770,"ĠRBI":10771,"Ġmaterial":10772,"Ġcheck":10773,"Ġpdf":10774,"ĠGSM":10775,"ĠFran":10776,"478":10777,"Ġ368":10778,"Ġnic":10779,"ĠEV":10780,"ĠVIII":10781,"ura":10782,"uri":10783,"773":10784,"294":10785,"382":10786,"341":10787,"782":10788,"Ġ469":10789,"582":10790,"à°Ĳà°ıà°İà°²":10791,"chool":10792,"592":10793,"Ġà°°à°ļà°¨à°¨":10794,"Ġreview":10795,"istory":10796,"ĠIng":10797,"Ġà°¨à°¡à°µà°µà°²à°¸":10798,"ĠâĹĨ":10799,"hift":10800,"ounc":10801,"ransp":10802,"Ġà°Ĺà°¡à°Ĺà°¡":10803,"Ġlead":10804,"ember":10805,"ĠIMF":10806,"Ġhouse":10807,"urvey":10808,"GenericName":10809,"oldSky":10810,"010":10811,"317":10812,"418":10813,"522":10814,"538":10815,"638":10816,"664":10817,"634":10818,"676":10819,"719":10820,"812":10821,"875":10822,"829":10823,"866":10824,"915":10825,"948":10826,"934":10827,"943":10828,"GO":10829,"MG":10830,"VC":10831,"VS":10832,"WF":10833,"col":10834,"design":10835,"iOS":10836,"po":10837,"à°¨à°°à°®":10838,"à°ķà°¨à°Ł":10839,"à°¤à°ļà°ķ":10840,"à°¦à°¯à°¤":10841,"à±ĩ`":10842,"à°Łà°¸à°®à°¯":10843,"à°¸à°£":10844,"à°¸à°µà°¤":10845,"à°®à°ĸ":10846,"à°¡à°¨à°°":10847,"à±Ģ\"\"\"\"":10848,"Ġà°ªà°¦à°¨":10849,"Ġà°ªà°¢":10850,"Ġà°µà°²à°ªà°¨":10851,"âĢĮ/":10852,"Ġà°®à°¯à°ķ":10853,"à±įâĢĮà°¾":10854,"à°·à°¤à°²":10855,"à°§à°µà°²":10856,"à°§à°¸à°¨":10857,"à°¹à°Ĺà°²":10858,"à°¹à°ķà°¨":10859,"à°£à°¹à°¸":10860,"Ġà°Ĺà°¤à°®":10861,"à°³à°¡à°®":10862,"à°²à°¨à°¯":10863,"à°²à°¨à°®":10864,"Ġà°Ńà°§":10865,"à°µà°°à°ªà°°à°ļ":10866,"à°ĩà°Ĵà°²":10867,"à°İà°İà°ķ":10868,"à°Ĩà°ªà°¤":10869,"Ġà°ıà°µà°¨à°Ĺ":10870,"Ġà°ªà°°à°Ĺ":10871,"à°¦à°¨à°ªà°¡":10872,"à°ªà°¡à°Ĺà°²":10873,"à°°à°¸à°²":10874,"à°°à°¸à°µà°¤":10875,"à°°à°µà°Ń":10876,"Ġà°·à°¦":10877,"à°Ĥ,,":10878,"à°²à°¤à°Ĺ":10879,"à°ıà°¦à°¯":10880,"à°¯à°°à°¹":10881,"à±ģ?\"\"\"":10882,"Ġà°ĺà°Łà°¨à°²à°²":10883,"209":10884,"Ġ418":10885,"Ġ417":10886,"Ġ535":10887,"à°¥à°²à°®à°¨":10888,"à°Ĩà°¯à°¨à°¯":10889,"à°¸à°®à°¯à°ª":10890,"Ġà°¤à°²à°²à°ķ":10891,"1917":10892,"1928":10893,"1908":10894,"Ġ690":10895,"à°°à°¹à°ľ":10896,"Ġ820":10897,"Ġ890":10898,"Ġ1901":10899,"à°ĵà°Ĺ":10900,"à°ĵà°ĸ":10901,"Ġà°Ĭà°°à°¡":10902,"à°§à°®à°Ĺ":10903,"1050":10904,"à°¸à°Ńà°²à°ķ":10905,"à±įâĢĮ.,":10906,"inn":10907,"à°īà°¦à°¯à°ª":10908,"Ġ502":10909,"à°ķà°¸à°¸":10910,"998":10911,"259":10912,"erala":10913,"Ġà°¶à°¤à°ĺ":10914,"Ġà°ħà°¹à°²":10915,"à°§à°ªà°¡à°¨":10916,"755":10917,"808":10918,"ĠAS":10919,"ĠAPI":10920,"ĠAss":10921,"ĠIm":10922,"ĠTB":10923,"ĠTRS":10924,"Ġser":10925,"Ġ327":10926,"à°ĺà°¨à°¤à°ķ":10927,"656":10928,"head":10929,"à°¨à°¬à°¡à°¦":10930,"Ġ343":10931,"umps":10932,"Ġà°ªà°Ĺà°²à°ķ":10933,"usic":10934,"Ġnarendra":10935,"958":10936,"url":10937,"ĠLe":10938,"à°¨à°ªà°¡à°Ĺ":10939,"Ġà°¶à°¨à°Ĺà°²":10940,"ĠOR":10941,"366":10942,"3600":10943,"381":10944,"à°ľà°°à°µà°¨":10945,"à°µà°ľà°²à°®":10946,"Ġhigh":10947,"682":10948,"684":10949,"Ġvis":10950,"Ġvolume":10951,"Ġà°ķà°¨à°ªà°¡à°ķ":10952,"rib":10953,"598":10954,"à°¤à°¦à°¨à°®":10955,"à±ĭâĢ¦!":10956,"987":10957,"Ġà°ķà°²à°µà°°à°ªà°°à°ļ":10958,"Ġreport":10959,"angana":10960,"inder":10961,"à°¡à°¬à°¡à°¤":10962,"Ġà°®à°¦à°¨à°ªà°¡":10963,"Ġà°¤à°²à°²à°®":10964,"ized":10965,"peri":10966,"âĪĩ":10967,"Ġà°Ĩà°Łà°ķà°Ł":10968,"PCR":10969,"onda":10970,"UND":10971,"Ã§à°¸":10972,"ĠInternational":10973,"ippines":10974,"Ġagainst":10975,"ĠPhilippines":10976,"ampling":10977,"FullName":10978,"031":10979,"051":10980,"417":10981,"429":10982,"6500":10983,"690":10984,"729":10985,"764":10986,"815":10987,"817":10988,"988":10989,"CSS":10990,"Coronavirus":10991,"Detail":10992,"Gov":10993,"HS":10994,"Mi":10995,"Nm":10996,"Pro":10997,"Wi":10998,"aul":10999,"effic":11000,"irav":11001,"ki":11002,"nect":11003,"oot":11004,"png":11005,"si":11006,"temperature":11007,"uj":11008,"uff":11009,"ye":11010,"Â²":11011,"ÂŃ":11012,"Â¸Â°":11013,"Ð¸":11014,"Ø©":11015,"Ġart":11016,"Ġangle":11017,"à±įâĢľ":11018,"à°¾à¥¥":11019,"à°ķà°¯à°ķ":11020,"à°ķà°¨à°°":11021,"à°¦à°¸à°²":11022,"à°¦à°¢à°ķ":11023,"à°®à°«à°²":11024,"à°¡à°ªà°¡":11025,"à°Ĺà°¨à°°":11026,"Ġà°¸à°«à°²à°®à°µ":11027,"Ġà°µà°ª":11028,"Ġà°µà°°à°£":11029,"âĢĮ..":11030,"Ġà°ļà°¦à°²à°µ":11031,"Ġà°¨à°¯à°®à°¯":11032,"à±įâĢĮ\"\"\"\"":11033,"Ġà°¤à°²à°¯":11034,"à°¹à°°à°ª":11035,"Ġà°¦à°Ń":11036,"à°Ńà°«à°²à°®":11037,"à°Ńà°ªà°¡à°¤":11038,"Ġà°İà°Ĳà°Ĳà°İ":11039,"Ġà°Ĺà°ľà°Ĺ":11040,"Ġà°ľà°®à°¦à°Ĺ":11041,"à°¾à°Ĥ\"":11042,"à°¥à°Ń":11043,"à°³à°¬à°¡":11044,"Ġà°Īà°¥à°°":11045,"à°¦à°°à°Ł":11046,"à°¦à°¨à°Ĺà°°":11047,"à°¦à°¨à°µà°¸à°°":11048,"Ġà°ħà°µà°¬":11049,"à°ªà°¡à°ķà°ª":11050,"à°ķà°¡à°ªà°Ł":11051,"à°ªà°°à°ª":11052,"Ġà°ĵà°«":11053,"à°¦à°²à°µà°¡":11054,"à°Ĳà°¨à°ª":11055,"à°ľà°¨à°ľ":11056,"à°ıà°Ĺ":11057,"à°ıà°Ĳà°ķ":11058,"à°°à°ľà°¸":11059,"Ġà°īà°ªà°¶à°®":11060,"à°ľà°¯à°ļ":11061,"à°¤à°ķà°®à°£":11062,"Ġà°ªà°¡à°Ĺà°²":11063,"Ġà°ªà°¡à°®à°°à°²":11064,"Ġ2040":11065,"Ġ465":11066,"à°¹à°¨à°ļ":11067,"à°Ĵà°ķà°®":11068,"à°Ĵà°ķà°ļ":11069,"à°ĺà°Łà°¨à°²à°¤":11070,"Ġ797":11071,"Ġ1902":11072,"à°¦à°ķà°¶à°ķ":11073,"à°¡à°ķà°²à°²":11074,"âĢ¦?":11075,"Ġà°Ĩà°ªà°¸":11076,"à°ļà°Ĺà°²à°¨à°¨":11077,"à°Ńà°®à°Ĺ":11078,"ince":11079,"Ġà°ıà°ķà°®à°¨à°¸":11080,"à±Ģ)-":11081,"à°±à°¯":11082,"à°°à°ªà°¡à°µà°ļ":11083,"1857":11084,"Ġà°¬à°¯à°Łà°ªà°¡à°µà°ļ":11085,"ĠAT":11086,"ites":11087,"itative":11088,"904":11089,"908":11090,"ĠME":11091,"ĠMozillian":11092,"ĠRS":11093,"ĠRs":11094,"Ġcan":11095,"458":11096,"Ġpre":11097,"ĠBoldSky":11098,"Ġ3310":11099,"ĠGov":11100,"ĠGUI":11101,"ĠGandhi":11102,"Ġà°ľà°Ĺà°¦à°²":11103,"ĠDec":11104,"2600":11105,"471":11106,"474":11107,"ĠHP":11108,"acter":11109,"854":11110,"338":11111,"Ġnm":11112,"953":11113,"à°¤à°ªà°¡à°Ĺ":11114,"ĠODI":11115,"Ġà°¤à°²à°ªà°¡à°Ł":11116,"Ġ493":11117,"ĠÂ«":11118,"Ġgo":11119,"587":11120,"887":11121,"ential":11122,"à°¨à°µà°°à°¹":11123,"ape":11124,"Ġrpm":11125,"ĠInstitute":11126,"ĠÂłĠ":11127,"ICMR":11128,"Ġà°¨à°¡à°ªà°¡à°®":11129,"phase":11130,"Ġà°Ĺà°Ĺà°¨à°®":11131,"Ġjw":11132,"à°¿`.":11133,"ours":11134,"ffect":11135,"à°¨à°ķà°²à°¯":11136,"hydraulic":11137,"Ġanalysis":11138,"Ġrot":11139,"Ġà°ķà°ľà°ķà°¸":11140,"à±į`.":11141,"à±ĭâĢĿ.":11142,"HTTP":11143,"mitt":11144,"ĠISBN":11145,"bhp":11146,"Result":11147,"à¤¼à¤¿":11148,"ĠSociety":11149,"à°īà°¡à°ķà°¬":11150,"\"[":11151,"013":11152,"029":11153,"536":11154,"895":11155,"874":11156,"EPF":11157,"OOC":11158,"PE":11159,"Pre":11160,"Solaris":11161,"Tube":11162,"VA":11163,"dates":11164,"mal":11165,"point":11166,"tsp":11167,"technical":11168,"ution":11169,"ÑĢ":11170,"Ġ<":11171,"à°ķà°µà°²à°¸":11172,"à°¦à°®à°°":11173,"à°®à°«":11174,"à°¡à°¶":11175,"à°Ĺà°µà°¡":11176,"Ġà°ªà°¦à°°":11177,"à°ļà°ªà°°à°ļà°¡":11178,"à±Ĩ'":11179,"Ġà°ļà°®à°°":11180,"Ġà°¨à°¯à°µ":11181,"à°§à°¨à°¸":11182,"Ġà°īà°°à°µà°ķ":11183,"à°£à°£":11184,"Ġà°¦à°®à°¯":11185,"Ġà°¬à°°à°¨":11186,"Ġà°ĩà°İà°¨":11187,"à°Īà°¤à°°":11188,"à°µà°°à°²à°¨":11189,"Ġà°¶à°²à°µ":11190,"Ġà°Īà°Ī":11191,"à°°à°¤à°²à°¤":11192,"à°Ĩà°¡à°¦":11193,"à°Ĩà°¡à°®":11194,"à°Ĩà°¦à°°à°£":11195,"Ġà°¸à°®à°Ń":11196,"à°°à°£à°¦":11197,"à°®à°¨à°¯":11198,"à±ĮâĢĻ":11199,"à°²à°²à°¦":11200,"Ġà°ħà°§à°¨":11201,"Ġà°ķà°²à°ªà°¤":11202,"à°°à°¸à°ª":11203,"à°¸à°°à°¬":11204,"003":11205,"à°ķà°¡à°¦":11206,"à°°à°µà°¬":11207,"à°°à°µà°®à°°":11208,"Ġà°§à°¨à°ª":11209,"Ġà°¤à°¨à°µà°¦":11210,"à°ıà°ķà°¤":11211,"Ġà°¸à°¹à°ª":11212,"Ġà°īà°ªà°¸à°®":11213,"Ġà°Ĳà°¡à°²":11214,"Ġà°Ĳà°Ĳà°Ĳà°Ł":11215,"à°²à°ªà°¬à°¡":11216,"à°¤à°ķà°Ĺ":11217,"Ġà°®à°§à°¨à°ªà°¡":11218,"Ġà°ªà°¡à°µà°¨":11219,"Ġà°ªà°¡à°ķà°®":11220,"Ġà°ħà°¸à°«":11221,"à°¨à°¸à°¤":11222,"à°łà°§":11223,"Ġ422":11224,"Ġ521":11225,"Ġ534":11226,"à°ªà°ķà°¤à°¨":11227,"à°®à°ķà°¨":11228,"à°ľà°ķà°®":11229,"Ġà°ĩà°µà°¤à°²":11230,"1901":11231,"Ġ:.":11232,"Ġà°ķà°®à°²à°®":11233,"Ġ619":11234,"Ġ740":11235,"à°Ľà°¸":11236,"à°°à°Ĺà°®":11237,"à°ªà°£à°ļ":11238,"âĢĺâĢĺà±į":11239,"à°¯à°¦à°³":11240,"Ġà°Ĺà°²à°Ĺà°²":11241,"Ġ1870":11242,"Ġ1857":11243,"Ġ508":11244,"à°ķà°¸à°°à°¤":11245,"à°ªà°¬à°¡à°°":11246,"à°ªà°°à°ļà°µà°²à°¸":11247,"Ġ402":11248,"à°¨à°Ĺà°°à°µ":11249,"à°®à°Ĺà°ª":11250,"Ġà°Ńà°¯à°ªà°¡à°¦":11251,"Ġà°Ńà°¯à°ªà°¡à°µà°²à°¸":11252,"orter":11253,"à°Łà°¤à°²à°¨":11254,"ĠSSL":11255,"Ġ261":11256,"ena":11257,"elect":11258,"456":11259,"Ġpar":11260,"Ġpoll":11261,"edit":11262,"ĠDO":11263,"Ġ488":11264,"263":11265,"à°¦à°ķà°°à°¸":11266,"Ġ364":11267,"Ġ367":11268,"ĠHg":11269,"Ġoption":11270,"Ġframe":11271,"779":11272,"Ġà°¤à°²à°ªà°¡à°¡":11273,"Ġair":11274,"ovie":11275,"à°¾à°Ĥ?\"":11276,"797":11277,"Ġà°ķà°¨à°ªà°¡à°µ":11278,"Ġà°Ńà°°à°¤à°®":11279,"888":11280,"river":11281,"981":11282,"091":11283,"894":11284,"Ġrad":11285,"exual":11286,"new":11287,"evi":11288,"even":11289,"udd":11290,"ĠFirefoxà°¨":11291,"ept":11292,"plin":11293,"ÂłÂłÂł":11294,"SOUND":11295,"à°¨à°Łà°¨à°ķ":11296,"hya":11297,"max":11298,"ears":11299,"show":11300,"Ġà°Ĩà°Ńà°°à°£à°®":11301,"Ġcontrol":11302,"ÙĦØ¹":11303,"ĠRecipe":11304,"desktop":11305,"mazon":11306,"Ġà°Ĺà°ľà°Ĺà°ľà°²":11307,"+)":11308,"020":11309,"014":11310,"027":11311,"066":11312,"061":11313,"067":11314,"073":11315,"089":11316,"328":11317,"423":11318,"531":11319,"568":11320,"619":11321,"713":11322,"717":11323,"724":11324,"935":11325,"965":11326,"937":11327,"And":11328,"CH":11329,"CT":11330,"FB":11331,"Fran":11332,"GF":11333,"GI":11334,"IBM":11335,"Jo":11336,"Script":11337,"SQL":11338,"To":11339,"USA":11340,"World":11341,"cis":11342,"domain":11343,"job":11344,"less":11345,"load":11346,"ring":11347,"sup":11348,"serv":11349,"ven":11350,"}\"\"":11351,"ãĤ":11352,"Ġï":11353,"à°²à°·à°ķ":11354,"à°¦à°±":11355,"à°Łà°Ĺà°²à°¦":11356,"à°µà°·à°£":11357,"à°µà°¶à°®":11358,"à°®à°Ĺà°°":11359,"à°®à°¡à°Ĺ":11360,"à±Ģà±Ģ":11361,"à°Ĺà°Ĺà°²":11362,"à°Ĺà°¤à°®à°¯":11363,"Ġà°µà°µ":11364,"âĢĮ`":11365,"Ġà°®à°¡à°¤à°²":11366,"Ġà°ļà°²à°µ":11367,"Ġà°¨à°²à°Ĺ":11368,"à°·à°¯à°²":11369,"à°ľà°ªà°¤":11370,"à±Īà°Ĥ.":11371,"à°§à°¡":11372,"à°¬à°²à°°":11373,"Ġà°īà°¤à°ķ":11374,"Ġà°¦à°¯à°ķ":11375,"à°Ńà°£à°¤":11376,"Ġà°İà°ªà°°":11377,"Ġà°İà°İà°²":11378,"Ġà°ľà°µà°²":11379,"Ġà°ľà°¹à°¨":11380,"à°¥à°µà°°":11381,"à°¥à°²à°¯":11382,"à°³à°¨à°ª":11383,"à°²à°¨à°²à°¨":11384,"à°ĩà°İà°®":11385,"Ġà°¶à°¯":11386,"Ġà°¹à°¦à°¦":11387,"à°ĸà°ªà°°":11388,"à°«à°·":11389,"Ġà°ıà°µà°Ĺ":11390,"à°°à°ķà°ļ":11391,"à°ķà°°à°¦":11392,"à°¿,âĢĻ":11393,"à°¯à°ķà°¤à°ª":11394,"à°®à°¨à°µà°³":11395,"Ġà°ľà°°à°ªà°ķ":11396,"Ġà°ħà°µà°¤à°²à°¨":11397,"à°¯à°²à°Ń":11398,"à°¨à°Łà°²":11399,"à°¸à°°à°ļà°¨":11400,"à°ªà°¤à°Ĺ":11401,"à°¯à°µà°¨à°°":11402,"à°°à°µà°³":11403,"à°·à°¯à°ª":11404,"à°µà°¡à°¡":11405,"Ġà°¤à°¨à°ªà°¨":11406,"à°ľà°¨à°ķà°®":11407,"à°²à°¤à°Ł":11408,"Ġà°Ĳà°Ĳà°ª":11409,"à°Ĵà°İà°«":11410,"Ġà°ħà°¸à°¨":11411,"à°īà°®à°°":11412,"à°¨à°ķà°Ń":11413,"Ġ468":11414,"Ġ599":11415,"à°®à°ķà°°à°®":11416,"à°®à°ķà°¤à°ķ":11417,"ĠâĢĺ.":11418,"à°ªà°²à°Ĺ":11419,"Ġ6500":11420,"Ġ647":11421,"Ġà°ĺà°¨à°¨":11422,"Ġ799":11423,"à°ľà°®à°£":11424,"503":11425,"Ġ810":11426,"à°µà°°à°£à°¤":11427,"à°µà°°à°£à°ª":11428,"Ġ1915":11429,"Ġà°ķà°³à°²à°²":11430,"Ġà°Ĭà°¦à°°à°Ĺ":11431,"Ġà°Ĩà°¡à°Łà°®":11432,"à±Ĥ,\"\"":11433,"à°ķà°Ĺà°£":11434,"à°Ĥ:-":11435,"à±įâĢĮâĢĮ)":11436,"Ġ503":11437,"707":11438,"ony":11439,"rew":11440,"reak":11441,"orial":11442,"756":11443,"ĠSa":11444,"ĠAu":11445,"ices":11446,"itt":11447,"ĠIT":11448,"903":11449,"ĠMed":11450,"Ġsq":11451,"Ġserv":11452,"Ġsays":11453,"ĠNorth":11454,"Ġcc":11455,"ade":11456,"451":11457,"452":11458,"455":11459,"ĠBa":11460,"ĠBMI":11461,"Ġà°ľà°¤à°ªà°¨":11462,"à°¨à°¬à°¡à°¨":11463,"477":11464,"Ġopen":11465,"acy":11466,"Ġfilm":11467,"Ġbi":11468,"Ġbit":11469,"Ġdata":11470,"956":11471,"under":11472,"Ġ389":11473,"Ġà°Ŀà°°":11474,"361":11475,"641":11476,"397":11477,"Ġ642":11478,"Ġ554":11479,"Ġà°¬à°²à°ªà°°à°ļà°¬à°¡":11480,"Ġhy":11481,"Ġher":11482,"Ġ394":11483,"561":11484,"ray":11485,"794":11486,"Ġvector":11487,"889":11488,"oday":11489,"Ġreg":11490,"Ġà°ħà°²à°¸à°Łà°ķ":11491,"ford":11492,"Ġà°®à°¦à°°à°¸":11493,"ixed":11494,"NAME":11495,"Ġear":11496,"ults":11497,"ucation":11498,"ĠÎ²":11499,"ĠBSD":11500,"à°¦à°¹à°¨à°¬à°²":11501,"Ġà°ľà°²à°ķà°³":11502,"Ġtrump":11503,"UCN":11504,"Ġà°¸à°¤à°¤à°¹à°°":11505,"ohli":11506,"eseDetail":11507,"Ġcustomer":11508,"ĠServiceWork":11509,"Ġafter":11510,"PressReleseDetail":11511,"ĠServiceWorker":11512,"095":11513,"345":11514,"434":11515,"577":11516,"544":11517,"672":11518,"714":11519,"775":11520,"832":11521,"933":11522,"976":11523,"Ag":11524,"BJP":11525,"Fl":11526,"FAT":11527,"GM":11528,"KR":11529,"LP":11530,"MT":11531,"OD":11532,"Or":11533,"back":11534,"ca":11535,"cup":11536,"jun":11537,"rate":11538,"tical":11539,"Â©":11540,"Î¼":11541,"Ð½":11542,"ĠÙ":11543,"Ġuse":11544,"à°°à°¥à°ķ":11545,"à°ķà°¤à°²à°¤":11546,"à±ĩà±Ĩ":11547,"à°ªà°Łà°¨":11548,"à°Ĺà°Łà°®":11549,"Ġà°ķà°®à°¤":11550,"Ġà°®à°ķà°°à°®":11551,"Ġà°®à°¡à°ķà°¶":11552,"Ġà°ħà°¸à°°":11553,"Ġà°ħà°¹à°¨":11554,"à°¶à°¯à°µ":11555,"à°¶à°°à°¨":11556,"Ġà°Ĩà°µà°¨":11557,"à±ģà°Ĥ,":11558,"Ġà°¦à°µà°¡à°²":11559,"Ġà°Ĺà°¡à°µà°ķ":11560,"Ġà°ľà°²à°¯":11561,"à°¥à°¤à°²":11562,"à°¥à°¨à°¤":11563,"à±Ĩà°Ĥ:":11564,"à°µà°°à°¦à°²à°ķ":11565,"à°İà°Ĳà°İ":11566,"Ġà°¹à°¸à°°":11567,"à°¯à°¨à°¦":11568,"Ġà°ıà°°à°ķ":11569,"à°°à°ķà°Ĺ":11570,"à°Łà°°à°¸":11571,"à°Łà°¨à°¨":11572,"à±Į.":11573,"à°ªà°¡à°Ĺà°²à°¦":11574,"004":11575,"à°¬à°¡à°µà°²":11576,"à°°à°¯à°ªà°¡":11577,"à°¯à°µà°²à°¨":11578,"Ġà°®à°¨à°ļ":11579,"Ġà°§à°µ":11580,"Ġà°ĸà°¤à°°":11581,"à°°à°¨à°·":11582,"à°Ĺà°¤à°®à°¨":11583,"Ġà°Ĩà°®à°¦":11584,"à°¨à°°à°¹à°¤":11585,"Ġà°īà°¤à°ķà°¡":11586,"à°ķà°ªà°¨":11587,"à°ĺà°¨à°®":11588,"Ġà°ķà°°à°Ĺà°¡":11589,"Ġ525":11590,"Ġ524":11591,"Ġ566":11592,"\"\"\":":11593,"à°¢à°ªà°°":11594,"à°¯à°ªà°¡à°Ĺà°²à°°":11595,"à°ŀà°°":11596,"à°İà°¨à°Ń":11597,"à°ķà°Łà°°à°¤":11598,"à±į-âĢĮ":11599,"à°²à°Ĺà°®à°¨":11600,"Ġà°Ĩà°¡à°Ĺà°²":11601,"Ġà°Ĩà°ķà°³":11602,"Ġà°¨à°µà°²à°ķ":11603,"à°²à°Ńà°°":11604,"Ġà°®à°¤à°ķà°°":11605,"à°°à°³à°²à°²":11606,"996":11607,"Ġà°ľà°°à°Ĺà°¨à°Ł":11608,"à°±à°Ĺ":11609,"reet":11610,"401":11611,"Ġ011":11612,"608":11613,"ally":11614,"805":11615,"806":11616,"ĠABS":11617,"247":11618,"ĠMot":11619,"ĠMore":11620,"Ġson":11621,"ĠUI":11622,"ĠUFS":11623,"à°Ĩà°ªà°¦à°²":11624,"adu":11625,"ĠPie":11626,"Ġ331":11627,"à°¨à°¬à°¡à°ķ":11628,"486":11629,"à°Ĳà°İà°İà°¸":11630,"Ġ485":11631,"Ġ486":11632,"ĠHz":11633,"ĠHar":11634,"Ġopt":11635,"Ġfirst":11636,"857":11637,"859":11638,"Ġ|-":11639,"557":11640,"368":11641,"369":11642,"ider":11643,"646":11644,"Ġlist":11645,"Ġlaw":11646,"ulus":11647,"ĠâĢ¦?":11648,"irth":11649,"Ġà°ħà°²à°¸à°Łà°¨":11650,"Ġà°°à°¥à°¸":11651,"iaomi":11652,"Ġà°¨à°°à°ķà°¬à°¡":11653,"ants":11654,"Ġthro":11655,"Ġmen":11656,"BMI":11657,"ervo":11658,"à°¨à°Łà°¨à°²":11659,"Ġscam":11660,"ĠChina":11661,"UNIX":11662,"ĠArt":11663,"Ġcollection":11664,"ealth":11665,"exposed":11666,"Unix":11667,"Ġteam":11668,"Ġinto":11669,"amily":11670,"evelop":11671,"iterature":11672,"Ġcommunication":11673,"Ġà°¤à°³à°¤à°³à°²":11674,")...":11675,"022":11676,"023":11677,"2300":11678,"312":11679,"524":11680,"527":11681,"625":11682,"611":11683,"635":11684,"822":11685,"844":11686,"869":11687,"AL":11688,"Ab":11689,"Dr":11690,"EFA":11691,"GC":11692,"GR":11693,"IB":11694,"JNU":11695,"NE":11696,"RF":11697,"Sc":11698,"TH":11699,"be":11700,"coron":11701,"category":11702,"da":11703,"ier":11704,"ka":11705,"mark":11706,"pa":11707,"pres":11708,"turbines":11709,"ÖĢ":11710,"Ø³":11711,"âĨĴ":11712,"à°²à°µà°¸":11713,"à°²à°§à°°":11714,"à°¦à°¦à°µ":11715,"à±ĩ\"":11716,"à°¸à°¶":11717,"à°¸à°²à°®":11718,"à°®à°¯à°¸":11719,"à°®à°Ńà°¦":11720,"à°¡à°ªà°¨":11721,"à°Ĺà°¨à°Ł":11722,"à°ļà°¶":11723,"à°ļà°°à°¸":11724,"à±Ĩ\"\"":11725,"Ġà°¸à°¦à°¨":11726,"Ġà°µà°¨à°¦":11727,"à°ľà°®à°²":11728,"à±ĪâĢĵ":11729,"Ġà°°à°ľà°¸":11730,"à°¬à°°à°¨":11731,"à°¹à°¡à°²":11732,"à°£à°Ĺà°£":11733,"Ġà°¦à°£":11734,"Ġà°¦à°®à°¨":11735,"Ġà°¬à°¨à°¸":11736,"à°Ńà°¨à°¨":11737,"Ġà°İà°Ĳà°İà°¸":11738,"Ġà°ĩà°¨à°¸":11739,"Ġà°Ĺà°ľà°°":11740,"à°ħà°¹à°®":11741,"à°¥à°¨à°¯":11742,"à°³à°¨à°®":11743,"Ġà°Ńà°®":11744,"Ġà°¶à°¤à°®":11745,"Ġà°Īà°¤à°°":11746,"Ġà°Īà°¯à°¬à°¡":11747,"à°Ĩà°µà°ª":11748,"à°°à°®à°ļ":11749,"Ġà°¸à°®à°°à°µ":11750,"à°¤à°¨à°Ĺ":11751,"à°¯à°²à°Ĺ":11752,"à°¸à°°à°³à°¤":11753,"005":11754,"à°®à°°à°µ":11755,"à°®à°°à°Ĺ":11756,"à°®à°°à°¹":11757,"à°¨à°¦à°¯":11758,"à°¯à°°à°¹à°¦":11759,"à°·à°£à°µ":11760,"à°·à°£à°°à°¹":11761,"à°¨à°µà°ª":11762,"à°¨à°µà°²à°²":11763,"Ġà°Ĳà°Ĳà°¸":11764,"à°¯à°¤à°²à°²":11765,"Ġà°ªà°¡à°µà°²à°¨":11766,"à°Ĵà°Ĩà°°":11767,"Ġ2026":11768,"Ġ419":11769,"Ġ4500":11770,"Ġ413":11771,"Ġ447":11772,"Ġ555":11773,"à°Ĵà°ķà°³":11774,"à°¢à°²":11775,"à°¸à°®à°ļ":11776,"1910":11777,"1902":11778,"à°¯à°ªà°¡à°ķà°ª":11779,"Ġ674":11780,"à°µà°¸à°²":11781,"à°²à°µà°µ":11782,"Ġà°¨à°¡à°¤à°²à°¨":11783,"Ġ1916":11784,"Ġà°Ľà°¸":11785,"à°Ľà°¤à°ķ":11786,"à°ĵà°ĵ":11787,"à°ªà°£à°Ĺ":11788,"Ġ\"\"{":11789,"à°³à°²à°¦":11790,"à°ķà°¤à°Ł":11791,"à°¿).\"":11792,".....":11793,"Ġà°®à°²à°ļà°¬à°¡":11794,"Ġ1850":11795,"à°¸à°¹à°ľà°µ":11796,"991":11797,"997":11798,"à°¹à°®à°¯":11799,"Ġà°Ķà°²":11800,"Ġà°Ķà°Łà°µ":11801,"Ġà°ľà°²à°¸à°®":11802,"à°¯à°¸à°Ńà°¨":11803,"1893":11804,"orpor":11805,"alp":11806,"ĠCount":11807,"ĠCong":11808,"arge":11809,"à°°à°®à°£à°¤":11810,"Ġtable":11811,"ĠSouth":11812,"enter":11813,"ense":11814,"ĠIt":11815,"Ġà°¨à°°à°¸à°¯":11816,"ĠMay":11817,"ĠTest":11818,"Ġsw":11819,"Ġmass":11820,"ĠNS":11821,"ĠNRC":11822,"Ġcross":11823,"Ġcricket":11824,"ĠPRO":11825,"ĠPakistan":11826,"ĠGod":11827,"à°°à°ªà°°à°ļà°ķ":11828,"Ġ374":11829,"à°Ĳà°İà°İà°«":11830,"Ġ489":11831,"à¤§":11832,"à¤ľ":11833,"339":11834,"Ġnon":11835,"unj":11836,"olk":11837,"Ġ386":11838,"297":11839,"igg":11840,"644":11841,"Ġ393":11842,"à°Ķà°·":11843,"567":11844,"Ġà°¬à°²à°ªà°¡à°¡":11845,"ĠKh":11846,"Ġà°ĭà°£à°®":11847,"989":11848,"à±ĢâĢ¦?":11849,"ftware":11850,"aker":11851,"à°°à°Ĺà°²à°¦à°¨":11852,"SAID":11853,"Ġyour":11854,"Ġthree":11855,"à°¾..?":11856,"Ġend":11857,"acebook":11858,"Ġ......":11859,"Ġunits":11860,"Ġlevel":11861,"IMF":11862,"BrandFullName":11863,"hemical":11864,"rishn":11865,"urope":11866,"redients":11867,"ĠIngredients":11868,"064":11869,"042":11870,"2200":11871,"335":11872,"532":11873,"613":11874,"872":11875,"868":11876,"947":11877,"969":11878,"Eng":11879,"GP":11880,"HDL":11881,"OP":11882,"Tel":11883,"Test":11884,"UP":11885,"dict":11886,"eop":11887,"ti":11888,"trans":11889,"yp":11890,"Â¸":11891,"Õ¸":11892,"ĠâĢĮ,":11893,"à°°à°¬à°°":11894,"à°¤à°Ĺà°²à°µ":11895,"à°¦à°§":11896,"à°Łà°¤à°ª":11897,"à°µà°Ĺà°¤":11898,"à°®à°¯à°°":11899,"à°®à°¡à°¤":11900,"à°®à°ªà°°à°ļà°¬à°¡":11901,"à°Ĺà°¨à°®à°²":11902,"Ġà°ķà°¡à°µ":11903,"Ġà°µà°ªà°¨":11904,"Ġà°µà°¡à°¬":11905,"Ġà°ħà°ļà°²":11906,"à±Ĥ\"":11907,"à°·à°ķà°²":11908,"à°§à°Ĺà°²à°µ":11909,"à°¬à°ķà°°":11910,"à°¹à°¸à°µ":11911,"à°£à°ķà°²":11912,"à°£à°¨à°¨":11913,"Ġà°ľà°¨à°µ":11914,"à°²à°ķà°¬":11915,"à°İà°ļ":11916,"Ġà°¹à°ľà°²":11917,"à°ĸà°²à°ª":11918,"à°°à°®à°ľ":11919,"Ġà°®à°°à°²à°ķ":11920,"Ġà°ıà°µà°¨":11921,"Ġà°ıà°ķà°²à°µ":11922,"Ġà°Ĵà°İà°¸":11923,"à°ķà°°à°Ńà°Ł":11924,"à°¯à°ķà°£":11925,"à°¤à°¨à°ªà°°à°ļà°¬à°¡":11926,"Ġà°ħà°§à°®":11927,"Ġà°ķà°²à°¤à°ª":11928,"à°¯à°²à°µà°²à°¨":11929,"009":11930,"Ġà°§à°Ĺ":11931,"Ġà°¨à°®à°²à°¡":11932,"à°°à°¦à°¯":11933,"à°ıà°¦à°¨":11934,"Ġ345":11935,"à°²à°¯à°®à°¨":11936,"à°¯à°¤à°¯":11937,"à°ļà°°à°Ĺ":11938,"à°ĺà°¨à°ª":11939,"à°ĺà°¢":11940,"Ġà°ħà°¸à°ķ":11941,"Ġ429":11942,"Ġà°¤à°²à°¬":11943,"Ġà°¤à°²à°¦à°¨":11944,"à°¡à°¨à°¯":11945,"Ġà°§à°°à°Ĺ":11946,"Ġ666":11947,"Ġà°Ĩà°¶à°²à°ª":11948,"à°µà°ķà°µ":11949,"à°µà°ķà°³":11950,"à°¸à°²à°µ":11951,"Ġ780":11952,"Ġ749":11953,"Ġà°¬à°²à°®à°¨":11954,"à°µà°°à°£à°²à°¨":11955,"Ġà°ķà°¥à°¨à°®":11956,"Ġ1912":11957,"Ġ1905":11958,"Ġà°Ĭà°ļ":11959,"Ġà°Ĭà°ľ":11960,"à°ķà°®à°¤à°®":11961,"Ġ990":11962,"Ġà°ħà°Ĺà°ļ":11963,"Ġà°ħà°Ĺà°ªà°¡":11964,"Ġà°Ĩà°ªà°Ĺà°²":11965,"ino":11966,"à±įâĢĭâĢĵ":11967,"307":11968,"à°¥à°¨à°Ĺ":11969,"211":11970,"à°īà°ªà°İà°¨":11971,"Ġà°ķà°¤à°¡":11972,"757":11973,"Ġter":11974,"Ġà°Ĩà°¦à°°à°£à°¤":11975,"ĠSingh":11976,"ĠMD":11977,"ĠMM":11978,"ĠMLA":11979,"ĠNATO":11980,"à±į\"\"?\"":11981,"adha":11982,"ĠPar":11983,"Ġpower":11984,"Ġpopulation":11985,"ley":11986,"lean":11987,"ĠBE":11988,"à°Ĭà°¡":11989,"à°Ĭà°°à°ķ":11990,"Ġà°®à°®à°¤à°ķ":11991,"Ġ455":11992,"à°Ĳà°ķà°®à°¤":11993,"dimensional":11994,"à°ķà°¥à°²à°¨":11995,"ament":11996,"Ġ344":11997,"851":11998,"Ġbo":11999,"Ġbec":12000,"Ġbeta":12001,"Ġdot":12002,"952":12003,"à°ħà°µà°¸à°°à°®à°¯":12004,"ĠES":12005,"ĠEl":12006,"ĠVPN":12007,"ĠLCD":12008,"Ġà°µà°°à°¦à°²à°ª":12009,"776":12010,"346":12011,"ĠXP":12012,"ĠXS":12013,"ĠXZ":12014,"Ġworld":12015,"over":12016,"Ġlong":12017,"Ġlaun":12018,"566":12019,"661":12020,"à°ıà°ıà°Ĳ":12021,"Ġvi":12022,"Ġà°µà°¦à°²à°Ł":12023,"883":12024,"Ġà°Ĩà°ļà°°à°£à°¯":12025,"à°¿''.":12026,"osh":12027,"question":12028,"ured":12029,"Ġà°ķà°²à°Ĺà°ķà°®":12030,"Ġà°¨à°¡à°µà°Ĺà°²":12031,"à°ĩà°Ĵà°Ĺ":12032,"Ġà¤¸":12033,"Ġppm":12034,"clus":12035,"Ġspeed":12036,"PCL":12037,"protocol":12038,"ĠUKà°²":12039,"radial":12040,"cohort":12041,"cycl":12042,"Ġmetres":12043,"ference":12044,"Ġà°¤à°¡à°ķà°Ĺà°²":12045,"avaScript":12046,"Description":12047,"Ġschedule":12048,"ransport":12049,"ervoir":12050,"unjab":12051,"\"à°Ĥ":12052,"':":12053,"021":12054,"065":12055,"048":12056,"038":12057,"521":12058,"514":12059,"645":12060,"637":12061,"725":12062,"727":12063,"826":12064,"842":12065,"922":12066,"913":12067,"BT":12068,"DNA":12069,"My":12070,"NT":12071,"OT":12072,"RGB":12073,"Self":12074,"SMART":12075,"WC":12076,"come":12077,"cos":12078,"fl":12079,"gmail":12080,"not":12081,"uary":12082,"Éª":12083,"Ġà±ģ":12084,"Ġà±įâĢĮ":12085,"ĠÙħ":12086,"à°¨à°¨à°Ł":12087,"à°²à°ľà°¨":12088,"à°ķà°µà°¨":12089,"à°¯à°¹à°¤":12090,"à°Łà°¬à°¯":12091,"à°ªà°¶à°ķ":12092,"à°®à°²à°ªà°²":12093,"à°¡à°¨à°²":12094,"à±Ģ\"":12095,"à°Ĺà°¨à°®":12096,"à°Ĺà°ķà°¯":12097,"à°Ĺà°¤à°¨à°®":12098,"à±Ĩà±ĩ":12099,"Ġà°ķà°¡à°ķ":12100,"Ġà°®à°łà°®":12101,"à°¿à°ĤâĢį":12102,"Ġà°ħà°³":12103,"à°¿.-":12104,"à°·à°Ńà°®":12105,"à°·à°Ĺà°Ł":12106,"à°·à°«à°²à°®":12107,"Ġà°¤à°¬à°²":12108,"à°§à°®à°¨à°¸":12109,"à°¬à°ķà°²à°¹":12110,"à°£à°²à°¨":12111,"à°Ńà°ľà°°":12112,"Ġà°ĩà°İ":12113,"à°ħà°¡à°Ĺà°¡":12114,"à°¥à°¶à°¤à°ķ":12115,"à°²à°¨à°¬à°¡":12116,"Ġà°ħà°¨à°Ĺà°²":12117,"Ġà°Ńà°Ĺà°²":12118,"Ġà°Īà°Ĺà°°":12119,"Ġà°Īà°ªà°¦":12120,"à°°à°¤à°°à°®à°µ":12121,"Ġà°¹à°°à°¨":12122,"à°Ĩà°Łà°ķ":12123,"à°Ĩà°ļà°°":12124,"à°¯à°¨à°µ":12125,"à°¯à°ķà°®à°Ĺ":12126,"Ġà°ľà°°à°ªà°¬":12127,"à±ĭà°ĤâĢĻ":12128,"à°²à°²à°µà°²":12129,"à°°à°µà°ķà°ª":12130,"à±Ģà°ĤâĢĻ":12131,"à°°à°¦à°ľà°²":12132,"Ġà°ļà°°à°°":12133,"à°°à°¨à°Ĺ":12134,"à°ıà°®à°¨à°Ĺ":12135,"à°¶à°ķà°¤à°ķ":12136,"à°·à°£à°Ĺà°²à°µ":12137,"à°¨à°µà°Ń":12138,"Ġà°¤à°®à°²à°ª":12139,"Ġà°ªà°Łà°®à°Ł":12140,"à°¤à°ķà°°à°®":12141,"à°Łà°ķà°¯":12142,"à°¨à°ªà°ķ":12143,"Ġà°ħà°ªà°¦":12144,"à°Ĵà°«":12145,"Ġà°¤à°Ĺà°Ł":12146,"Ġ545":12147,"Ġà°Ĩà°§à°°":12148,"à°ļà°¬à°¡à°¦à°Ĺ":12149,"Ġà°İà°µà°°à°¦":12150,"à°¯à°ªà°¡à°¨":12151,"Ġà°¨à°°à°¹à°°":12152,"à°°à°¹à°¶à°ķà°²":12153,"à°ħà°ªà°ľà°¯":12154,"à°ªà°¨à°Ĺ":12155,"Ġ770":12156,"Ġ712":12157,"Ġ768":12158,"Ġ840":12159,"Ġ880":12160,"Ġ854":12161,"Ġ,.":12162,"à°ĵà°¡à°°":12163,"Ġà°Ĭà°°à°µ":12164,"Ġ971":12165,"à°·à°ķà°µ":12166,"à°ªà°¦à°²à°ķ":12167,"Ġà°°à°µà°³":12168,"Ġà°Ĩà°¡à°¬à°¡":12169,"à°¨à°¡à°µà°¡":12170,"âĢĿ,":12171,"à°·à°®à°µ":12172,"à°Ĺà°¡à°¤":12173,"à°Ĺà°¸à°Ĺà°¸":12174,"Ġà°Ĩà°ªà°®à°¨":12175,"iness":12176,"Ġ507":12177,"Ġ5089":12178,"à°¹à°¤à°¤":12179,"à°§à°µà°³":12180,"Ġ404":12181,"Ġà°ľà°²à°§":12182,"à°¨à°¹à°¸":12183,"Ġà°¸à°¬à°¬à°¨":12184,"aloo":12185,"ĠCity":12186,"arget":12187,"à°·à°²à°ķà°¨":12188,"758":12189,"ĠSolaris":12190,"Ġ2600":12191,"icy":12192,"enu":12193,"à°Ńà°¦à°¶à°²":12194,"Ġ357":12195,"Ġà°°à°£à°Ń":12196,"ĠRel":12197,"ĠRSS":12198,"à°²à°¬à°¡à°Ĺà°²":12199,"ĠPS":12200,"Ġpetrol":12201,"Ġpsi":12202,"ĠBrit":12203,"ĠâĢĮâĢĮ":12204,"ĠDe":12205,"Ġà°ľà°°à°Ĺà°¡à°®":12206,"489":12207,"andard":12208,"ĠHyderabad":12209,"Ġfree":12210,"thing":12211,"Ġdec":12212,"372":12213,"olid":12214,"ĠVS":12215,"ĠVis":12216,"Ġ382":12217,"à°¤à°ªà°¡à°¨":12218,"idence":12219,"392":12220,"343":12221,"788":12222,"761":12223,"Ġgood":12224,"à°Ĥ(_":12225,"791":12226,"Ġ`.":12227,"à±ģ''.":12228,"à±įâĢĿ,":12229,"IDS":12230,"986":12231,"osp":12232,"à°¨à°µà°°à°¤":12233,"092":12234,"aplan":12235,"quest":12236,"external":12237,"IPS":12238,"ope":12239,"aver":12240,"à°Ĺà°ķà°°à°®à°¨":12241,"eved":12242,"Ġà°ıà°¡à°µà°Ł":12243,"à°¸à°µà°°à°£à°²":12244,"à²®":12245,"à²¾":12246,"Ġacc":12247,"ithu":12248,"imet":12249,"ĠUniversity":12250,"hank":12251,"Ġatt":12252,"BABLE":12253,"Ġminister":12254,"Ġrock":12255,"Ġà°¸à°«à°²à°®à°Ĺ":12256,"Ġwhisk":12257,"à±įâĢĮâĢĮâĢĮâĢĮ,":12258,"ĠâĪĻ":12259,"erican":12260,"PPO":12261,"Ġmanagement":12262,"Ġà°ħà°¦à°°à°¹":12263,"Ġspecifications":12264,"Ġreddy":12265,"Ġdiesel":12266,"kinetic":12267,"ictionary":12268,"efficient":12269,"technicalquery":12270,"019":12271,"098":12272,"086":12273,"318":12274,"413":12275,"516":12276,"517":12277,"595":12278,"624":12279,"665":12280,"631":12281,"828":12282,"849":12283,"974":12284,"Di":12285,"Del":12286,"FI":12287,"HI":12288,"ISL":12289,"LI":12290,"LTE":12291,"Pr":12292,"Te":12293,"TRS":12294,"XT":12295,"],":12296,"bird":12297,"gas":12298,"ll":12299,"pect":12300,"section":12301,"vavir":12302,"wood":12303,"xy":12304,"Î¯":12305,"Ñģ":12306,"æĦ":12307,"Ġir":12308,"à°°à°¹à°¨":12309,"à°¨à°Ńà°°":12310,"à°Ĥ&":12311,"à°ķà°¨à°²":12312,"à°ķà°ķà°Ł":12313,"à°¤à°¶à°ķ":12314,"à±ĩâĢĵ":12315,"à°ªà°¨à°Ł":12316,"à°ªà°ĺ":12317,"à°µà°ªà°¡à°¤":12318,"à°®à°°à°¤":12319,"à°®à°¯à°¤":12320,"à°¡à°¯à°²":12321,"à°¡à°¯à°¬":12322,"à±ĢâĢĭ":12323,"à±Ģ''":12324,"à°Ĺà°ªà°¦":12325,"à°ļà°®à°²":12326,"à°ļà°Łà°ªà°¡":12327,"à±ĨâĢ¦":12328,"Ġà°ķà°Ń":12329,"Ġà°ķà°ľà°Ĺ":12330,"Ġà°®à°Ĺà°¦":12331,"Ġà°ħà°°à°®à°°":12332,"à°ľà°²à°²":12333,"à°ľà°²à°µà°£":12334,"à°¹à°¦à°ķ":12335,"à°¹à°¸à°ķ":12336,"Ġà°īà°¬à°²":12337,"Ġà°¦à°¯à°¯":12338,"à°Ńà°«à°²":12339,"Ġà°ľà°Ĺà°ľ":12340,"Ġà°ľà°µà°¸à°¤":12341,"à°²à°¨à°ļ":12342,"Ġà°ħà°¨à°µ":12343,"Ġà°ħà°¨à°¬":12344,"à°²à°ķà°¸":12345,"à°²à°ķà°ªà°ķ":12346,"à°Īà°«":12347,"à°Īà°²à°²":12348,"à°Īà°¡à°¬":12349,"à±ģ,âĢľ":12350,"Ġà°Īà°Ĩà°°":12351,"à°°à°¤à°µ":12352,"Ġà°¹à°·à°¬":12353,"à°Ĩà°¶à°¯":12354,"à°¯à°¨à°Ĺ":12355,"Ġà°®à°°à°Ĺà°¨":12356,"Ġà°Łà°Ĺ":12357,"à°ķà°°à°ļ":12358,"à±į,\"\"":12359,"Ġà°Ĵà°ķà°ķ":12360,"à°¤à°°à°¸":12361,"à°¯à°®à°¦":12362,"Ġ()":12363,"Ġ(*":12364,"à°ħà°¯à°¸":12365,"à°®à°°à°¯":12366,"à°ªà°°à°ļà°µà°ļ":12367,"à°¦à°²à°²à°¨":12368,"Ġà°·à°¯à°²":12369,"Ġà°ķà°¨à°ªà°°à°ļ":12370,"âĢĻ-":12371,"à°Ĳà°Ĳà°Ĳà°Ł":12372,"à±ĩ.\"\"\"":12373,"Ġà°Ĩà°®à°§":12374,"à°ıà°Īà°ķ":12375,"à°µà°¤à°¸":12376,"à°¤à°ķà°®à°¨":12377,"à°ľà°°à°Ĺà°¬":12378,"à±Ĩà±ĸ-":12379,"à±Ĩà±ĸà±į":12380,"Ġà°¤à°Ĺà°²à°²":12381,"Ġ438":12382,"à°ªà°ķà°¶":12383,"à°®à°ķà°¥à°¨":12384,"Ġà°¤à°ªà°¨à°¤":12385,"à°ķà°¨à°¬à°¡":12386,"1927":12387,"Ġ610":12388,"Ġà°®à°°à°£à°®à°µ":12389,"Ġà°ĺà°Łà°®":12390,"Ġ722":12391,"à°ķà°°à°£à°¦":12392,"Ġ1903":12393,"Ġ1906":12394,"Ġà°ķà°³à°Ĺ":12395,"à°°à°Ĺà°¸":12396,"Ġà°Ĩà°Łà°¸":12397,"Ġ918":12398,"Ġ969":12399,"Ġ961":12400,"à°¨à°¤à°²à°ķ":12401,"à°ªà°¦à°®à°µ":12402,"Ġ',":12403,"à°ļà°ķà°¯":12404,"Ġà°¹à°¤à°¸":12405,"Ġà°®à°¤à°¬":12406,"à°¹à°°à°£à°²à°¤":12407,"Ġ1898":12408,"Ġ1897":12409,"ination":12410,"Ġ2400":12411,"à°Ĺà°µà°µ":12412,"à°Ĺà°Łà°®à°¨":12413,"à°®à°¸à°¤":12414,"onder":12415,"Ġà°İà°°à°Ĺà°¨":12416,"à°°à°ªà°¡à°¦":12417,"reg":12418,"à±įâĢĮ)-":12419,"à°¯à°¤à°²à°ª":12420,"à°§à°ªà°¡à°µà°ļ":12421,"à±į'âĢĮ":12422,"alt":12423,"alth":12424,"ĠSu":12425,"ĠSun":12426,"ĠAA":12427,"Ġà°¸à°µà°°à°£à°¤":12428,"enumber":12429,"Ġ701":12430,"ĠIUD":12431,"905":12432,"ĠTR":12433,"Ġsm":12434,"elplin":12435,"ĠNe":12436,"à°Ńà°ľà°¨à°²à°¨":12437,"Ġ50000":12438,"à°Ńà°¯à°Ń":12439,"454":12440,"ĠPre":12441,"ĠBo":12442,"653":12443,"à°Ĺà°ªà°¡à°¦":12444,"ĠGo":12445,"ĠDev":12446,"481":12447,"Ġ482":12448,"ĠHistory":12449,"Ġfeet":12450,"ĠdL":12451,"Ġdoll":12452,"ĠVR":12453,"ides":12454,"494":12455,"388":12456,"Ġwoman":12457,"663":12458,"792":12459,"rime":12460,"irl":12461,"aya":12462,"982":12463,"ivity":12464,"aps":12465,"Ġà°ħà°¨à°µà°¸à°°à°ª":12466,"istry":12467,"Ġforces":12468,"oung":12469,"à°İà°Ĳà°İà°«":12470,"à±ĩà°Ĥ?\"":12471,"MAN":12472,"Ġcomp":12473,"à±įâĢĮ``":12474,"à®°":12475,"à¦°":12476,"TCS":12477,"à°²à°¬à°°à°ļ":12478,"ÂłÂłÂłÂł":12479,"outube":12480,"product":12481,"Ġits":12482,"ROM":12483,"Ġraj":12484,"valence":12485,"à³ģ":12486,"à°ĩà°°à°µà°¯":12487,"ĠGDPà°²":12488,"Ġmodel":12489,"ĠComment":12490,"ĠAndhra":12491,"ushelplin":12492,"rotor":12493,"ools":12494,"ĠÂłĠÂłĠÂłĠÂłĠÂłĠÂłĠÂłĠÂł":12495,"atsApp":12496,"Ġà°Ĺà°¡à°µà°ķà°®":12497,"ĠNASA":12498,"Spot":12499,"Ġsignal":12500,"Ġetc":12501,"Ġobject":12502,"ĠColle":12503,"atabase":12504,"cavitation":12505,"Â§à±įâĢĮà±ģ,":12506,"Ġà°īà°Ńà°¯à°¸à°Ńà°²à°¨":12507,"evelopment":12508,"coronvavir":12509,"ushelplinenumber":12510,"coronvavirushelplinenumber":12511,",.":12512,"060":12513,"033":12514,"077":12515,"078":12516,"074":12517,"3300":12518,"411":12519,"436":12520,"518":12521,"565":12522,"547":12523,"716":12524,"744":12525,"819":12526,"848":12527,"846":12528,"944":12529,"AB":12530,"Net":12531,"National":12532,"QShortcut":12533,"Ret":12534,"SMS":12535,"cal":12536,"guide":12537,"nic":12538,"pilot":12539,"sk":12540,"ups":12541,"van":12542,"viron":12543,"¶ÙĦØ¹":12544,"ÅĴ":12545,"Ðº":12546,"Ġent":12547,"Ġalso":12548,"Ġà°Ļ":12549,"à°¨à°¯à°ķ":12550,"à°¨à°Łà°°":12551,"à°¦à°Ĺà°¡":12552,"à±ĩà±ģ":12553,"à°®à°µà°¤":12554,"à°®à°Ĺà°²à°°":12555,"à°Ĺà°Łà°¨":12556,"à°Ĺà°²à°¨à°¨":12557,"âĢĮà°Ĥ,":12558,"Ġà°®à°ħà°¤":12559,"Ġà°ļà°ķà°¨":12560,"à±ģ.âĢĿ":12561,"à°¿.\"\"":12562,"à°ľà°«":12563,"à°ľà°°à°¦":12564,"à°ľà°¬à°°":12565,"à°¶à°ļà°°":12566,"Ġà°Ĩà°¡à°°":12567,"à°¹à°·":12568,"Ġà°¦à°¯à°ª":12569,"Ġà°İà°²à°¨":12570,"Ġà°İà°İà°ª":12571,"Ġà°İà°Ĳà°İà°«":12572,"Ġà°ľà°ªà°®":12573,"Ġà°ħà°¨à°ª":12574,"à°²à°ķà°®à°¯":12575,"à°Īà°İà°®":12576,"Ġà°Īà°°à°¨":12577,"Ġà°Īà°®à°¦":12578,"à°İà°µà°²":12579,"Ġà°¹à°ļ":12580,"Ġà°¹à°¤à°®à°µ":12581,"Ġà°¹à°ľà°°à°µ":12582,"Ġà°¯à°«":12583,"Ġà°¯à°°à°ªà°¤":12584,"Ġà°ªà°°à°ļà°Ł":12585,"à°°à°ķà°³à°²":12586,"à°¦à°¨à°¦":12587,"à°°à°Ńà°¤":12588,"à°°à°Ńà°µ":12589,"à°µà°²à°¸à°°":12590,"à°¸à°°à°Ł":12591,"Ġà°Ĩà°¯à°¨à°Ĺ":12592,"à°°à°§à°®à°¸":12593,"Ġà°·à°·":12594,"à°ľà°¨à°¦":12595,"Ġà°®à°¹à°¨à°¯":12596,"à±ĩ....":12597,"à°¶à°ķà°°à°¤":12598,"à±į.,":12599,"à°Ĵà°ľ":12600,"à°¨à°¸à°®à°¯":12601,"à°īà°µ":12602,"Ġà°ħà°¡à°Ĺà°®à°¨":12603,"Ġ526":12604,"Ġ577":12605,"Ġà°¸à°®à°¯à°¸":12606,"à°Ĩà°¯à°¨à°®":12607,"1905":12608,"1909":12609,"1906":12610,"à°ŀà°¤à°²à°¨":12611,"à°¶à°ķà°¤à°¤":12612,"à°ķà°Łà°²à°ķ":12613,"Ġà°µà°²à°µà°¨":12614,"à°µà°ķà°¯":12615,"Ġ793":12616,"Ġ830":12617,"Ġ8500":12618,"Ġ829":12619,"à°¦à°µà°¯":12620,"Ġà°Ĩà°Łà°²à°ķ":12621,"à°·à°ķà°°à°®à°¨":12622,"à°µà°¦à°²à°ķ":12623,"à°°à°ķà°Łà°¨à°²à°ª":12624,"Ġà°Ĺà°¡à°ªà°ķ":12625,"à°¶à°¨à°Ĺà°²":12626,"à°Ĺà°³à°°":12627,"à°ļà°¯à°ªà°°":12628,"à°ļà°¯à°ªà°°à°ļ":12629,"à°¯à°Ĺà°¢":12630,"704":12631,"à°ªà°¬à°¡à°Ł":12632,"à°ħà°¸à°²à°¦":12633,"à°¯à°Łà°¨à°²à°¨":12634,"Ġà°Ĭà°¹à°²à°ķ":12635,"ĠChar":12636,"aram":12637,"Ġà°ħà°°à°µà°ķ":12638,"Ġ601":12639,"803":12640,"ene":12641,"Ġà°¸à°¹à°ľà°®à°¨":12642,"907":12643,"à°ķà°³à°¤":12644,"ĠMah":12645,"ĠTCP":12646,"Ġshort":12647,"ĠRev":12648,"ĠRao":12649,"à°²à°¬à°¡à°¦":12650,"ĠUEFA":12651,"Ġcal":12652,"Ġcos":12653,"lear":12654,"ĠBr":12655,"Ġà°ľà°¤à°ķà°¡":12656,"ĠDay":12657,"485":12658,"Ġ487":12659,"479":12660,"Ġ757":12661,"Ġfour":12662,"Ġfact":12663,"852":12664,"à¤¬":12665,"Ġbar":12666,"omic":12667,"Ġnational":12668,"Ġà°ķà°¨à°¬à°°à°ļà°²":12669,"Ġdx":12670,"Ġdel":12671,"Ġdep":12672,"Ġdomain":12673,"Ġdeath":12674,"ĠVX":12675,"uru":12676,"ĠLIC":12677,"idae":12678,"643":12679,"à°ķà°¬à°¡à°¤":12680,"787":12681,"763":12682,"468":12683,"Ġlife":12684,"Ġhp":12685,"Ġhyderabad":12686,"Ġ392":12687,"Ġ3961":12688,"687":12689,"798":12690,"581":12691,"ules":12692,"697":12693,"Ġ583":12694,"Ġ586":12695,"059":12696,"884":12697,"ability":12698,"Ġrel":12699,"All":12700,"Ġà°ľà°¨à°¨à°®":12701,"ists":12702,"istics":12703,"à°¶à°¦à°ªà°°":12704,"à±ĢâĢ¦!":12705,"ICS":12706,"Ġà°¦à°¹à°¨à°®":12707,"illi":12708,"à°ħà°¯à°¨à°ķ":12709,"Ġà°¸à°ķà°²à°µ":12710,"Ġà°¨à°°à°ķà°ª":12711,"ibr":12712,"ATA":12713,"Ġthere":12714,"Ġmechan":12715,"pert":12716,"à°ĭà°·":12717,"Ġunder":12718,"PCI":12719,"ernet":12720,"ernment":12721,"Ġà°Ĭà°°à°ķà°¯":12722,"ĠArch":12723,"à¯ģ":12724,"Ġelect":12725,"ĠMPEG":12726,"ĠCAA":12727,"ĠSoftware":12728,"triangle":12729,"ĠResearch":12730,"ĠServer":12731,"ĠTelangana":12732,"________________________________":12733,"Ġkilled":12734,"ĠJohn":12735,"limit":12736,"rishna":12737,")'":12738,"/)":12739,"040":12740,"026":12741,"032":12742,"069":12743,"052":12744,"084":12745,"431":12746,"564":12747,"546":12748,"629":12749,"865":12750,"834":12751,"979":12752,"963":12753,"AII":12754,"GDP":12755,"IOS":12756,"Mah":12757,"On":12758,"Sync":12759,"WTO":12760,"YC":12761,"Zn":12762,"aho":12763,"db":12764,"dition":12765,"ges":12766,"group":12767,"hp":12768,"other":12769,"power":12770,"rpm":12771,"sw":12772,"shi":12773,"sampling":12774,"wa":12775,"yle":12776,"{{":12777,"Åł":12778,"Øª":12779,"Ġq":12780,"Ġes":12781,"à°¨à°Ĭà°ª":12782,"à°¤à°¤à°²à°ª":12783,"à°¦à°Łà°®":12784,"à±ĭâĢľ":12785,"à°Łà°°à°ķ":12786,"à°µà°ªà°¦":12787,"à°µà°ľà°¨à°®":12788,"à°®à°ĺ":12789,"à°®à°Ĺà°³":12790,"à°¡à°¸à°¨":12791,"à°ļà°¯à°ª":12792,"Ġà°ķà°£à°¤":12793,"Ġà°µà°¸à°°":12794,"à°ľà°²à°°":12795,"à±Ī\"\"":12796,"à±Īà°ĥ":12797,"à°§à°¹à°¸":12798,"à°§à°°à°£à°¨":12799,"à°¬à°¨à°¨":12800,"à±ģà°Ĥà°Ĥ":12801,"à°¹à°ķà°®":12802,"Ġà°īà°®à°¯":12803,"à°£à°²à°²":12804,"Ġà°ĩà°§":12805,"Ġà°ľà°®à°ķ":12806,"à°¾à°Ĥ(":12807,"à°¾à°ĤâĢĺ":12808,"à°¥à°¤à°ª":12809,"à°¥à°ªà°°à°ļà°¬à°¡":12810,"Ġà°ħà°¨à°µà°²":12811,"à°²à°ķà°¯":12812,"à°µà°°à°¹":12813,"à°°à°¤à°²à°ª":12814,"à°İà°·":12815,"Ġà°¹à°¥":12816,"à°Ĩà°Ĺà°®":12817,"à°ĸà°¤à°¨":12818,"à°°à°®à°°à°¹":12819,"Ġà°ıà°Ĺ":12820,"Ġà°ıà°¡à°µà°¦":12821,"Ġà°¸à°®à°§":12822,"Ġà°¸à°®à°īà°ľ":12823,"à°®à°¨à°ļ":12824,"Ġà°ħà°µà°ª":12825,"à°ªà°¡à°µà°²à°¸":12826,"à°®à°°à°§":12827,"à°ķà°¡à°ªà°¡":12828,"Ġà°İà°¨à°¬":12829,"à°¤à°®à°ļ":12830,"à°¤à°®à°²à°ª":12831,"Ġà°ĵà°®à°¨":12832,"Ġà°·à°¨à°ķ":12833,"Ġà°ķà°¨à°ķà°ª":12834,"à°ľà°¨à°µ":12835,"Ġà°ħà°¯à°¤":12836,"Ġà°¸à°°à°¦à°Ĺ":12837,"à°°à°ªà°°à°®":12838,"Ġà°Ĩà°®à°¡":12839,"à°ıà°ķà°°":12840,"Ġà°µà°°à°¹":12841,"Ġà°¤à°®à°¯":12842,"Ġà°īà°ªà°¦à°°":12843,"Ġà°®à°§à°¨":12844,"Ġà°īà°¦à°ľà°¨":12845,"à°²à°®à°¡":12846,"Ġ479":12847,"Ġ565":12848,"à°¥à°²à°¦":12849,"à°®à°ķà°ķ":12850,"à°®à°ķà°·":12851,"à°®à°ķà°¥à°¤":12852,"à°®à°¤à°®à°¨":12853,"à°®à°¹à°ķ":12854,"Ġà°ħà°µà°¸à°°à°ªà°¡":12855,"Ġ624":12856,"Ġà°µà°²à°¦":12857,"Ġà°µà°²à°¯à°®":12858,"à°¿:\"":12859,"à°¦à°µà°µ":12860,"Ġ1904":12861,"à°Ľà°µ":12862,"à°ĵà°µà°²":12863,"Ġà°Ĭà°¯à°²":12864,"à°ķà°®à°Ĺ":12865,"Ġ970":12866,"à°°à°ļà°ķ":12867,"à°ħà°µà°¶":12868,"à°®à°¦à°¸":12869,"à°¡à°Łà°®à°¨":12870,"à±įâĢĮ.\"":12871,"à°ľà°²à°¸":12872,"à°ľà°²à°ľ":12873,"Ġà°ıà°ķà°¦":12874,"à°ªà°¬à°¡à°Ĺ":12875,"erit":12876,"anj":12877,"404":12878,"1870":12879,"1885":12880,"1894":12881,"604":12882,"605":12883,"à°ķà°µà°Ĺà°²":12884,"à°¬à°¤à°ķà°¡":12885,"ĠAN":12886,"ĠAnt":12887,"itor":12888,"Ġà°¦à°¯à°µà°²":12889,"ĠIQ":12890,"ĠMon":12891,"ĠMCLR":12892,"Ġsize":12893,"Ġà°ļà°¦à°µà°Ĺà°²à°°":12894,"ĠRR":12895,"ĠRNA":12896,"Ġms":12897,"358":12898,"ĠNot":12899,"Ġcar":12900,"ĠPhoto":12901,"ĠPradesh":12902,"ĠBY":12903,"à°ĺà°¨à°²à°¨":12904,"659":12905,"ĠGP":12906,"ĠFD":12907,"ĠFR":12908,"ĠFIR":12909,"à°ķà°¥à°Ĺ":12910,"à°¡à°Ĺà°²à°°à°¨":12911,"à¤¶":12912,"Ġbet":12913,"Ġbook":12914,"Ġdem":12915,"Ġdown":12916,"374":12917,"551":12918,"552":12919,"554":12920,"ĠVII":12921,"Ġà°ķà°²à°µà°®à°¨":12922,"ĠOb":12923,"ĠOf":12924,"ids":12925,"Ġ442":12926,"ĠWeb":12927,"389":12928,"462":12929,"469":12930,"Ġ396":12931,"à°Ĺà°µà°°à°ª":12932,"689":12933,"Ġà°ľà°²à°®à°Ł":12934,"à°¤à°ªà°°à°ļà°¬à°¡":12935,"562":12936,"569":12937,"à°ıà°ıà°İà°«":12938,"793":12939,"796":12940,"886":12941,"fore":12942,"emple":12943,"Ġ687":12944,"Ġà°®à°¡à°®à°²":12945,"à±Ģ',":12946,"osed":12947,"à±įâĢ¦?":12948,"ubb":12949,"Ġà°ķà°Łà°ķà°®":12950,"phy":12951,"à°¨à°Ĺà°²à°¡":12952,"play":12953,"Indian":12954,"spec":12955,"Ġequ":12956,"à°¬à°³à°Ĺà°¨":12957,"Ġheart":12958,"ruct":12959,"Ġrahul":12960,"ĠCAR":12961,"MCX":12962,"Ġtrials":12963,"International":12964,"Newton":12965,"ettings":12966,"Ġhoop":12967,"ĠTrump":12968,"ĠDRDO":12969,"mission":12970,"babu":12971,"celeration":12972,"vendorShortName":12973,"Ġautom":12974,"andrababu":12975,"ouncil":12976,"vention":12977,"underbird":12978,"Ġoptim":12979,"uropean":12980,"vironment":12981,")âĢĻ":12982,"012":12983,"076":12984,"668":12985,"736":12986,"738":12987,"734":12988,"816":12989,"833":12990,"837":12991,"864":12992,"861":12993,"949":12994,"941":12995,"DT":12996,"FO":12997,"List":12998,"NEE":12999,"OK":13000,"One":13001,"Open":13002,"RN":13003,"SUMO":13004,"Tata":13005,"XML":13006,"[(":13007,"ei":13008,"ful":13009,"gan":13010,"hu":13011,"ham":13012,"mM":13013,"mand":13014,"number":13015,"text":13016,"wards":13017,"Â¯":13018,"Î½":13019,"Õ«":13020,"àµ":13021,"Ġà±ģà°Ĥ":13022,"Ġà¨":13023,"Ģª":13024,"à°²à°Ĺà°²à°°":13025,"à°¤à°¸à°®":13026,"à°¤à°¸à°°à°«à°°":13027,"à°¦à°Ĺà°²à°µ":13028,"à°Łà°µà°¡":13029,"à°Łà°¡à°µ":13030,"à°¸à°²à°ª":13031,"à°¸à°Ĺà°¡":13032,"à°¸à°µà°¦à°¤":13033,"à°µà°ķà°Ł":13034,"à°®à°¤à°ķ":13035,"à°¡à°®à°²":13036,"à°Ĺà°¯à°¤":13037,"à°ļà°²à°¯":13038,"à°ļà°¤à°²à°ª":13039,"âĢ¡":13040,"Ġà°ķà°¬à°²":13041,"Ġà°µà°°à°¸à°ķ":13042,"Ġà°®à°ª":13043,"à±ģ.\\":13044,"Ġà°¨à°¥":13045,"Ġà°¨à°¤à°¨à°¯":13046,"à°·à°µà°²":13047,"à°·à°¸à°¨":13048,"à°ľà°²à°µ":13049,"à°ľà°Ĺà°®":13050,"à°¶à°ľ":13051,"à°§à°°à°¹":13052,"Ġà°Ĩà°µà°Ĺ":13053,"à°¹à°¥":13054,"Ġà°īà°«":13055,"Ġà°İà°İà°Ĳ":13056,"Ġà°Ĺà°²à°Ĺ":13057,"Ġà°Ĺà°¦à°®":13058,"Ġà°ľà°¡à°²":13059,"à°¥à°ľà°²":13060,"à°³à°Ń":13061,"à°Īà°Ĳà°İà°²":13062,"Ġà°¶à°łà°Ĺ":13063,"Ġà°Īà°²à°²":13064,"à°Ĩà°¨à°ķ":13065,"à°ĸà°®à°¯":13066,"à°«à°¥":13067,"Ġà°ıà°ªà°¨":13068,"Ġà°ıà°Ĳà°¡":13069,"Ġà°ªà°°à°ļà°Ĺ":13070,"Ġà°Ĵà°°à°²":13071,"Ġà°¸à°®à°°à°¶":13072,"à°ķà°°à°¡":13073,"à°¦à°¨à°²à°²":13074,"Ġà°Ĵà°ķà°Ń":13075,"à°¤à°°à°Ĺ":13076,"à°¤à°°à°£à°¤":13077,"à°®à°¨à°¶":13078,"ĠâĢ¤":13079,"à°°à°Ńà°²":13080,"à°ªà°¡à°®à°¨":13081,"à°¾,...":13082,"à°°à°¯à°¸":13083,"à°°à°¯à°ªà°¤":13084,"à°¤à°®à°®à°¨":13085,"Ġà°ĵà°¡à°Ĺ":13086,"Ġà°ĵà°¡à°ķ":13087,"à°Ĳà°ĵà°ı":13088,"Ġà°ªà°¨à°¨":13089,"Ġà°Ĩà°¸à°®à°¯":13090,"à°µà°¨à°Ń":13091,"à°ıà°ĵ":13092,"à°·à°£à°®à°¨":13093,"à°¨à°µà°ļà°¨":13094,"Ġà°Ĳà°ļà°°":13095,"à°µà°¤à°®à°¨":13096,"Ġà°ªà°¡à°¦à°¨":13097,"à°Ĵà°¦":13098,"à°łà°²à°¨":13099,"Ġà°ħà°¡à°Ĺà°¦":13100,"Ġ590":13101,"Ġ536":13102,"Ġ576":13103,"Ġ544":13104,"à°®à°¤à°²à°¨":13105,"à°ļà°¬à°¡à°Ĺ":13106,"à°¢à°¤à°¨":13107,"Ġà°¤à°²à°²à°¨":13108,"1911":13109,"à±ģ:\"":13110,"à°¡à°¨à°¬à°¡":13111,"Ġ713":13112,"Ġ724":13113,"à°¿:%":13114,"à°¤à°µà°¦":13115,"Ġ860":13116,"Ġ1909":13117,"Ġ928":13118,"Ġ977":13119,"Ġ962":13120,"à°¨à°¤à°ª":13121,"à°ªà°¦à°¬":13122,"Ġ\"\"-":13123,"1075":13124,"Ġ1890":13125,"Ġ1865":13126,"Ġà°¬à°¸à°µà°¨":13127,"à°Ńà°®à°µà°¡":13128,"994":13129,"709":13130,"analy":13131,"Ġà°ľà°°à°Ĺà°¨à°ª":13132,"à°Łà°Ĺà°²à°¨":13133,"à°±à°¬":13134,"à°¯à°Ĺà°²à°Ĺà°¡":13135,"reens":13136,"atory":13137,"Ġà°ľà°²à°°à°µ":13138,"Ġà°ĩà°³à°µà°°à°¸":13139,"Ġà°ķà°¡à°ªà°ķ":13140,"ora":13141,"ĠCI":13142,"à°¯à°¶à°¸":13143,"ĠAustralia":13144,"Ġà°¸à°µà°°à°£à°ª":13145,"909":13146,"à°¤à°¡à°¬à°¡":13147,"ĠMBA":13148,"ĠTechnology":13149,"Ġsur":13150,"Ġsho":13151,"ĠPict":13152,"ĠBost":13153,"edd":13154,"round":13155,"ĠGPS":13156,"à°Īà°¯à°¨à°¨":13157,"ĠDNS":13158,"Ġ481":13159,"Ġ751":13160,"327":13161,"Ġindi":13162,"Ġindian":13163,"ames":13164,"Ġfall":13165,"Ġbu":13166,"à°Łà°¬à°¡à°²":13167,"Ġday":13168,"957":13169,"à°¨à°µà°¨à°®":13170,"ĠEX":13171,"ĠEv":13172,"Ġà°¨à°Ĺà°°à°®à°¨":13173,"olly":13174,"Ġ383":13175,"Ġ387":13176,"uring":13177,"à°¤à°ªà°¡à°ķ":13178,"291":13179,"Ġà°¸à°°à°³à°µ":13180,"igma":13181,"781":13182,"ĠXL":13183,"Ġwater":13184,"Ġ552":13185,"463":13186,"Ġlog":13187,"ĠKorea":13188,"uler":13189,"Ġvery":13190,"Ġ473":13191,"693":13192,"698":13193,"diagram":13194,"iver":13195,"ĠJapan":13196,"096":13197,"097":13198,"Ġref":13199,"892":13200,"random":13201,"Ġà°ªà°²à°ķà°²à°¤":13202,"Ġà°ķà°²à°Ĺà°ķà°ª":13203,"avi":13204,"ICMA":13205,"à°¸à°¦à°°à°¨":13206,"Ġà°ªà°Ĺà°²à°¡":13207,"hout":13208,"Ġconstant":13209,"ĠState":13210,"à®®":13211,"conf":13212,"à°Ļà°ª":13213,"ulture":13214,"CSP":13215,"anka":13216,"ension":13217,"DRDO":13218,"à°ķà°®à°ķà°ªà°¡":13219,"thermod":13220,"ĠBSNL":13221,"Ġsystems":13222,"ĠIMX":13223,"ynamic":13224,"annel":13225,"ĠUVB":13226,"à°Ĺà°Ĺà°¨à°¤à°²":13227,
[...]
