#version: 0.2
à °
à ±
Ġ à°
à± į
à° ¿
à° ¾
à± ģ
à° °
à° ¨
à° Ĥ
à° ²
à° ķ
à° ¤
à° ¦
à° ¯
à± ĭ
à± ĩ
à° Ł
à° ¸
à° ª
à° µ
à° ®
à° ¡
à± Ģ
à° Ĺ
Ġà° ª
à° ļ
à± Ĩ
â Ģ
Ġà° ķ
Ġà° ¸
Ġà° µ
âĢ Į
Ġà° ®
à°¿ à°Ĥ
Ġà° ħ
Ġà° ļ
à±ģ .
à± Ĥ
Ġà° ¨
à±į âĢĮ
à°¿ .
à° ·
à° ľ
Ġà° ¤
à± Ī
à° ¶
Ġà° °
à° §
à° ¬
à± Ĭ
Ġà° Ĩ
à±ģ à°Ĥ
à° ¹
Ġà° ī
à° £
Ġà° ¦
Ġà° ¬
à° Ń
Ġà° ²
Ġà° İ
Ġà° ĩ
Ġà° Ĺ
Ġà° ľ
à°¾ à°Ĥ
à° ħ
à° ¥
à° ³
à°² à°¨
à±Ĩ à°Ĥ
Ġà°ħ à°¨
Ġà° Ń
à°² à°ķ
à° Ī
à°µ à°°
à° ĩ
à±ģ ,
Ġà° ¶
Ġà° Ī
à°° à°¤
à° İ
Ġà° ¹
à° Ĩ
à° ĸ
à°¯ à°¨
à°° à°®
à°¦ à°°
Ġà° ¯
à° «
à± ĥ
Ġà°® à°°
Ġà° Ł
Ġà° ı
Ġà°ª à°°
à°° à°ķ
Ġà° Ĵ
Ġà°¸ à°®
à°ķ à°°
Ġà°ī à°¨
Ġà° «
à°¿ ,
Ġà° ¡
à±į ,
à°¦ à°¨
à±ĩ à°Ĥ
à°¯ à°ķ
Ġ 1
Ġà°Ĵ à°ķ
à±Ĭ à°Ĥ
à°Ł à°°
à°¤ à°°
à°° à°£
à°® à°¨
Ġà°ľ à°°
à°Ł à°¨
à°· à°¨
Ġà°ħ à°µ
à± Į
à±ĭ à°Ĥ
à°¤ à°¨
à°¯ à°®
à°² à°²
Ġ âĢ
Ġà°ħ à°§
Ġà°ķ à°²
à°ª à°Ł
Ġ 2
Ġà°Ĩ à°°
à°° à°Ń
à°ª à°¡
à°ķ à°²
à°° à°¸
Ġà°¤ à°°
à°¯ à°²
à°¾ ,
à°µ à°²
à°Ĥ .
" "
Ġ (
à°¨ à°Ł
à°ĩ à°¦
à°¸ à°°
0 0
à°¬ à°¡
à°ħ à°¯
à°® à°°
à°ķ à°¡
Ġà°Ĩ à°¯à°¨
à±Ĥ .
à°· à°²
Ġà°ĩ à°¦
à°ª à°°
à°° à°¯
Ġà°İ à°¨
à°ª à°¤
à°¯ à°µ
à°° à°µ
à±Ģ à°Ĥ
à°° à°§
à°· à°¯
Ġà°® à°¨
à°¤ à°®
Ġà° §
Ġà°ħ à°¦
Ġà° ĵ
Ġà°µ à°ļ
à°¦ à°²
à°µ à°¡
à°Ĩ à°°
Ġ .
à°İ à°¸
à°° à°²
à°¤ à°²
Ġà°¤ à°¨
à°ļ à°¡
à°¿ ?
Ġà°¦ à°°
Ġà° ·
Ġà°ħ à°Ń
à±Ģ ,
à°¾ ?
Ġà°ķ à°¨
à°ļ à°¨
Ġà°¨ à°®
Ġà°ħ à°°
ĺ à°Łà°¨
Ġà°¨ à°Ł
âĢ Ļ
à°ħ à°¨
à° Ĳ
à±įâĢĮ ,
à°Ĥ ,
à°ľ à°¨
Ġà°ħ à°¯
à°² à°¤
Ġà°ħ à°¤
Ġà°ª à°¨
Ġà°¸ à°°
à°° à°ª
Ġà°ħ à°®
Ġà°² à°ķ
Ġà° ĸ
à°° à°¦
Ġà°® à°¹
Ġà°İ à°²
à±ĩ .
Ġà°Ĩ à°¸
à°µ à°¨
à°¨ à°¦
Ġà°ļ à°°
à°° à°¨
à°Ĺ à°¤
Ġà°Ĩ à°®
à°µ à°ļ
à° ı
à°¯ à°°
Â ł
à°° à°ľ
Ġà°µ à°°
Ġà°ħ à°²
à°Ĺ à°°
à°¶ à°ķ
Ġà°İ à°ķ
Ġà°¸ à°¹
Ġ 3
âĢ ĺ
à°Ł à°²
à°· à°£
à°² à°¯
à°¨ à°µ
Ġà°¤ à°®
Ġà°ī à°ª
Ġà° Ĳ
Ġà°ı à°®
à°¨ à°°
à°µ à°¤
à°² à°ª
à±ĩ ,
Ġà°ª à°Ł
à°ľ à°¯
à°¯ à°¤
à°Ĺ à°²
à±ģ ?
à°¤ à°ķ
à°¨ à°¨
Ġà°® à°§
Ġà°ī à°¤
Ġà°µ à°¸
à°¨ à°®
à±į .
à°Ł à°ķ
à°ļ à°°
Ġà°ħ à°ķ
à°¯ à°¡
à°ľ à°°
Ġà°ī à°¦
à°ħ à°¦
à°¨ à°ª
Ġà° ĺà°Łà°¨
à°¨ à°²
Ġà°ª à°¡
à°¾ .
Ġà°ħ à°ª
à°ķ à°ª
à± ĸ
à±Ĩ à±ĸ
à°¡ à°²
Ġà°ı à°°
à° ĺ
à° Ĵ
Ġà°ħ à°¸
à±Ī à°Ĥ
2 0
Ġà°ĩ à°ª
à°¨ à°¸
à°² à°®
à°° à°¶
Ġà°µ à°°à°ķ
Ġà°ª à°¦
Ġà°ķ à°°
à°ĩ à°ķ
à° ī
à°ļ à°²
à° ł
Ġà°¤ à°Ĺ
Ġ2 0
Ġà°ħ à°¡
à°¨ à°ķ
Ġ 4
à°Ł à°®
à°¦ à°Ł
Ġ 5
à°ħ à°²
à°¥ à°²
à°² à°°
à°ª à°ķ
à°® à°ķ
Ġà°° à°ķ
Ġà°¤ à°ª
Ġ -
à°¬ à°°
à°µ à°¹
Ġà°Ĩ à°¦
à°ķ à°¨
Ġà°¸à°® à°¯
à°Ĺ à°¨
à°ľ à°ķ
Ġà°Ĩ à°§
à°Ĩ à°¯à°¨
Ġà°ħ à°¤à°¨
Ġà°¸ à°Ń
à°¹ à°¨
ĠâĢ ĺ
Ġà°ĩ à°ļ
à°® à°¤
à°¾à°Ĥ .
à°ļ à°¬à°¡
à°ª à°²
Ġà°ª à°²
Ġà°¤à°° à°²
"" "
à°İ à°²
à°¤ à°Ĺ
à±ĭ ,
Ġà°İ à°µà°°
Ġà°Ĩ à°«
à°Ĵ à°ķ
Ġà°İ à°¦
Ġà°µ à°¦
à° ¢
à°¸ à°®
Ġà°ĩ à°µ
Ġà°¤ à°²
Ġà°Ĩ à°²
à°°à°ľ à°²
à°£ à°¯
1 9
à°¯ à°ªà°¡
Ġ :
à°°à°ķ à°Ł
à°¯à°µ à°¸
à°¯ à°¸
à°® à°¹
à° ŀ
à±ģ :
Ġà°ħà°µ à°ķ
Ġà°ħà°µ à°¸à°°
Ġà°ķ à°®
à°İ à°¨
Ġà°ľ à°¨
à°¡ à°Ĺ
à°¶à°ķ à°¤
Ġà°İ à°¸
Ġà°¸à°® à°¸
à°¬ à°Ł
à°¡ à°¨
Ġà°ĩ à°¨
à°ĩ à°ª
à°¡ à°µ
Ġà°§ à°°
ĠâĢ Ŀ
à°² à°¡
Ġ 6
à°¸ à°¨
à° ĺà°Łà°¨
Ġà°¨ à°°
Ġà°ĩ à°²
à°° à°¹
à°µà°° à°ķ
Ġà°ĩ à°¤à°°
à°ķ à°Ł
à°Ĩ à°®
Ġ ?
Ġà°®à°° à°£
à±į -
à°¡ à°°
à°µ à°¸
Ġà°µ à°²
à°ħ à°ª
Ġà°Ĩ à°¶
Ġà°īà°ª à°¯
à°µ à°ķ
à°® à°²
à°§ à°¨
Ġà° ĺ
à°¸ à°²
à°ª à°¨
Ġà°İ à°®
Ġ 7
à°¿ :
à°¤ à°µ
Ġà°¬ à°²
à°ľ à°®
à°¹ à°°
Ġà° ¢
à°µà°° à°²
à°³ à°¨
5 0
Ġà°² à°Ń
à°ķà°° à°£
Ġ 8
Ġ ,
à°¡ à°¦
Ġà°ĩ à°ķ
à°² à°µ
à°ħ à°¤à°¨
à°Ń à°µ
à°¦ à°µ
à°°à°¯ à°¤
à°µà°° à°£
Ġ1 0
ĠâĢ ľ
Ġà°ķ à°¥
Ġà°µ à°¹
à°¯ à°ª
âĢ ľ
Ġà°Ĩ à°¨
à°µ à°Ĺ
Ġà°¬ à°¯
Ġà°¶ à°°
) ,
Ġà°İ à°ª
à°°à°¤ à°¦
00 0
Ġà°¨ à°¡
Ġà°ľ à°Ł
Ġ1 9
à°¦ à°ķ
à±į :
Ġà° Ľ
Ġà°ķ à°³
à° Ľ
Ġà°® à°¦
Ġà°ĸ à°°
Ġà°¦ à°ķ
Ġà°ĩ à°¸
à°° à°Ĺ
ĠâĢ ĭ
Ġà°¨ à°Ĺà°°
à° ĵ
Ġà° Ĭ
Ġà°Ĩ à°¤
Ġà°Ĩ à°Ł
à°° à°¬
à°ķ à°®
Ġà°¤ à°¦
Ġà°Ĩ à°¹
à°² à°Ĺ
Ġ 9
Ġà°ļ à°Ł
Ġà°ķ à°ª
à±Į à°Ĥ
à°¨ à°¤
à°° à°ļ
Ġà°ı à°¡
à°· à°ķ
à°ª à°·
à°ª à°£
Ġà°« à°²
à°ª à°¦
à°ĸ à°°
Ġ ""
Ġà°° à°µ
Ġ '
Ġà°Ĩ à°¡
à°¶ à°®
à°ħ à°¤
à°¤ à°¦
à°¨ à°¡
à°³ à°²
à°µ à°¦
âĢ Ŀ
Ġà°¤ à°ķ
à°Ĺ à°¦
Ġ1 2
à°« à°°
Ġà°¤ à°¯
Ġà°Ĩ à°ķ
à°¯ à°¬à°¡
Ġà°ħà°¤ à°¡
à°ħ à°µ
Ġà°ķ à°Ł
à°ħ à°ķ
à°¡ à°ķ
à°® à°¦
à°ĩ à°²
à°§ à°®
à°ħ à°®
à°Ĺ à°®
à±Ĥ ,
à°¡ à°Ł
à°¦ à°¯
à°°à°ķ à°Łà°¨
Ġà°ĩ à°·
Ġà°¸ à°¤
à°· à°®
à°ª à°¥
Ġà°ĩ à°Ł
Ġà°Ĵà°ķ à°Ł
à°¦ à°¤
Ġà°¶ à°ķ
à°¹ à°¦
âĢ ¦
Ġà°¨ à°·
1 0
à°¤ à°ª
Ġà°Ĩ à°¯
Ġà°¹ à°°
à±ģ. "
à°ļ à°ķ
à°¯ à°¦à°°
Ġà°ı à°¦
à°Ĺ à°¡
Ġà°Ĳ à°¦
à°¸ à°Ń
à°İ à°«
Ġà°¦ à°Ĺ
Ġà°Ń à°¦
Ġà°Ĺ à°¡
à°¦ à°®
à°¶ à°²
Ġà°ħ à°Ĺ
â ģ
Ġà°ķ à°·
âģ ł
Ġà°¨ à°²
à±įâĢĮ .
à°ķ à°¤
Ġà°Ĵ à°ª
ĠâĢ Ķ
à°ķ à°Ĺ
Ġà°¬ à°¹
Ġà°¸ à°¨
à°¥ à°ķ
à°¥ à°®
Ġà° ¥
à±į )
Ġà°Ĺ à°°
à°Ĥ :
à°¦ à°Ĺ
Ġà°Ń à°°
Ġ1 5
Ġà°ħà°® à°²
Ġà°Ĺ à°¤
Ġà°ª à°¤
à°µà°² à°¸
à°¸ à°µ
Ġà°¬ à°°
Ġ20 1
à±ģ !
à±Ģ .
à°£ à°®
à°Ł à°¡
à°° à°¦à°°
Ġà°® à°³
Ġà°§ à°°à°²
Ġ1 4
à°¶ à°¨
à°ĩ à°Ł
âĢĺ âĢĺ
à°ľ à°²
à°¯ à°¦
Ġà°Ĵ à°ķà°°
Ġà°¹ à°¤
Ġà°¬ à°¡
à°Ł à°ª
Ġà°ĩ à°°
Ġà°ļ à°¦
à°Ĺ à°³
à°Ĺ à°¸
Ġà°Ĩ à°µ
Ġà°ļ à°¨
Ġà°¨ à°µ
à°¿ âĢĻ
Ġà°Ĩ à°ª
Ġà°ĵ à°Ł
Ġà°Ĺ à°²
à°¸ à°°à°®
Ġà°ļ à°ķ
à°ĸ à°²
Ġà°ħ à°Ł
à°Ł à°ªà°¡
à±Ģ :
à±ģ âĢĻ
Ġ1 1
Ġà°ĺà°Łà°¨ à°²
à°İ à°µà°°
à°¿ )
Ġà°ħ à°¬
à°¿ !
à°·à°¨ à°²
à°µ à°¯
à°² à°Ń
Ġà°ĩ à°¬
à°¤ à°¯
Ġà°¡ à°¬
Ġà°¸ à°²
Ġà°® à°¤
à°ª à°Ĺ
Ġà°ª à°ķ
Ġà°İ à°¤
Ġà°ľ à°Ĺà°¨
à±ģ )
à°¡ à°¡
Ġà°¸à°® à°°
à°İ à°®
à°¨ à°¯
à°ľ à°¸
. .
Ġà°° à°¦
Ġà°ķ à°¦
Ġà°Ĩà°¸ à°ķ
à°ķ à°ķ
Ġà°® à°²
à±ĥ à°Ĥ
à°¬ à°²
à°®à°¹ à°¤
âĢ ĭ
à°ļ à°µà°ļ
à°İ à°ķ
à°¹ à°°à°£
Ġà°Ĩ à°Ĺ
à°ļ à°¯
Ġà°Ĺ à°®à°¨
à°¯ à°ľ
à°°à°¸ à°¨
à°¡ à°®
Ġà°İ à°Ł
à°ļ à°Ĺ
Ġ2 00
Ġ1 8
Ġà°¨ à°¨
Ġ1 3
Ġà°¬ à°¸
Ġà°®à°¨ à°ķ
à°Ń à°®
à°¯ à°§
Ġà°ª à°¶
Ġà°ħà°µ à°¸à°°à°®
Ġà°İ à°¯
à°ļ à°Ł
à°ī à°¤
Ġ1 6
à°¯ à°Ł
à°§ à°¤
Ġà°ª à°¥à°ķ
à°¨ à°Ĺà°°
Ġà°¸ à°¦
Ġà°İ à°Ĺ
i n
à±Ĩ .
ĠâĢ Ļ
ĠâĢĶ âģł
Ġà°ªà°¦ à°µ
à°¸ à°¹
à°¯à°µ à°¹
à°Ĩ à°¸
Ġ !
Ġà°ı à°ķ
à°° à°Ł
à°Ł à°£
à°° à°µà°°
à°¯à°µ à°¹à°°
Ġà°ı à°ª
à°¿. "
à°¾ !
à°ł à°¶
Ġà°ī à°Ĺ
à°° à°³
à°µ à°®
Ġ2 4
à°£ à°²
Ġ1 7
à°¯ à°Ĺ
Ġà°Ĩ à°²à°¯
à°¶ à°µ
à°² à°¸
à°® à°£
à°¡ à°µà°ļ
à±ĭ .
à°ī à°¦
à°ĩ à°µ
Ġà°µ à°¨
1 5
à±į âĢĭ
à°¤ à°Ł
Ġà°ª à°µà°¨
à°¶ à°ª
à±įâĢĮ âĢĮ
à°° à°ªà°¤
à°ľ à°¯à°µ
à°µ à°²à°¨
Ġ5 0
à°ħà°¤ à°¡
Ġ3 0
à°Ĺ à°µ
à°² à°ľ
à°« à°²
' '
à±įâĢĮ -
à°ķ à°¸
à°§ à°ķ
à°§ à°°
à°Ĺ à°Ł
Ġà°¹ à°ķ
9 9
Ġà°Ĺ à°µà°°
à°°à°ľ à°²à°ķ
Ġà°Ĩà°¯à°¨ à°ķ
à°· à°¯à°®
3 0
Ġ2 5
à°¥ à°¨
2 5
à°¡ à°¤
à°Ĺ à°£
à°¯ à°²à°¨
à°ķ à°°à°®
Ġà°Ń à°¯
Ġ20 20
à°ľ à°°à°¯
à°ħ à°°
à°¡ à°¬
à°¦ à°¡
à°Ĥ ?
Ġà°ħ à°®à°°
Ġà°ľ à°¸
2 00
Ġà°®à°¨ à°¸
à°ļ à°²à°¨
7 0
à°ªà°£ à°²
à°¯à°µ à°ļ
à°® à°¸
Ġà°¬ à°¦
Ġà°¤à°¨ à°ķ
à°ª à°¬à°¡
Ġà°¨ à°¦
à°¹ à°¤
e r
Ġà°¸ à°µ
Ġà°ħ à°¶
Ġ1 00
à°® à°®
Ġà°Ĺ à°£
à°¤ à°¤
Ġà°ĺà°Łà°¨ à°ª
à°µ à°µ
Ġà°İ à°«
à°µ à°Ł
à°ľ à°§
o n
à°·à°¨ à°°
à°Ĺ à°ľ
20 1
à°¯ à°ķà°°
à°ľà°ķ à°µà°°
à°ªà°° à°ļ
Ġà°İ à°°
à±Ģ )
à°¯ à°£
à°ħ à°§
Ġà°ī à°²
a n
à°ĩ à°¤à°°
5 00
Ġà°ı à°³
Ġà°¬à°¯ à°Łà°ķ
Ġà°ĺ à°¨
Ġà°ľà°° à°Ĺ
à°Ĳ à°¸
Ġà°ľ à°®
à°¬ à°¦
à°ı à°®
à°Ł à°Ĺ
Ġà°µ à°¯à°¸
à°¯ à°¯à°¨
Ġà°İ à°²à°ķ
Ġ /
Ġà°° à°®
Ġà°¶ à°¤
à°ª à°®
à° ±
à°°à°£ à°®
à±į âĢĻ
à°¹ à°®
à°§ à°¨à°²
Ġà°° à°·
à°ļà°¨ à°²
à°ļ à°µ
Ġà°¸à°® à°ķ
Ġà°¨ à°ļ
Ġà°ħ à°¦à°¨
Ġà°§ à°¨
Ġà°ľ à°µ
à°¦à°¨ à°²
Ġà°Ĩ à°ļ
à°ħ à°¸à°²
à°§ à°µ
Ġà°ĵ à°¡
Ġà°ķ à°ł
Ġà°ĵ à°ª
1 2
Ġà°ļ à°²
Ġà°Ń à°µà°¨
à°° à°ªà°¡
à°¯ à°Ĺà°²
r e
Ġà°ļ à°°à°£
Ġà°®à°¹ à°®
Ġà°İ à°¡
à°¸ à°Ĺ
à°¯ à°Łà°¨
Ġà°¦ à°³
Ġ2 1
Ġà°ħ à°ľ
Ġà°ª à°µà°°
à°ķ à°¯
à±įâĢĮ :
à°¬ à°¯
à°² à°¬
Ġà° Ķ
à°ļ à°Ĺà°²
Ġà°Ĺ à°¦
Ġà°ħà°¸ à°²
à°µà°¹ à°£
Ġà°Ń à°µ
Ġ4 0
Ġà°¸à°¹ à°ķ
Ġà°Ĳ à°¸
âĢ ĵ
Ġà°¸à°² à°¹
à°¯ à°¬
Ġà°®à°¨ à°®
ĠâĢ ĵ
à°ħ à°Ł
à°® à°§
à°ļ à°¬
a t
à°¨ à°Ĺ
à°® à°¯
Ġà°Ĩà°Ł à°Ĺ
Ġà°ľ à°¯
Ġà°Ń à°ķ
à°® à°Ĺ
Ġà°ĩ à°¶
4 0
2 1
m e
Ġà°ľ à°²
Ġà°Ĵ à°¤
Ġà°ľà°¨ à°°à°²
à°¨ à°¹
à°ľ à°ª
Ġ 0
Ġà°Ĩ à°ķà°°
à°¯à°¸ à°Ń
à°Ĥ )
Ġà°ĩ à°³
1 8
Ġà°ķ à°¸
à±įâĢĮ )
Ġà°ĵ à°µà°°
à°° à°°
Ġ2 2
à°¯ à°¤à°²
Ġà°¬ à°Ł
Ġà°ĩ à°®
à°¸ à°ķ
Ġà°ķ à°¡
à°ħ à°¸
à°°à°® à°²
Ġà°ħ à°¹
Ġà°Ĺ à°Ł
à°ħ à°Ń
Ġà°µ à°¡
à±ĩ !
à°§ à°ªà°¡
6 0
à°¤ à°µà°°à°ķ
Ġà°¸ à°°à°¸à°¨
à°ı à°¦
à°ĺà°Łà°¨ à°²
à°ķ à°²à°¨
Ġà°Ĩà°¯à°¨ à°¨
à°ı à°ª
Ġà°¦ à°¶à°²
Ġà°¸ à°ķ
Ġà°Ĵ à°¡
à°® à°µ
à±į '
Ġà°Ĭ à°¹
Ġà°Ń à°¯à°ªà°¡
à°¦ à°ľ
Ġà°ī à°ļ
Ġà°¸à°° à°«à°°
à°¿ -
Ġà°Ĺ à°¨
à°¶ à°Ĺ
Ġà°Ĳ à°ª
à°ķ à°¶
à°¯ à°¯
à°¤ à°ľ
à°¯à°ķ à°²
à°¯ à°®à°¨
à°ķ à°²à°ķ
à°°à°£ à°ķ
à°İ à°ª
Ġà°¤à°° à°ļ
à°¹ à°¸
Ġà°¸ à°¬
à°² à°²à°ķ
à°µà°° à°Ĺ
o r
à°® à°¡
Ġà°ī à°®
à°ķ à°µ
à°Ń à°°
à° ĥ
à°¹à°°à°£ à°ķ
Ġ2 3
1 00
à°µ à°¶
Ġà°« à°°
à°¡ à°¸
à±Ī ,
à°¤à°° à°ª
Ġà°Ī à°¸
Ġà°ª à°µ
a l
à°¦ à°²à°ķ
à±į ),
à°® à°³
à±Ģ -
Ġà°¦ à°¶
à°Ł à°²à°¨
à°ļ à°¦
Ġ2 8
1 4
Ġà°ī à°·
1 6
Ġà°µ à°²à°¨
à±ĭ ?
Ġà°« à°¸
à°® à°°à°£
Ġà°ľà°° à°Ĺà°¨
Ġà°ĸ à°ļ
à±ģ -
à°¨à°¸ à°Ń
à°µ à°¬à°¡
à°¬ à°¤
Ġà°° à°¹à°¦
Ġ C
e s
à°¸ à°¨à°¸à°Ń
à±į (
à°ī à°ª
à°ĸ à°¨
Ġà°īà°¦ à°¯
à°°à°¸ à°¤
Ġà°ī à°°
à°¬ à°¨
à°¿ '
Ġà°ķ à°¤
Ġà°¦à°° à°ĸ
à±įâĢĮ âĢĻ
à°² à°¦
à°Ĳ à°ª
à±ģ ""
Ġà°¬à°¯ à°Ł
à°Ł à°¯
à°Ł à°¤
a r
à°¯ à°²à°ķ
à°¦à°° à°Ĺ
à°¹ à°ķ
à°· à°²à°ķ
à°ĩ à°°
à°°à°£ à°²
Ġà°Ĩ à°ľ
7 5
à°· à°¤
à°Ĥ !
Ġà°¬ à°¯à°²
à°Ń à°ķ
à°¯ à°¶
à°·à°£ à°²
à°° à°¡
à°°à°® à°¤
à°¾ :
à°· à°°
âĢĻ âĢĻ
1 1
à°¬ à°¸
Ġà°ħ à°°à°µ
Ġ6 0
Ġà°Ĳ à°Ł
Ġà°® à°²à°¯
Ġà°¬à°¯ à°Łà°ªà°¡
à°« à°²à°®
à°Ĩà°¯à°¨ à°ķ
8 0
à°°à°® à°£
à°¡ à°ª
Ġà°° à°¸
Ġà°ľ à°¡
Ġà°ħ à°«
à°· à°¤à°Ĺ
Ġà°ª à°¸
Ġà°ħà°¦à°¨ à°ª
à°¯à°ķ à°¤
Ġà°Ĩ à°ªà°°
Ġà°® à°¸
Ġà°ľà°° à°Ĺà°²
à°ĩ à°¨
à°¦ à°¸
Ġà°¸ à°ļ
Ġ: âģł
à±ģ '
Ġà°ĵ à°Łà°®
Ġà°¨ à°Ĺà°¦
à°¤ à°²à°¨
à°°à°ľ à°²à°¨
Ġà°¤à°® à°ķ
à°³ à°¨à°ķ
âĢĮ ,
2 2
Ġà°¬ à°²à°®
Ġ t
Ġ &
Ġà°İ à°µ
Ġà°µ à°¨à°°
Ġà°ħà°µ à°Ĺ
Ġà°Ĭ à°°
Ġà°¤à°° à°«
Ġà°Ĩ à°¦à°°
à°· à°ª
Ġ S
1 3
à°Ł à°ķà°²
Ġà°ķà°¥ à°¨
Ġ2 6
Ġ A
Ġà°Ĩ à°ķà°Ł
Ġà°Ĩà°« à°°
20 20
Ġà°ķà°® à°²
à°ļ à°ķà°ª
à°¯ à°¤à°¨
i c
Ġà°² à°¨
i t
Ġà°ķ à°µ
Ġà°ķ à°¶
Ġà°¦ à°¯
Ġà°¸ à°µà°°à°£
Ġà°ĺ à°°
à°¤ à°²à°ķ
e n
Ġà°° à°ļà°¯
à°¶ à°°
à°Ĩ à°¨
1 7
Ġ8 0
à°Ĺ à°ª
Ġ7 0
à°Ĩ à°¦
Ġ20 19
i on
Ġ I
à°Ń à°¦
Ġà°¤à°° à°Ĺà°¤
à°¨ à°¦à°¨
Ġà°¸à°¹ à°ľ
Ġà°° à°¨
à°¦à°² à°¯
Ġ2 7
Ġà°¨ à°°à°¸
à°ļ à°°à°£
Ġà°ľ à°¨à°¸
à°Ł à°²à°ķ
Ġà°ı à°µ
à°ķ à°¦
à°Ĩ à°²
9 0
Ġà°ķà°² à°ª
à°Ĩ à°¯
à°¾ -
2 4
à°ª à°µà°¨
Ġ )
à±į ?
à°ķ à°³
à°Ī à°¸
à°¤ à°¡
Ġà°Ĩà°² à°¸
Ġ M
Ġà°µ à°°à°²
à°Ĺ à°¢
à°° à°¥
Ġà°¸à°Ń à°²
à°¡ à°¦à°¨
Ġà°ľ à°ª
Ġ3 5
à±ĩ ?
. "
à°Ľ à°¨
à°· à°§
à°ª à°¶
à°¡ à°¯
Ġ T
Ġà°¤ à°®à°¨
Ġ s
Ġà°ļ à°¦à°µ
à°¤à°¨ à°ķ
Ġà°¤à°¨ à°¨
Ġà°ķà°¨ à°¬à°¡
à°Ĩ à°§
e l
Ġ3 1
à°¾ âĢĻ
à°® à°¶
à°¾ )
Ġà°ħ à°ĸ
à°¹ à°²
Ġ3 70
Ġà°° à°£
Ġ R
à°² à°¯à°¨
Ġà°ħ à°Ĺà°°
Ġà°Ł à°°
à°¿ ""
à°ī à°¨
à°² à°¬à°¡
Ġà°¸à°¹ à°ķà°°
à°µ à°ª
à°¤ à°¸
Ġ3 2
Ġà°ħ à°£
à°¡ à°µà°²
Ġ U
Ġ1 50
à°® à°ª
Ġà°® à°®à°¤
Ġ2 9
Ġ3 00
à°² à°Ł
à°Ĺ à°¦à°°
à±Ī :
à°Ī à°®
à°ŀ à°¤à°²
à°° à°·
Ġà°ķ à°ļ
à±Ĩ ,
Ġà°Ĳ à°ķ
Ġà°Ĭ à°ª
Ġà°¨ à°ķ
Ġ m
à°ª à°¬
à°µ à°³
à°¤à°® à°¯
à°Ń à°ľ
Ġà°Ī à°µ
à±į !
Ġ201 8
à°° à°«
Ġà°² à°²
3 5
à°ķà°°à°£ à°²
Ġà°İ à°ķà°°
à°ªà°¡ à°¤
Ġ N
à°Ń à°ľà°¨
à°® à°Ł
Ġà°ª à°¤à°ķ
à°Ĩ à°ª
à°¬ à°¹
à°®à°ķ à°®
Ġ c
à°ļà°¡ à°®
Ġà°µà°² à°¸
à°Ĩ à°ķ
Ġà°ħ à°ľà°¯
à°¨ à°²à°ķ
à°² à°²à°¨
Ġà°¸ à°ª
à°¯à°ķ à°°à°®
à±ĭ )
i s
Ġà° ł
à°¸ à°¤
à°Ĳ à°Ł
à±ģ âĢ¦
Ġ5 00
Ġà°ª à°ļ
à±į ""
à°Ń à°¯
Ġà°¬ à°¤
Ġà°Ł à°¨
Ġà°¸ à°Ĺà°Ł
à°£ à°ķ
Ġà°ª à°°à°®
Ġà°ķà°² à°¸
à°²à°ķ à°²
Ġà°¬à°² à°Ĺ
à°£ à°¨
Ġà°¸ à°¸
à°ļ à°®
à°ª à°ļ
à°¦ à°ª
a d
Ġà°¸ à°°à°¸
Ġà°ħà°² à°µ
Ġà°² à°¬
à°²à°ķ à°®
à°ĺà°Łà°¨ à°ª
4 5
Ġ P
Ġà°¦ à°¤
Ġà°¬à°² à°¹
à°³ à°ķ
Ġà°¤à°° à°¹
à±ģ âĢĿ
à°¸ à°ª
à°Ĥ âĢĻ
à°¬ à°¸à°Ń
à°ķà°¡ à°ķ
Ġ p
à°ŀ à°ª
l e
à°·à°£ à°®
à°³ à°²à°ķ
à°¥ à°°
à°°à°ķà°Łà°¨ à°²
3 00
à°µ à°Ń
à°¸à°® à°¸
à°° à°³à°²
Ġà°®à°¨ à°²
à°ļ à°µà°²à°¸
Ġ B
à°¸à°® à°¯
à°ª à°¸
Ġ [
Ġà°¸ à°ľ
à°Ł à°®à°°
Ġà°Ń à°Ł
Ġà°¬ à°ļ
à°¯à°µ à°¸à°°
Ġà°ķà°² à°°
Ġà°¨ à°Łà°¨
à±įâĢĮ ),
Ġà°ı à°Ł
à°°à°¤ à°¨
Ġà°ķà°² à°¦
Ġà°® à°Ł
à±Ĥ à°Ĥ
Ġà°² à°µ
à°¦ à°³
à°Ĩ à°¤
à°ĺ à°¨
à±Ģ ?
Ġà°ħà°¬ à°¦
Ġà°® à°£
à±ĭ -
Ġà°Ī à°¶
à±ģâĢĻ âĢĻ
à°İ à°Ł
à°ª à°µà°ļ
à° Ĭ
Ġà°° à°ľ
à°ª à°ľ
6 5
à°ħ à°®à°°
à°¯à°® à°µ
à°· à°²à°¨
à°ĩ à°¸
à°£ à°¤
à°Ł à°µ
Ġà°ļ à°®
Ġà°¤à°° à°ª
à°¯à°² à°ª
Ġà°Ĵ à°²
à°Ĩ à°¹
e d
à°Ĳ à°Ĩà°°
Ġà°ħà°¡ à°µ
à°¦à°² à°µ
à°² à°ļ
à°¾à°Ĥ ,
à°¤à°¨ à°®
à°ª à°µ
à°°à°Ĺ à°¡
Ġà°ħ à°ļ
Ġ3 3
à°¿ âĢĿ
Ġà°ĸ à°¨
2 3
à°¤à°® à°µ
Ġà°Ĺà°£ à°¨
à°¦à°¨ à°¨
à°Ĺ à°ķ
Ġà°° à°¹
Ġà°ī à°¡
Ġà°ĵ à°Łà°°
Ġ9 0
r o
Ġà°ĩ à°¤
à°¿ âĢ¦
à°°à°¸ à°¨à°²
à°Ĥ -
Ġà°ħà°² à°°
Ġà°® à°®
à°Ĺ à°ªà°¡
à±įâĢĮ (
à°Ĺà°² à°µ
Ġ4 5
Ġà°ľ à°¤
Ġà°¤ à°Ł
Ġà°Ķ à°·à°§
à°ķ à°ļ
à°Ĳ à°ķ
à°ķ à°²à°²
Ġ âĢĮ
à°¦ à°¦
Ġà°ħà°¨ à°Ĺ
à°ĩ à°µà°¨
a s
Ġà°ªà°° à°¸
à°ĺ à°ķ
à°Ī à°µ
à°µà°¡ à°®
Ġà°ķ à°¥à°²
à°³ à°¨à°²
Ġ %
à°® à°ļ
à°¥ à°µ
Ġà°ı à°ľ
à°Ł à°¬
à°°à°¤ à°²
Ġà°ª à°¬
Ġà°Ĳ à°°
Ġà°ı à°²
Ġà°¸à°¦ à°¸
à°¸à°Ń à°²
Ġà°µ à°°à°¦
Ġà°¸à°® à°Ĺ
Ġà°¬ à°ľ
Ġà°Ĳ à°¡
Ġà°ĺà°Łà°¨ à°ķ
.. .
à±ģ (
h e
Ġ G
Ġà°ľ à°Ĺ
d i
Ġà°ī à°ªà°°
à°Ī à°¯à°¨
à°° à°ªà°°
Ġ D
à°Ĳ à°¦
Ġà°¹ à°¨
Ġà°ľà°° à°Ĺà°¡
à°µ à°¸à°°
Ġà°°à°ķ à°®
Ġà°¯ à°ľà°®
Ġ3 7
à°Ł à°£à°®
Ġà°¸à°® à°¨
à°°à°µ à°ķ
à°¶ à°¯
2 8
âĢ į
Ġ F
à°Ĳ à°¤
99 9
Ġà°° à°ľà°¨
a m
20 19
à°¡ à°³
à°¨ à°¬à°¡
Ġ19 9
à°ķ à°¥
à°µà°¸ à°°à°®
Ġà°¹ à°¸
Ġà°µà°¸ à°¤
4 8
à°®à°¨ à°ķ
à°¦ à°µà°ļ
à°¡ à°Ĺà°²
Ġà°° à°¹à°¸
i l
à°Ĺà°³ à°µ
à°Ĳ à°İ
à°²à°¨ à°²
à°ħ à°¦à°¨
à°¦à°ķ à°°à°®
Ġ4 8
à°¶ à°®à°¨
Ġ4 00
Ġ201 7
Ġà°° à°ļ
Ġà°¯ à°¥
Ġà°īà°ª à°¸
2 6
à°¾ âĢ¦
à°¯ à°ªà°°
à°ħ à°Ĺ
à°ľ à°¯à°¨
4 7
à°¦ à°ķà°°
an d
â ĸ
Ġà°Ī à°®
à°° à°Łà°°
Ġ3 6
Ġ201 4
in g
à°³ à°¤
à°ħ à°¡
à°¿âĢĻ âĢĻ
à°ĸ à°®
à°¸ à°¨à°®
Ġ H
à°İ à°¯
4 00
à°ª à°ķà°²
à°Ĩ à°Ł
à°¿ (
Ġ7 5
à±ĭ !
à°° à°ĸ
à°ĩ à°¤à°¨
à°Ĵà°ķ à°µ
3 2
Ġà°ī à°¸
Ġ in
Ġ o
a me
a c
Ġ3 4
à°Ĩ à°«
à°ı à°¡
Ġà°ļ à°¤
à°§ à°²
Ġ f
à°ī à°Ĺ
8 5
à°ķ à°µà°°
à°ª à°¯
à°Ĵ à°ķà°°
à°¯à°® à°¯
Ġà°ħ à°¥
Ġà°° à°ĺ
à°¥ à°²à°®
à ¤
Ġ b
à°ķ à°¬
à°² à°µà°²
à°°à°£ à°¨
à°Ł à°¬à°¡
à°¯à°Łà°¨ à°²
u m
à°° à°Ĺà°¤
Ġà°ħ à°ªà°°
à°²à°ķ à°°
à±ģ /
2 7
Ġà°ķ à°£
à°¯à°¨ à°¤
t h
à°Ĺ à°®à°¨
Ġà°ħà°Ł à°µ
à°·à°£ à°ķ
201 4
à°¾à°Ĥ âĢĻ
à°ł à°®
Ġà°Ń à°Ĺ
à°¨ à°¬
3 3
à°¯ à°ļ
à°¤à°² à°¤
à°ı à°ķ
o m
Ġà°Ĵà°ķ à°¡
Ġà°ķ à°²à°ķà°²
à°°à°£ à°®à°¨
Ġà°ª à°Ĺ
) .
Ġà°· à°®
u s
Ġà°ľà°¨ à°¤
à°ľ à°µ
à°°à°® à°¨
Ġ n
à°·à°£ à°¨
à°ª à°ª
à°®à°¨ à°¸
Ġà°¤ à°¤
à°¥ à°²à°ķ
à°Ī à°²
Ġà°Ĵà°ķ à°¸
à±ģ ),
à°¶ à°¨à°®
à°® à°¬
Ġà°Ī à°°
Ġà°¬ à°ķ
à°®à°¨ à°®
à±ĩà°Ĥ .
Ġà°¤à°¨ à°¯
à°¯ à°µà°²à°¸
Ġà°ªà°¡ à°Ĺ
Ġà°ķà°¨ à°¬à°°
à°¯à°µ à°§
Ġ d
à°¬ à°ķ
à°¹à°°à°£ à°²
9 5
3 7
à°¨ à°µà°¨
à°¦à°° à°£
à°ĸ à°ķ
Ġà°¬à°² à°µ
Ġ12 5
Ġ201 6
à°£ à°¸
à±ĩ âĢ¦
âĢĮ .
à°ľ à°Ĺ
âĸ º
Ġà°ķ à°°à°£
Ġ |
à°ªà°£ à°²à°¨
à°ħ à°µà°¸à°°à°®
Ġà°Ī à°¡
Ġ E
u n
Ġà°¨ à°Ĺ
o l
à°µ à°£
Ġà°ı à°®à°¨
5 5
Ġà°· à°°
à±Ģ (
Ġ V
à±įâĢĮ '
à°· à°¤à°¨
à°µà°° à°°
à°°à°µ à°¹
à°ĸ à°ªà°Ł
Ġà°² à°¤
at ion
Ġà°ľà°¨ à°µà°°
Ġ3 8
Ġà°ļ à°µ
u r
à±Ģ !
à°¤ à°ªà°¡
Ġà°¸ à°Ĺ
à°Ł à°¸
Ġ L
à°µà°² à°ª
à°ª à°µà°°
Ġà° Ŀ
à°¨ à°ªà°¡
Ġ >
Ġà°¶ à°¶
Ġà°¶ à°¨
à°¾ '
Ġà°¶ à°°à°µ
Ġà°µà°° à°¦à°²
à°¶ à°¸
à°¯à°¡ à°®
à°¶ à°¨à°²
Ġà°ķà°² à°µ
7 7
Ġà°ħà°µ à°®
Ġ O
3 6
i d
Ġà°¸ à°µà°°
à±ģ à°ĥ
à°ļà°¬à°¡ à°¤
à±ģ ]
Ġ4 4
Ġà°Ľ à°¤
Ġà°Ĵ à°¬
à°² à°µà°°
Ġà°ĵ à°°
Ġà°¸à°° à°¦
à°ľ à°¶
à°ħ à°¬
4 9
Ġà°ĺ à°¨à°¤
Ġ W
à°¯à°¸à°Ń à°²
Ġà°Ĳ à°¶
à°¤ à°®à°¨
Ġà°¡ à°¯
Ġà°ķ à°µà°°
Ġà°Ī à°ľ
Ġà°ī à°ķ
2 9
Ġà°ľà°°à°Ĺ à°ķ
Ġà°¤à°² à°ªà°¡
à°Ĺ à°Ĺ
Ġà°¸à°° à°³
à°ľà°¯ à°¸
à±ģ. ..
e t
à°Ĩ à°µ
à°° à°¥à°®
Ġ2 50
à°Ńà°® à°¯
à°Ł à°µà°¶
Ġà°¸ à°¦à°°
à°¨ à°ļ
à°Ĺà°° à°Ĺ
à°¯à°² à°¤
Ġà°ķ à°¦à°²
i g
à°¸ à°Ł
à°ª à°µà°²
à°· à°²à°²
à°Ń à°µà°¨
Ġà°ļ à°²à°¨
3 8
Ġà°¹ à°²
Ġà°ªà°° à°²
o me
Ġà°ķ à°ķ
à°¤à°¨ à°¨
à°¯ à°µà°°
Ġà°« à°¡
6 4
3 9
à°ī à°²
Ġ4 9
Ġ( _
Ġà°® à°Ĺ
Ġà°®à°° à°²
Ġà°µ à°ķ
à°ľ à°°à°µ
à°¦ à°¶
à°Ĺà°² à°°
Ġà°¬ à°¨
à± ¦
Ġà°¹ à°¤à°®
Ġ Â
Ġà°Ĳ à°Ĺ
à°¯à°ķ à°ª
Ġ6 4
à°Ł à°ªà°°
à±Ģ âĢĻ
à°µ à°¸à°¨
Ġà°¯ à°¤
Ġà°ª à°¤à°¨
Ġà°ķ à°¬
à°ĺ à°µ
Ġà°ħà°µ à°¤à°°
à°Ĺ à°¶
à°¸ à°¯
Ġà°ħà°¡ à°Ĺ
à°ī à°¦à°¯
à°£ à°ª
Ġà°ĵ à°ķ
19 9
à°¤ à°°à°®
à°°à°ķ à°²
e c
à°Ł à°Ł
à°¥ à°²à°¨
Ġ4 2
3 4
à°ķ à°¬à°¡
Ġà°µ à°£
à°¥ à°¤
à°ĺ à°°
à±ĭ :
à°°à°¸ à°¨à°ķ
7 8
à°Ńà°® à°µ
à°Ī à°¡
Ġ X
Ġà°ı à°¨
Ġà°¨ à°¯à°¨à°¤
Ġà°ı à°¸
à°Ĺ à°¯
à°Ĳ à°¡
Ġ201 5
Ġà°īà°ª à°¦
Ġ w
Ġ6 5
Ġo f
à°¡ à°¤à°²
Ġ19 8
7 6
1 50
à°¦ à°¯à°®
Ġà°ľà°¯ à°²à°²
Ġà°¹ à°¯
Ġà°Ĩà°¯à°¨ à°¤
à°¯ à°Ń
à°ļ à°®à°¨
o w
âĢĮ âĢĮ
Ġà°Ĵà°ķ à°¦
à°¿? "
à°ĵ à°Ł
à°ļ à°¯à°®
6 00
à°¦à°° à°ª
à°ĩ à°¶
à°°à°¤ à°ķ
Ġà°° à°®à°£
Ġà°ħà°ª à°µ
à°²à°ķ à°ª
à°ĩ à°ķà°ª
à°¿ ),
à±į /
à°Ĩà°¯à°¨ à°¤
à°µ à°ľ
à°§à°¨ à°²à°¨
à°Ĥ ""
à°ª à°°à°®
Ġ5 5
Ġà°īà°ª à°¶à°®à°¨
à°Ĩ à°¶
Ġ g
Ġà°¦à°¯ à°ļ
à°¡à°µ à°¦
à°Ĵà°ķ à°Ł
à°Ĺà°² à°¦
à°Ĺ à°°à°ķ
à°¤à°² à°ª
4 6
à°İ à°°
Ġà°Ĵ à°°
Ġà°¤ à°¡
Ġà°¬à°² à°ªà°°
Ġ a
à°Ĥ '
4 2
Ġà°Ĩ à°Ĺà°¸
3 1
Ġà°¶ à°°à°¦
o v
à°°à°£ à°¬
Ġ l
à°¾à°Ĥ ?
s t
Ġ1 20
Ġà°° à°ª
7 2
201 8
à°²à°² à°¤
Ġ h
Ġà°Ł à°ļ
à°¦à°° à°ĸ
à°¦ à°²à°¨
Ġ3 9
à°¶à°® à°¯
à°§à°® à°µ
Ġà°¨ à°¯
à°ľ à°Ł
à°Ĺ à°µà°°
6 8
Ġà°¦ à°¸
à°¹ à°¬
à°ĺ à°®
à°® à°°à°¸
à°Ĩ à°¡
Ġà°Ī à°¯à°¨
à°ľà°¨ à°®
à±ĭ âĢĻ
Ġà°¶ à°¬
2 50
Ġ14 4
Ġà°ľ à°²à°®
Ġ20 21
à±Ĥ !
à°¤ à°ªà°°
à±Ĩà±ĸ à°Ĥ
4 4
à°ŀ à°¤
à°¾? "
n t
à°Łà°ªà°¡ à°¤
à°¬ à°®
Ġà°° à°¤
Ġ4 6
à°ª à°¨à°²
à° Ķ
Ġà°Ĩà°¶ à°²
à°Ĳ à°İà°¸
Ġà°® à°ķ
à°µà°¹ à°°
à°ļ à°¦à°Ĺ
Ġà°¤ à°²à°ª
Ġ4 3
à°® à°ľ
à°¯à°µ à°¦
à°² à°µà°¡
à°İ à°µ
Ġà°ľ à°¨à°®
Ġà°¹ à°µ
Ġà°Ī à°ķ
5 6
à°¯ à°µà°²
à°¯à°Łà°¨ à°ķ
à°İ à°Ĺ
Ġà°ĺ à°Ł
à±Ģ ),
à°ĵ à°ª
r a
Ġà°İ à°¡à°®
à±į âĢį
Ġ $
à°Ĥ (
à±ĩ :
à°Ĥ. "
à°ľà°¯à°¨ à°Ĺà°°
Ġà°Ĩ à°ķà°²
à°¤à°ķ à°¨
à°²à°ķ à°¡à°Ĺ
à°¸ à°¸
à°· à°µà°°
Ġà°ľ à°¬
Ġà°ĩ à°ľ
Ġà°ķ à°²à°²
t ion
Ġà°¬à°² à°ªà°¡
Ġà°Ĩà°¦à°° à°£
Ġ K
Ġà°¶ à°µ
u g
à°Ń à°¨
à±ģ) .
Ġà°ĩ à°Łà°²
Ġà°ĵ à°¦
Ġà°¬ à°Łà°¨
à°Ń à°ªà°¡
Ġà°Ķ à°Ł
à°ķà°°à°£ à°ķ
à°ľà°¨ à°¸
19 8
6 6
Ġà°® à°¯
à°ı à°ı
Ġà°Ń à°Ĺà°µ
7 9
5 8
H ome
Ġà°ķ à°®à°°
à±ģ? "
Ġà°ľ à°²à°ª
à°²à°Ń à°®
Ġà°ľà°Ĺ à°ªà°¤
à°ħ à°¹
Ġà°Ī à°²
à±Ī .
à°°à°® à°ķ
Ġ4 1
Ġà°Ĭ à°°à°Ł
7 4
à°Ĩ à°²à°¯
à°°à°µ à°ļ
Ġà°² à°Ĺ
Ġà°Ĺ à°®
à°¤à°° à°£
Ġà°§à°° à°²à°¨
à°ķ à°ľ
Ġà°Ĳ à°«
à°ı à°¸
u l
à°ļà°¨ à°²à°¨
à°¾ (
Ġà°Ĺ à°ľ
Ġ3 50
à°ķ à°·
Ġ `
à°Ĺ à°¬
Ġà°Ĩà°¯à°¨ à°ª
à°Ī à°ĵ
7 1
Ġà°® à°ļ
Ġà°°à°ľ à°¤
à°°à°ª à°ķ
à°£ à°µ
à°Ĩà°¯à°¨ à°¨
à°Ń à°¤
Ġà°ªà°¡ à°ķ
à°Ĺ à°°à°²
8 00
Ġà°¤à°° à°µ
Ġ v
à°°à°® à°¶
à°· à°¸
à°¦à°¨ à°ķ
Ġt he
à°¥ à°¨à°²
Ġà°¤ à°²à°ķ
4 3
Ġà°¤à°¨ à°ª
Ġà°ªà°¡ à°¤
à°¦à°² à°¤
N ame
à°§ à°Ĺ
Ġà°¦ à°¹à°¨
Ġà°ħ à°¯à°¨
Ġ5 9
Ġà°ľà°¤ à°ļ
à°µà°° à°®
Ġà°ľà°° à°ª
à°¶ à°¬
Ġà°ª à°¯à°¨
Ġ5 2
Ġà°ª à°ª
à°¿. ..
à°ªà°° à°ļà°¡
Ġà°µà°ļ à°¨
Ġà°ľ à°µà°¹à°°
Ġ4 7
à°¨ à°·
à°¯ à°¸à°®
Ġà°¬ à°¬
"" ""
Ġ +
u t
o t
s o
à±Ĥ ?
Ġà°¦ à°¶à°ķ
Ġà°¸ à°¯
à°°à°® à°¯
6 9
à°¦à°¯ à°ļ
Ġà°Ī à°ļ
à°°à°µ à°¡
ĠâĢĺ âĢĺ
à°¹à°¦ à°ªà°¡
201 7
201 6
à°° à°²à°¨
à°Ĵ à°¤
à°³ à°¡
à°ļ à°µà°¦
Ġà°ħ à°·
Ġà°¸à°® à°¯à°®
à°«à°²à°® à°¯
Ġà°ķà°¨ à°ªà°¡
à±ģ. """
Ġà°Ĩ à°Łà°²
Ġà°ħà°¨ à°¡
à°İ à°¦
re s
à°ķà°² à°¤
à°µ à°ļà°¨
5 2
à°¥ à°ª
Ġà°ª à°ł
Ġà°®à°¨ à°¦
à°ķà°² à°ª
Ġ5 1
Ġ8 00
Ġà°ļà°¦ à°µà°¡
Ġà°ħà°¨ à°°
à°İ à°²à°ķ
à±ģ ''
Ġà°ı à°¬
à±ĩ âĢĻ
Ġ5 8
Ġà°Ĩ à°µà°°à°£
6 2
à°Ł à°¦
Ġà°ļ à°¦à°°à°ª
à°ł à°ª
à°ķ à°¤à°¨
à°µ à°ľà°®
um b
6 1
à°ª à°§
à°³ à°®
Ġà°ħà°µà°¸à°°à°® à°¨
à°¥ à°Ĺ
Ġà°§ à°°à°¨
à°ĩ à°·
à°²à°ª à°²
5 1
à°¯à°¤ à°²à°¨
à°°à°µ à°ļà°¨
à±Ģ /
Ġ k
à°Ĵ à°¡
Ġ12 8
à°¶ à°¤
Ġà°¶ à°°à°£
à°² à°§à°¨
à°µ à°¤à°²
6 7
Ġà°µ à°¦à°²
à°° à°ªà°°à°ļ
Ġà°ı à°ķà°Ĺ
Ġà°ĩ à°¤à°¨
à°ħ à°µà°¨
à°İ à°¤
à°§ à°ª
Ġà°¸à°® à°¤
7 00
à°µ à°²à°ķ
Ġà°ķà°² à°¯
à°µ à°¬
à°°à°µ à°¨
Ġà°Ī à°¨
Ġà°°à°ķ à°°à°ķ
à°ĺà°Łà°¨ à°ķ
à±įâĢĮ /
à°Ĳ à°ı
à°Ń à°°à°£
à°µà°¤ à°ķ
di a
à°Ł à°®à°¨
Ġà°ī à°ľ
à°ī à°®
à°ħà°¦à°¨ à°ª
à°Ĥ ),
à°¹ à°ª
à°¤à°¨ à°²
4 1
à°µà°° à°¨
Ġà°Ń à°°à°¤
Ġ9 9
à°ªà°¡ à°Ł
Â »
à±Ī -
à°Ĩ à°ªà°°
à°°à°£à°® à°µ
Ġà°Ĵà°ķ à°µ
t er
à°Ĺà°£ à°¨à°²
e ad
Ġà°Ĩ à°ĸà°°
à°ĩ à°¤à°¡
à°ĺ à°Ł
ĠT el
Ġà°¶ à°°à°¤
à°ľ à°Ĺà°¨
Ġà°ħà°µ à°²
à°Ī à°¨
0 5
Ġà°ľà°°à°Ĺ à°¬
à°Ĳ à°²
Ġà°Ĺ à°²à°µ
I I
Ġà°¨ à°¶
à°³ à°²à°ª
à°µ à°¤à°®
à°ħ à°ľ
à°¤à°® à°ķ
à°ķà°°à°£ à°¨
Ġà°§ à°°à°ķ
Ġà°¸à°Ń à°ķ
Ġà°®à°¹ à°°
à°¨ à°µà°ļ
à°ķ à°¤à°²
Ġà°° à°ļà°¨à°²
Ġà°®à°° à°ļ
8 8
à°§ à°¨à°¨
6 3
Ġà°Ĩà°ļ à°°à°£
à°§ à°°à°£
à°Ł à°¬à°¦
à°ħ à°¶
à°Ĳ à°¬
r i
à°¨ à°²à°¨
à°° à°¯à°²
Ġà°Ĩ à°ļà°°
Ġà°īà°ª à°Ĺ
c h
à°Ī à°¶
Ġà°¤ à°²à°¨
o d
5 9
Ġà°ĩ à°¯
à°ķ à°®à°²
Ġà°¶ à°¸
Ġà°ĺà°Łà°¨ à°¤
Ġà°ħà°¸ à°¹
Ġà°ħ à°¤à°²
à°¯à°Ĺà°² à°°
Ġà°Ĵà°ķ à°ª
h t
Ġà°ª à°¯
à±įâĢĮ !
à°¨à°µ à°¤
à°¡ à°²à°¨
Ġà°® à°ľ
Ġà°ļ à°ļ
à±Ĥ -
à°Ĩ à°Ĺ
Ġ13 0
Ġà°° à°¬
à°Ĥ âĢ¦
in e
ug u
7 3
Ġà°ľ à°Ĺà°¦
Ġà°¹ à°®
à°¤à°° à°ļ
à°³ à°µ
à°¨ à°¤à°¨
à°µ à°ľà°¨
Ġà°¤à°¨ à°¤
Ġà°®à°¹ à°¬
à°ª à°¨à°ķ
Ġ5 6
f o
Ġà°ĩ à°µà°¨
Ġà°Ń à°¯à°®
Ġà°ħà°¸ à°®
Ġ7 2
â Ļ
Ġà°īà°ª à°®
en t
Ġà°īà°ª à°ķà°°à°£
20 15
Ġà°ĸ à°®
Ġà°· à°°à°¤
5 4
à±ģ "
à°ªà°¦ à°®
o c
Ġà°¸à°® à°°à°¯
à°Ľ à°¤
à°° à°ªà°Ł
à°¤à°¨ à°ª
ĠâĢ ¦
Ġà°ĵ à°²
Ġà°¸à°¹ à°¨
à° Ŀ
Ġà°ķ à°¡à°Ĺ
Ġà°ħ à°°à°£
i r
à°¾à°Ĥ !
Ġà°¯ à°¡
Ġ5 4
à°² à°ªà°Ł
e m
à°¡ à°ķà°ª
Ġà°ī à°§
Ġà°ħà°° à°¬
ĠTel ugu
a y
à°¤à°® à°®
à°°à°® à°µ
à°ķà°¡ à°¨
a g
à°¸ à°ļ
Ġà°¸ à°¡à°²
Ġà°ħà°¨ à°²
à°°à°¹ à°®
a b
à°²à°¨ à°¨
Ġ6 2
à°ı à°µ
5 3
Ġà°Ĳ à°Ĳà°Ł
à°· à°Ĺ
Ġà°ĸ à°²
Ġà°Ĩà°¡ à°ª
à°« à°¸
à°¤à°ķ à°®
Ġ6 00
5 7
Ġà°¬à°¯ à°Łà°ª
Ġà°° à°ļà°¨
à°§à°¨ à°²à°ķ
à°¦ à°ªà°¡
à±Ģ âĢĮ
à°¥ à°¤à°ķ
à°¨ à°µà°²
à°· à°¬
à°° à°ľà°¨
à°®à°¨ à°Ĺ
Ġà°Ĳ à°ı
à°µ à°¯à°¸
à°§ à°¨à°ķ
à±į âĢĿ
à°¦à°° à°²
i re
à°¦ à°¬
à°İ à°¡
Ġà°ªà°° à°ļ
Ġà°İ à°µà°¡
Ġà°µ à°¤
Ġà°¸à°¹ à°ļà°°
Ġ16 0
à°¦ à°¯à°ª
Ġ6 7
Ġ200 9
à°² à°ªà°¡
âĢĻ .
à°Ĩà°¸ à°ķ
à°µà°¹à°£ à°ķ
à°¤ à°¦à°¨
Ġà°İà°¨ à°°
Ġà°Ł à°®
à°ı à°²
à°¸ à°¬
Ġà°¥ à°°
Ġà°¤à°¨ à°¦
à°ª à°¦à°¨
à°¡ à°µà°²à°¸
Ġà°ľ à°¹
à°£ à°¦
Ġ18 0
à°¤ à°°à°ķ
à°¨à°® à°¯
à°° à°²à°²
à°¦ à°ļ
Ġà°¹ à°¦
me nt
Ġà°¨à°Łà°¨ à°ķ
à°§ à°®à°¨
Ġà°ĵ à°µ
à°ĸà°° à°°
à°¯à°Ĺà°² à°¦
à°¿ ''
à±įâĢĮ ?
Ġt o
à°ħ à°µà°ķ
à°²à°ķ à°¨
Ġà°Ĺ à°µ
Ġ10 8
à±ĩ à±į
Ġà°¹ à°¸à°¨
Ġà° ĭ
à°Ĺ à°£à°²
à°¬ à°¯à°Ł
à°³ à°²à°¨
Ġà°ĩ à°ķà°ª
Ġà°®à°¨ à°µ
à°ļà°¬à°¡ à°²
à°§à°® à°¯
I D
à±ĩ -
à°§ à°°à°²
th umb
Ġà°¯ à°¶
à°² à°®à°¨
à°Ĳ à°°
à°ª à°Ĺà°²
Ġà°µ à°¯
à°¬ à°ľ
1 000
à±ĭ âĢ¦
à°¹ à°¨à°¦
Ġà°ī à°¯
or t
Ġ2 000
Ġ1 10
Ġà°ķà°¸ à°°à°¤
Ġà°ªà°¡ à°Ł
Ġ6 8
Ġ201 3
c e
à°Ĵ à°¯
à°°à°® à°®
Ġ5 3
Ġà°® à°¤à°ª
Ġà°Ĩ à°Ńà°°à°£
Ġà°® à°¡
à°ľ à°¡
à°ĸ à°ļ
à°¿âĢĻ .
9 8
à°¾ ""
Ġ1 000
à°ķ à°£
à±Ģ '
à°® à°Ń
à°ħà°µ à°¸à°°
Ġà°ħà°µ à°¸
à°Ł à°²à°²
à°³ à°Ĺ
Ġà°ħà°µ à°¨
Ġà°ħà°¸ à°¦
à°¤ à°¶
Ġ10 5
Ġà°Ī à°¦
Ġà°ķà°¡ à°ª
à°µà°ķ à°®
à°§ à°¸
o s
à°Ĺ à°¤à°¨
Ġà°ĺà°Łà°¨ à°¨
à±Ĩ à±į
à°¹ à°¤à°²
à°® à°ªà°ķ
Ġà°ªà°° à°¦
à°®à°¨ à°²
Ġà°¨à°® à°¸
Ġ"" ""
à°¾à°Ĥ '
à±Ĩà°Ĥ .
Ġà°¶ à°¤à°ķ
Ġà°ı à°Ĳà°¸
à°¦à°² à°ļ
à°Ĺ à°ļ
à°°à°¹ à°¦
à°Ĭ à°°
à°¨à°ª à°¦
à±ĭ '
Ġà°ªà°¡ à°²
à°²à°¨ à°ķ
Ġ7 1
à°® à°²à°¨
Ġà°¹ à°ľ
Ġà°īà°ª à°¨
Ġ """
à°Ī à°ķ
à°ĩ à°³
i v
à°¯ à°¦à°¨
Ġà°ħà°µà°¸à°°à°® à°µ
à°°à°¸ à°ķ
Ġà°¤à°² à°¸
à±įâĢĮâĢĮ âĢĮâĢĮ
Ġà°ķà°² à°µà°°
à°Ī à°°
Ġ1 19
à°ı à°Ł
à°¾à°Ĥ :
Ġà°İà°µà°° à°¨
Ġ200 8
Ġ J
à°ļ à°¦à°µ
Ġà°Ĩà°ļ à°°à°£à°²
w w
Ġà°ļ à°ª
à°¨ à°µà°°
à°ļà°Ĺà°² à°°
Ġ8 5
à°Łà°ª à°°à°®
à°¯à°ķ à°®
Ġà°° à°Ĺ
à°¬ à°£
Ġ7 4
à±į. "
Ġ7 8
à°°à°¹ à°£
Ġ9 5
à°¾ ),
à°¨à°µ à°ľ
Ġ6 9
0 9
à°¿) .
Ġ {
à°¿ "
à°° à°Ĺà°¨
3 50
à°ħ à°ļ
à°£à°¨ à°·
à°Ł à°ļ
à°ªà°ķ à°®
Ġà°² à°¡
à°° à°¬à°¡
Ġà°ª à°³
à°ĩ à°¡
à°ĵ à°µà°°
Ġà°ħ à°¦à°°à°Ĺ
à°ĸ à°¤
Ġ re
à°¤ à°¤à°²
à°ļà°¨ à°¨
à°µà°¡ à°²
à°ľ à°¯à°®
à±Ĥ )
Ġà°Ĩ à°¡à°¨
à°Ĵà°ķ à°¸
à°ļà°Ĺà°² à°¦
à°¶ à°¨à°ķ
Ġà°ī à°Ńà°¯
à°¸à°¹ à°ľ
à°¨ à°®à°¨
Ġà°µ à°§
à°® à°²à°¯
Ġà°ľà°° à°Ĺà°¦
Ġà°¤ à°µ
à°¿ âĢĮ
à°ī à°°
Ġà°ĺ à°¨à°µ
a p
2 000
à°Ĵ à°ª
fo x
âĻ ¦
à°¡ à°°à°²
Ġà°® à°Ĺà°µ
Ġà°Ĳ à°İ
ire fox
à°°à°ľ à°²à°¤
Ġà°Ĩ à°¡à°µ
20 22
Ġà°Ĳ à°ļ
Ġà°®à°°à°£ à°¶
R R
o g
à±ĩ )
à°¦à°¨ à°²à°¨
à°²à°Ń à°¤à°°
Ġà°ħà°µ à°¤
à°ķ à°¸à°Ń
à°¸ à°¨à°²
à°Ł à°³
à°ł à°ķ
Ġà°ªà°¡ à°ķà°²
Ġà°ı à°ķà°ķ
Ġ5 7
à°ķà°° à°¨
Ġà°ĸ à°¡
8 9
Ġà°¹ à°¡
à°·à°² à°¤
Ġà°ħà°£ à°ļ
à°¦ à°°à°®
à°¾à°Ĥ âĢĻâĢĻ
à°¿ à±į
A l
Ġ r
Ġà°Ĩà°¡ à°Ł
à°¿. """
Ġ and
Ġà°®à°¤à°ª à°°à°®
Ġ7 3
Ġà°¦ à°µ
à°®à°¹ à°°
Ġ6 3
Ġà°ľ à°¨à°¨
r and
Ġà°¹ à°¤à°®à°¯
i m
à°³ à°ª
à°¦à°µ à°Ĺ
à°¯à°¬à°¡ à°¤
Ġà°ħà°¨ à°¨
Ġà°ħ à°¹à°°
ĠU S
it y
à°Ł à°µà°ļ
à°¿. )
à°¯ à°ľà°¨
à°ı à°³
Ġà°®à°°à°£ à°®
Ġà°Ī à°Łà°²
à°°à°ļ à°¯
à°Ĺ à°²à°¨
à°Ĳ à°İà°²
à°ľà°¯ à°¶
à°ªà°£ à°²à°ª
à°ı à°°
Ġà°Ĺà°£ à°¤
Ġ201 1
à°¸à°¨à°¸à°Ń à°²
Ġà°¦ à°Ł
Ġà°ħà°Ń à°¯
ĠR ead
Ġà°ħà°² à°¸
à°µà°¹ à°£à°²
à±įâĢĮ âĢĵ
Ġ17 5
Ġ200 7
à°®à°¨ à°¦
Ġà°Ĩà°µ à°¶
à°ļ à°ª
à°ī à°·
à°īà°ª à°¯
9 00
à°¿. .
Ġà°¨ à°µà°²
8 6
Ġà°İ à°ľ
à°² à°ªà°°
Ġà°ħà°µ à°§
à°¤ à°¬
Ġà°ªà°¡ à°µ
Ġà°® à°°à°®
à°ī à°ļ
à°¤à°° à°Ĺà°¤
Ġà°Ĩà°µà°°à°£ à°²
Ġà°¯ à°®
à°²à°² à°²
q u
à°Ľ à°®
à°ľ à°¬
8 7
Ġ201 2
an g
à°µà°¨ à°°
Ġà°Ĺà°¡ à°ļ
à°ķà°° à°²
ĠÂ °
à°µ à°Ĺà°¨
à°ľà°¨ à°µà°°
à±įâĢĻ .
à°² à°¤à°²
Ġà°ħà°¨ à°µà°¸à°°
à°Łà°® à°µ
à°°à°® à°¬à°¦
Ġà°¨ à°ª
Ġà°Ī à°Ł
à°Ĵ à°²
à°µ à°Ĺà°²
à°ļ à°µà°²
à°ªà°¡ à°ķ
à±ģ. .
O S
e x
Ġà°µ à°ľ
à°· à°¦
à°Ń à°¸
Ġà°ħà°² à°¹
Ġà°Ĵà°ķ à°¨
Ġà°ħà°¸ à°¹à°¨
is t
Ġà°ª à°²à°ķ
Ġà°İ à°®à°°
Ġà°ĵ à°¸
Ġà°Ĳ à°°à°¨
Ġà°ħà°µ à°¯à°µ
à°¤à°µ à°®
Ġà°ķà°² à°¹
à°µà°¨ à°¸
à°± à°ª
u re
Ġà°ªà°¦ à°®
Ġà°ļà°²à°¨ à°ļ
8 3
ĠI n
à°Ń à°µà°¤
Ġà°« à°¨
à°¶ à°¦
Ġà°Ĩ à°²à°ķ
Ġ14 0
9 4
à°°à°ķ à°®
à°¢ à°®
à°¦à°¨ à°®
à°²à°² à°ª
9 7
Ġà°Ĩ à°Ĺà°²
à°µà°¡ à°¨
er s
à°·à°£ à°Ĺ
Ġ9 6
Ġà°¸ à°«
à°ĺ à°²
Ġà°¹ à°ł
à°« à°¨
p s
Ġà°Ł à°µà°°
Ġà°· à°Ł
à°ľà°¯ à°²à°²
à°Ĵ à°ķà°ª
à°²à°µ à°¬à°¡
Ġà°° à°¥
Ġà°ĩ à°¯à°°
Ġà°Ń à°²
à°¦à°° à°¦
Ġà°ľ à°¯à°ª
à°°à°ķ à°¡
200 9
à°°à°ľ à°²à°²
à°ĵ à°¸
à±Ģ âĢ¦
Ġà°ī à°¬
à°Ń à°§
Ġà°ķà°² à°Ĺ
Ġ200 6
à°ĩ à°®
Ġà°Ī à°ª
Ġà°®à°¨ à°²à°¨
Ġà°ħ à°Łà°²
9 6
à°Ĳ à°«
à°Ĥ ]
Ġ200 4
I P
_ _
à°ħ à°ĸ
Ġ Âł
Ġà°ľ à°¯à°°
à°¾. "
Ġà°īà°ª à°ķ
Ġ6 6
8 4
à°¥ à°²à°²
à°³ à°¦
à°ª à°°à°¸
à°Ĺ à°ķà°°
à°ĩ à°¬
Ġà°¯ à°¸
Ġ x
à°² à°¯à°®
à°Ł à°²à°¤
à°® à°²à°ķ
Ġà°ħ à°µà°°
Ġà°ħ à°ľà°°
à°ľà°¨ à°ķ
Ġà°İ à°¬
à°ĩ à°ļ
Ġà°ķà°² à°µà°¡
à°µà°¨ à°¶
Ġà°Ĩà°ķ à°¸
à°§ à°µà°¨
Ġ7 00
ig ht
B I
à±į âĢ¦
à°ªà°° à°ļà°¬à°¡
à°Ĳ à°¨
Ġà°¨ à°µà°¦
Ġà°ľ à°ķ
à°°à°ķ à°°
à°ľà°¨ à°²
Ġà°ıà°® à°¯
201 3
Ġ Y
à°¶ à°ªà°°
à°¤à°¨ à°¤
Ġà°ħ à°ĺ
0 4
8 2
à ¥
à°µ à°ªà°¡
Ġà°ĩ à°¤à°¡
Ġà°Ĳà°ı à°İà°¸
à°°à°¸ à°®
o p
0 3
à°¥ à°²à°¤
à°°à°¤ à°¤
Ġ10 4
in d
à±įâĢĮâĢĻ .
201 1
n e
à°Ĺ à°¬à°¡
Ġà°¦ à°¨
Ġà°İ à°Ĺà°¸
à°°à°µ à°£
à°ķà°°à°£ à°²à°¨
Ġà°Ĩ à°³
à°ı à°Ĳ
à°¨à°ķ à°µ
à°¡ à°Łà°®
à°ļ à°¦à°¨
Ġà°ıà°® à°µ
Ġà°Ĩ à°¡à°²
f t
à°¨ à°¶
% )
à°Ĩà°¯à°¨ à°ª
à°¡à°¡ à°®
7 50
9 1
u p
Ġà°§ à°¨à°µ
Ġà°īà°ª à°µ
a v
à°µ à°§
à°µà°° à°¦
Ġà°Ł à°¯
Ġà°ħà°¸ à°Ń
Ġà°Ĵ à°µ
Ġà°¦ à°«
u b
a k
à°¬ à°²à°®
Ġ' '
Al so
à°¡ à°ļ
à°ªà°¡ à°¡
à°ı à°¹
Ġà°¤à°²à°ªà°¡ à°¨
Ġ }
Ġà°ĵ à°¬
à°¯à°£ à°°
à°ķ à°¹
Ġà°Ĩ à°ªà°²
Ġ6 1
à°Ĺ à°ķà°°à°®
1 20
9 3
at e
Ġà°¨ à°¡à°µ
à°¾! "
Ġà°ľ à°¨à°°
Ġà°Ĺà°¡ à°ª
à°¡ à°¬à°¡
"" ."
15 00
9 2
à°¤ à°Ń
à°Ĩ à°ļ
Ġà°Ĩà°¸ à°¨
à±Ĥ âĢ¦
Ġà°®à°³ à°¯
à°¸à°Ń à°ķ
à°²à°¯à°¨ à°Ĺ
à°Ķ à°·à°§
à°²à°µ à°Ĺ
Ġ7 6
Ġà°ª à°²à°ķà°°
à°¾à°Ĥ âĢĿ
"""" """
à±į """
Ġà°ª à°¤à°¨à°®
Ġà°ķ à°§
Ġà°¨ à°¬
à°¦à°² à°Ĺ
res s
i a
à°¨ à°ªà°°
Ġà°¤ à°Ĺà°²
à°Ń à°°à°¤
Ġà°Ĳ à°İà°¨
200 8
Ġà°Ł à°¬
0 2
à°µ à°®à°¨
Ġà°Ĵ à°®à°°
Ġ8 8
I C
Ġà°µ à°°à°¸
à°· à°Ń
Ġà°Ń à°¨
0 6
à°° à°²à°ķ
Ġ8 1
à°ļ à°¤
à°ļ à°²à°ķ
Ġà°¦ à°¹
à°¯à°ªà°¡ à°¤
à±ģâĢĻ .
0 1
e w
à°ħ à°«
Ġà°¯ à°§
Ġà°¸à°µà°°à°£ à°²
Ġà°¸à°¹ à°µ
Ġà°ªà°¡ à°¨
à°¯à°ª à°°à°®
Ġà°ı à°¯
200 4
à°İ à°¡à°®
Ġs t
Ġ7 7
à°® à°µà°°
à°Ĵ à°°
Ġ200 5
b rand
à°¤ à°¬à°¡
à°ļ à°¸
à°§ à°µà°°
Ġà°¸à°¹ à°ľà°®
Ġà°¨ à°ľ
à°°à°£ à°ķà°°
Ġ8 3
ĠN W
Ġ #
Ġà°Ĳ à°İà°¸
il l
à°Ľ à°Ĺ
Ġà°Ńà°Ĺ à°µà°¤
à°¤ à°ªà°¦
à°¦ à°İà°¤
Ġà°® à°¦à°¨
h ort
) :
Ġà°ªà°¡ à°¡
à°¦à°µ à°¶
à°¨ à°¤à°®
à°Ĳ à°İà°¨
20 21
Ġ20 22
Ġà°ª à°¥
Ġ8 4
à°¦ à°Ĺà°²
à°Ī à°ª
Ġ i
à°ħ à°¯à°¨
Ġà°ľà°° à°ªà°¡
Ġ8 2
à°¯à°¤ à°¤
Ġ9 1
à°ĵ à°İà°¸
Ġ â
à±ģ âĢĮ
à°¦ à°®à°¨
Ġà°« à°²à°®
à°¨ à°¤à°²
Ġà°ĸ à°ľ
à°ªà°Ĺ à°²à°¨
Ġà°ħà°¤ à°£
à°³à°¨ à°ķà°°
à°£ à°¯à°®
à°ľà°¨ à°°à°²
à°¯à°¤ à°ķ
à°Ĭ à°ª
Ġà°ľ à°µà°¦
Ġà°Ń à°¯à°ª
à°Ĺà°® à°§
99 0
à°ŀ à°²
Ġà°¸ à°ķà°²
à°İ à°µà°¡
Ġà°Ĳ à°Ĩà°°
à°ķà°ª à°ķ
à°¸ à°®à°°
à°² à°Łà°°
à°¹ à°µ
à°ªà°¡ à°²
201 2
Ġà°ĩ à°¡
o re
Ġà°¦ à°¯à°¨
à°Ń à°Ĺ
à°¯ à°¬à°Ł
Ġà°° à°«
à°Ĭ à°¹
0 8
Ġà°ķ à°Łà°ķ
à°¡ à°²à°ķ
Ġà°¸à°°à°¸ à°®
à°¯ à°²à°²
à°ķ à°Łà°°
à°¶ à°¬à°°
Ġà°¨à°¡ à°ªà°¡
à°°à°ķà°Łà°¨ à°¨
à°¥ à°¨à°¨
Ġ20 10
es t
Ġà°ı à°Ĩà°°
C O
Ġà°ħà°° à°Ł
à°Ĥ âĢĿ
Ġà°ī à°Ł
à°¯à°¨ à°¨
à° ģ
à°¡à°Ĺ à°Ł
Ġ9 7
à°ĵ à°Łà°°
0 7
à°¨à°ķ à°Ł
Ġ9 2
à°¯à°¸à°Ń à°ķ
ic al
Ġà°Ĺ à°Ĺà°¨
à°¯à°¤ à°Ĺ
Ġ25 6
l ow
à°¿ ]
Ġ6 50
à°¯à°ªà°¡ à°²
à°°à°¸à°¨ à°Ĺ
Ġà°ĺà°¨ à°¤à°¨
à±ĩ '
à°¸ à°¦à°°
Ġà°² à°µà°°
Ġ8 6
Ġà°Ĭ à°¡
à°²à°ķ à°¤
à°°à°¸ à°µ
Ġà°ķà°² à°Ĺà°²
Ġà°¯ à°ľ
8 1
à°¡ à°µà°¨
à°¯à°² à°¸
Ġà°ª à°Ĺà°²
Ġà°¨ à°¤
à°¦à°Ł à°Ĺ
à°£ à°Ĺ
à°¤ à°¥
Ġà°Ĺ à°¢
Ġà°Ĩ à°ªà°¡
Ġà°Ĺ à°¬
Ġà°Ń à°Ĺà°¤
Ġà°ķ à°°à°µ
Ġà°¨ à°°à°ķ
à°ĵ à°²
à°ĩ à°¤
Ġà°¥ à°®à°¨
à°¦ à°¶à°²
à°¦à°¨ à°Ĺ
ec t
n ame
Ġà°Ķ à°°
à°¨ à°°à°¯
à°ª à°¦à°²
Ġà°®à°¹ à°²
à°®à°¦ à°Ĺ
e v
à°¶ à°Ńà°ķ
Ġ9 8
Ġ200 2
h o
à°¸ à°«
à°°à°¤ à°°
Ġà°Ĳ à°¦à°µ
à°·à°ķ à°°à°®
Ġà°® à°ł
Ġà°¯ à°¨
à°¨à°¤ à°¸
à°Ĩ à°Ĺà°¸
à°¥à°® à°µ
Ġà°ķà°¡à°Ĺ à°¡
Ġà°Ķ à°¤
/ /
à°ħ à°°à°µ
Ġ8 7
à°Ł à°ķà°°
Ġà°®à°¹ à°¤
in dia
Ġà°Ĩ à°²à°ª
Ġà°ı à°¡à°µ
à°µà°¨ à°Ĺ
à°ŀ à°¨
à°ķ à°¥à°²
à°¦ à°²à°²
à°ħ à°ľà°¯
Ġà°¶ à°¬à°°
Ġà°§à°° à°²à°ķ
G B
à°² à°µà°¨
à°Ĳ à°µ
à°¨ à°ªà°¤
âĢĮ à°Ĥ
à°¹ à°¶
Ġà°¬ à°¹à°¦
Ġà°İà°ķ à°¨
à±ģ! "
h i
à°¸ à°¦
à°®à°¹ à°®
: //
à°® à°²à°¤
à°°à°£à°® à°¯
à°Ĺ à°®à°ķ
à°ľ à°«à°°
Ġf or
Ġ- -
1 25
Ġà°ľ à°¯à°¸
Ġà°¦ à°¸à°°
Ġà°¯ à°®à°¹
Ġà°ħà°¸ à°¤
à°¡à°Ĺà°² à°°
Ġà°Ĵ à°Ł
Ġà°Ń à°°à°¦
à°¤à°° à°¹
à°Ĺà°¡ à°ļ
à°Ń à°²
à°Ń à°Ł
Ġà°®à°¨ à°µà°¡
à°ī à°¡
1 30
à°¡ à°®à°¨
Ġà°ªà°¡ à°¦
à°Ĳ à°Ĳà°Ł
à°ı à°¨
Ġà°ª à°Ĺà°Ł
Ġà°Ĩ à°·
Ġ200 1
Ġà°ª à°§à°ķ
à°¨à°¦ à°®
Ġ4 50
Ġ17 0
Ġà°°à°£ à°µ
Ġ =
à°µ à°¶à°ķ
à°²à°Ĺ à°¡
Ġ8 9
Ġ *
à°¾ âĢĿ
à°Ń à°Ĺà°µ
Ġà°Ĭ à°¦
200 7
à°ħ à°®à°²
Ġà°ħà°µ à°¡
Ġà°ħà°ķ à°¸
à°²à°µ à°¦
Ġà°Ĭ à°¸
a il
p h
200 6
Ġà°¡ à°ķ
Ġà°°à°¸ à°µà°¤
à±ģâĢ¦ .
Â °
à°·à°² à°®
c tion
à°°à°¬ à°²
à°¹à°°à°£ à°Ĺ
i f
à±ģ """
Ġà°¹ à°¬
Ġà°ħà°µà°¸à°°à°® à°¯
à°µ à°¤à°¨
Ġ. "
à±įâĢĭ ,
Ġà°İ à°¡à°¤
Ġà°Ĵ à°®
à°¶à°ķ à°§
à°·à°£ à°¶
Ġà°ħà°¨ à°¸
à°³à°¨ à°²à°ķ
Ġà°ķà°³ à°²
M E
Ġà° £
l y
Ġà°¸à°°à°³ à°®
o un
Ġ9 4
ur b
à°ķ à°ł
à±Ĥ :
Ġà°° à°¤à°¨
Ġà°Ĩ à°Ĺà°¡
à°¨à°µ à°¸à°°
à°¨ à°ªà°°à°ļ
Ġà°Ĩ à°¬
à°°à°¤ à°ª
Ġà°Ĩà°¡ à°¤
Ġà°¦ à°¦
Ġà°ħà°µ à°¶
à°°à°³ à°ķ
4 50
Ġà°¸à°¹ à°¸
Ġà°Ĭ à°Ĺ
à±į) .
à°¯à°Ĺ à°²à°¨
Ġà°¦à°¹à°¨ à°¬à°²
à°¾ âĢĻâĢĻ
à°° à°Ĺà°²
à°¥ à°¸
Ġà°ı à°ļ
à°®à°ķ à°¥
Ġà°¸à°Ń à°¨
Ġ19 99
ig n
à°¨ à°Ń
à°µà°° à°¦à°²
M S
a re
à°° à°¯à°®
à°¨ à°Ĺà°²
à°§ à°ªà°°à°ļ
u d
à°° à°µà°²
à°¤ à°Ĺà°¤
à°¡ à°¤à°¨
S A
Ġà°µ à°Ł
à°ī à°¸
f or
Ġà°Ĺ à°Ĺ
à°ĩ à°Ĵ
Ġà°Ł à°ķ
Ġà°ĸ à°Ł
à°µà°Ĺ à°£
P I
h ar
Ġà°ĩ à°Ĺ
à°¨ à°Ĺà°¦
à°§ à°¤à°¨
à°ĺà°Łà°¨ à°¨
à°¥à°® à°¯
Ġà°ľà°¨à°¸ à°®
à°°à°® à°²à°ķ
à°¦ à°ªà°²
Ġà°Ĩ à°¨à°ķà°Ł
à°ª à°ªà°¡
à°§ à°²à°¨
à°Ī à°ļ
à°¦à°° à°ķ
à°¸ à°µà°°à°£
Ġà°¨ à°ķà°²
Ġà°µà°²à°¸ à°¦
à ²
à°ľ à°®à°¨
à°Ĩ à°ĸà°°
Ġà°ħà°¡ à°Ĺà°¡
à°¯à°Ĺà°² à°µ
Ġ9 00
p p
à°¨ à°°à°²
à°ª à°µà°²à°¸
Ġà°ķà°² à°ļ
à°Ĳ à°Ĳ
Ġà°²à°¡ à°ĸ
à°°à°¸ à°°
à°® à°Ĺà°²
Ġà°¨ à°Ń
à°¬ à°Ĺ
à°Ĩ à°ķà°²
à°°à°² à°¤
Ġ200 3
à°¾ âĢĮ
à°¶ à°²à°¨
à°ĵ à°¹
à°ķ à°®à°¨
à°¶ à°¶
à°° à°ļà°¨
à°ľ à°¹
Ġà°İà°Ĺ à°¬
Ġà°¦à°¶ à°²à°¨
Ġà°¸ à°«à°²
ag e
Ġà°· à°¬
à°¯à°¸ à°¨
âĢį à±į
à°® à°²à°²
à°ĩ à°ľ
Ġà°ķà°¥ à°ķ
à°¤à°° à°µ
Ġà°ħà°² à°µà°°
à°ŀ à°²à°¨
Ġà°Ĩ à°¨à°µ
à°Ī à°Ī
à°ª à°¦à°µ
à°ļ à°¯à°®à°µ
à°¿âĢ¦ .
Ġà°Ĩ à°Łà°¨
à°£ à°¹
Ġà°Ńà°¯à°ªà°¡ à°ķ
Ġ j
à°°à°µ à°§
Ġ y
Ġà°µ à°¶
à°¡ à°²à°²
ĠO ne
V ID
à°¿ `
i b
à°¤ à°²à°²
à°ª à°¤à°¨
Ġà°¦ à°®
à°²à°¡ à°¯
à°ı à°¯
ĠI I
à°® à°Ĺà°¡
à°¬ à°¬
à°¿! "
à°µ à°µà°ļ
Ġà°µ à°²à°¯
à°¦à°° à°°
Ġà°®à°¤ à°¸
Ġà°¤à°Ł à°¸
an t
Ġv s
à°² à°µà°°à°ķ
à°¶ à°²à°ķ
à°°à°¸ à°°à°£
à°¯à°µ à°¤
Ġà°ĵ à°¡à°²
Ġà°īà°ª à°İà°¨
Ġà°ī à°Ń
Ġà°· à°ķ
à°¨à°® à°µ
Ġà°°à°£ à°¬
à°Ĩ à°²à°¸
Ġà°ħà°¡ à°Ĺà°²
à°¨ à°¯à°¨à°¤
à°¤à°¨ à°ķà°°
à°ĺ à°¡
Ġ7 9
à°Ńà°µ à°®
Ġ' %
ac h
à°¿à°Ĥ ,
Ġ2 20
Ġ9 3
à°¾âĢ¦ ?
A T
Ġ or
à°ª à°²à°¨
à°¦à°¨ à°¡
à°Ł à°µà°²à°¨
à°Ł à°Ńà°¦
à°· à°µ
à°ª à°²à°ķ
Ġà°¸ à°°à°ķ
Ġà°¤ à°²à°®
Ġà°§ à°°à°¤
Ġà°¤à°² à°¦
Ġ10 3
à°ª à°®à°¨
à°¹ à°£
à°Ī à°ľ
Ġà°Ĩà°¶ à°¯
Ġc on
à°ªà°£ à°®
à±ģ"" ."
IP L
Ġà°Ĳ à°µ
à°¡à°µ à°ķ
Ġà°ķà°¥ à°¤
Ġà°ª à°³à°¨
à°ĩ à°Łà°²
Ġà°ħà°µ à°¤à°²
r ight
à°ħ à°¡à°µ
à°²à°ª à°ķ
à°¬à°¯ à°Łà°ķ
ind ow
à°¨ à°°à°ª
à°ªà°¡ à°¨
à°Ĺà°¡ à°ª
à°Ĺà°³ à°Ĺ
o ur
p x
Ġà°¤à°¨ à°µ
Ġà°Ĳ à°ľ
à°ª à°Ĺà°²à°°
à±ģ. ...
Ġà°ĵ à°İà°¸
200 5
Ġà°¨à°Łà°¨ à°¤
Ġg ov
à°Ĺ à°µà°ļ
à°ľà°¨ à°ķà°°
à°¨à°ª à°²
Ġà°¨à°¡ à°µà°¡
Ġà°¨ à°Ĺà°²
à°ħ à°¬à°¦
à°İ à°Ĳ
à°µà°¤ à°²à°¨
Ġà°ļà°ķ à°ļà°ķ
Ġp ro
à°¯ à°¥
Ġà°Ī à°¤
à°¬ à°ļ
à°¾à°Ĥ ""
Ġà°ħà°² à°¸à°Ł
P S
200 3
ĠF irefox
à±ĩà°Ĥ ?
Ġà°Ĩà°° à°µ
à°¤à°ķ à°¬
Ġà°ľà°²à°® à°¯
r ic
Ġà°² à°ª
à°ĸ à°²à°¨
as s
Ġà°ªà°ł à°¨
R S
â ľ
à°¸ à°Ĺà°Ł
à°ĸ à°²à°¯
Ġ10 7
Ġà°ľà°²à°® à°¯à°®à°¯
ĠOne india
Ġà°¤ à°²à°²
Ġà°İ à°µà°¨
à°¹ à°ľ
Ġà°ħà°® à°²à°µ
Ġà°®à°¹ à°¦
Ġà°Ĩ à°ªà°¦
Ġà°¦ à°²
à°¦à°² à°ª
à°ı à°Ī
Ġà°µà°° à°²à°ķ
à°¦à°Ĺ à°®à°¨
c om
à°² à°¶
à°¯ à°Ńà°°
Ġà°¸ à°¬à°°
Ġà°µ à°¡à°Ĺ
à±Ī )
à°¦à°¨ à°¤
à±ĭà°Ĥ ,
à°ľà°¨ à°ķà°°à°®
t ps
à°µ à°ķà°ª
Ġà°ħà°¨ à°ķ
Ġà°¡ à°¸
à°°à°ľ à°²à°ª
Ġ10 6
Ġ14 5
C A
f f
Ġ ),
Ġà°ĩ à°°à°µ
à°¾ /
à°·à°£ à°¤
Ġ19 90
Ġ12 4
Ġà°Ńà°¯ à°Ńà°ķ
ar t
à°¨ à°ľ
Ġà°Ĳ à°¬
Ġà°Ĺà°¡ à°ªà°¡
Ġt h
o b
Ġà°¤à°® à°¦
à°¾. .
C om
M A
à°Ń à°£
Ġà°ı à°·
à±ĭ (
Ġà°² à°¦
à°¦à°ķ à°¤
200 1
Ġà°¨à°Ĺ à°°à°®
à°Ł à°Ĺà°Ł
R A
Ġà°® à°¯à°¨
à°¾. ..
à°¾à°Ĥ. "
Ġà°ķ à°µà°ļ
Ġà°ľ à°¯à°¦
e ed
à±Ĩà°Ĥ ,
à°ı à°Ĩà°°
Ġà°¤à°® à°ª
à°ī à°ķ
à°Īà°¯à°¨ à°ķ
Ġ en
à°ķ à°Ń
à°ķà°Ł à°°à°®à°£
Ġà°Ĩ à°µà°°
à°°à°¤ à°°à°¤
à°°à°£ à°¯
20 10
à°µà°¸ à°¤
18 0
3 70
S T
à°® à°ķà°°à°£
à°ªà°¥ à°ķ
Ġ11 8
à°ļà°¬à°¡ à°¡
I N
à°¯à°¨ à°Ł
à°ķà°¡ à°ª
à±įâĢĮâĢĮ ,
el l
5 000
i al
à°Ł à°ľ
Ġà°ķ à°¯
Ġ11 5
' .
4 99
à°¿ /
Ġà°¤à°° à°¬à°¡
à°ļà°¨ à°ķ
ĠC O
à°Łà°¤ à°¡
Ġà°ķà°¨à°¬à°¡ à°²
à°ħ à°£
Ġà°ħà°¨ à°§
Ġ7 50
c t
à°Ī à°¦
Ġà°¬à°² à°ªà°°à°ļ
iv e
à°¸ à°²à°¨
à°® à°²à°®
à°Ĺ à°ªà°¡à°¤
à°ĸ à°ª
à±į! "
Ġà°¸ à°¤à°®
Ġà°« à°ķ
Ġ2 30
% .
à°¦ à°¸à°®
à°¸ à°²à°°
à°Ĳ à°İà°«
Ġ10 9
es s
ĠS t
Ġ is
à°ķ à°ªà°°
Ġà°ļ à°µà°ķ
à°£ à°§
à°¤ à°¹
à°¹ à°¨à°¨
à°ħ à°ªà°°
à°ªà°° à°²
Ġà°ĸ à°¤
e p
à°Ĥ âĢĻâĢĻ
à°ļà°Ł à°Ĺ
à°Ĺà°£ à°¨
12 8
à°Ĥ) .
à°Łà°ķ à°ª
Ġà°¬ à°¤à°ķ
à°°à°Ń à°¦
Ġà°ĵ à°İà°¨
19 99
Ġà°ľà°°à°Ĺ à°µà°ļ
à°± à°²
indow s
? "
à°® à°¶à°ķ
à°§ à°°à°¨
Ġà°Ĵ à°³
à°Ĳ à°ľ
à±ĩ. "
Ġà°¨à°µ à°ľ
à°¸à°¹ à°ķ
Ġà°Ĳ à°²
Ġà°Ĩà°Ĺ à°·
Ġ13 5
Ġà°ħ à°°à°ķ
à°µà°² à°ªà°°
à°ı à°ľ
Ġà°ĺ à°¨à°®
.. ..
à°ħà°Ł à°µ
à°¨ à°¡à°²
Ġà°¤ à°¦à°¨
à°ħ à°°à°Ł
à°¥ à°¤à°¨
à°ķà°° à°°
Ġ on
Ġà°ı à°ķà°¤
Ġà°ħà°ª à°¹à°°
Ġ11 4
à°ļà°Ĺà°² à°µ
B S
à°Ĩ à°¡à°µ
à°µà°¨ à°¨
à°¨ à°³
Ġà°ķ à°¬à°¡
à°Ń à°¯à°ªà°¡
Ġ( ""
n d
Ġà°¯ à°°
à°°à°¦ à°®
à°µà°¨ à°²
Ġà°Ĭ à°³
à°Ĥ âĢĮ
Ġà°Ĳ à°ĵà°İà°¸
Ġà°ľà°¨ à°ľ
Ġ10 2
à°¦à°ķ à°¦
Ġà°İà°Ĺ à°µ
à°Ĺ à°¤à°®
Ġà°ı à°ķà°ªà°ķ
Ġà°µà°² à°¸à°²
ĠâĢĻ âĢĻ
Ġà°°à°£ à°¦
Ġc om
Ġà°¨ à°Łà°°
Ġà°¨ à°¯à°®
al l
1 10
à°£ à°ªà°¡
à±įâĢĮ `
à°¶ à°µà°°
Ġà°¨à°¡ à°ļ
à°ļ à°ľ
Ġà°ħà°² à°ľà°¡
à°¨ à°ķà°°
Ġà°¨ à°µà°°
à°Ĩ à°¤à°°
Ġà°¯ à°·
o o
Ġà°² à°ĺ
à°ĵ à°°
à°ĵ à°ķ
ĠO S
à°°à°ķ à°¦
Ġà°Ĩà°¯à°¨ à°¯
Ġà°¤à°® à°¤
à±ģ âĢľ
Ġà°® à°¤à°®
à°ħà°¨ à°Ĺ
à±ĩâĢ¦ .
F C
g ov
à°ļ à°ļ
à°¯à°µà°¸ à°°à°®
Ġ12 2
Ġ11 6
Ġà°ħà°®à°° à°µ
à°ĵ à°µ
à°± à°®
à°µ à°ªà°°
âĢĮ :
à±Ģà°Ĥ ,
à°ħà°¨ à°µà°¸à°°
à°ļà°¬à°¡ à°¦
à°Łà°¡ à°®
Ġà°ľà°¯ à°¶
Ġ199 8
âĢĮ à±į
Ġà°ķà°¨ à°ķ
à°µà°¯ à°ķà°°
p l
Ġà°¤à°¨ à°²
à°¡à°µ à°¸
à°ªà°£ à°²à°¤
Ġà°®à°² à°ļ
Ġà°Ķ à°¨
1 40
à°¿ âĢľ
à°¯ à°¤à°°à°Ĺà°¤
à°ľ à°¦
à°¹ à°Ł
Ġà°ªà°¦ à°ķ
à°¯ à°ħà°¤
as t
à°¬à°¡ à°¤
Ġ24 0
D A
Ġà°ķ à°²à°ķà°¤
es ign
à°¿' .
i z
à°ª à°ķà°ª
à°Ĳ à°Ĺ
à°µà°¨ à°ķ
à°¨à°® à°²
à°ķà°ª à°°à°®
à°¯à°ªà°¡ à°Ł
à°¡ à°²à°ª
à°¡à°¦ à°Ĺ
R L
à°°à°µ à°ª
Ġ me
à°¸ à°²à°ķ
Ġ15 1
Ġ11 7
Ġà°® à°¦à°°
à°· à°ªà°¡
à°¦à°® à°¯
Ġ à¤
à°ķ à°¥à°¨
à°Ĩ à°Łà°Ĺ
à°ķà°® à°µ
à°°à°ķ à°¨
à°ı à°²à°¯à°¨à°Ĺ
Ġà°Ĩà°¡ à°®
id e
Ġà°¬ à°Ĺ
à°°à°ķ à°°à°£
à°ı à°¬
à ®
à°Ł à°Ĺà°¦
à°Łà°® à°¯
à°¦à°® à°µ
Ġà°¨à°µ à°²à°²
in t
à°ķ à°¤à°ķ
à°¡ à°ķà°Ł
à°¹ à°¯
à°¡ à°¨à°¨
à°ľ à°¯à°ķ
à°ľ à°ªà°ķ
Ġà°¹ à°Ĺ
Ġà°¯ à°¦
Ġ10 1
Ġ19 0
Ġà°Ĭ à°¤
S S
S hort
Ġ Z
à°Ł à°Ĺà°²
à°¸ à°®à°¨
Ġà°µ à°°à°ª
à°²à°ķ à°§
à°ĸ à°²à°ķ
Ġà°§ à°¨à°®
à°° à°¶à°ķ
à°ķà°² à°°
c on
à°¨ à°ķà°°à°¨
à°ĵ à°Łà°®
R C
à°¶ à°¨à°¨
à°§ à°®à°¤
à°¹ à°ķà°°
Ġà°ĵ à°¡à°°
à°¤à°ķ à°Ł
à°ĺ à°¶
à°®à°ķ à°¤
Com ment
i x
p er
à°¯à°® à°®
"" ,
Ġ3 60
Ġà°Ĩà°Ł à°¤
à°µà°²à°¨ à°¨
à ¦
Ġà°ª à°ķà°¡
à°ªà°ķ à°¶à°ķ
à°ĵ à°¡
oc k
Ġà°¸à°® à°·
à°®à°° à°²
à°Ĺà°² à°¦à°¨
à°ļà°° à°°
Ġà°ħà°ª à°¹
er y
N A
h a
l ad
à°¯ à°¬à°¦
à°ļà°¨ à°Ĺ
à°ľà°¨ à°¨
à°°à°³ à°¯
ac e
p e
Ġà°ķà°² à°¤
19 90
Ġà°Ĺà°² à°¦
à°°à°ªà°° à°ļà°¡
r an
Ġ ac
à°Ĺ à°²à°ķ
à°£ à°¶
Ġà°¤à°² à°µ
Ġà°Ĺà°Ĺà°¨ à°¤à°²
i es
à°¨ à°ķà°¡
à°ķ à°ªà°Ł
à°ļ à°°à°²
Ġà°ľà°° à°Ĺà°Ł
à°ħà°² à°¹
Ġm o
â ĩ
à°ķ à°°à°ķ
à±Ģ âĢĵ
à°· à°ľ
Ġà°Ĵ à°¦
Ġà°İà°¨ à°²
Ġ"" ."
Ġ11 3
ar d
it ation
T C
à°¨ à°ķà°²
à°¯à°¨ à°ķ
à°°à°¹ à°¸
Ġà°¬à°² à°µà°¨
à°· à°°à°¤
Ġ( %
Ġà°ħà°Ĺ à°¸
à±įâĢĻ âĢĻ
à°¯ à°ªà°¨
à°£ à°°
à°³ à°¨à°¨
Ġà°®à°¨ à°·
à°µà°°à°£ à°²
Ġ15 00
Ġ199 6
à°·à°¯ à°®à°¨
à°²à°® à°Ł
à°ĺà°Łà°¨ à°¤
ĠT V
Ġà°²à°µ à°£
us t
I n
à° ĭ
Ġà°ľ à°ªà°¨
à°°à°¯ à°§à°¨
Ġp p
% ,
' s
à°ļ à°ªà°°
Ġ11 2
ĠH D
Ġà°¨à°Ĺ à°°à°ª
y n
à°® à°¥
Ġà°ĸ à°Ĺ
à°ł à°²
it h
Ġà°Ĺ à°¯
à°ķà°°à°£ à°²à°ķ
à°¯à°§ à°°
200 2
ic s
N O
Ġ am
à°¨ à°°à°¸
à°² à°¬à°°
à°¤ à°ªà°¦à°®
à°ľ à°®à°¹
Ġà°ı à°İ
Ġn eed
1 75
à°µ à°Ńà°ķ
Ġà°° à°¥à°®
à°§ à°¨à°®
Ġ. ..
Ġh t
I V
à±į "
Ġà°µ à°¶à°®
à°İ à°İ
à°Ľ à°ķ
Ġ Q
Ġà°¤ à°¹à°¸
Ġà°¡ à°ļ
à°Ĵ à°ķà°¡
s p
Ġà° Ĥ
à°¬ à°°à°®
Ġà°ĩ à°ķà°¨
Ġà°ı à°İà°¸
à°¢ à°¤
à°¿"" ."
6 50
h n
à° Ļ
Ġà°¦ à°¬
Ġà°Ĺ à°¸
à°ĸ à°¡
Ġà°ķà°² à°µà°¨
à°ı à°®à°¨
as e
ĠÂ »
__ __
Ġ un
à±Ģ ""
Ġà°ī à°®à°°
Ġà°¬ à°¦à°²
Ġà°¹ à°«
o z
à°¸ à°°à°¸
à°® à°µà°¦
à°§ à°ķà°¤
à°Łà°° à°¨
Âł Âł
à°ľà°¯ à°²à°ķ
Ġà°¤à°ª à°¸
à°®à°¹ à°¬
Ġà°¤à°¡ à°¬à°¡
1 60
B M
à°° à°ĺ
Ġà°ķ à°¡à°¤
Ġà°¤ à°°à°®
à°Ĺà°° à°ªà°¡
Ġà°ªà°¡ à°µà°²
Ġ30 2
Ġà°ħà°ľ à°¹à°°
Ġ @
Ġ e
à°¬ à°³
à°¾à°Ĥ ''
à°°à°£ à°¤
à°Ĥ. ..
Ġà°Ĩà°¯à°¨ à°²
à°¨à°µ à°¦
à°ķà°Ł à°¯
Ġà°¨à°¡ à°ķ
à°ĤâĢĻ .
Ġà°ĩà°¤ à°°à°¤
um p
ĠV s
i k
Ġà°¸ à°¦à°¨à°®
Ġà°ľ à°¯à°ķ
Ġà°ĵ à°ľ
à°Łà°£ à°ª
E D
Ġà°² à°ĸ
Ġà°« à°²à°ķ
Ġ. .
Ġà°ªà°¡ à°®à°Ł
ic e
à°¨ à°ķà°ª
à°² à°¦à°¨
à°® à°®à°¤
à°¹ à°ªà°°
Ġ3 20
Ġà°¨ à°¸
à°Ń à°ª
Ġà°ı à°Ĳ
Ġà°ªà°¦ à°¬
à°Ńà°µ à°ľ
à¤ ¾
Ġneed ed
à°¯ à°ªà°°à°ļ
Ġà°İ à°Ĺà°°
à°¯à°¬à°¡ à°²
er v
à±ģ( _
F S
i me
à±ĩ ""
à°¡ à°°à°¨
Ġà°īà°¦ à°¯à°®
à°¯à°ªà°¡ à°Ĺ
Ġà°ķà°£ à°ľ
D P
F irefox
à°²à°® à°§
Ġà°®à°² à°¬à°¦
à±ĭâĢĻ .
p ress
à°¥ à°²à°ª
à°¦à°° à°¸à°¹
Ġà°Ķ à°·
urb ine
Ġ di
à±įâĢĮ à±ģ
à°Ī à°®à°§
Ġà°¶ à°ª
à°¦à°° à°¨
Ġà°®à°¨ à°ª
à°Łà°² à°ª
à°·à°£ à°ª
Ġà°īà°ª à°ķà°°
à°Ĵ à°¸
à°¸à°² à°¹
Ġ12 6
à°¯à°Ĺà°² à°¡
ĠâĢ¦ .
d er
à°² à°¯à°²
à°¯ à°¤à°°à°¹
à°ª à°¨à°¨
Ġà°ħà°¨ à°¬à°¡
Ġà°ªà°° à°¶
Ġà°Ĳ à°¨
à°¨à°® à°¸
à°²à°µ à°²à°¨
à°ĵ à°¯
Ġ28 8
Ġd esign
U S
à°² à°·
à°ķà°¤ à°¤
à°¾âĢ¦ .
ww w
à°¹ à°°à°®
Ġà°ĺ à°¨à°¸
à±į' .
Ġ199 1
Ġà°İ à°Ĺà°¤
à°ħ à°²à°¨
à°°à°® à°²à°¨
Ġà°Ĵ à°¸
Ġà°¤à°® à°µ
à°ī à°ľ
Ġà°¤à°² à°ļ
à°Łà°ªà°¡ à°²
à°¿âĢ¦ ?
âĸ ª
à°Ĥ /
à°¦ à°¸à°°
à°¿. ...
à°µà°° à°¸
à°Ĩ à°Łà°²
à°¾âĢĻ .
y st
à°¨ à°¤à°°
Ġà°Ń à°°à°£
Ġà°Ī à°İà°¸
Ġ19 50
B C
l u
à°ľ à°¤
à°ı à°Ĳà°¸
à°¡à°¤ à°¡
à±į"" ""
R I
à°¨ à°ļà°°
âĢ¦ .
ĠR RR
Â §
à°ļà°¨ à°¤
à°Łà°ªà°¡ à°°
Ġà°µà°¡ à°ª
Ġ199 3
Ġà°ķà°Łà°ķ à°Ł
à°°à°Ĺ à°¦
199 8
S O
à°§ à°Ń
à°ľà°¨ à°°
Ġà°¤à°Ĺ à°¦
Ġà°ķ à°§à°¨
à°ħ à°µà°Ĺ
Ġà°ı à°ķà°®
à°°à°¨ à°Ĺà°°
in es
Ġà°¤à°Ĺà°² à°¬
' %
à°¤à°² à°®
Ġà°īà°¦ à°¹à°°
à±į? "
c l
s e
Ġà°ª à°¹
Ġà°ª à°²à°ķà°²
Ġà°ķà°² à°µà°²
Ġ3 90
Ġ19 56
à°Łà°¡ à°²à°¨
ar y
à°Ł à°µà°²
à°¶ à°¤à°ķ
Ġà°² à°Ĺà°¡à°ª
à°¤à°° à°²
à°ķà°¡ à°²
Ġ12 00
ov id
T P
i an
à°¦ à°µà°²
à°ª à°ªà°°
à°¸à°® à°Ĺ
à°¯à°ªà°¡ à°ķ
à°ķ à°ļà°ķ
Ġà°ľ à°¤à°ķà°Ł
à°Ī à°İà°¸
Ġà°¹ à°·
Ġà°ķà°² à°Ĺà°ķ
Ġà°ĺ à°ľ
à°ªà°£ à°²à°ķ
à°§à°ķ à°¶à°ķ
à°«à°²à°® à°µ
Ġà°ķ à°²à°¨
à°¥ à°¡
à°ĸ à°¦
à°¥à°¨ à°ļ
Ġà°Ķ à°Łà°¯
à±Ĥ /
Ġà°² à°¯
Ġà°ı à°²à°¯à°¨à°Ĺ
Ġ12 1
Ġà°ĭ à°£
a in
Ġà°¸ à°ĸ
à°¬ à°¶
à°®à°ķ à°¸
19 80
Ġ198 9
à°Ł à°¤à°¨
à°¸ à°ķà°°
Ġà°¬ à°³
Ġà°² à°¯à°¨
Ġà°ı à°¶
Ġà°®à°¨ à°¤
Ġà°¤à°² à°¸à°°
Ġà°Ĩà°¡ à°¬
à°ļà°Ĺà°² à°®
ĠW indows
à°° à°Ĺà°°
Ġà°ľ à°Ĺà°¤
Ġ4 20
Ġà°ľà°°à°Ĺ à°ķà°ª
at a
M P
Ġà°Ĺ à°ª
à°°à°¤ à°®
à°²à°® à°¯
Ġ? "
Ġ19 80
à°ļà°Ĺ à°²à°¨
ĠU n
Short Name
e b
à±ģ `
à°¡ à°¤à°Ĺ
Ġà°Ĩ à°¸à°°
à°²à°¨ à°Ĺ
à°Ĩ à°¡à°ª
à°°à°ķ à°°à°ķ
à°ļà°¨ à°ª
Ġà°ħà°° à°ļ
à°Ľ à°²
à°¹à°°à°£ à°¨
Ġà°Ńà°¯ à°Ń
Ġà°ľà°² à°µà°¨à°°
ul t
C D
c itation
à°ķ à°·à°¨
Ġà°¬ à°²à°°
Ġà°Ī à°·
à°Ĳ à°¶
Ġà°īà°ª à°ĸ
Ġà°ħà°¸ à°®à°°
à°¤ à°µà°°
à°® à°Łà°²
à°¬ à°¯à°²
Ġà°Ĺ à°¡à°Ĺ
Ġà°ı à°¬à°¦
à°®à°¹ à°²
à°¡à°µ à°ªà°¡
à°¯à°Łà°¨ à°¨
yst em
à°² à°¤à°¨
à°¤ à°¤à°¨
à°ī à°ªà°°
à°ł à°Ń
Ġ12 7
Ġ[ âĢľ
â Ī
à±ĭ ...
à°ª à°³
à°¬ à°µ
Ġà°« à°¤
à°µà°² à°¤
ĠÂł ĠÂł
à°Ł à°¹
à°ĸ à°¨à°®
Ġà°ľà°¨ à°Ĺ
Ġ13 8
Ġà°ĺà°¨ à°ªà°°
à°® à°ľà°¨
à°¹ à°¨à°ķ
à°Ī à°Ł
Ġà°¸à°¹ à°µà°¸
à°ł à°Ĺ
à°°à°Ĺ à°Ł
Ġre ad
e at
Ġà°ķ à°±
Ġà°ħà°¨ à°µà°¸à°°à°®
Ġà°Ń à°¤
à°Ĺà°² à°¡
ation al
Ġw ww
à°° à°ĸà°¨
à°¨ à°Łà°¨
à±Ĩ -
Ġà°¨ à°ľà°°
Ġà°Ĩ à°Łà°ķ
à°¸à°° à°¦
à°¶à°® à°µ
Ġ15 3
à±ĭ ),
à°ª à°µà°¦
à°Ĺ à°°à°¨
à°£ à°Ń
Ġà°¶ à°µà°®
20 30
à°¬à°² à°¹
Ġ18 2
Ġ! "
à°Łà°¤ à°°à°®
Ġà°ķà°¨à°¬à°° à°ļ
à°¿ """
à±ģ à±ģ
à°² à°µà°ļ
Ġà°ªà°° à°µ
à°ªà°¡ à°®
à°¡à°² à°®
Ġà°Ĩà°² à°¯à°®
âĩ Ĵ
oz ill
P V
à°ªà°£ à°¨
Ġ"" %
Ġ37 6
à°¡à°Ĺà°² à°¦
h an
à°¯ à°¶à°ķ
à°ªà°Ł à°²
à°ķà°°à°£ à°ªà°¤
Ġà°Ĭ à°¬
Ġ199 4
f low
à°¨ à°²à°¤
Ġà°ħ à°²à°ķ
à°°à°ªà°° à°ļà°¬à°¡
r y
à±Ĩ :
à°Łà°ķ à°ķ
à°Łà°ķ à°°à°®à°¨
en d
Ġ199 2
Ġ199 7
ac k
- -
5 50
E A
Ġà°Ĺ à°²à°¤
à°¦à°° à°ªà°¡
Ġà°ľà°° à°ªà°¨
à°¯à°® à°¹
à°¸à°° à°«à°°
à°ł à°¨
Ġà°İà°¦ à°Ĺ
Ġà°ħà°µà°ķ à°¤à°µ
à°¶à°¨ à°Ĺ
Ġ13 9
à°ļà°²à°¨ à°®
à°¯à°£ à°ª
1 200
à°® à°°à°ķ
Ġà°® à°Ĺà°ª
Ġà°¨ à°ĸ
Ġà°¨à°¡ à°ª
Ġ19 60
à°ļà°°à°£ à°¨
r am
Ġà°µ à°Ĺ
à°°à°® à°Ĺ
Ġ5 000
u e
à°¤ à°ķà°°
à°ĺ à°ª
à°¯à°£ à°¨
à°¸à°¨à°¸à°Ń à°ķ
C P
a w
Ġ he
à°¡ à°µà°¡
Ġà°ı à°ķà°°
Ġà°ı à°İà°¨
Ġà°« à°²à°µ
à°µà°² à°®
à°°à°Ĺ à°¬à°¡
ĠT he
¸ Â°
Ġà°® à°¤à°¨
Ġà°ªà°¡ à°®à°°
Ġ14 7
or g
à°Ł à°µà°²à°¸
âĢĮ -
à°· à°°à°®
à°ľ à°¯à°°
à°²à°¨ à°ª
à°°à°µ à°®
Ġà°ĵ à°®
à°¦à°² à°®
Ġà°Ĳ à°¤
it e
en ce
1 18
à°® à°Ĺà°µ
Ġà°¤à°® à°²
25 00
à°¿"" ""
Ġk m
Ġà°ķà°²à°µà°° à°ª
à±ģ à±į
à°ķ à°³à°²
à°¤ à°µà°¤
Ġà°µà°° à°¦à°¨
à°¨à°ķ à°¬à°¡
Ġ24 3
i le
à°¯ à°¹
à°¯ à°ªà°Ł
à°Ĺ à°²à°²
à±Ĥ âĢĻ
à°°à°£ à°µ
à°²à°¯ à°¤
à±į. âĢĮ
Ġ20 24
Ġ19 71
à°°à°Ĺ à°ķ
or k
3 60
à°¸ à°µà°°
à°¸ à°²à°¤
à°® à°ķà°ª
à°°à°ķ à°ª
à°¢ à°ļ
à°ĺà°Łà°¨ à°²à°¨
Ġ as
à±ĭ âĢĮ
à°¯à°® à°ķ
à°ļà°¨ à°²à°ķ
Ġà°Ĭ à°¬à°ķ
à°ªà°¬à°¡ à°¤
199 1
I A
o u
à°¦ à°µà°¡
à°µ à°µà°²à°¸
Ġà°® à°Ń
à°¶ à°¨à°¤
à°¹ à°¨à°ª
à°³ à°µà°ļ
à°Ī à°Ĩà°°
14 4
Ġs p
o ut
à°¦ à°ķà°ª
à°Ĺ à°ªà°°
Ġà°Ĩà°¯à°¨ à°¦
Ġ5 12
Ġ199 5
Ġà°Ī à°¯
à°¸à°° à°ª
à°ı à°ıà°ķ
Ġà°Ĩà°Ĺ à°ķ
199 6
p t
à°Ł à°¤à°°
à°²à°ķ à°®à°¨
à°¦à°¨ à°ª
à°°à°ª à°¦
Ġà°Ĳ à°İà°«
er g
Ġà°Ĺà°£ à°ªà°¤
or d
u c
Ġà°®à°°à°£ à°µ
Ġ19 70
ĠâĢĭ âĢĭ
al so
Ġs c
Ġà°µ à°¯à°¨
à°Ń à°ľà°²
à°ı à°¡à°µ
10 5
1 70
h y
à°µ à°Łà°®
à°® à°ķà°°
à°ľ à°ľ
à°²à°ķ à°¡
à°İ à°¡à°¤
Ġà°ķà°¥ à°²à°¨
at es
Ġ0 1
ro l
Â§ à±įâĢĮà±ģ
P C
e g
à°Ĺ à°µà°²
à°ľ à°ªà°¨
à°¹ à°³
Ġà°Ĺ à°³
Ġà°Ī à°¬
à±ĭà°Ĥ .
10 8
Ġà°§à°°à°² à°ª
er n
ĠN ew
Ġb y
T S
Ġà°Ĺ à°ļ
à°Ĥ. .
ĠC D
à°Ķ à°¨
à°² à°¡à°µ
à°§ à°ķà°®
à°ĩ à°İ
Ġà°ªà°° à°ªà°¤
à°µà°¤ à°²à°ķ
Ġ15 5
Ġà°ľà°® à°ļ
à°ļà°Ĺà°² à°¦à°¨
or y
Ġp l
ec tion
M L
P A
T E
à°¯ à°Łà°ķ
à°¯ à°¦à°Ĺ
à°¡ à°ļà°°
Ġà°Ī à°İ
Ġà°ķà°² à°Ĺà°¡
à°ľà°¯ à°ª
Ġà°Ĩà°¡ à°¡
ic ation
Ġà°Ŀ à°²à°ķ
Ġà°Ĳà°ı à°İà°«
Ġà°ĭ à°¤
Ġà°µà°°à°¸ à°Ĺ
Ġà°ħà°µà°ķà°¤à°µ à°ķà°²
m a
Ġà°īà°ª à°¨à°¦
à°ľà°¯ à°¦
C l
Ġà°ī à°¡à°ķ
à°£ à°®à°¨
ĠâĢĿ âĢľ
à°± à°²à°¨
p ro
Ġà°Ĩ à°Ĺà°¦
Ġà°ī à°¦à°°
Ġà°ľ à°¤à°²
à°µà°¤ à°¹
Ġ20 30
Ġà°ī à°µ
à°Ń à°¯à°®
à°ħ à°·
à°¥ à°¬à°²
Ġà°¹ à°¡à°²
Ġà°ĺ à°¡
Ġ19 47
Ġ16 2
re e
ĠG B
CO VID
à°® à°ªà°°
à°ļ à°Łà°®
à°¥ à°ªà°°
à±į. ..
20 24
Ġ at
Ġà°µ à°²à°²
à°ľ à°Ńà°µà°¨
à°¬ à°²à°Ĺ
à±ĩ. ..
Ġ5 50
Ġà°Ĭ à°¤à°®
Ġ14 9
Ġ22 4
ĠC h
ar k
S L
p le
à±ĩ (
Ġà°İ à°Ĩà°°
à°³ à°²à°¤
à°ªà°£ à°ķ
10 4
Ġà°¸à°¹à°ľ à°µ
à±ģâĢ¦ ?
le ft
e ar
à±Ī âĢĻ
à°¥ à°®à°¨
Ġà°¯ à°µ
Ġà°¡ à°®
on e
à°¨à°¬à°¡ à°²
3 000
à°² à°¹
à°µ à°ªà°¤
à°Ĺ à°ªà°Ł
à°¶ à°¯à°®
à°İ à°Ĩà°°
à°ĺ à°µà°¨
""" %
à°µà°°à°ķ à°Ł
Ġà°Ĭ à°°à°ķ
ol og
S BI
i i
à°Ĺ à°°à°¯
à±Ĩ )
à°Ĩ à°¦à°°
Ġ3 10
à°Ĺà°² à°®
19 77
à°Ĺà°¡ à°®
à°¹à°°à°£ à°²à°¨
2 20
âĢĮ )
Ġà°² à°·
à°Ĩ à°ķà°°
à±ĩ. .
à°·à°£ à°²à°¨
Ġà°ħà°ª à°¸
à°ľà°ķ à°°à°®
à°¤à°µ à°®à°¤
à°ķà°°à°£ à°¤
Ġ11 1
on d
à±ģ' .
oun t
à°Ĵ à°¬
Ġ16 6
on g
Ġm l
RR R
ĠIn dia
C S
Ġà°¶ à°¨à°Ĺ
Ġà°Ī à°®à°§
Ġà°ı à°İà°®
Ġ2 70
19 50
à°ħà°ª à°µ
Ġ12 3
à°Łà°ªà°¡ à°¨
ĠU N
Ġ an
à°® à°¤à°²
à°ķà°² à°®
Ġà°®à°¨ à°¨
Ġ3 000
Ġà°Ĩà°¶ à°¤
Ġ19 85
à°Ĺà°® à°¯
à°µà°¹à°£ à°ª
Ġà°ĩ à°¥
à°¥ à°ķà°®
à°¤à°° à°£à°ķ
Ġà°Ĩà°° à°¬
Ġ19 78
à°ıà°® à°¯
à°Ł à°µà°¦
à±Ģ à±į
à±įâĢĮ âĢĿ
à°°à°® à°¦
a h
à°¦ à°Ńà°°
à°¸ à°¦à°¸
à°¡ à°²à°¤
Ġà°ļ à°¹à°²
Ġà°² à°¸
à°³ à°¯
Ġà°¯ à°¨à°®à°²
à°ķà°² à°µ
Ġà°¤à°® à°¤à°®
à°ªà°ķ à°¤
à°¯à°£ à°¸
à°¾) .
Ġà°İà°¡à°® à°µ
ab le
M I
e f
l es
à°¨ à°µà°²à°¸
à°Ł à°µà°°
à°µà°° à°ª
à°ļà°² à°µ
Ġ14 8
Ġ16 5
à±ģ] .
198 9
Ġà°¸à°¤à°® à°¤à°®à°µ
Ġ it
à°¸ à°ľ
Ġà°ķ à°ľ
Ġà°Ł à°µà°²
Ġà°ħà°¯ à°¸
Ġà°ĸ à°¨à°¨
à°¶à°¨ à°®à°¨
ĠÂ ¸Â°
Ġà°¶à°µ à°ªà°°
II I
lad e
i o
à°¾ à±į
à°¬ à°²à°µ
à°¾à°Ĥ âĢ¦
à°°à°¤ à°²à°¨
ĠâĢľ [
Ġ19 61
ĠU RL
is h
à°ľà°Ĺ à°ªà°¤
S t
g e
à°¾ ]
à°ħ à°¥
à°°à°£ à°²à°¨
à°¯à°¤ à°Ĺà°²
19 78
Ġà°ĩà°ķ à°®
Ġ19 72
à°ªà°¦ à°Ĺ
Ġ12 9
Ġ14 6
Ġ13 6
Ġ16 4
an k
à°ķ à°¨à°ª
à°¤ à°¦à°°
à°°à°¶ à°¸
à°ļà°¬à°¡ à°¨
à°¤à°µ à°®à°¨
à°¦à°µ à°¦
à°¯à°Ĺà°² à°®
à°ļà°Ĺà°² à°¡
ozill a
B A
H O
l d
Ø §
à°¦ à°µà°²à°¸
à°Ĺ à°°à°µ
à°¦à°° à°¦à°¨
3 99
à°¿ à±ģ.
à°¯ à°ľà°®
Ġà°ª à°£
Ġà°İà°ķ à°¨à°®
Ġ13 7
à°¤ à°ªà°¨
à°¦ à°ľà°²
à°¸ à°ªà°¡
à°Ĺ à°µà°¦
à°§ à°°à°£à°ķ
Ġà°Ĵà°ķ à°Łà°¨
Ġ20 25
Ġ13 3
Ġà°¦à°¶ à°²à°²
en s
à±įâĢĮ' .
Ġht tps
g ine
à±ĩ /
à°Ĺ à°ķà°ª
Ġà°İ à°Ĳà°¸
Ġà°· à°¹
à±į. .
Ġ13 2
il m
Ġà°ħà°µà°¤à°° à°£
Ġ198 8
H A
I F
à°ª à°ķà°°
à±Ĭ .
à°°à°£ à°Ĺ
Ġà°ķà°² à°ªà°¡
Ġà°®à°¨ à°¶
à°ļà°¡ à°®à°¨
à°ļà°¨ à°²à°¤
à°¨à°¦ à°Ĺ
à°ľà°¯ à°®à°¨
à°Łà°ķ à°®
à°ĵ à°¬
Ġ14 2
à°ªà°Ĺ à°Ł
à°ķà°°à°® à°¨
à°²à°¬à°¡ à°²
à°Ńà°ľà°¨ à°ķ
ec hn
à±įâĢį âĢĮ
Ã Ĺ
Ġà°ķ à°ªà°Ł
à°¯à°¨ à°Ĺà°°
19 70
Ġ19 62
à°°à°ªà°¡ à°Ł
ĠP C
Ġb e
D L
Ġà°ļ à°®à°¤
à°ħ à°°à°¬
Ġà°¡ à°ľà°¨
à°ŀ à°ķ
Ġà°Ĩà°¶ à°²à°¨
Ġà°§à°°à°² à°¤
Ġ35 4
Ġ37 7
à±Ģ! "
ĠCO VID
à°¸ à°®à°ķ
Ġà°ĩ à°İà°¸
à°« à°Ł
Ġà°ĵ à°¨
Ġà°ķà°° à°ļ
à°ł à°Ńà°°
19 47
à°³à°¨ à°²à°¨
à°Łà°ªà°¡ à°Ł
à°°à°®à°£ à°ķ
Ġm in
2 30
3 20
à°ķ à°®à°°
à°Ī à°¯
à°Ĩ à°ľ
à°¦à°¨ à°²à°ķ
à°¤à°° à°¦
Ġ2 60
Ġà°§ à°°à°®
à°¶à°ķ à°¨
à°Ĵ à°³
Ġà°Ĩà°¶ à°Ĺ
Ġ14 3
Ġà°µà°¨ à°ªà°°
an a
re ction
à°§à°ªà°¡ à°¤
) "
R O
à°µ à°¤à°°
à°¡ à°µà°°
Ġà°µ à°®
à°µà°° à°ªà°°
à°¢ à°ļà°°
à°¯à°£ à°Ĺ
Ġà°¬à°¯à°Łà°ªà°¡ à°Ł
Ġà°ħà°£ à°Ĺ
Ġ198 4
à°¤à°°à°ķ à°°
C C
n ail
à°¤ à°ļ
à°Ĺ à°µà°¤
Ġà°¡ à°²
à°°à°§ à°®
Ġà°ªà°¦ à°ľ
Ġà°ķà°° à°ªà°¤
à°ŀ à°¤à°¤
à°¥à°¨ à°²à°ķ
Ġà°Ĭà°° à°Łà°¨
thumb nail
D R
i p
à°® à°µà°ļ
à°¹ à°ķà°°à°®
à°°à°® à°°
à°°à°µ à°¤
à°¯à°¤ à°ª
Ġ19 40
199 3
D E
o int
Ġà°¸ à°£
Ġà°® à°ķà°°
à°¬ à°§
à°¹ à°ªà°¡
à°°à°® à°ªà°¡
Ġà°ĵ à°¨à°°
à°Ĵà°ķ à°¦
à¥ į
NO ME
4 000
R T
s s
à°¾ à°¾
à°¹ à°¨à°°
Ġà°ĵ à°¹
à°ĩà°ķ à°¨
Ġ15 4
à°²à°Ń à°¨
à±ģâĢĻâĢĻ .
à¤ °
Ġà°µà°°à°¦à°² à°¤
Ġà°ªà°¤à°¨ à°®à°¯
ht tps
brand ShortName
à°² à°¸à°°
Ġà°¨ à°³
Ġà°ĺà°Łà°¨ à°²à°ª
Ġ18 8
ol d
8 50
t on
à°° à°³à°¨
Ġà°¤ à°¸
à°¶ à°°à°µ
Ġà°° à°¹à°®
à°ªà°° à°¦
à°²à°® à°²
à°µà°°à°£ à°®
à±Ģ. "
Ġ17 6
à±ģ"" ""
ĠU K
198 4
Ġà°Ĺà°ľ à°ªà°¤
ex t
à°¤ à°ªà°Ł
à°¤ à°ļà°°
Ġà°ķà°² à°¬
Ġà°§ à°µà°¨
à°Ĩà°¯à°¨ à°²
Ġà°¦à°¶ à°²à°µ
Ġà°ħà°¡à°Ĺ à°µà°ļ
press ure
Ġà°Ĺà°¡à°Ĺ à°¡à°²
à±ĭ ""
à°¸ à°¹à°¨
à°µ à°²à°²
à°Ĺ à°Ń
Ġà°Ĵà°ķ à°ļ
Ġà°¤à°ª à°¨
à°ļà°¬à°¡ à°µ
19 75
Ġ7 37
à°¥à°¨ à°²à°¨
ar i
Ġà°īà°¡à°ķ à°¬
A M
à°® à°¦à°°
Ġà°ļ à°¸
à°ĸ à°°à°¨
à°·à°£ à°²à°ķ
19 72
à°³à°¨ à°¤
24 3
ac t
Ġf low
ter s
T V
e e
à°¾ ''
à°Ĺ à°¬à°¦
Ġà°ħ à°²à°¨
à°İ à°¬
à°°à°® à°°à°£
Ġà°ªà°° à°ļà°¡
à°µà°¡ à°®à°¨
à°ı à°İà°¸
Ġà°¸à°¹ à°ľà°¸
Ġ17 4
Ġà°Ńà°¯à°ªà°¡ à°¨
ĠI P
m ore
â į
Ġ à±į
à°¤ à°Łà°¨
à°® à°¯à°®
Ġà°ķ à°Ĺ
à°Ń à°®à°¨
à°¨à°ª à°¨
Ġà°ĺà°Łà°¨ à°²à°ķ
Ġà°ļà°¦ à°µà°²
à±ĢâĢĻ .
In dia
âį Ł
1 19
à°¯ à°³
Ġà°ķ à°²à°ķ
Ġà°¦ à°¶à°¨
Ġ19 14
Ġ30 4
r ad
à°¯ à°£à°®
à±ĩ âĢĿ
à°¡ à°¨à°Ł
Ġà°ķ à°°à°®
Ġà°¬ à°·
Ġà°¡ à°¨
à°·à°² à°ª
Ġà°®à°¨ à°µà°°
à°Ĳ à°¯
à°ħà°¤ à°£
Ġ24 5
à°Ĺà°£ à°¤
er ing
Ġà°ĺà°¨ à°ªà°°à°ļ
el oc
199 7
oo k
E C
u x
à±Ģ +
Ġà°° à°Ł
à°¯à°¨ à°Ń
à°Łà°¨ à°°
à°ªà°¡ à°µà°ļ
Ġà°ķà°¨ à°ªà°¡à°¤
Ġà°Ĳ à°¯
à°³à°¨ à°Ĺ
à°°à°¸à°¨ à°²à°ķ
Ġ% (
199 4
v er
à°¤ à°¤à°ķ
à°ª à°Ń
Ġà°Ĺ à°¤à°µ
à°¤à°¨ à°¯
à°¨à°ķ à°°à°®
Ġ7 20
Ġà°Ĭ à°Ł
Ġà°«à°¡ à°£à°µ
Ġà°ķà°¨à°ªà°¡ à°²
U N
i e
à°² à°µà°ķ
à°ª à°¸à°®
âĢ Ķ
Ġà°¨ à°°à°®
à°ľà°¨ à°¤
à°ŀ à°¤à°¨
à°¨à°¡ à°ķà°¨
à°Ńà°ľà°¨ à°¨
à°Łà°ªà°° à°ļà°¬à°¡
Ġw ith
eloc ity
! "
) ."
P F
à°¤ à°¬à°¸
à°¡ à°ķà°¨
à°Ĺ à°¡à°²
à°Ĺ à°®à°¤
Ġà°İ à°¥
Ġà°ħà°§ à°¸
à±Ĥ. "
Ġà°ħà°Ń à°¦
19 60
à°µà°°à°£ à°¶
à°°à°Ĺ à°µà°ļ
à°¶à°¨ à°¶
Ġ17 7
à°Ĥ? "
ĠC P
E S
s hort
à±ĩ âĢĻâĢĻ
à°¸ à°³
à°ĩ à°İà°¸
à°İ à°ľ
à°°à°® à°£à°²
à°¯à°® à°£
Ġ2 25
à°µà°¨ à°®
Ġà°ħà°² à°®
à°¯à°ªà°¡ à°¡
Ġ18 5
Ġm m
Ġà°Ĩà°µà°°à°£ à°®
Ġà°ªà°²à°ķ à°¡
Ġâ Ĥ
A N
a i
à°¨ à°¸à°°
à°ķ à°®à°ķ
à°¤ à°ķà°²
à°¸ à°®à°¤
à°µ à°Ĺà°²à°¦
Ġà°ħ à°²à°²
Ġà°¬ à°¯à°ªà°¡à°ķ
à°Ĩ à°ķà°Ł
à°°à°£ à°ª
Ġ: -
à°ľà°°à°µ à°¡
for m
% ),
/ -
à°² à°Ĺà°²
à°¡ à°ªà°²
à°Ĺ à°Ńà°¦
Ġà°¤ à°¥
à°Ĩ à°«à°°
Ġà°ħà°² à°¯à°¨
Ġ13 1
à°± à°¨
Ġà°ĩà°³ à°¯à°°
V D
Ġ ro
à°¾ âĢĵ
à°ļ à°¯à°®à°¯
à°ı à°İà°²
à°¬à°° à°ªà°¡
à°Ĺà°¨ à°Ĺ
Ġà°¬à°¸ à°µà°¤
Ġà°Ńà°¯à°ªà°¡ à°¤
à°ıà°ı à°¨
I S
Ġ Î
à°¨ à°°à°ķ
à°¤ à°ªà°²
à±Ģ à°¿
à°Ĺ à°¡à°ķ
Ġà°µ à°£à°ķ
à°³ à°Ł
à°²à°¨ à°Ł
à°°à°® à°Ł
à°¯à°² à°¯
à°¢ à°¨à°®
à±įâĢĻ ,
ic ro
% (
à°¤ à°ķà°¡
à°¸ à°¨à°¨
à°· à°¶
à°ħ à°Łà°²
Ġà°ªà°° à°ķ
à°ľà°¯ à°Ń
à°²à°Ĺ à°ķ
Ġ16 1
Ġà°İà°Ĺ à°¬à°¡
in k
à°µà°¹à°£ à°¨
Ġà°Ńà°¯à°ªà°¡ à°²
Ġà°Ĳà°İ à°İà°¸
qu are
â Ŀ
à°Ł à°¤à°²
à°£ à°¤à°¤
à°Ĺà°¤ à°µ
à°ł à°¤
Ġ20 3
à°ķà°°à°£ à°ª
à°°à°ķà°Łà°¨ à°ª
Ġ198 3
à°Ĩà°Ĺ à°·
e y
à°® à°¤à°®
à°£ à°¤à°¨
Ġà°Ń à°µà°¤
à°ĩ à°¯
Ġà°¹ à°¯à°¤
Ġà°Ĵ à°°à°µà°¡
Ġà°¡ à°Ĺ
Ġà°ľà°¨ à°Ĺà°£à°¨
à°ĵ à°ı
ĠA l
Ġ198 6
P D
P M
s h
Ġà°¤ à°¬
à°¥ à°¯
Ġà°ľà°° à°Ĺà°µ
20 25
à°Łà°ª à°Ĺà°²
Ġ17 2
à°Ķ à°Ł
Ġà°īà°ªà°ķà°°à°£ à°®
à°Ĩà°ļ à°°à°£à°²
a e
o di
r u
à±Ĩ à±ģ
à°£ à°ļ
à±ģ, âĢĿ
Ġà°®à°° à°ª
à°Ĳ à°ļ
Ġà°ħà°ª à°ľà°¯
Ġà°¨à°¡ à°µà°²
Ġ19 76
P N
n g
à°¸ à°ķà°°à°®
à°ª à°ķà°°à°£
à°Ĺ à°°à°®
à°ļ à°ķà°®
Ġà°µ à°°à°®
à°§ à°²à°ķ
à°Ī à°İ
Ġà°¶ à°ķà°Ł
à°ĸ à°¸
à°¦à°° à°¡
à°Ĩà°¯à°¨ à°¦
19 71
Ġ16 8
ĠA r
im p
` `
c es
à°² à°ĸ
Ġà°ª à°§
âĢĮ à°¾
à°£ à°¶à°ķ
à°µà°° à°ªà°¡
à°°à°® à°ª
Ġà°ħà°² à°®à°Ł
Ġà°¬à°¯à°Łà°ªà°¡ à°¤
à°Ńà°Ĺ à°µà°¦
c i
p ump
Ġ ]
à°¦ à°¶à°ķ
Ġà°¸ à°Ĺà°®
à°ľ à°²à°ª
Ġà°° à°Ĺà°¡
à°§ à°ªà°°
Ġà°¬ à°²à°¯
Ġà°ªà°° à°Ĺà°£
à°°à°¦ à°ķ
à°¨à°ª à°°à°®
à±Ĩà±ĸ .
à°¤à°Ĺ à°¡
Ġ19 75
is s
ro m
ow er
198 3
à±ĤâĢ¦ .
2 40
E E
M O
à°² à°µà°²à°¸
à°® à°¬à°¡
Ġà°¸ à°¨à°¨
à°ľ à°²à°¨
Ġà°Ĩ à°µà°²
à°ķà°¡ à°®
""" ,
Ġ15 9
Ġ13 4
Ġà°ľà°°à°Ĺ à°¦à°¨
à±į"" ."
âĻ ª
o og
à°¶ à°°à°£
Ġà°¦ à°¯à°¤
à°¸à°® à°¯à°®
Ġ28 0
Ġ) .
Ġà°¨à°Łà°¨ à°¨
th er
o od
Ġ le
à°¸ à°ķà°²
Ġà°¸ à°«à°²à°®
à°ľ à°¸à°®
Ġà°Ī à°Ĺ
Ġà°Ł à°ª
ĠâĢ ¢
Ġà°§ à°°à°ª
à°°à°² à°µ
Ġà°Ľ à°Łà°°
à°§à°ķ à°¤à°¨
Ġ25 00
ĠI D
Ġ27 2
199 2
Ġà°ķà°²à°µà°° à°ªà°¡
Ġr ho
erg y
o st
p ut
Â «
à°¦ à°ªà°°
à°® à°ªà°°à°ļ
Ġà°ħ à°Łà°ķ
à°³ à°¹à°¸
Ġà°Ĵ à°®à°¨
à°¤à°ķ à°¥
Ġ20 23
Ġ4 000
à°µà°¸ à°Ń
à±Ģ) .
ĠS am
à°ı à°İà°¨
à°ĩà°ķ à°®
er e
à°ļà°Ĺà°² à°®à°¨
13 5
us e
à°ĤâĢ¦ .
m an
t p
Ġ ra
à°¯ à°Łà°®
Ġà°ķ à°µà°²
à°¶ à°²à°ª
à°®à°¨ à°µ
à°°à°µ à°¬à°¡
à°ħà°² à°°
Ġà°İà°¦ à°Ĺà°¡
à°§à°¤ à°¤
Ġw h
Ġen gine
à±į à°ĥ
à°¨ à°¯à°¨
Ġà°Ĺ à°¨à°ķ
à°µà°° à°ķà°°
à°¯à°¨ à°®
à°ªà°¤ à°ķ
à°Ĳ à°İà°®
in ux
Ġ0 6
ĠS A
oog le
p os
à°Ł à°ªà°Ł
Ġà°¤ à°®à°°
Ġà°¦ à°ª
à°ı à°·
à°Ĵ à°®
à°¤à°µ à°¯à°¸
ĠC E
à°²à°¬à°¡ à°¤
Ġà°Ńà°Ĺ à°µà°¦
od e
T he
b lade
à±ģ âĢĵ
à°ª à°¦à°ķ
Ġà°¨ à°¹
à°· à°ļ
à°¯à°® à°Ĺ
à°¯à°ª à°¦
Ġà°Ĩà°¡ à°ķ
Ġà°®à°¤ à°Ń
Ġ198 7
1 15
C L
C o
à±Ĩ ?
Ġà°¸ à°°à°¯
Ġà°ľ à°¬à°²
à°°à°® à°²à°²
à°°à°ķ à°³
Ġà°ķà°² à°²à°¨
à°¯à°° à°¶
à°¨à°µ à°¹à°ķ
Ġà°ĺà°Łà°¨ à°²à°¨
à°ī à°¯
à°®à°¤ à°ªà°°à°®
19 74
Ġ49 7
3 10
v i
à ¯
à°İ à°®à°°
à°°à°¸ à°¨à°¨
à°ī à°Ńà°¯
à°£à°¯ à°®à°¨
à°ĵ à°¨
à±į) :
à±įâĢĮ) .
ĠI II
4 80
à°µ à°®à°°
à°¤à°¨ à°¡à°ķà°¨
Ġ3 30
à°·à°£ à°²à°²
Ġà°¸à°¬ à°¬
ĠI BM
un d
o x
ï »
à°¯ à°¯à°®
à°® à°°à°®
Ġà°ħ à°®à°¨
Ġà°İ à°±
à°¥ à°ªà°°à°ļ
à°°à°£ à°ļ
Ġà°Ĳ à°·
à°²à°¡ à°ĸ
à°Ľ à°ª
Ġ18 9
Ġ28 2
A S
Ġà° ³
à°² à°ĺ
à°¸ à°°à°£
à°ļ à°²à°®
Ġà°¨ à°¯à°¨
à°§ à°¶à°¤à°ķ
Ġà°ľ à°²à°µ
à°ħ à°¸à°®
à°¯à°¨ à°ª
à°¯à°ķ à°¯
à°ªà°¡ à°µ
à°¤à°® à°ª
à°ı à°İ
Ġ4 80
à°¢ à°ķ
à°ľà°® à°¯
âĢľ %
Ġ19 5
Ġ19 74
à±įâĢĮâĢĮ âĢĮ
at h
it ion
di an
ul ar
Ġâ Ī
1 12
N S
s c
v al
à°¸ à°¨à°ķ
Ġà°Ĩ à°¤à°°
Ġà°ĩ à°°à°ķ
à°ĩ à°Ĺ
à°ļà°¬à°¡ à°µà°²
à°°à°ķà°Łà°¨ à°²à°¨
ol l
ol u
so ft
lu id
à°¦ à°Ľ
à°® à°·
à°İ à°ķà°°
Ġà°¯ à°Ĺ
Ġà°ķà°¨ à°ªà°°
Ġà°ħà°ª à°ķ
Ġ- >
19 0
à°¡à°µ à°µ
Ġ30 3
on t
Ġà°ħà°£ à°Ĺà°¦
di rection
ï» ¿
2 70
Ġ el
à°ļ à°°à°¨
Ġà°ķ à°ľà°ķ
à°¿à°Ĥ .
Ġà°¨ à°µà°¨
à°¹ à°¹
à°°à°¤ à°°à°®
Ġà°ķà°² à°Ĺà°ľ
Ġà°ħà°° à°Ĺ
à°ī à°¬
à°¨à°¤ à°²à°¨
Ġ16 3
à°²à°¬à°¡ à°Ł
ĠF ilm
C E
a j
c ess
Ù Ħ
à°¨ à°¬à°²
à°¤ à°ĸ
à±Ģ âĢĿ
à°§ à°¦
Ġà°ĩ à°«
à°¸à°° à°³
Ġà°ĵ à°¯
Ġ19 48
Ġ19 77
à±ģ"" ,
Ġà°ķà°¨à°¬à°¡ à°Ł
à±į"" ,
Ġà°ħà°²à°µà°° à°ļ
à°¾ `
à°° à°¦à°¨
à°¯ à°·
à°¸ à°Łà°Ĺ
Ġà°¬ à°ł
Ġà°Ĩà°¯à°¨ à°®
à±Ĥ. .
Ġà°ķà°¨ à°ķà°°
à°¯à°ªà°¡ à°¦
à°¡à°µ à°Ĺ
Ġ19 4
Ġ19 49
12 9
ĠA pp
à¤ ¿
Ġà°¨à°Ĺ à°°à°µ
à°¡ à°Ĺà°¨
à°¦à°° à°¬
Ġà°ķà°¨ à°ķà°®
à°µà°¤ à°ª
à°ľà°® à°µ
Ġ14 1
à±ĭ. "
25 6
à°ªà°¬à°¡ à°²
p ort
à ³
à°¾ âĢľ
à°ķ à°µà°²
à°ķ à°¸à°Ńà°²
à±ĩ âĢĮ
Ġà°¸ à°¨à°¤
à°· à°ªà°°
à°ľ à°ªà°°
à°¹ à°²à°¨
à°¹ à°°à°¨
à°¦à°° à°¸
âĢĻ ,
Ġà°ħà°¡ à°Ĺà°ķ
Ġà°Ĩà°¶ à°ªà°¡
Ġ19 1
à°¨à°¡ à°®
Ġà°Ĩà°ļ à°°à°£à°ķ
ĠS BI
Ġà°Īà°¯à°¨ à°ķ
à°ĭ à°¤
2 25
N U
Ġà°µ à°¨à°¸
Ġà°¤ à°³
à°§ à°Ĺà°²
à°Ī à°ı
à°°à°¤ à°²à°ķ
Ġà°¹ à°¬à°ķ
à°°à°® à°¸
à°« à°°à°¸
à°°à°ķ à°°à°®
Ġ2 10
à°ªà°¡ à°¦
à°®à°° à°ª
à°¨à°µ à°¯à°¸
à°ĺ à°¨à°²
à°ķà°¨ à°Ĺ
à°°à°¹ à°°
à°§à°¨ à°²à°²
at er
Ġà°ľà°² à°¦
ĠM P
as h
Ġb l
Ġ198 2
ĠNew s
c o
t urbine
à°¦ à°¤à°¨
à°µ à°¸à°®
âĢ İ
à±įâĢĮ âĢ¦
à°ľ à°µà°¹à°°
à°ĸ à°µ
à°ĸ à°Ĺ
à±ĭà°Ĥ :
à°°à°¸ à°°à°£à°¨
à°ķà°ª à°²
Ġà°ħà°¡ à°ª
19 76
à°²à°µ à°®
à°¨à°¡ à°¤
Ġ15 2
Ġ17 3
à±ĩ! "
Ġm ach
ay am
EA D
d u
à°ķ à°µà°ļ
Ġà°® à°¬
à°· à°ªà°°à°ļ
à°§ à°¯
à°£ à°¤à°ķ
à°Łà°¨ à°Ł
à°¯à°µ à°¨
Ġà°· à°µà°°
à°ħà°¨ à°¸
Ġà°ħà°® à°²à°¯
Ġà°ĸ à°µ
Ġà°ħà°² à°¯
à°ĺ à°µà°°
Ġ20 2
19 95
à°¡à°Ĺ à°²à°¨
Ġà°µà°² à°¸à°µ
à°®à°² à°¬à°¦
Ġ19 52
Ġ15 8
à°£à°® à°¯
Ġ16 9
ĠC A
à°°à°¸à°° à°«à°°
I X
M OS
j ect
Ġ ex
à°µ à°Ĺà°²à°°
à°¡ à°ķà°²
à°İ à°¨à°°
Ġà°¸à°® à°ļ
à°®à°° à°¥
à°Ĳ à°Ĳà°¸
Ġà°ħà°¤ à°Ĺ
à°Ĵ à°Ł
à°Ĵ à°ķà°¨
Ġ20 4
Ġ8 55
Ġà°Ĵà°ķà°Ł à°µ
Ġ18 3
Ġà°ħà°£ à°ķ
Ġà°ĩà°ľ à°¬
I M
à°¨ à°¯à°®
à°¦ à°Ĺà°²à°°
à°¯ à°¦à°²
à°ª à°Ĺà°²à°µ
Ġà°ª à°ľ
Ġà°® à°¥
à°· à°¡
Ġà°¤ à°¹
à°ħ à°Ĺà°°
à±ģ, ,
Ġà°« à°£
Ġà°¡ à°°
à°Ĳ à°Ĳà°²
Ġà°īà°ª à°ª
Ġà°µà°°à°ķ à°Ł
Ġ19 45
10 6
à°¤à°¯ à°Ĺ
18 00
ĠS D
à°ķà°¦ à°³
à±ģâĢĿ .
à°Łà°¬ à°¯à°²
Ġà°ĭ à°·
ĠSam ayam
7 20
I T
à±į `
à°² à°ªà°¤
à°¦ à°¯à°µ
à°Ł à°¸à°Ńà°²
Ġà°ļ à°¡
à°¬ à°Łà°¨
à°¹ à°ł
à°ħ à°°à°£
à°« à°¯à°°
à°®à°¨ à°Ĺà°°
à°µà°² à°¯
à°¬à°¡ à°¡
à°¤à°ķ à°³
à°ķà°°à°£ à°®
Ġ19 30
Ġ19 57
à°¹à°¦ à°ªà°¡à°¤
Ġ18 4
Ġ17 8
à°¯à°Ĺà°² à°¦à°¨
ĠÂ £
âľ º
\ ""
h ot
à±ĭ ..
à°ª à°ł
Ġà°¤ à°¹à°¶
à°ĩ à°°à°µ
Ġ3 24
à°²à°® à°µ
Ġ6 60
ĠâĢľ %
Ġ19 3
Ġ19 19
Ġ19 66
Ġ19 58
10 3
Ġà°Ķ à°¦
à°°à°®à°£ à°¨
2 80
à ¨
Ġ 000
à°¦ à°¡à°®
à±ĭ âĢĿ
à°ľ à°µà°°
à°¶ à°°à°¦
Ġà°ľ à°¶
à°¤à°¨ à°¦
Ġà°µà°ļ à°¨à°®
Ġà°¤à°¨ à°ĸ
à°¯à°¸ à°²
Ġà°¨à°° à°¹
à°Ĥ! "
Ġt urbine
olog y
o k
à°¦à°¨ à°°
à°¯à°ķ à°ļà°°
à°¤à°° à°£à°²
à°°à°¦ à°Ĺ
19 48
à°ĺà°Łà°¨ à°²à°ķ
10 2
Ġà°¨à°² à°Ń
me n
Ġ23 5
Ġà°ħà°µà°¯à°µ à°®
oun d
icro soft
' ,
A C
R E
g ram
à°¿ âĢĺ
à°¦ à°¹
à°ļ à°²à°¤
Ġà°® à°¸à°ķ
à°¹ à°Ĺ
à°ĩ à°Ĩà°°
à°°à°¤ à°Ĺ
à°ľà°¨ à°Ĺà°°
à°¤à°ķ à°£
à°ļà°¬à°¡ à°µà°ļ
19 85
19 62
à°ķà°® à°¯
à°¨à°¡ à°ķ
âĢ¦ ]
Ġ15 6
er ic
or ld
11 7
ĠR EAD
ad d
Ġ[ âĢ¦]
ĠD C
Ġà°¦à°¹ à°¨à°®à°¯
H z
R ead
à°² à°ªà°°à°ļ
à°® à°¯à°¨
à°ļ à°Łà°¨
Ġà°¤ à°°à°£
à°¹ à°¡
à°³ à°¶
Ġà°¯ à°ķ
à°Łà°¨ à°·
Ġ19 2
Ġà°ķà°³ à°ķà°³à°²
à°ħà°ķ à°¸
à°¦à°¡ à°ª
à°²à°¬ à°¸
14 5
Ġà°ķà°¨à°¬à°¡ à°¤
ĠG DP
198 6
3 500
P P
u k
à°Ł à°ªà°°à°ļ
à°§ à°ªà°°à°ļà°¬à°¡
à°³ à°®à°¨
Ġà°¡ à°¯à°²
à°ķà°² à°¯
à°µà°¡ à°¦
Ġà°Ĳ à°Ĳà°İ
Ġà°ªà°¦ à°¹
à°®à°ķ à°¦
19 56
Ġ8 50
Ġ19 69
à°¿âĢĻ ,
Ġ16 7
à°§à°ªà°¡ à°²
ĠS MS
ĠB S
Ġn ot
Ġà°®à°Ĺ à°§
os s
MOS T
U V
p en
s quare
u ar
à°¿ âĢĵ
à°® à°²à°ª
Ġà°ķ à°§à°²
à°§ à°²à°¤
Ġà°¦ à°®à°¸
Ġà°İ à°İ
à°ħ à°°à°ķ
à°¥ à°¨à°ķ
Ġà°ħà°¨ à°µà°ļ
à°ĸ à°ªà°¡
Ġà°Ĵ à°İà°¨
à°Ĳ à°Ĳà°İà°¸
à°°à°¨ à°¡
à°µà°¤ à°¶
à°¦à°ķ à°®
Ġ50 6
ĠM ac
ĠH PV
Ġ| |
198 2
198 7
198 8
2 10
3 30
Ã ©
Ġà°ķ à°¡à°²
à°· à°ķà°°
à°ľ à°Ĺà°¦
Ġà°ħà°¨ à°Ł
Ġà°¤à°¨ à°®
Ġà°ķà°¨ à°Ĺà°°
à°Łà°ķ à°°à°®
à°§à°¨ à°²à°¤
Ġ9 11
or s
ĠP ro
à±ĭâĢ¦ .
Ġà°ªà°Ĺà°² à°Ĺ
âľ ¦
____ ____
a x
y pe
à°µ à°µà°¦
à°¶ à°¤à°®
Ġà°¦ à°¡
Ġà°¹ à°ľà°°
à°Ĩ à°ķà°¸
à°« à°¤
à°°à°ķ à°ķ
à°°à°µ à°¸
à°²à°ª à°¨
à°ķà°¨ à°¬
à°ķà°°à°£ à°²à°¤
à°µà°¦ à°¹à°¨
à±įâĢĮ. ..
à°§à°ªà°¡ à°Ł
Ġm an
à°Ķ à°°
umb er
ib eat
ĠFilm ibeat
H T
à°¨ à°¯à°¸
à°Ĥ à°Ĥ
à°¸ à°¸à°°
à°¸ à°ĺ
Ġà°¸ à°Ł
Ġà°® à°²à°ª
à°¯à°ķ à°Ł
12 6
16 00
Ġp oint
à±ĭ' .
. -
u ery
à±ģ @
à°Ĥ ''
à°¦ à°Ĺà°¤
Ġà°Ĩ à°Ń
Ġà°¬ à°«
Ġà°¯ à°²à°®
Ġà°¬à°² à°ªà°¡à°¤
Ġ19 51
Ġà°Ĭ à°°à°Ĺ
Ġà°Ĭ à°ļà°ķ
Ġà°®à°¤ à°ªà°°
12 2
à°°à°ªà°¡ à°¤
Ġà°¬à°¯à°Łà°ªà°¡ à°²
Ġà°ķà°¨à°¬à°¡ à°ķ
Ġm od
Ġengine ering
G NOME
t r
à°° à°¬à°Ł
à°¤ à°Ńà°¤
à±Ģ à°ĥ
à°ļ à°¯à°¤
Ġà°ķ à°¹
Ġà°¸ à°Ĺà°°
Ġà°ħ à°Ĺà°®
Ġà°¶ à°¯à°¨
à°ı à°ıà°ª
à°·à°® à°¯
Ġà°ľà°°à°Ĺ à°Ĺ
at ure
à±į' ,
à°ķà°²à°ķ à°¤
à°µà°¬à°¡ à°¤
13 2
ĠN T
R X
l and
à°® à°®à°¨
Ġà°¸ à°µà°¤
Ġà°® à°µ
Ġà°ļ à°²à°®
à°· à°¹à°°
à°¶ à°°à°¤
à°¶ à°²à°¤
Ġà°İ à°¡à°¬
Ġà°ªà°° à°µà°¶
Ġà°Ĵ à°¨
Ġà°īà°¨ à°¦
Ġà°« à°°à°µ
Ġ2 15
à°ī à°Ń
19 73
à°§à°¨ à°¤
Ġà°¬à°¸ à°ļ
ĠC om
Ġà°ķà°µ à°²à°²
Ġà°¸à°µà°°à°£ à°ķ
Ġà°¨à°°à°¸ à°°
ĠT h
ĠH T
à±Ĥ! "
à°¨ à°ªà°Ł
à°¨ à°¤à°ķ
à°¦ à°¬à°¡
à°µ à°¦à°°
à±Ĩ !
Ġà°µ à°¡à°¦
Ġà°Ĺ à°¹
Ġà°Ĺ à°«
à°°à°ķ à°µ
Ġ2 75
à°ªà°° à°¶
Ġà°ĵ à°µà°²
à°ī à°Ł
Ġ19 46
Ġ19 73
à°¯à°¬à°¡ à°¡
Ġ18 00
Ġ21 3
ĠD VD
ĠE x
ĠL ED
em b
ub e
Ġi OS
olu me
4 40
A I
Ġ Ø
à°ª à°¦à°²à°ļ
à±Ĥ ),
à°¬ à°ª
Ġà°Ĩ à°ªà°ķ
Ġà°ī à°¹
à°İ à°İà°¸
Ġà°¹ à°Ł
Ġà°¹ à°ľà°°à°¯
Ġà°Ĳ à°ĵà°¸
Ġà°¸à°Ń à°²à°¨
à°µà°°à°£ à°¨
Ġà°¨à°¡ à°ªà°¨
Ġ19 68
Ġ19 79
à°°à°ķà°Łà°¨ à°ķ
at ed
Ġà°°à°£ à°°
Ġc h
Ġà°¬à°¤ à°ķà°²
le t
Ġmin us
r al
u le
à°Ĥ âĢĵ
à°²à°ķ à°Ł
Ġà°ı à°¥
Ġ3 40
à°¨à°¨ à°²
à°Ľ à°°
à°ħà°µ à°¤à°²
Ġ30 6
Ġ30 7
12 3
Ġs ystem
à°Ĥ"" ""
for ce
l i
y s
à°¨ à°Ī
Ġà°ª à°Ĺà°¤
Ġà°ľ à°¯à°®
à°Ĩ à°¬
à°¯à°ķ à°®à°¨
à°°à°¯ à°¦
à°¢ à°¨
à°µà°°à°£ à°µ
à°°à°¬ à°²à°®
à°«à°² à°¦
Ġ22 2
Ġ23 4
Ġn ame
PI B
3 40
A h
T A
V I
d ra
r it
Ġà°µ à°¨à°®
à°§ à°¤à°ķ
à°ĸ à°²à°¤
Ġà°¯ à°¯
à°« à°ķ
à°ħà°² à°¸
à°ħà°² à°µ
à°ļà°¬à°¡ à°Ł
19 79
à°¡à°Ĺ à°¡
Ġ6 000
10 1
Ġ24 2
Ġ24 4
on s
at ic
à°§à°ªà°¡ à°¡
Ġà°µà°¦à°² à°¡
Ġà°£ à°®
d ata
Ġ res
âĢĮ à±ĥ
Ġà°¦ à°¶à°®
Ġà°ħà°¨ à°¤
à°²à°ķ à°µà°°
à°ĩ à°ĵ
à°¦à°¨ à°²à°¤
à°¯à°® à°¤
20 23
19 61
à°³à°¨ à°²à°¤
Ġ19 59
Ġà°ĸà°° à°Ĺ
10 9
Ġ18 7
Ġ25 1
ter n
if ication
ĠCP U
1 14
5 40
à°° à°«à°°
à°· à°®à°¨
à°§ à°¨à°µ
Ġà°¬ à°§
Ġà°ľ à°°à°ķ
à°Łà°¨ à°µ
à°ķà°² à°¹
à°°à°ľ à°²à°®
à°µà°¤ à°Ĺ
à°Łà°ķ à°¨
à°Łà°ķ à°Ł
Ġà°¤à°Ĺ à°¦à°¨
19 52
Ġ19 55
Ġà°Ĩà°ķ à°¤
à±Ģ. ..
ĠâĢĻ .
à°°à°ªà°¡ à°¡
à°¯à°Łà°¨ à°ª
at ch
ic t
à±ģâĢ¦ !
28 8
ĠH ead
Ġ198 1
od y
ĠUS B
echn ical
J P
T O
à°° à°¦à°²
à°¹ à°¨à°®
à°°à°® à°ªà°¦
Ġà°ħà°§ à°°
Ġà°· à°«
Ġà°Ĳ à°·à°°
Ġ19 65
Ġ19 64
Ġ15 7
à°Łà°ªà°¡ à°¡
Ġà°ľà°°à°Ĺ à°µà°²à°¸
à°¨à°Ĺ à°ª
Ġ0 7
13 3
Ġà°ķà°¬ à°³
% ).
E R
F i
u al
v e
à±į à°Ĥ
à°¤ à°«
à°ľ à°²à°®
Ġà°Ĩ à°ªà°¨
à°£ à°¬
Ġà°ľ à°¨à°ķ
à°µà°¨ à°µ
à°¨à°µ à°¸
à°ł à°°
Ġà°Ľ à°²
Ġ9 50
Ġ9 99
14 9
à°¾) :
Ġf rom
. ,
2 90
c k
c y
f w
m in
à°¿ à±Ĥ
à°¤ à°®à°°
Ġà°ħ à°¹à°®
Ġà°Ĩ à°£
à°£ à°ªà°Ł
à°³ à°°
Ġà°Ī à°Ĺà°²
Ġà°¸à°® à°¶
à°®à°¨ à°¨
à°Ĳ à°¦à°µ
à°µà°¨ à°¤
Ġ3 25
à°Ĺà°² à°µà°¨
à°¯à°¡ à°®à°¨
à°Ĵ à°İà°¸
à°ķà°Ł à°¸
Ġ19 67
Ġ11 00
re en
à°¾âĢĻ ,
ĠN o
à°¿âĢĿ .
Ġà°ªà°¯à°¨ à°®à°¯
ang le
Ġà°°à°¥ à°¯
Ġà°¤à°Ĺà°² à°¡
1 16
2 99
à°¦ à°°à°¤
Ġà°ħ à°¦à°°
Ġà°İ à°İà°¸
Ġà°Ĺ à°¤à°ķ
Ġà°Ń à°ľà°¨
à±ģ, ""
à°ĸ à°°à°®
à°¦à°° à°ķà°ª
Ġà°ı à°«
à°ªà°° à°¨
à°ļà°¨ à°µà°¸à°°
Ġà°īà°¤ à°ª
à°ªà°ķ à°¯
10 7
15 2
12 7
Ġ22 7
à°§à°ªà°¡ à°ķ
ĠA n
ĠA nd
Ġ32 6
Ġc o
is e
H D
I L
c ri
Ġà°ķ à°°à°¨
Ġà°¸ à°¡
à±įâĢĮ ""
à±Ĭ ,
à°³ à°¸
à°Ĩ à°·
Ġà°¯ à°²
Ġà°« à°²à°ª
Ġà°ľà°° à°ªà°²
à°¬à°¡ à°¨
à°Ĳ à°°à°¨
à°¨à°ª à°®
à°¨à°ķ à°¯
à°¨à°ķ à°®
à°ħà°² à°¸à°Ł
à°µà°¦ à°¤
à°ħà°µ à°®
ar n
ĠS o
13 00
Ġà°Ĳà°ķ à°®à°¤
ay s
à°ĩà°¤ à°°à°¤
à°ľà°¯à°¦ à°¶à°®
2 35
F A
M C
d f
à°¦ à°ķà°¡
à°Ĺ à°µà°²à°¸
Ġà°ķ à°«
Ġà°¨ à°«
à°¶ à°§
à°¥ à°°à°¹
à°Ĩ à°¶à°²
à°°à°¦ à°¤
Ġ20 5
à°¡à°¨ à°Ĺ
à°²à°¡ à°®
à°£à°® à°µ
at ive
à±įâĢĮ) :
11 1
13 8
à¤ ²
Ġà°®à°Ĺ à°¬
ra ph
à°Īà°ĵ à°Ĺ
Ġà°ħà°¸à°¹ à°ľ
Co V
y a
à±į &
à°¿ à°¿
à°¿ à±ģ
à°¡ à°¦à°²
Ġà°¤ à°¹à°¤
Ġà°° à°ļà°¨à°²à°¨
à°§ à°¡à°ķ
à°²à°ķ à°±
Ġà°ı à°ıà°ª
à°¿, .
à°¤à°® à°Ĺ
à°ł à°¸
Ġ20 8
Ġ4 99
à°¯à°¬à°¡ à°¦
es h
it ed
ĠI M
ĠL inux
à°Ńà°ªà°¡ à°Ĺ
D O
T I
c ov
h fw
p tion
Ù ħ
à°¯ à°¦à°²à°ļ
Ġà°ķ à°°à°ķ
à±įâĢĮ ''
Ġà°Ĩ à°¡à°¦
Ġà°Ĩ à°¯à°ķà°Ł
Ġà°² à°ļ
à°Ī à°¬
à°Ī à°ĺà°Łà°¨à°²
à°« à°¯
à°¯à°ķ à°³
à°ħà°¨ à°°
Ġà°Ĩà°® à°°à°£
à°ı à°Īà°²
à°ķà°Ł à°µ
Ġ24 1
à°± à°¤
Ġ21 1
Ġ0 2
16 2
ĠM icrosoft
à°¶à°¨à°® à°¯
yn am
uar ters
ĠHead uarters
Ø ±
à°Ĥ "
à°Ĺ à°Ńà°°
à°ļ à°¨à°Ł
à°· à°Ńà°°
Ġà°¬ à°µ
à°³ à°ľ
à°Ī à°İà°²
à°ķà°° à°µ
Ġà°« à°µ
Ġà°ĵ à°¡à°¨
à°ĺ à°ľ
à°ĺ à°¨à°ķ
Ġà°µà°² à°¸à°ķ
à°²à°µ à°¬
Ġ19 54
Ġà°Ĩà°Ł à°ª
Ġà°Ĩà°¡ à°ķà°ª
an n
à°ļà°¦ à°µà°¡
it le
ĠUS A
Ġà°®à°¦à°¨ à°ªà°²
RC TC
g et
à°Ĥ """
à±ĩ à±ĩ
à°· à°¯à°µ
Ġà°ĩ à°¥à°¨
Ġà°ľ à°²à°¸
à°ĩ à°¥
à°Ĩ à°ļà°°à°£
à°°à°¸ à°ªà°¡
Ġà°®à°¹ à°¨
Ġà°īà°¦ à°¯à°ª
Ġà°ħà°¸ à°®à°¤
Ġ5 43
Ġà°¬à°¤ à°ķà°¡
à°Ĭ à°³
Ġf t
Ġa b
" (
f luid
o y
o ad
à°ķ à°¸à°²
à°¦ à°¯à°¨
à°ª à°¨à°ª
à°ª à°¨à°µà°¸à°°
Ġà°® à°·
à°¦à°° à°µ
à°« à°£
à°¾. )
à°ªà°ķ à°³
Ġà°¸à°Ń à°°
Ġ19 20
Ġ19 63
à°ķà°¤ à°²à°¨
Ġ0 4
al s
Ġm ore
ation s
ul l
ak e
Ġsp ec
C R
à°ķ à°¶à°ķ
à°¤ à°ªà°¤
à°¡ à°Ĺà°²à°µ
à°ļ à°Ń
Ġà°ķ à°¤à°°
à°¶ à°¨à°ª
Ġà°° à°§
à°²à°¨ à°¤
à°°à°® à°£à°®
Ġà°¸à°® à°¦
à°ķà°² à°¬
à°ħà°¨ à°¡
âĢĺ à±į
Ġà°Ĳ à°Ĳà°İà°¸
Ġ19 39
Ġà°Ĭ à°ķ
à°ªà°¦ à°²à°¨
à°¯à°¬à°¡ à°¨
à°¸à°µ à°®
ĠâĢĻ ?
Ġ50 9
à°ªà°¬à°¡ à°¨
13 7
en g
à°Ńà°ľà°¨ à°²
ab ad
Ġmo hfw
D C
s el
à°¯ à°ļà°°
Ġà°ª à°®
Ġà°ķ à°³à°¨
Ġà°ļ à°¦à°°
à°¶ à°¯à°ªà°¡
Ġà°ħà°µ à°Ł
à°ªà°¡ à°Ĺ
à°Ĳ à°Ĳà°İ
à°Ĺà°¤ à°ķ
Ġà°µà°¦ à°²à°ķ
19 4
Ġ17 1
al a
Ġà°¸à°µà°°à°£ à°²à°¨
Ġ29 4
à°¦à°ķà°°à°® à°¨
à°Ĥ' .
l ine
Ġà°¤ à°°à°¤à°°à°®
Ġà°° à°¶
à°¬ à°Ĺà°³
à°¬ à°µà°³
à°³ à°¬
à°Ĩ à°°à°µ
Ġà°ı à°ľà°¨
Ġà°ªà°° à°¬
Ġà°ķà°² à°Ĺà°¨
Ġà°Ĩà°° à°¨
Ġà°§ à°®à°¨
à°ļà°¨ à°®
Ġà°ħà°ª à°¹à°°à°£
à°ªà°ķ à°¨
19 69
19 67
Ġ8 45
à°Ĺà°® à°µ
à°ķà°¤ à°¡
à±ģ) :
Ġ0 8
Ġ23 9
à±ĭ) .
à±Ģ? "
à°°à°¥à°® à°¸
( )
L E
O C
Î ±
à°µ à°¦à°¨
à°Ĺ à°²à°¤
à°Ĺ à°¸à°®
Ġà°® à°¡à°Ĺ
à±įâĢĮ ]
à°ħ à°¤à°Ĺ
à°Łà°° à°²
à°Łà°¨ à°¬
Ġ2 90
à°ķà°² à°¸
Ġà°¤à°° à°Ĺ
19 55
à°°à°ķà°Łà°¨ à°¤
er t
Ġà°µà°°à°¦ à°²à°ķ
à°Ĥ"" ."
1 100
2 60
à°¿ à°ĥ
à°ķ à°§
à°¤ à°µà°ļ
à°¤ à°µà°ķ
à°Ł à°¸à°Ń
Ġà°® à°²à°ķ
à°· à°¹
Ġà°¦ à°µà°¡
à°³ à°²à°²
Ġà°¶ à°²
Ġà°¶ à°ķà°²
à°İ à°ĩ
à°ķà°¡ à°ªà°²
Ġà°®à°¨ à°¯
à°¤à°² à°¬
à°ħà°¨ à°µà°¸à°°à°®
Ġ3 65
à°¯à°¤ à°²à°ķ
Ġà°ħà°ª à°¶
à°ªà°² à°µ
19 39
à°°à°Ĺ à°¡à°®
à°īà°¦ à°¯à°®
Ġà°ľà°² à°¶à°ķ
22 4
it s
ĠM i
Ġà°ļà°¦à°µ à°Ł
à°Ńà°ľà°¨ à°ª
le d
ro p
us h
un ction
Ġà°¸à°°à°³ à°¤à°°
198 1
ap p
ĠHD FC
` .
à°Ĥ âĢį
à°¤ à°ªà°°à°ļ
à°¯ à°¬à°°
Ġà°® à°¤à°Ĺ
à°· à°ķà°®
à°§ à°ļ
Ġà°¬ à°²à°ª
à°¥ à°¤à°¤
à°Łà°² à°°
Ġà°¸à°Ń à°²à°ķ
19 40
er o
Ġà°µà°²à°¨ à°¨
Ġà°¬à°¯à°Łà°ªà°¡ à°¡
ic k
ĠG T
am ple
Ġo ut
ig h
RA ID
3 25
D S
s ystem
à±į |
à°ª à°²à°ª
à°ª à°Ĺà°²à°¦
Ġà°¤ à°ľ
Ġà°Ĩ à°¡à°Ĺ
à°¹ à°¤à°ķ
à°£ à°¹à°¤
Ġà°ľ à°¤à°Ĺ
à°Ī à°İà°«
Ġà°ı à°²à°¨
à±ĩà°Ĥ !
à°°à°£ à°°
à°®à°¨ à°¤
Ġ18 6
à°°à°ªà°¡ à°ķ
à°ļà°Ĺà°² à°Ĺ
Ġ0 3
à°®à°³ à°¯
Ġ28 7
à°īà°ª à°ķà°°à°£
11 3
Ġà°Ĩà°¦à°° à°£à°¨
ĠA m
ĠM S
ro t
ing s
Ġà°µà°°à°¸ à°²
Ġ-- -
are nd
3 80
I R
à°¾ Â§à±įâĢĮà±ģ
à±ģ à±Ĥ
à°Ł à°¶
à°ª à°Ńà°°
à°Ĺ à°§
à±ģ. )
à°§ à°¶
à°¹ à°Ń
à°£ à°°à°¤
Ġà°¦ à°¯à°Ĺà°²
Ġà°Ĵà°ķ à°®
à°¬à°¡ à°²
à°µà°¹ à°Ł
19 68
à°§à°¨ à°Ĺ
Ġà°ķà°¥ à°Ĺ
Ġà°«à°² à°¦
à°¤à°¤ à°²à°ķ
Ġà°Ķ à°Łà°°
à°¨à°Ĺ à°ªà°ª
18 5
0 50
B rand
E T
G S
M R
M W
V M
o ol
à±į +
à°ķ à°ªà°¡
à°¦ à°¯à°¸
à°ª à°¹
à°® à°¦à°¨
Ġà°¨ à°°à°ķà°¡
à±Ī '
Ġà°¦ à°¯à°Ĺ
Ġà°ĩ à°°à°Ĺà°¦
Ġà°¶ à°¤à°µ
Ġà°Ĵ à°¹
Ġà°ľà°° à°ªà°Ĺ
Ġ3 11
à°Ĺà°² à°®à°¨
à°¡à°² à°µ
Ġà°ħà°¡ à°Ĺà°Ł
19 65
Ġ19 7
Ġ19 31
à°²à°Ń à°®à°¯
Ġà°ķà°¦ à°²à°ķ
à°¸à°¹ à°ķà°°
16 5
Ġt ri
Ġ26 9
ĠI C
el hi
ĠU V
à°Ĭ à°¬à°ķ
ro w
Ġà°İà°¡à°® à°ļ
à±įâĢ¦ .
our t
ff er
" âĢľ
A P
à°® à°°à°£à°®
à°ļ à°°à°£à°²
à±Ĥ '
Ġà°¤ à°£
Ġà°° à°¯
à°§ à°¨à°ª
à°¹ à°®à°¨
à°Ī à°²à°ķ
à°µà°° à°¨à°Ĺ
à±į, ,
Ġà°Ĵà°ķ à°²
à°¤à°° à°¨
Ġ2 12
Ġà°ĵ à°·
à°¤à°² à°¸
à°Łà°² à°¯
à°ĺ à°¸
Ġ20 6
à°¡à°µ à°Ł
Ġà°Ĩà°¶ à°¨
Ġà°Ńà°¯ à°¬
an ce
or on
en ergy
à°ħà°®à°° à°µ
ĠD NA
Ġà°ķà°¦à°² à°¡
Ġk g
Ġà°µà°¡à°Ĺ à°³
3 75
a z
r on
u di
Ġà° ¾
à°ķ à°Łà°ķ
à°ķ à°¨à°ķ
à°¸ à°ªà°°
à°Ĺ à°Ĺà°¨
Ġà°® à°®à°ķ
Ġà°° à°¬à°¡
Ġà°Ĩ à°®à°¨
à°°à°ª à°¨
à°ı à°Ĳà°¬
Ġ3 75
à°¢ à°µ
Ġà°¢ à°ķ
Ġ19 53
Ġ"" ,
Ġà°Ĩà°Ĺ à°Ł
à°¡à°¬ à°¦
Ġ40 3
14 7
ĠG oogle
à°¾' .
vi ew
5 10
m un
Ã §
Ġ al
à°¯ à°¤à°®
à±ĩ ),
à°¸ à°°à°¸à°®
à°µ à°¯à°¨
à°Ĺ à°ªà°°à°ļ
à°¿à°Ĥ :
Ġà°Ĩ à°Ĺà°®
Ġà°ĩ à°ķà°²
à°ħ à°¹à°°
Ġà°Ń à°ľà°°
à°µà°° à°¯
Ġà°Ĩà°¯à°¨ à°µ
à°ħà°¨ à°¨
à°¶à°ķ à°®
à°Ĺà°² à°Ĺ
""" '
Ġà°¤à°² à°¶
Ġà°§à°° à°²à°²
Ġ6 65
Ġ19 42
à°¦à°ķ à°¤à°¨
à°²à°Ĺ à°ª
à±Ģ. .
à°¶à°¨ à°²à°¨
Ġ25 5
à°± à°ķ
at ing
75 1
ĠI nt
24 9
Ġb ody
us er
Ġà°ľà°²à°® à°¯à°®
ran s
Ġac tion
Ġmo di
ĠUn ix
4 30
4 60
O H
U I
c ovid
d y
Ġ à±
à°¦ à°µà°°
Ġà°® à°¤à°²à°¬
Ġà°ļ à°¹à°°
à°§ à°°à°ķ
Ġà°ı à°İà°²
Ġà°ı à°¥à°°
à°ķà°¡ à°Ĺ
Ġà°Ĩà°¯à°¨ à°ªà°Ł
à°ļà°¬à°¡ à°°
19 49
Ġ19 6
Ġà°İà°Ĺ à°°à°µ
15 5
15 6
Ġ21 4
Ġ21 6
Ġà°µà°¡ à°ķà°Ł
ent s
à¥ ¥
W indows
m s
à°° à°µà°²à°¸
à°ķ à°¥à°ķ
Ġà°¨ à°°à°µà°£
à°³ à°µà°²à°¸
à°®à°° à°ļ
Ġà°ĸ à°¯
à°¨à°® à°Ĺ
19 20
19 66
à°Ĺà°® à°®
Ġà°Ķ à°ļ
at t
18 2
Ġc ol
ed ia
if e
ud y
Ġth at
ĠÂłĠÂł ĠÂłĠÂł
G A
W h
à°ķ à°µà°¡
à°Ĺ à°¨à°¨
Ġà°¸ à°ªà°°
Ġà°Ĩ à°¹à°°
à°¹ à°¤à°ª
Ġà°¬ à°«à°°
Ġà°İ à°¸à°°
Ġà°Ī à°İà°®
à°ĸ à°ľ
Ġà°ı à°¦à°¨
Ġà°ªà°° à°ļà°¬à°¡
Ġà°®à°¨ à°ªà°Ł
à°ħà°¨ à°Ĺà°¨à°Ĺ
à°ľà°¨ à°Ĺ
à°¨à°¨ à°Ĺ
ĠâĢĺ %
à°°à°Ĺ à°Ĺ
à°ªà°£ à°ª
Ġà°İà°¡ à°ª
Ġ22 3
Ġà°ķà°¡ à°ªà°Ł
ĠI N
Ġs h
Ġà°µà°²à°¸ à°ª
ro id
ome nt
ow n
à±įâĢĿ .
Ġà°ķà°²à°µà°° à°ªà°°
av ir
à°¿] .
ff ic
à°®à°²à°® à°¡
ĠâĤ ¬
4 70
S C
f irefox
v elocity
} }
à°¸ à°°à°ķ
à°µ à°µà°²
Ġà°® à°ĸ
Ġà°¤ à°¡à°¬
à°¬ à°²à°ķ
Ġà°Ĩ à°¤à°¨
à°µà°° à°¤
Ġà°®à°° à°ķà°²
Ġà°Ł à°µ
à±ĩà°Ĥ ,
Ġà°ħà°µ à°¦
à°Ĳ à°ĵà°¸
Ġ3 80
Ġà°ªà°¡ à°µà°ļ
à°ļà°¬à°¡ à°ķ
Ġ19 41
âĢĿ .
à°¯à°Ĺà°² à°®à°¨
à±įâĢĮâĢĻ âĢĻ
Ġ29 5
Ġc har
à°¡à°Ĺà°² à°¡
Ġà°¨à°Ĺ à°²à°¨
ol ar
à±Ĥ? "
AT O
Ġcon t
ide o
5 60
m m
Ġ ar
à°ķ à°ªà°°à°ļ
à°¸ à°ķà°¤
Ġà°® à°¤à°µ
à±įâĢĮ âĢį
Ġà°¤ à°²à°°
à±ģ, ...
Ġà°ı à°ı
à°®à°¨ à°°
Ġ2 21
Ġà°İà°² à°°
Ġ3 19
à°ĺ à°ļà°¤
Ġ4 30
Ġà°¤à°² à°ªà°¡à°¤
à°°à°ľà°² à°ªà°Ł
à°§à°¨ à°ªà°Ł
Ġ7 30
à°°à°¬ à°¦
à°Ĺà°® à°£
à°°à°ķà°Łà°¨ à°²à°¤
Ġ17 9
Ġ25 7
Ġ23 2
Ġ28 6
ĠC S
ĠC l
Ġs l
Ġà°¨à°Łà°¨ à°²
à°µà°ļà°¨ à°®
ĠRead more
urb o
âĪ Ļ
ĠApp le
T h
Ġ qu
à°ķ à°¦à°²
à°¦ à°¹à°¨
à°® à°ł
à±įâĢĮ âĢĭ
Ġà°¤ à°¡à°µ
à°¶ à°ªà°¡
à°Ń à°¯à°ª
Ġà°Ĺ à°³à°®
à°Ī à°Ĺ
à°¯à°¨ à°¡
Ġ( âĢĺ
à°°à°µ à°Ĺ
Ġà°ĵ à°·à°¨
à°µà°¡ à°Ĺ
à°¤à°ķ à°³à°²
à°¯à°¸ à°¹à°ķ
à°ªà°¨ à°¤
Ġ7 90
âĢĭ âĢĭ
an e
Ġà°Ńà°¯à°ªà°¡ à°¡
Ġ23 1
14 8
Ġà°ħà°°à°µ à°¡
ĠA M
à°Ĺà°ª à°°à°®
Ġ49 8
Ġa g
Ġa re
Ġà°ķà°²à°Ĺ à°µà°ļ
up right
CA A
( _
4 10
4 90
9 50
T M
e al
w ork
Ġ z
Ġà°Ĩ à°¥
Ġà°ªà°° à°§
à°°à°£ à°¹
à°ħà°¯ à°¤
Ġà°§ à°®
Ġà°· à°°à°ª
Ġà°īà°ª à°ļ
à°²à°® à°Ĺ
19 51
à°¯à°ªà°¡ à°µà°ļ
Ġ8 65
Ġà°Ńà°¯à°ªà°¡ à°Ł
à°°à°®à°£ à°¦
13 9
Ġ26 5
Ġh is
Ġà°Ĺà°ľ à°Ĺà°ľ
imp ell
, ,
3 90
m ail
t a
à±į ''
à°¦ à°Ń
à°¯ à°°à°¨
à°µ à°Ńà°¯
à±Ģ âĢĻâĢĻ
à°· à°°à°¸
à°Ń à°°à°®
à°°à°µ à°£à°¤
Ġà°ħà°¡ à°Ĺà°¨
à°µà°¹ à°ķ
à°¹à°¨ à°¤
19 64
Ġ19 35
à°¶à°µ à°ªà°°
à°¯à°Ĺà°² à°µà°¨
Ġ0 9
à°ħà°¸ à°¤
Ġ26 4
ĠH IV
34 2
ex pos
U MO
m b
à°¿. ,
à°ľ à°ķà°°
Ġà°ī à°¬à°°
à°£ à°ķà°³
Ġà°İ à°ļ
Ġà°ľ à°²à°ķ
Ġà°Ń à°ľ
à°ĩ à°«
à°İ à°ķà°¨
Ġà°ı à°¦à°¯
à°¤à°° à°£à°¨
à°²à°² à°®
à°¤à°® à°¦
à°ľà°¨ à°ª
à°µà°¨ à°Ĺà°°
Ġà°µà°° à°µà°°à°°
à°¤à°ķ à°ķ
Ġà°ħà°¡ à°Ĺà°°
19 63
à°¡à°¨ à°¡
Ġ7 65
Ġà°¨à°¡ à°µà°¨
Ġà°Ľ à°Ł
Ġà°Ĩà°Ł à°ªà°Ł
Ġà°ķà°¦ à°²à°²
Ġ18 1
in s
Ġ24 8
à°¤à°¤ à°²à°¨
12 1
at i
Ġà°ľà°¯ à°µà°°
Ġ22 6
Ġà°Ĭà°¹ à°²
Ġà°Ĭà°¹ à°ķ
à°ķà°¶ à°°
17 3
à°²à°¬à°¡ à°¡
Ġm g
ĠP h
Ġ33 6
Ġ44 3
Ġà°ıà°Ĳ à°ıà°¡
âĪ Ĵ
Ġà°¤à°¹à°¤ à°¹à°²
. """
4 25
D F
I nt
L L
U n
p re
à±į ]
à°¤ à°§
à°¶ à°²à°²
à°Ń à°ªà°°
Ġà°² à°°
Ġà°İ à°¹
Ġà°Ī à°ķà°²
à°Ĩ à°Ĺà°¡
à°®à°¨ à°µà°®
à°ķà°² à°¦
à°¸à°° à°ªà°ª
à°®à°° à°¨
à°Ĳ à°¹
à°²à°¤ à°¤
à°µà°¨ à°²à°¨
à°¶à°ķ à°°à°®
20 3
Ġà°ľà°¨ à°¶à°ķ
à°§à°¨ à°ļ
à°¸à°Ń à°¨
Ġà°®à°² à°¬
à°°à°¸à°¨ à°²à°¤
à°ļà°²à°¨ à°ļ
at s
al e
ĠI V
ĠP l
Ġ37 1
à°¡à°Ĺà°² à°®
Ġà°ªà°¤à°¨ à°®à°µ
ut e
Ġà°µà°¶ à°ªà°°à°ļ
Ġpro gram
der abad
) (
D I
D OS
L S
M o
c c
à±ĭ ]
à±ĭ à±į
à°Ł à°ªà°²
Ġà°¬ à°¨à°Ĺ
à°Ĩ à°³
Ġà°ı à°¹
Ġà°ı à°Ĳà°İ
Ġà°¸à°¹ à°¨à°®
à°²à°¯ à°ª
à°¨à°ª à°ª
à°ī à°¦à°°
""" -
19 45
19 57
à°²à°µ à°Ł
à°ĵ à°İà°¨
Ġà°Ĭ à°¤à°ª
à±ģâĢĻ ,
30 5
à°¨à°Ĺ à°°à°®
or th
17 00
is m
23 1
ĠIn dian
ub l
.... ....
lad es
ear ch
N G
N ew
W HO
Ĺ Ĩ
à°° à°ļà°°
à°Ł à°«
à°ª à°¨à°®
à°µ à°Ĺà°²à°µ
âĢĮ à±ģ
à°¶ à°ªà°ķ
Ġà°¯ à°¶à°¸
Ġà°Ł à°«
à°ķà°° à°ª
à°¤à°¨ à°ªà°°
Ġà°Ĩà°° à°Ĺ
à°ľà°ķ à°¤
Ġà°¨à°° à°¹à°¤
Ġà°ĺ à°¨à°ķ
Ġ19 38
à°ĵ à°ľ
Ġ14 00
à°¬à°² à°ªà°°
à°Łà°£ à°¸
Ġ24 9
er r
à°¯à°Łà°¨ à°²à°ķ
Ġ40 6
Ġà°ķà°®à°² à°¹
17 2
Ġà°ķà°¨à°¬à°¡ à°¨
Ġ33 7
à±ĩâĢ¦ !
st ant
ĠIn c
av e
Ġà°īà°Ń à°¯à°¸à°Ńà°²
b i
t ri
u ment
à°ķ à°ķà°ª
à±ĩ ''
à°Ł à°¡à°²
à°ļ à°¦à°²
Ġà°® à°¸à°²
à°§ à°°à°®
à±Ĭ à±Ģ
à°¾à°Ĥ âĢľ
à°¯à°ķ à°¤à°¨
Ġà°ķà°² à°¹à°®
Ġà°ħà°® à°ľ
Ġà°ħà°² à°¸à°¤
Ġà°ªà°¡ à°ķà°ª
Ġà°ħà°ª à°¹à°¸
à°Ĵ à°®à°°
19 14
19 46
Ġ19 18
à°µà°¦ à°¹
Ġà°Ĩà°ª à°¦à°²
à±įâĢĭ .
Ġ30 5
Ġà°Ĺà°£ à°¨à°²
ar s
ĠS ach
à±ĩ? "
Ġà°ķà°¨à°¬à°¡ à°¦
Ġ32 3
Ġm ark
Ġà°ł à°ķ
ĠB MW
Ġf unction
Ġà°ıà°®à°¨ à°Ĺ
ĠÂ ·
âĢĮâĢĮ âĢĮâĢĮ
à¥ Ģ
Ġfor ce
Ġht tp
arend ra
. )
2 75
5 90
L A
R BI
Ù Ī
à±į âĢİ
à°¾ """
à°µ à°ķà°°
à°ļ à°²à°²
Ġà°ħ à°¶à°ķ
Ġà°ħ à°ľà°®
Ġà°Ĩ à°ľà°®
Ġà°¬ à°ľà°°
à°ªà°° à°ļà°²
à°°à°§ à°¨
Ġà°· à°²
Ġà°ķà°¨ à°ķà°¦
Ġà°ħà°ª à°¨à°®
20 5
Ġ19 36
à°°à°Ĺ à°¬
à°¹à°¦ à°¦
Ġà°¨à°µ à°ķà°²
15 8
à°¤à°¤ à°¤
à°ļà°Ĺà°² à°°à°¨
à°ķà°²à°ķ à°²
à°¿' ,
ic h
ĠR es
Ġ29 2
Ġc ub
is k
le ction
Ġ[ âĢĺ
ĠD P
26 4
à°¾âĢ¦ !
à°¿âĢĻâĢĻ .
Ġa pp
Ġà°°à°ļà°¨ à°²à°²
à°¶à°¨à°ķ à°°à°®
ang ular
Ġà°ļà°µà°ķ à°Ĺ
ace ae
Ġà°®à°¸à°ķ à°¬
à°µà°¦à°¹ à°¨à°®à°¯
5 99
E M
à°¤ à°¸à°°
à°µ à°¨à°Ł
Ġà°ķ à°°à°¸
Ġà°® à°¡à°®
Ġà°Ĩ à°µà°¹
Ġà°Ĩ à°Ĺà°¨
à°Ī à°¤
à°¦à°° à°£à°¨
à°« à°®
Ġà°¡ à°¯à°¬
à°¤à°° à°Ń
à°Łà°¨ à°ª
Ġà°ķà°² à°Ĺà°¦
à°Ĥ. """
à°°à°¯ à°£
à°°à°² à°ª
à°Ĳ à°ıà°ķ
à°²à°¤ à°²à°¨
Ġ20 7
à°ħà°ª à°¸
à°§à°¨ à°²à°ª
Ġ7 000
à°ķà°°à°£ à°²à°²
à°Ľ à°¯
Ġ9 60
Ġ"" ?"
âĢ¦ !
Ġà°İà°¡ à°®à°ķ
16 8
ĠS erv
13 4
17 8
ion al
ĠB C
ĠTel ang
ĠâĤ ¹
à¯ į
ynam ics
2 65
C B
j p
o f
Õ ¡
Ù Ĭ
â ŀ
Ġ ÃĹ
à°Ĺ à°¦à°¨
à°¹ à°²à°ķ
à°¦à°¨ à°Ł
Ġà°Ĵà°ķ à°°à°ķ
à°°à°² à°¹à°°
à°¤à°² à°ļ
à°¤à°² à°®à°µ
à°ľà°¨ à°Ńà°°
à°¨à°¦ à°Ł
à°ı à°ķà°ķ
Ġà°īà°ª à°ªà°¤
Ġà°Ĳ à°İà°²
Ġà°ªà°¡ à°ķà°²à°¤
à°ī à°ªà°®
Ġà°µà°¦ à°²à°¨
19 58
à°°à°¹ à°ķ
Ġà°ĺ à°¨à°ªà°¦
Ġà°¥ à°¨
Ġà°İà°Ĺ à°¶
er a
à±įâĢĮâĢĻ ,
ĠA s
ĠN ame
Ġc l
ro up
à°¿âĢ¦ !
Ġà°ĭ à°ľ
add on
6 40
D M
m i
p an
u res
y derabad
Â ½
Ġ ass
à±ģ à°ģ
à°® à°¤à°¨
à°¡ à°¨à°ķ
Ġà°ħ à°¡à°²
Ġà°¨ à°°à°µ
à°¬ à°²à°¨
à°¹ à°¤à°¨
Ġà°¬ à°¸à°µ
à°¿, âĢĿ
Ġ2 99
"" """
à°ªà°° à°ļà°¨
à°ļà°¨ à°ļ
Ġ3 99
Ġà°µà°¦ à°²à°²
Ġà°µà°² à°¸à°°
Ġ19 44
à°¶à°¨ à°²à°ķ
Ġà°®à°¤ à°¤à°¤
Ġà°¬à°¸ à°µà°°
à°¿- -
16 6
à±ģ"" )
22 6
Ġt echnical
13 6
24 5
ĠP M
il d
et t
ĠâĪ Ĵ
Ġbl ock
U K
Ù Ĩ
à §
à ª
à°° à°¡à°®
à°¨ à°®à°¨à°¸
Ġà°® à°¡à°¤
à±įâĢĮ à°ĥ
Ġà°ī à°°à°ķà°²
à°£ à°Ńà°¯
Ġà°Ĺ à°²à°°
à°İ à°¹
à°¦à°° à°Ń
Ġà°®à°° à°ķ
à°¿, ,
"" )
à°¤à°® à°¤
Ġ20 9
Ġà°Ĩà°¡ à°ªà°¡
Ġà°Ĩà°Ĺ à°®à°¨
à°°à°¸à°¨ à°²à°¨
21 6
à°µà°¶ à°°
14 6
Ġt r
Ġ27 9
Ġ35 3
Ġà°ļà°¦à°µ à°Ĺà°²
48 8
Ġin dia
id ent
à°Ĳà°Ĳ à°İà°®
à°¿` `
IN G
uc k
Ġpl us
Ġà°ķà°ªà°Ł à°®
6 80
9 60
A R
S R
T B
U C
m it
à°ķ à°¤à°ª
à°¡ à°ľ
à°¡ à°®à°°
Ġà°ħ à°Ĺà°¤
à°£ à°ªà°¤à°ķ
Ġà°¬ à°ĺ
Ġà°ľ à°ł
à°ħ à°Ĺà°¸
à°ĩ à°ĩ
à±ģ, .
Ġà°¶ à°°à°¨
à°« à°²à°ķ
Ġà°Ł à°¸
à°°à°ķ à°¥
Ġà°ķà°¨ à°¡
à°ħà°¨ à°¤
à°ľà°¨ à°ªà°¦
à°ı à°İà°«
Ġ3 16
Ġà°Ĳ à°¹
Ġà°ªà°¡ à°°
Ġà°¸à°®à°¯ à°®à°¨
à°¿: -
à°Łà°ªà°¡ à°ķ
à°¯à°£ à°ķ
at or
ĠS h
en er
à°ļà°°à°£ à°ª
à°¿"" ,
Ġp ress
Ġà°ķà°¨à°ªà°¡ à°Ł
à±ĩâĢĻ .
Ġr ate
Ġon e
yn c
Ġà°¶à°¨à°Ĺ à°ª
ĠIP L
5 12
8 99
8 30
W E
b ot
f ric
p m
s à°¨
y l
à°Ĥ âĢĭ
à°ķ à°«
à±ĭ âĢĻâĢĻ
à°µ à°¯à°®
à°ļ à°¤à°Ĺ
Ġà°¸ à°¡à°¨
Ġà°® à°¶
Ġà°ļ à°Łà°°
à°ľ à°²à°ķ
à°¬ à°°à°²
à°¾à°Ĥ )
Ġà°®à°° à°¯
à°¤à°¨ à°µ
Ġà°¸à°° à°³à°¤
20 2
à°¨à°¸ à°®
à°¡à°µ à°²à°ķ
Ġ6 75
à°®à°² à°ļ
à°¡à°¦ à°µ
à°²à°µ à°Ĺà°²
Ġ19 43
à°Ľ à°¨à°ª
à°ĵ à°İ
à°ĵ à°Ĩà°°
Ġà°Ĩà°Ł à°²à°¨
Ġà°Ĩà°Ł à°²à°²
à°¯à°¬à°¡ à°µà°²
25 1
Ġ21 8
Ġà°Ķ à°·à°¦
à°ļà°Ĺà°² à°µà°¨
Ġ0 5
Ġà°ķà°¡ à°ªà°²
à°ħà°¸ à°¹à°¨
Ġà°Ńà°¯à°ªà°¡ à°µà°¦
à°³à°¨à°ķ à°°à°®
ĠA I
ĠI S
ĠR ed
Ġ32 9
Ġ33 8
23 9
à°¤à°®à°¨ à°Ł
38 6
ak a
Ġâ Ħ
à°Ńà°¯à°ªà°¡ à°ķ
ard s
ĠSA RS
) -
3 11
H F
H PV
i ent
Ġ \""
à°¸ à°²à°²
à°µ à°µà°¸
à°® à°Łà°¨
à°® à°Ĵà°¡
à°¡ à°¦à°Ł
Ġà°ª à°²à°ķà°¨
à°ļ à°µà°¨
Ġà°² à°®
Ġà°ľ à°«à°°
Ġà°Ī à°İà°¨
Ġà°¸à°® à°®
Ġà°· à°£
Ġà°ħà°Ń à°¯à°®
à°ľà°¨ à°¸à°®
Ġ3 18
Ġ3 13
à°·à°£ à°ķà°°
Ġà°ªà°¡ à°¬
Ġà°ªà°¡ à°µà°¦
à±Ĩà±ĸ ,
à°ī à°ªà°¨
Ġà°ķà°¥ à°²à°ķ
à°°à°Ĺ à°£
Ġà°Ĩà°Ł à°µ
15 1
25 5
à°¯à°Ĺà°² à°°à°¨
Ġ21 7
à°īà°ª à°µ
ion s
ĠM A
ĠM B
Ġà°ķà°¨à°¬à°¡ à°¡
Ġ29 8
Ġà°ªà°°à°® à°¹
ro ss
and hi
à¤ ¦
36 7
ĠW i
ĠW HO
Ġ` %
oc ument
impell er
7 99
a u
b it
o or
à°ķ à°±
à°¯ à°Ĩà°°
à°Ł à°¤à°ķ
à°Ł à°Ńà°°
âĢĮ (
à°ľ à°¬à°²
Ġà°° à°Ńà°¸
à°¹ à°²à°²
à°ħ à°¦à°²
Ġà°Ń à°¸
à°µà°° à°²à°ķ
à°¸à°° à°µ
à°¸à°° à°Ĺ
à°°à°§ à°°
à°Łà°ķ à°·
Ġà°ªà°¡ à°µà°²à°¸
à°ĺ à°µà°ª
20 50
à°ķà°°à°£ à°²à°ª
à°Ńà°µ à°ª
Ġ19 17
Ġ24 7
Ġà°ĺà°¨ à°¤à°ķ
re am
18 8
14 2
à±ģ- -
à°īà°ª à°¸
el d
à¤ ¤
ĠX I
Ġl ine
à°Ĳà°ı à°İà°«
à°ĩà°³ à°¯à°°
à¥ ģ
Ġà°¨à°°à°ķ à°¯
iz e
ĠHD L
ĠSach s
E G
S ev
i et
à°¿ âĢĭ
à°² à°¯à°ķ
à°¸ à°¡
à±Ĥ ).
Ġà°² à°¡à°ķ
à°¥ à°¹
à°µà°° à°¦à°²à°¤
Ġà°®à°° à°¦à°²
à°ķà°° à°Ĺ
Ġà°Ĵà°ķ à°¤
à°¸à°° à°³à°®
Ġà°§ à°°à°£
à°ľà°° à°Ĺ
Ġ5 42
à°®à°ķ à°¥à°²
19 2
à°°à°¹ à°ª
Ġ8 000
Ġ19 32
10 80
15 3
25 4
à°ªà°¬à°¡ à°ķ
on al
re d
Ġ23 3
Ġ28 5
16 4
16 7
17 4
Ġà°°à°£ à°§
he ck
il ity
un t
ĠL T
Ġà°¬à°²à°ªà°¡ à°Ł
Ġà°ħà°µà°¸ à°°à°¤à°¨
SS L
con t
Ġcub es
Õ¡ Õ
5 25
7 000
B r
b l
d e
l ink
Ġ im
Ĩ Ĵ
à°¾ """"
à°¨ à°²à°ª
à°ķ à°¦à°¨
à°¤ à°£
à°¦ à°¦à°¨
à°ª à°²à°¤
Ġà°ķ à°°à°¦
à±įâĢĮ âĢľ
à°· à°°à°¶
à°¬ à°ł
à°¹ à°ªà°¡à°ķ
Ġà°İ à°Ĳà°İ
à°¥ à°Ł
Ġà°¶ à°Ń
Ġà°¯ à°µà°¨
Ġà°ħà°µ à°¹
ĠâĢ į
à°ªà°¡ à°¬
Ġà°§ à°µà°³
Ġà°ĵ à°Ĺ
à°¤à°² à°¦
à°ļà°¡ à°¨
à°ı à°¥à°°
à°¤à°ķ à°ª
à°¨à°® à°¤
à°ĺ à°¨à°²à°ķ
à°ī à°ªà°¦
Ġ4 39
à°µà°¹ à°¤
Ġà°ķà°® à°²à°¨
à°°à°¹ à°¸à°¨
à°µà°ķ à°£
at us
à°®à°Ĺ à°§
14 3
22 7
Ġà°¸à°µà°°à°£ à°²à°ķ
ĠM odi
Ġ35 2
ĠN PS
ĠP r
Ġn cov
39 8
ul ation
à°°à°µà°ļà°¨ à°®
à°Ĳà°ı à°İà°¸
Ġpro cess
6 000
g ress
v ers
à ´
à±ģ %
à°° à°¨à°Ł
à°Ĥ à°ĥ
à°¦ à°¯à°²
à°ļ à°°à°£à°ķ
Ġà°ħ à°¥à°µ
à°¹ à°¨à°²
à°İ à°µà°¨
à°¿, ""
à°¯à°ķ à°¨
Ġà°Ĵà°ķ à°¤à°¨
à°¤à°° à°«
à°¤à°² à°®à°¯
à°ħà°¨ à°§
Ġ3 48
19 3
19 5
Ġà°ħà°µà°ķ à°¤à°µà°ķ
à°¸à°¨ à°Ĺà°²
à°ªà°¨ à°²à°ķ
Ġà°Ĺà°¡ à°ªà°Ł
à°İà°µà°° à°¨
Ġà°ķà°¦ à°²à°¨
an s
18 7
ar a
Ġ26 3
à°ķà°³ à°ķ
Ġ29 6
Ġà°ªà°°à°® à°¶
Ġp art
Ġ34 9
à¤ ¨
et a
ir st
ab el
IC I
Ġth is
Ġà°¸à°¤à°® à°¤
ĠUn ited
ĠCE O
Ġpress ure
7 70
C I
C h
C har
P l
b le
Ġ Ï
à°¡ à°ľà°¨
Ġà°ª à°Ĺà°¡à°ª
Ġà°ħ à°³à°Ĺ
Ġà°ħ à°ķà°¡à°®
à°· à°ªà°¤
à°§ à°¤à°ª
Ġà°Ĩ à°¶à°ķ
à°£ à°°à°ķ
Ġà°¬ à°²à°¨
à°Ń à°ķà°°à°®
Ġà°İ à°·
à°Ĩ à°²à°ķ
Ġà°« à°¸à°²
à°®à°¨ à°¡
à°ªà°¡ à°®à°Ł
Ġà°· à°ķà°²à°ķ
Ġà°¸à°¹ à°¯
à°²à°ª à°¦
Ġà°ĺà°Łà°¨ à°¸
à°ī à°ªà°Ĺ
19 1
à°ŀ à°²à°ķ
à°ĺà°Łà°¨ à°Ĺ
Ġ10 80
Ġà°ıà°¡ à°µà°¡
à°¿) :
Ġ24 6
à°Ĺà°£ à°ªà°¤
à°ªà°¬à°¡ à°¡
Ġà°Ķ à°¨à°¨
18 6
Ġ27 4
Ġà°µà°²à°¸ à°µà°ļ
is ter
ĠâĢĮ (
ĠG NU
ĠF M
Ġn ice
à±įâĢĮ' ,
à°Ĥ"" ,
emb ly
ĠSo C
4 16
C ity
I RCTC
S M
b on
p r
r ame
Ġ 00
à°¨ à°¤à°°à°¹
à°ķ à°Łà°¨
à°® à°¡à°®
à±Ģ à°Ĥ.
à°ļ à°¯à°¸
Ġà°® à°Łà°¨
Ġà°Ĩ à°ªà°¤
Ġà°¬ à°¡à°²
à°ħ à°¸à°Ń
à°¥ à°ķà°°
Ġà°Ī à°ĵ
à°İ à°İà°¨
à°¯à°² à°®
Ġ( '
à°¸à°° à°¡
à°Łà°² à°µ
Ġà°īà°ª à°īà°·
Ġà°Ĳ à°Łà°®
à°Ĵ à°µ
à°¢ à°¸
à±į) -
à°¹à°°à°£ à°®
à°¸à°¹ à°ļà°°
à°¸à°¹ à°ľà°®
21 7
Ġt e
ĠR e
ĠB L
ĠG iz
ĠF A
am a
33 3
à±ĩâĢ¦ ?
ĠE U
ĠL DL
Ġà°¶à°°à°µ à°£à°¨
ig a
ra v
og raph
ate g
urb ines
Ġmach ines
ffer ent
Ġmark et
ĠâĦ ĸ
5 20
6 99
T urbo
i j
m er
m ozilla
w ord
Û Į
Ġ Ã
à°¨ à°«
à°ķ à°Ĺà°²
à°µ à°Ľ
à°® à°¥à°¨
à°® à°Ĺà°²à°µ
à°ļ à°¦à°²à°ļ
Ġà°µ à°¡à°Ĺà°Ł
à°§ à°ķà°²
Ġà°İ à°¦à°°
à°¥ à°¬
à°Ĩ à°¸à°°
à°« à°¡
à°°à°ķ à°°à°®à°¨
Ġà°ľà°° à°ªà°Ł
Ġ2 19
Ġà°¸à°¹ à°°
Ġ3 17
ĠâĢĺ à±į
Ġà°ªà°² à°®à°¨
à°°à°ľà°² à°ļ
19 36
19 42
Ġ6 72
Ġ19 33
à°¨à°¤ à°ªà°°
Ġà°¸à°¤ à°¤
Ġà°¡à°¬ à°²
à°¹à°¤ à°Ĺà°²
Ġà°ļà°² à°ªà°¤
ĠC on
Ġt ime
ĠA d
Ġà°¸à°µà°°à°£ à°¨
Ġ33 4
Ġin t
Ġn ew
37 6
à°ľà°Ĺ à°¨à°¨
ĠE ng
à°¨à°ªà°¡ à°Ł
38 7
Ġh o
Ġv elocity
Ġcon s
ĠGiz bot
2 12
4 75
A pp
F ile
U PS
w ay
à±ģ âĢĺ
à°¦ à°µà°¨
à°Ł à°ªà°¤
Ġà°ª à°Ĺà°¡
Ġà°¨ à°°à°ķà°®
Ġà°¤ à°°à°¤à°°
à°¾à°Ĥ -
Ġà°¶ à°ªà°¥
Ġà°¸à°® à°µ
à°®à°¨ à°·
à°Łà°¨ à°ķ
à°¤à°¨ à°ªà°°à°ļ
à°ªà°¡ à°µà°²
Ġà°ħà°² à°ª
à°¤à°ķ à°±
Ġà°¸à°®à°¯ à°ª
à°®à°¤ à°¤
19 30
19 53
Ġà°Ĭ à°®
à°¨à°¤ à°¤
in a
Ġà°ıà°ķ à°¶
Ġ30 8
à°ħà°Ń à°¯
ic le
ĠU RI
29 8
à°¤à°°à°ķ à°°à°®
ik e
ection s
Ġab out
% %)
2 15
3 23
7 15
M ozilla
T R
a f
c ount
m l
n et
à°² à°µà°¡à°®
à°¯ à°¯à°¤
à°Ł à°Ń
à°Ł à°Ĺà°²à°°
à°® à°²à°°
à°ļ à°µà°°
à±Ĩ (
à°¶ à°ļ
à°§ à°¤à°²
à°ħ à°ľà°°
à°ħ à°¡à°Ĺ
Ġà°¹ à°¨à°¨
à°¦à°¨ à°²à°ª
à°¤à°¨ à°²à°¨
à°ķà°¡ à°¤
Ġà°· à°īà°Ł
Ġà°¨à°Ł à°¸
à°ı à°¶
Ġ3 47
Ġà°Ĳ à°µà°°
à°Ĺà°² à°°à°¨
Ġ4 90
à°ŀ à°¤à°Ĺ
à°²à°µ à°£
Ġ19 00
Ġ12 60
30 6
à°ªà°¬à°¡ à°µà°²
Ġà°ľà°® à°¯
Ġ22 8
à°®à°°à°£ à°¶
ĠC M
ĠA P
Ġ27 6
Ġc ase
Ġp ric
Ġ37 3
am il
ĠE M
ug h
à°Ńà°¨ à°·
Ġà°ķà°¨à°ªà°¡ à°¦
à°ķà°¸à°Ń à°ķ
ist a
Ġà°ªà°²à°ķ à°²à°¨
RA N
ovid India
ÙĦ Ø
Ġtechnical uery
Sev a
ovidIndia Seva
3 85
4 500
5 43
b h
Ġ à²
à±ĩ ]
à±ĩ âĢľ
à±ĩ ).
à°Ł à°µà°¸
à°ª à°¤à°¨à°®
à°µ à°·
Ġà°ķ à°¦à°®
à°¬ à°·
à°¹ à°«
à°¹ à°²à°¤
à°¹ à°¸à°¨
à°£ à°ªà°°
Ġà°¬ à°Łà°°
Ġà°ĩ à°¦à°¨
Ġà°Ń à°°à°¤à°¨
à°²à°ķ à°¶
à°ĩ à°İà°²
à°İ à°¡à°¬
à°İ à°Ĳà°¸
à°ªà°¡ à°°
à°µà°¡ à°¤
Ġà°· à°¹à°°
Ġà°ĸ à°¦
à°ı à°¤
Ġ3 95
à°¨à°µ à°®
Ġà°īà°ª à°¶
à°µà°¤ à°¤
Ġà°¤à°Ĺ à°¨
à°¸à°¨ à°¤
à°®à°² à°Ĺ
Ġ19 37
à±įâĢĮ. .
Ġ13 00
25 2
Ġà°ħà°®à°° à°¨
Ġà°Ńà°µà°¨ à°®
re at
40 3
21 3
16 1
13 1
Ġ26 8
ĠA C
ĠA D
it ter
24 00
ĠH S
Ġ34 2
Ġn o
Ġà°¸à°Ĺ à°Ń
ec ond
Ġh as
ch an
Ġ{ {
Ġà°¤à°Ĺà°² à°¬à°¡
ĠSt ates
ĠUN IX
Ġspec ification
3 49
9 40
B N
E F
M ac
t est
Â ·
Ġà° ĥ
à°ķ à°°à°¤
à°¤ à°µà°¡
à°ª à°°à°ķ
à°ļ à°¦à°°à°ª
à±įâĢĮ à±įâĢĮ
à°ľ à°°à°¸
Ġà°¤ à°²à°¤
Ġà°° à°¸à°®
Ġà°° à°¸à°ķ
à°£ à°ľ
Ġà°¬ à°¯à°ªà°¡
Ġà°² à°¹
Ġà°² à°µà°ķ
Ġà°ľ à°µà°¡
Ġà°¹ à°°à°ª
Ġà°ı à°Ĳà°İà°¸
à°¯à°ķ à°Ĺ
à°¸à°° à°¨
à°°à°¯ à°§à°¨à°®
à°¨à°¨ à°¨
à°¨à°² à°Ĺà°¡
à°®à°ķ à°¤à°¨
Ġà°¸à°Ń à°²à°²
19 6
à°¡à°Ĺ à°¦
à°¹à°° à°ļà°¨
à°ĵ à°®
Ġà°«à°² à°¹
à°ķà°Ĺ à°Ł
Ġ16 00
Ġ25 4
Ġà°ħà°¹ à°·
ĠI SO
ĠM y
ĠM an
ĠM ozilla
Ġs ub
Ġm i
Ġp H
he m
à¤ ®
un g
ĠW orld
ist an
à±ĢâĢ¦ .
op er
for ces
ock et
âĿ Ĥ
K DE
O N
U RL
k t
o h
à°ķ à°µà°Ĺ
à°¯ à°ļà°ķ
à°ļ à°²à°ª
à°ļ à°¯à°¤à°¤
à±Ī !
à°¹ à°Ńà°°
Ġà°Ĺ à°¡à°µ
Ġà°ľ à°«
Ġà°ľ à°Ĺà°®
Ġà°ľ à°²à°ľ
à°¥ à°°à°¨
Ġà°Ī à°¤à°ķ
Ġà°« à°¯
Ġà°« à°Ł
Ġà°¡ à°ª
Ġà°Ĵà°ķ à°³
Ġà°ľà°° à°Ĺà°°
à°ķà°¡ à°µ
Ġà°Ĩà°¯à°¨ à°ļ
à°Ĺà°¤ à°ľ
à°°à°ľ à°¤
Ġ3 12
à°¨à°µ à°µà°¨à°°
Ġà°īà°ª à°¸à°°
à°ľà°¯ à°¢
à±į. -
Ġ5 40
19 7
19 59
ĠâĢĿ .
à°ķà°°à°£ à°Ĺ
Ġà°¨à°¡ à°ªà°Ł
à°ķà°® à°Ł
Ġà°Ĵà°ķà°Ł à°¯
à°ļà°ķ à°ķ
30 3
Ġ22 9
Ġà°ħà°¹ à°ľ
Ġà°¦à°¶ à°°à°¥
à±ĭ? "
ĠS p
ĠI s
Ġ27 3
24 8
45 3
Ġà°¤à°Ł à°ªà°Ł
28 6
ĠF or
Ġin ter
om ain
Ġd e
ĠV I
ĠO F
Ġà°ĺà°¨à°¤ à°¯
Ġà°¸à°¦à°° à°¨
64 2
ĠÂ ©
58 6
ect or
Ġy ou
Ġà¤ ľ
à¤¾ )
form at
val ue
olar is
5 37
M D
a un
m ass
à°¨ à°°à°¨
à°ķ à°µà°¦
à°¤ à°¬à°Ł
à°Ł à°ªà°¨
Ġà°ª à°Ĺà°µ
à±Ĥ âĢĮ
à°¬ à°¹à°¦
Ġà°Ĩ à°¨à°®
à°ħ à°°à°Ĺ
à°¥ à°¶
à°³ à°Ĺà°²
à°Ĩ à°Łà°¨
à°Ĩ à°Ńà°°à°£
Ġà°ı à°²à°ķ
Ġà°ı à°Łà°¨
à±Ĥ. ..
à°¤à°® à°²
à°¤à°® à°Ł
à°¤à°® à°µà°¡
à°Ĳ à°²à°ķ
à°²à°¤ à°ķ
Ġà°¸à°° à°¬
Ġ5 30
19 41
Ġ6 30
à°ĺà°Łà°¨ à°²à°ª
à°ªà°¨ à°²à°¤
Ġà°¢ à°®
à°°à°ķà°Łà°¨ à°²à°ķ
Ġà°Ĵà°ķà°° à°¨
à°¡à°¡ à°®à°¨
à°µà°® à°¯
Ġ30 1
Ġà°§à°¨ à°²à°ķ
12 4
21 4
al i
14 00
à°īà°ª à°¶à°®à°¨
ar g
22 9
Ġt est
17 1
Ġ27 1
Ġ35 1
Ġ35 6
ĠN A
Ġp er
Ġà°ıà°Ł à°µ
23 97
ĠG NOME
Ġ36 9
à±ĭ! "
27 7
Ġw ork
st it
iv ers
à°ĤâĢĿ .
ev el
IN D
Ġmach ine
2 21
I m
N L
P O
k s
m od
p df
r is
t s
Ġ us
à±ģ &
à°² à°Ĺà°¨
à°¤ à°¤à°°
à°¸ à°¬à°°
à°ª à°²à°²
à°µ à°¦à°²
âĢĮ ?
à±Ī ),
à°¶ à°ķà°°
à°¬ à°ľà°¨
à°£ à°¤à°²
à°µà°° à°¸à°Ĺ
à°ĸ à°²à°²
à°¯à°¨ à°¶
à°ķà°° à°ªà°¡
à°¦à°¨ à°¯
à°µà°² à°¸à°²
à°°à°µ à°¦
Ġà°®à°¨ à°µà°³
à°µà°¡ à°ª
à°ļà°¨ à°²à°ª
à°µà°¨ à°ª
à°¨à°µ à°¹
Ġ4 70
à°¯à°¸ à°¨à°ªà°°
Ġ19 24
à°Ľ à°Ń
à°ªà°¦ à°®à°¯
Ġà°Ĺà°¡ à°ªà°µà°ļ
à°µà°²à°¸ à°¦
Ġà°¨à°µ à°²à°¨
in c
15 7
Ġ25 3
Ġà°ĩà°® à°¡à°²
60 3
à±ģ' ,
ĠS UMO
ĠA B
ĠR AM
Ġm y
Ġc ount
à±į"" )
ĠB e
ĠB BC
à°¶à°¨à°® à°Ĺ
37 8
ĠL ist
ĠW h
78 6
qu ery
cri pt
7 10
G ST
O R
k y
m on
r id
à±į âĢĵ
à°ķ à°ļà°°
à°¯ à°¹à°°
à°ª à°²à°°
à°µ à°§à°°
à±Ĩ ),
Ġà°Ĩ à°ĺ
Ġà°ĩ à°Ľ
Ġà°¶ à°µà°ª
à°İ à°İà°²
Ġà°ı à°Ĳà°Ł
Ġà°ı à°¦à°¨à°Ĺ
à±ĩà°Ĥ âĢĻ
"" .
à°¸à°° à°¯
à°ªà°° à°ļà°Ĺ
à°ªà°° à°ļà°Ł
à°¯à°µ à°µ
à°¤à°² à°µ
Ġà°ķà°¨ à°ķà°¯
Ġ4 15
19 38
à°¯à°ªà°¡ à°Ĺà°²à°¦
à°®à°¹ à°¦
à°ķà°Ł à°Ĺ
ĠâĢľ âĢĺ
Ġà°¬à°¯ à°³
à°®à°£ à°°
à°¯à°£ à°¤
Ġà°ķà°¡ à°¸
el ton
ad a
Ġ45 8
Ġ36 1
Ġ34 1
Ġf l
ur n
à°Ķ à°Łà°°
ch ed
Ġre c
à°İà°¡à°® à°µ
Ġme t
ern ational
K Char
M e
a ut
b ook
f er
s ample
â ĺ
à°¿ âĢĮ.
à°² à°§
à°² à°°à°¦
à°¦ à°«
à°¡ à°°à°®
Ġà°® à°²à°µ
à°· à°Ł
à°¹ à°¸à°®
à°ħ à°µà°°
à°ĩ à°¯à°°
Ġà°¶ à°®
Ġà°ķà°² à°µà°ķ
Ġ( {
Âł Ġ
à°·à°£ à°²à°¤
Ġà°Ĳ à°İà°®
20 7
19 37
19 54
Ġ7 10
à°¤à°ª à°°à°®
à°Łà°ª à°®
15 4
Ġ23 6
Ġ28 4
80 46
Ġà°µà°°à°¦ à°²à°¨
28 4
28 5
27 6
ment s
Ġà°īà°Ńà°¯ à°ļà°°
à°®à°µà°° à°ª
à³ į
fric tion
Ġà°ħà°µà°ķà°¤à°µà°ķ à°²à°ķ
3 21
3 95
7 60
P G
v is
Ġ up
à°¾ à°ģ
à±ģ âĢĭ
à°ª à°ļà°°
à°µ à°ªà°Ł
Ġà°ļ à°¬
à±Ĥ ""
à°¶ à°Ń
Ġà°Ń à°³
Ġà°Ń à°¯à°ķ
à°²à°ķ à°¨à°Ĺ
Ġà°Ī à°«
à°¤à°° à°ªà°¡
à°®à°¨ à°²à°¨
à°°à°µ à°ªà°¦
à°Ĳ à°ĵà°İà°¸
Ġ3 500
à°²à°® à°¤
Ġ20 50
à°Łà°® à°Ł
Ġ6 49
Ġà°Ĭ à°¡à°¦
à°ªà°£ à°¤
à°ªà°¦ à°¹
à±Ĩ. )
15 9
à°¹à°¤ à°²à°¨
Ġà°Ĩà°ļ à°°à°£à°¨
re n
à°ķà°²à°¨ à°®
16 3
à°µà°¬à°¡ à°²
à°¸à°¨à°¸à°Ń à°²à°ķ
ar m
22 2
ĠT r
el f
el s
ĠN O
ĠN am
Ġn umber
à°¶à°¨à°® à°µ
Ġà°ķà°¨à°¬à°° à°ļà°¡
ĠW atch
Ġw as
à°¯à°Ń à°Ł
à°ªà°Ĺà°² à°®
à±Ģ' .
op ulation
à°ķà°ªà°Ł à°®
ust om
ĠHT ML
HD FC
2397 8046
" '
4 15
7 90
h ra
n a
w o
Ġ Ø§
à°¨ à°²à°²
à°¯ à°°à°ķ
à°¯ à°ªà°ķ
à±ĭ /
à°¡ à°ķà°®
à°Ĺ à°¸à°Ńà°²
Ġà°¸ à°«à°²à°®à°¯
Ġà°µ à°¨à°µ
Ġà°® à°«
à°· à°¯à°ķ
Ġà°¦ à°®à°¨à°ķ
Ġà°ľ à°¯à°¤
à°İ à°İà°«
à°Ĩ à°¤à°¨
à°« à°ľ
à°« à°²à°¯à°¤
à°°à°£ à°ľà°¨
à°²à°² à°¯
à°ķà°¡ à°¯
à°°à°² à°¯
Ġà°· à°¨
Ġà°ķà°¨ à°Ĺ
à°Ĳ à°²à°¨
Ġà°Ĳ à°®
à°¨à°² à°¡
à°Ĵ à°İ
à°¨à°¸ à°²
Ġ5 60
à°®à°¤ à°¸
à°Ĵà°ķ à°°à°ķ
à°°à°ľà°² à°¦
19 44
à°°à°Ĺ à°µ
Ġà°¨à°µ à°®
à°Łà°ªà°¡ à°ķà°ª
Ġ100 00
Ġ23 7
ĠC BS
22 3
it al
ĠT ower
Ġà°ļà°¦à°µ à°µà°ļ
Ġ29 7
35 6
ĠN H
ĠP IN
23 2
as k
à°¡à°Ĺà°² à°¦à°¨
Ġ36 6
Ġo per
ĠE n
un it
à°ĤâĢ¦ !
em per
à°µà°Ĺà°² à°¡
à°Łà°µà°²à°¨ à°¨
à±ģ` `
ES CO
men s
ĠAnd roid
ĠIC ICI
5 30
6 70
7 80
8 40
L T
S I
S p
à°¨ à°¤à°Ĺ
à°¨ à°¤à°µ
à°¨ à°Ĺà°²à°°
à°ķ à°ľà°ķ
à±ĭ âĢĵ
à°Ĺ à°²à°ª
à°Ĺ à°£à°®
âĢ ²
Ġà°ķ à°°à°¤
Ġà°° à°ķà°ª
à°¹ à°§
à°£ à°®à°¨à°¸
Ġà°¬ à°ķà°°
Ġà°² à°¹à°°
Ġà°Ĺ à°¤à°¨
à°ħ à°°à°ļ
à°ħ à°¸à°¹
à°°à°¤ à°ķà°²
à°°à°¤ à°ķà°¡
Ġà°¯ à°¨à°Ĺ
à±Į ,
Ġà°ķà°² à°µà°Ł
à°ªà°¡ à°µà°¦
Ġ( -
Ġà°ªà°¡ à°ķà°²à°¨
à°ĺ à°¦à°°
20 8
Ġ5 500
Ġà°ĺ à°¨à°ª
Ġà°¨à°¡ à°ķà°¨
Ġ19 23
Ġ9 000
à°ªà°¦ à°¤
à°¯à°¬à°¡ à°ķ
Ġà°Ĺà°¡ à°ªà°²
à°¦à°® à°¸
à±Ĩ. "
Ġà°µà°¨ à°ľ
Ġ25 9
à°°à°ªà°¡ à°¦à°Ĺ
Ġà°ľà°¯ à°ļ
es e
ĠM TV
Ġc ourt
45 9
Ġ33 2
28 1
à¤ ¯
37 9
ĠE d
ur v
49 6
Ġà°ħà°µà°¸ à°°à°¤
ak istan
Ġà°ªà°¥ à°ķà°®
Ġà°¶à°¨à°Ĺ à°ªà°ª
________ ________
sel ect
avir us
ĠLT TE
ĠNam ast
) )
3 16
3 65
A r
H E
H P
P R
R es
a id
b y
c ut
e en
p or
t y
à±į âĢĺ
à±ģ âĢĮ.
à°¨ à°°à°¸à°°
à°¸ à°ĸ
à°® à°¸à°°
à°® à°¬à°²
à±Ĩ à±Ĩ
âĢĮ !
à°¬ à°¨à°Ĺ
à°¹ à°£à°®
Ġà°ľ à°µà°¹
à°ĩ à°¹
à°¯à°¨ à°µà°¸à°°
à°¦à°° à°£à°ķ
Ġà°¯ à°µà°²
Ġà°ı à°¤
à°°à°£ à°²à°ķ
Ġà°ķà°² à°ªà°¬à°¡
à°ªà°Ł à°¡
à°¤à°² à°¸à°°
à°µà°¨ à°¦
Ġ3 15
à°·à°£ à°°
à°ĺ à°µà°¯
Ġà°¤à°Ĺ à°µ
19 19
à°¤à°µ à°Ĺ
à°¸à°Ń à°¤
à±įâĢĭ )
à°§à°° à°°
à°ıà°® à°µ
à°¯à°¯à°¨ à°®
à°°à°®à°² à°¶
Ġ28 1
Ġà°ļà°¦à°µ à°®à°¨
ĠR A
Ġ29 3
Ġc m
am p
27 9
ra in
à°ªà°Ĺà°² à°¡
ud get
Ġit em
du ct
hot o
ĠGT K
oron avirus
3 32
4 20
5 74
6 36
8 60
B D
i um
l ob
m Ah
t ot
v olume
Ä ģ
à°¾ à°ĥ
à°ķ à°Łà°®
à°¤ à°Ĺà°²
à±ĭ âĢĭ
à°ª à°łà°¨
à°¡ à°¬à°²
à±Ģ """
à±Ĩ âĢĻ
Ġà°¤ à°¡à°ķ
Ġà°° à°¸à°®à°¯
à°¹ à°¬à°ķ
à°£ à°¸à°°
Ġà°¬ à°¤à°ķà°¨
Ġà°İ à°µà°²
Ġà°İ à°İà°¨
à°²à°ķ à°²à°Ĺ
à°°à°® à°ªà°°à°ļ
à°¦à°° à°ªà°¡à°ķ
à°¤à°° à°¸à°°
à°®à°¨ à°ª
Ġ( .
à°µà°¡ à°Ł
à°ļà°¨ à°¯
à°°à°¦ à°¶à°²
20 4
Ġà°¤à°Ĺ à°²à°ķ
Ġ4 35
Ġ5 38
19 18
à±ģ: -
à°ļà°ķ à°ļà°ķ
à±į) âĢĮ
Ġà°¨à°µ à°Ń
30 1
à°ªà°® à°°à°£
re t
al y
al ys
Ġ28 3
14 1
ĠC ovidIndiaSeva
ĠS S
it ies
Ġs et
ĠR ec
di fferent
ing h
33 4
om an
Ġà°Ŀ à°²
ĠO pen
29 3
et rol
à°Īà°ĵ à°²
Ġv ari
ht tp
Ġà°°à°ļà°¨ à°²à°ķ
os e
Ġà°Ĳà°İ à°İà°«
ang e
Ġst r
ud e
con stant
ust ral
Ġà°ıà°ķà°® à°¯
ou th
IF A
Ġmod ule
ubl ic
Im age
4 24
9 75
H R
Q uery
a ult
a ana
i ft
Ã ³
Ġ u
à°¾ à±ģ
à°¤ à°µà°²
à°¯ à°ªà°²
à°¸ à°ªà°°à°ļ
à°Ĺ à°¹
à°¿à°Ĥ à°Ĥ
à°ħ à°¦à°°à°Ĺ
à°ĸ à°·
Ġà°ªà°° à°ª
à°¿, ...
à°°à°µ à°µà°ļ
Ġà°§ à°¨à°¸
à°ħà°¨ à°ķ
à°ı à°ķà°Ĺ
Ġ3 21
à°Łà°² à°®
Ġà°ªà°Ł à°®
à°¯à°¡ à°¨
Ġà°īà°¦ à°¯à°ķ
à°¨à°ª à°³
à°¨à°¸ à°¸à°Ń
Ġà°ªà°¦ à°¸
Ġà°¤à°Ĺ à°²à°¨
Ġà°ħà°¡ à°ķ
Ġà°Ĩà°² à°µ
à°¡à°µ à°®
à°³à°¨ à°ªà°¡
à°Ľ à°²à°¨
Ġ12 80
Ġ17 00
Ġ25 2
Ġ25 8
à°°à°ªà°¡ à°²
40 6
en cy
17 6
Ġà°ķà°¨à°¬à°¡ à°ķà°ª
el p
ĠR E
Ġà°ªà°°à°® à°ªà°¦
à°Ĭ à°Ł
Ġ33 3
Ġ33 9
23 6
Ġ36 3
Ġ34 6
55 5
49 8
Ġà°¤à°²à°ªà°¡ à°Ĺ
Ġà°ĭ à°£à°ªà°¡
à°ħà°£ à°ļ
BS D
HT ML
ĠTelang aana
emper ature
ĠNamast he
5 35
6 32
7 30
7 12
7 37
8 000
8 85
K ey
N H
V ideo
a ir
l oc
t ime
Ø ¯
Ġ ev
à°¤ à°¹à°¸
à°¤ à°Ļ
à°® à°µà°²à°¨
à°Ĺ à°¡à°¨
Ġà°ķ à°£à°®
à±Ĭ -
à°¹ à°¤à°®
à°¥ à°ļ
à°Ĩ à°¸à°®à°¯
Ġà°Ĵ à°·
Ġà°Ĵà°ķ à°¡à°¨
Ġà°ħà°µ à°¤à°²à°ķ
à°¬à°¡ à°ķ
à°¦à°² à°¶
Ġà°¨à°® à°²
Ġà°ĸ à°·
à°¶à°ķ à°¤à°¨
Ġà°īà°ª à°¸à°Ń
à°Ĵ à°¨
Ġ4 10
Ġ4 25
19 31
Ġ6 36
à°ªà°¨ à°²à°¨
Ġà°¨à°¡ à°ªà°¬à°¡
Ġ19 28
Ġ19 34
Ġà°ĩà°¸ à°¬
à°²à°Ĺ à°¡à°ª
à°¯à°¬à°¡ à°µ
à°°à°ķà°Łà°¨ à°²à°²
à°¤à°ª à°¸
à°²à°Ń à°¤à°°à°®
Ġà°®à°² à°ļà°¡
in ical
Ġ30 9
Ġà°ĺà°¨ à°¤à°²
40 5
18 4
ĠC o
it er
en n
à°¶à°° à°¥
24 2
24 4
ĠM e
35 5
as ed
27 8
th ers
om i
Ġà°ªà°Ĺ à°ªà°Ł
Ġd o
Ġà°ħà°¡à°Ĺ à°µà°¦
ri es
ib le
Ġà°ķà°µà°ļ à°®
Ġà°¨à°µà°° à°¤
âĺ ħ
alys is
5 70
7 47
9 20
U D
d ocument
g n
i ew
i eld
k et
p i
t ype
Ġ ad
à°ķ à°¤à°Ĺ
à°ķ à°¬à°²
à°¦ à°¯à°ķ
à°ļ à°¦à°°
Ġà°® à°¥à°¨
Ġà°ħ à°ķà°°
à±ģ. (
à°£ à°²à°ķ
Ġà°² à°ľ
Ġà°² à°¯à°®
Ġà°İ à°¡à°²
Ġà°ľ à°¨à°ªà°¨
à°¥ à°¦
à°²à°¨ à°°
à°°à°® à°²à°¤
à°¯à°® à°µà°¡
Ġà°ķà°² à°ªà°¨
à°ªà°Ł à°ķ
Ġ( âĢľ
à°°à°µ à°ªà°°
à°¤à°² à°¯
Ġà°¸à°¹ à°¦
à°·à°£ à°¯
Ġà°ķà°° à°¡
à°ī à°§
50 9
à°²à°µ à°ķà°ª
à°µà°Ĺ à°²à°¨
à°ĵ à°¦
à°°à°¬ à°²à°ķ
Ġ' .
Ġà°ļà°¦ à°µà°¨
à°®à°£ à°Ĺà°²
à°¯à°Łà°¨ à°¤
Ġà°ľà°¯ à°²à°ķ
Ġà°ľà°² à°¦à°°
16 9
ic ode
24 6
ĠM o
35 1
Ġp ol
le ct
23 7
26 2
à¤ ķ
Ġl b
ra p
ul se
Ġà°ªà°¡à°ķ à°Ĺà°¦
ch es
à±įâĢĮâĢĮâĢĮâĢĮ âĢĮâĢĮâĢĮâĢĮ
if ic
olog ical
ii i
ateg ory
6 10
E x
I G
L IC
P U
P elton
R e
d es
m o
à±ģ à±ģà°Ĥ
à°² à°¯à°°
à°² à°·à°£
à°ķ à°³à°¨
à°¯ à°Ĺà°¡
à°µ à°ķà°²
à°® à°µà°²
à±Ĩ âĢĮ
à±Ĥ âĢĵ
à°¶ à°ªà°°à°ļ
Ġà°Ĩ à°µà°ķ
Ġà°Ĩ à°¥à°°
à°£ à°¶à°¯
Ġà°¦ à°¶à°Ĺ
à°Ń à°Ĺà°²
Ġà°İ à°Ĳà°Ĳà°İà°®
Ġà°Ĺ à°ľà°²
Ġà°ľ à°¬à°°
à°¾à°Ĥ âĢ¦.
à°Ī à°ĺà°Łà°¨
à°Ī à°ĺà°Łà°¨à°ª
à°ĸ à°¶
Ġà°ªà°° à°Ĺà°¡
à°°à°ķ à°¸
à°°à°ķ à°°à°£à°®
Ġà°Ĵ à°¯
Ġà°« à°¹
à°¯à°² à°ļ
00 1
à°°à°¯ à°ª
à°°à°µ à°µ
à°¤à°® à°¯à°®
Ġà°¸à°° à°¨
à°ı à°Ĳà°İ
Ġà°īà°ª à°ľ
à°²à°ª à°Ĺ
19 29
à°¡à°° à°°
Ġ7 47
50 6
Ġà°ķà°³ à°ķ
Ġà°ķà°³ à°²à°ķ
Ġà°ļà°¦ à°µà°¡à°®
à°²à°Ń à°®à°¨
à°¸à°¹ à°¸
à°ķà°¸ à°¦
25 7
à°ªà°¬à°¡ à°¦
an c
à°¬à°¯ à°Łà°ªà°¡
à°ļà°Ĺà°² à°¡à°¨
à°¯à°¤à°² à°¤
à°¹à°¸ à°¯
Ġ23 8
es tion
Ġà°Ĩà°¦à°° à°£à°ķ
à°·à°ª à°¦à°µ
Ġ26 7
ic a
Ġ27 8
35 4
ĠP A
à°ĤâĢĻ ,
ĠB i
as es
à¤ ª
à°ķà°¬ à°³
Ġ38 4
Ġà°ķà°²à°µ à°¬
Ġà°¬à°²à°ªà°° à°ļà°¡
ĠK DE
Ġà°ªà°¯à°¨ à°®
iv es
ap er
à°İà°¡à°® à°ļ
Ġcon gress
MA PI
iz ation
à¦ ¾
Ġà°Ĺà°¸ à°Ĺà°¸
Ġun it
Ġun icode
rad esh
PD F
men u
ĠNT FS
err or
HF W
Ġpric e
KChar select
0 75
A s
C ovid
E CD
L C
L ED
b ps
i pp
w are
â Ĥ
à°¨ à°¡à°¨
à°Ĥ `
à°ª à°³à°¨
à°µ à°¥
Ġà°® à°±
Ġà°ħ à°°à°²
à°ľ à°Ń
à°¶ à°ķà°²
à°Ń à°¶
Ġà°ľ à°Ĺà°¡à°®
à°ħ à°µà°¸
à°¥ à°¨à°ª
à°Ĩ à°ªà°¦
à°¦à°° à°¯
à°ķà°° à°¯
Ġà°¤à°¨ à°ļ
à°µà°¨ à°ªà°°
Ġà°īà°ª à°ªà°°
à°®à°ķ à°¯
à°ļà°¬à°¡ à°ķà°ª
à°¢ à°ªà°°à°ļ
à±ģ: %
Ġ19 21
à°ĵ à°İà°«
à°ħà°µ à°§
à°¦à°¯ à°Ĺ
Ġà°ļà°¦ à°µà°ķ
Ġà°°à°® à°£à°®
at aka
à°¨à°Ĺ à°°à°ª
22 8
Ġ26 2
Ġ26 6
ĠA t
Ġ70 8
Ġà°¸à°¹à°ľ à°¤
ĠM ar
ĠR X
Ġm oment
ĠB JP
ĠG e
Ġà°ľà°Ĺ à°¨à°¨
ĠD R
28 9
il ot
26 8
à¤ µ
à¤ ¸
27 1
ig id
ec h
78 9
Ġà°ªà°¯à°¨ à°®à°µ
Ġre d
ang u
à¥ ĩ
âľ ª
Ġà°¸à°¤à°® à°¤à°®
Ġdi es
eat h
odi es
Ġà°¦à°¶à°® à°Ń
arn ataka
0 80
7 35
7 42
8 70
A A
P DA
` %
i ed
l oss
m iss
w itter
y m
| |
ð Ł
à°¨ à°¦à°²
à°² à°°à°¸
à°ķ à°¬à°°
à°ķ à°Ĺà°¨
à°¤ à°³
à±ĩ """
à°Ł à°ªà°Łà°²
à°Ĺ à°µà°¸
Ġà°® à°²à°®
à°ľ à°Ĺà°¤
Ġà°ľ à°¡à°¤
à°³ à°ļ
Ġà°ı à°µà°°
Ġà°¸à°® à°ª
Ġà°« à°ľà°²
à°ªà°° à°°
Ġà°®à°¨ à°ķà°¨
à°Ĳ à°Ī
à°°à°ª à°²
à°°à°¨ à°¨
à°Łà°² à°µà°°à°ķ
à°Łà°ķ à°¶
à°Ĵ à°¹
à°¨à°ķ à°ķ
à°ŀ à°¡
Ġà°®à°°à°£ à°¦
à°Ńà°µ à°®à°¨
à°Ĺà°³ à°ª
Ġà°Ĩà°Ĺ à°¦à°¨
à°°à°³ à°¯à°®
à°¯à°Ĺ à°²à°¨à°¨
à°¯à°Ĺà°² à°Ĺ
à°¨à°Ĺ à°²à°¨
Ġà°ľà°² à°ļà°°
Ġm ill
Ġà°µà°²à°¸ à°²à°¨
Ġà°ĩà°¤ à°°à°®
à°Ĺà°ªà°¡ à°¨
ĠG ST
Ġ37 2
il es
Ġo ver
à¤ ¼
Ġb jp
à°ªà°µà°° à°ª
77 7
Ġw e
Ġw ho
ĠK B
Ġk il
à±ĭâĢ¦ ?
ce pt
age ment
Read more
2 95
3 48
4 28
6 28
6 48
7 500
7 40
A n
C BS
F F
S E
Ã Ń
Ø ¨
Ġ à®
à°¾ "
à°¨ à°Ĺà°¨
à°² à°¬à°¦
à°¤ à°°à°¤à°°
à°Ł à°¦à°¨
à°Ł à°¤à°¤
à°µ à°µà°°
à°® à°ļà°°
à°® à°¸à°®
à°ļ à°°à°®
Ġà°® à°Ĺà°¤
Ġà°ļ à°°à°®
à°· à°¤à°ķ
à°· à°ªà°¦
à±Ī /
Ġà°° à°ľà°ķ
à°§ à°¬
à°¹ à°ªà°°à°ļ
à°£ à°ªà°¤
Ġà°ľ à°¯à°¨à°Ĺà°°
à°ħ à°µà°¤
à°ħ à°¡à°ª
à°ĸ à°Ń
à°ķà°° à°²à°¤
Ġ( %.
00 00
à°¬à°¡ à°Ł
à°·à°¯ à°¸
Ġà°®à°¨ à°Ĺà°²
à°°à°¦ à°®à°¯
Ġà°Ĳ à°Ĳà°İà°«
Ġà°Ĳ à°Ĵà°¸
Ġà°ĺà°Łà°¨ à°Ĺ
Ġ4 40
Ġ4 11
à°®à°ķ à°±
à°®à°ķ à°¥à°Ĺ
19 43
Ġ7 500
Ġà°¬à°² à°µà°°
Ġ8 35
Ġ8 85
Ġ10 75
à°ĵ à°¡à°²
Ġà°Ĺà°¡ à°µà°¡
an i
à°± à°¸à°®
Ġ40 1
Ġà°ľà°¯ à°Ń
ĠS UV
17 9
ĠM in
Ġs ign
Ġp r
23 4
à°¿( _
à¤ Ĥ
à¤ Ĺ
à°Łà°¬à°¡ à°¤
27 4
à°¨à°ªà°¡ à°ķ
à°¨à°ªà°¡ à°¡
et ail
Ġw ill
ov e
ul d
ĠY ou
Ġà°ªà°Ĺà°² à°¬à°¡
à°Ĳà°Ĳ à°İà°«
MA RT
Ġen ergy
tern al
expos ure
onal d
ĠEng land
3 15
3 47
4 26
4 27
5 75
5 45
6 12
8 90
B R
C ont
E X
L DL
a o
c ur
d is
k iga
n on
â ĹĨ
Ġ et
Ġ all
à°² à°ľà°¨à°ķ
à°¯ à°¤à°°
à°¯ à°ļà°°à°£
à°¯ à°¯à°®à°µ
à°ª à°¨à°¸
à°Ĺ à°ªà°¤
à°ļ à°ªà°°à°ļ
Ġà°µ à°³
Ġà°µ à°§à°ķ
à°¬ à°®à°¨
à°¬ à°²à°¤
à°£ à°¨à°²
à°£ à°ªà°¨
Ġà°ľ à°¨à°ª
à°Ĩ à°Łà°ª
à°Ĩ à°¨à°ķà°Ł
Ġ( à±į
à°¬à°¡ à°¦
à°ľà°¯ à°ªà°¥
Ġà°ħà°ª à°¸à°µ
Ġà°ķà°° à°Ĺ
Ġ4 12
à°®à°¤ à°¯
à°¯à°¸ à°¹
Ġà°§à°° à°ĸ
Ġ7 77
Ġ19 25
à°Ľ à°¤à°¨
à°Ľ à°¨à°®
à°®à°¦ à°Ĺà°¨
à°°à°ķà°Łà°¨ à°ļ
à°°à°¸à°¨ à°²à°ª
Ġ50 4
à°§à°° à°²à°¨
Ġà°ľà°°à°Ĺ à°µà°¨
à°± à°²à°ķ
Ġà°¦à°³ à°ªà°¤
à°µà°¹à°£ à°¤
me d
60 7
ĠS oc
Ġ27 7
ĠT RAN
Ġs o
Ġc ovid
26 1
33 1
Ġd is
55 3
38 3
39 6
à°¦à°¶ à°²à°µ
46 1
Ġà°ķà°¨à°ªà°¡ à°¡
ab les
ĠIn d
à¥ ¤
ore a
SA RS
SL ATO
form ation
kt op
IND IA
ĠTRAN SLATO
ĠTRANSLATO RS
2 19
9 19
9 30
9 61
C F
W ell
b ar
c le
c reen
d s
d ro
d ate
l a
o us
u el
u th
u ide
Ë Ī
Ġ \
Ġ em
à±į à°¾
à°² à°Ĺà°²à°¦
à°ķ à°¸à°®
à°ķ à°¬à°¦
à°¯ à°¸à°°
à°¯ à°ľà°¨à°®
à°Ł à°¬à°Ł
à°Ł à°¬à°²
à°¡ à°¬à°Ł
à°Ĺ à°°à°¤
Ġà°ª à°ĸ
à°ļ à°Łà°ķ
âĢĮ ),
à±Ī (
à±Ī âĢ¦
Ġà°İ à°Ĳ
Ġà°İ à°°à°Ĺ
Ġà°ľ à°¦
à°İ à°İà°®
à°¯à°¨ à°¯
à°°à°® à°®à°¨
Ġà°®à°° à°Ĺ
Ġà°ªà°° à°µà°³
Ġà°Ĵ à°¨à°Ĺ
Ġà°« à°Ĺ
à°°à°£ à°Ń
à°Łà°¨ à°²
à°°à°¸ à°µà°µ
Ġà°¤à°° à°Ĺà°¨
00 2
Ġà°İà°¨ à°Ń
Ġà°®à°¨ à°Ĺ
à°ı à°Ĳà°Ł
à°·à°£ à°Ĺà°²
Ġà°ħà°ª à°¹à°°à°£à°ķ
Ġà°ķà°° à°Ĺà°²
à°¨à°ķ à°¨
Ġ6 99
à°ķà°® à°Ĺà°³
à°¶à°¨ à°²à°²
à°¶à°¨ à°Ĺà°ª
à°¤à°Ł à°µ
25 8
Ġà°ĵà°¡ à°²à°¨
Ġà°Ńà°¯à°ªà°¡ à°°
ĠS up
ĠM I
Ġ35 9
Ġà°ķà°¨à°¬à°¡ à°µ
el y
Ġm u
ĠN ational
is ion
23 8
Ġà°ľà°¤ à°ªà°°
ĠâĢĮ :
28 00
am s
âĸ ¡
32 9
ac tion
85 8
Ġb odies
33 6
à°¾' ,
et ic
Ġ46 7
Ġthe y
ot t
ĠJ o
Ġr igid
Ġà°¸à°ķà°² à°®
à±įâĢĮ` .
ozill ian
echn ology
Ġel ections
ater ial
Ġout put
Ġchar t
Ġag ain
ij ay
4 22
4 32
4 95
5 42
7 22
9 21
9 17
A F
U E
b o
b ab
b sp
b ox
c ent
k in
t itle
u z
Ð ¾
Ġ à¦
Ġ ext
Ġ ï»¿
Ġà° ¿
à°° à°°à°ķ
à°² à°¹à°°
à°ķ à°¸à°¹
à°¯ à°«
à°¸ à°²à°¯
à°® à°·à°®
à°Ĺ à°®à°²
Ġà°µ à°Ĺà°°
Ġà°¨ à°°à°ª
Ġà°¨ à°µà°Ĺ
à±įâĢĮ &
à°§ à°ķà°°
Ġà°Ĩ à°Łà°®
Ġà°¦ à°¡à°ª
Ġà°ĩ à°¤à°Ĺ
à°Ī à°Ĺà°²
Ġà°Ī à°¤à°Ĺ
à°°à°¤ à°ľà°Ł
à°İ à°¥
à°°à°ķ à°ķà°ª
à°¤à°° à°£à°ª
à°¤à°¨ à°ĸ
à°ªà°¡ à°®à°°
Ġ( $
à°ķà°¡ à°²à°¨
Ġà°®à°¨ à°®à°²
Ġà°ĵ à°¨à°®
Ġ. ...
Ġà°ķà°¨ à°ª
à°ı à°²à°ķ
Ġà°Ĳ à°Īà°¡
à°µà°¤ à°²à°²
à°ľà°¯ à°µà°°
à°Łà°ķ à°¤
à°¡à°² à°°
à°ī à°¹
Ġ5 10
à°Ĵà°ķ à°Łà°µ
à°¸à°® à°·
19 00
19 32
Ġà°ħà°µà°ķ à°²à°¨
à°¡à°µ à°³
à°ĺà°Łà°¨ à°¸
à°ªà°¨ à°ļ
Ġ19 11
Ġ19 22
Ġ19 26
Ġ19 29
à°¦à°Ĺ à°²à°¨
à°£à°® à°§
à°Łà°ªà°¡ à°¦
à±Ģ) :
à°¯à°£ à°ĸ
Ġà°¶à°¤ à°ľà°¯
18 3
Ġà°ķà°¸ à°¬
Ġà°ķà°¡ à°µà°°
à°«à°²à°® à°µà°¡
ĠA BC
ĠM r
ĠT o
ĠR aj
Ġà°ªà°¤à°ķ à°®
Ġp ass
26 9
à°¯à°ªà°° à°ļà°¡
47 6
Ġin fo
Ġo b
Ġb lade
27 3
ĠV ista
49 1
à°Ĥ' ,
st ru
à°¤à°ªà°° à°ļà°¡
ra g
Ġà°µà°¦à°² à°°
ap t
ang les
Ġ} âĢĮ
Ġor g
cl inical
ĠUN ESCO
St ream
tr l
ĠHT TP
ĠPh il
ĠNPS H
4 21
6 15
7 23
8 35
A m
B LE
G en
G oogle
L inux
l ish
n ow
p art
u ro
É Ļ
Ð °
Ġ ed
à±į à±į
à°¤ à°µà°¨
à°¤ à°µà°°à°£
à°¡ à°ļà°ķ
à°ļ à°°à°ª
Ġà°µ à°¡à°²
Ġà°¨ à°¯à°®à°µ
Ġà°Ĩ à°¨à°°
à°£ à°²à°¤
à°Ń à°Ĺà°¤
à°ħ à°µà°²
à°²à°ķ à°²à°ķ
à°Ī à°·
à°Ī à°¤à°ķ
à°µà°° à°¦à°¨
à°ĩ à°¤à°Ĺ
à°ĸ à°¯
à°ĸ à°ķà°°à°®
Ġà°ªà°° à°ļà°²
Ġà°¡ à°µ
Ġà°ķà°² à°¦à°¨
Ġà°ĵ à°ĸ
Ġà°ĵ à°Ĩà°°
Ġà°¤à°¨ à°ªà°Ł
à°ľà°¨ à°¶
Ġà°ĸ à°®à°°
à°Ĺà°° à°¹
à°Łà°² à°ļ
à°Łà°² à°ľ
à°¨à°µ à°ķ
Ġ5 80
à°¬à°° à°ļ
à°¹à°¨ à°¯
à°®à°¤ à°Ń
Ġà°Ĩà°¶ à°²à°ķ
Ġà°ķà°¥ à°ª
Ġà°ķà°¥ à°²à°¤
Ġ19 27
à°²à°Ĺ à°¡à°¦
à°ªà°¥ à°®
à°§à°ķ à°°à°®
30 2
30 8
25 3
re st
ĠC ol
Ġà°īà°¦à°¯ à°Ń
75 2
Ġà°¬à°¯à°Łà°ªà°¡ à°Ĺ
ĠA ir
ĠA TM
17 7
Ġm ap
ĠP DA
Ġp res
ĠB ank
à°Ĭ à°°à°Ĺ
ĠD A
ĠF ree
48 2
à¤ ¹
37 1
Ġ38 1
39 4
Ġl abel
66 9
ĠJ an
Ġà°ħà°²à°¸ à°Łà°¤
ric ket
Ġcom mun
ik a
Ġà°İà°Ĺà°° à°¡
CP U
ĠURL s
Brand ShortName
Mo HFW
âŀ ¦
Ġmoment um
0 16
4 42
5 26
7 49
8 21
B i
C on
P h
S D
S P
S h
W A
b lades
m y
} )
Ï ģ
à±ģ âĢĶ
à°¨ à°Ĺà°¡
à°² à°«
à°¦ à°Łà°¨
à°¦ à°ķà°¨
à°ª à°°à°¤
à°µ à°®à°¤
Ġà°¸ à°¨à°®
Ġà°¸ à°¡à°ķ
Ġà°ħ à°°à°¸
à°ľ à°²à°¤
à°¶ à°¹à°°
Ġà°° à°¡
Ġà°Ĩ à°ĸ
à°¹ à°£à°ķ
à°¹ à°µà°¸à°¤
Ġà°² à°¢à°ķ
Ġà°İ à°İà°«
Ġà°İ à°İà°®
Ġà°İ à°¹à°¸
Ġà°ľ à°¤à°¨
à°¾à°Ĥ `
à°Ī à°Ĳ
à°Ī à°¸à°®
à°°à°¤ à°¸
à°Ĩ à°µà°°
Ġà°Ĵà°ķ à°°à°ķà°®
à°°à°£ à°²à°¤
à°Łà°¨ à°Ĺà°°
à°¯à°² à°µà°²
à°ªà°° à°¹
à°°à°µ à°®à°¨
à°°à°² à°®
Ġà°ªà°¨ à°¯
Ġà°ħà°² à°¬
Ġà°ħà°² à°µà°¡
Ġà°īà°¦ à°¯à°Ĺ
Ġà°ĺà°Łà°¨ à°²à°¤
Ġà°ħà°¡ à°Ĺà°Ĺ
19 21
Ġ6 20
50 1
à°²à°µ à°µà°ļ
à°¹à°°à°£ à°ª
à°ļà°¯ à°¤à°¨
in ter
99 5
21 8
21 00
or n
ĠC R
ar ri
Ġ80 2
ĠI CC
Ġà°ļà°¦à°µ à°¬à°¡
Ġm Ah
Ġm ake
65 2
23 3
Ġ45 2
28 7
47 2
Ġ36 2
Ġb ut
à°Ĺà°®à°¨ à°®
33 7
77 8
39 1
66 6
58 8
Ġ99 8
av a
IC C
Ġst udy
Ġ* ]
Ġà°ķà°²à°¤ à°ļ
à°ĭ à°£
io us
udi o
Ġass embly
mens ional
' d
3 13
5 11
5 80
6 60
6 75
7 11
8 80
9 85
A E
C M
E n
I O
O O
P ress
T F
c ase
k m
l im
m at
v el
Ð µ
ã ĥ
à°¿ à°ģ
à°² à°Ĺà°°
à°² à°ļà°ķ
à°¯ à°Ľ
à±ĭ `
à°¸ à°ªà°¤
à°¸ à°«à°°
à°ª à°ľà°¯
Ġà°ª à°¹à°²
à°ļ à°µà°ķ
à°ļ à°Ĺà°¡
à±Ĥ à°Ĥ,
à°· à°°à°ķ
à°· à°°à°¹
à°¬ à°¸à°®
Ġà°Ĩ à°²à°®
Ġà°İ à°°à°µ
Ġà°Ń à°ľà°¨à°²
à°²à°ķ à°¡à°²
à°ĩ à°İà°«
Ġà°Ĵ à°Ĺ
Ġà°¸à°® à°¤à°²
Ġà°« à°ľ
à°¤à°¨ à°¡à°ķ
à°²à°² à°ªà°Ł
Ġà°ķà°² à°¶
à°°à°Ń à°°
à°ªà°° à°ļà°ķ
Ġà°®à°¨ à°µà°²
Ġà°®à°¨ à°¦à°Ĺ
à°ı à°İà°®
à°°à°ľ à°ķ
à°°à°ľ à°²à°¯
Ġ3 35
Ġà°Ĳ à°²à°¯
à°¯à°¤ à°µà°¹
à°²à°® à°£
Ġ4 16
19 22
19 33
Ġ6 25
Ġà°®à°°à°£ à°ķà°°à°®
à°²à°µ à°¶à°®
à°µà°°à°£ à°ķ
à°¯à°ª à°¦à°®
Ġà°¬à°¯ à°Łà°¨
à°ªà°¦ à°¸
à°¡à°ķ à°¯
à°¹à°°à°£ à°²à°²
in al
à°¤à°Ł à°¦
Ġ50 5
Ġà°Ĺà°£ à°¨à°¨
à°Ĺà°ľ à°ªà°¤
re di
Ġ28 9
ĠC V
11 50
ĠA R
ĠA b
ĠR O
ĠR T
Ġ32 8
35 7
ĠN Y
ĠN BA
à°Ńà°ľà°¨ à°¤
Ġc ent
Ġc ustom
Ġp h
Ġà°¨à°Łà°¨ à°ª
65 4
Ġà°Ķà°·à°§ à°Ĺ
28 3
ĠF ound
26 7
Ġà°ªà°Ĺ à°¬à°Ł
Ġd ist
37 7
ĠO r
ĠO TP
29 2
ome n
ome t
Ġl oad
umb ai
ri v
ag es
ap an
qu al
à² ¿
ob ject
yn old
Ġas px
eric a
ĠServ ice
ener al
ustral ia
3 24
4 12
4 47
5 28
5 48
6 95
7 45
7 65
D es
E N
H C
Q L
] .
g o
i pe
k ar
l an
l ing
p ib
s ite
t e
u es
w ays
Ë Ĳ
Ġ âĸª
à°° à°ļà°¨à°²
à°ķ à°¯à°²
à°¤ à°ªà°¡à°¤
à°¡ à°²à°¯
à°Ĺ à°°à°£
Ġà°¸ à°µà°¨
Ġà°® à°¯à°®
Ġà°® à°°à°®à°¤
à°§ à°µà°¹
Ġà°Ĩ à°ªà°Ł
Ġà°¬ à°®
Ġà°İ à°«à°°
Ġà°ľ à°²à°Ĺ
Ġà°ľ à°¨à°ªà°¦
à°¾à°Ĥ """"
Ġà°¹ à°µà°²
Ġà°¹ à°®à°¦
Ġà°ı à°Ī
Ġà°ªà°° à°ļà°¨
à°°à°ķ à°¤
Ġà°¸à°® à°²
à°ķà°° à°¸
à°ķà°° à°£à°¯
à°Łà°° à°¯
à°°à°£ à°²à°²
à°¤à°¨ à°¶
à°°à°¸ à°Ĺ
à°¨à°Ł à°¸
à±į. )
à±į. """
Ġà°ħà°ª à°ļ
à°ĺ à°¨à°¤
20 26
à°ī à°ªà°ķ
Ġ5 20
Ġ5 85
à°®à°¤ à°Ĺ
Ġà°İà°µà°° à°¯
Ġà°¤à°² à°ªà°Ł
à°¡à°µ à°ª
ĠâĢĿ ?
à°ķà°Ł à°ª
à°µà°ķ à°¤
à°§à°¨ à°¶
Ġà°¨à°¡ à°ªà°²
Ġ19 08
Ġà°Ĭ à°¸à°°à°µ
à°·à°® à°Ĺ
Ġà°Ĩà°µ à°ª
in i
à°¤à°Ł à°¸
Ġà°ľà°® à°µ
à±įâĢĻ âĢĮ
à°°à°ªà°¡ à°¨
Ġ40 9
à°Ĥ) :
18 9
al k
ĠC an
Ġt itle
ĠS T
ĠA g
ĠM Hz
Ġs up
ĠP DF
65 5
à°Ĺà°ªà°¡ à°²
Ġà°ľà°¤ à°ªà°°à°ļ
ĠD OS
ĠD elhi
ĠF IFA
am pl
47 3
37 3
ol t
49 2
Ġg roup
Ġl oss
st e
ĠK han
58 9
à±įâĢ¦ !
Ġst atus
Ġâ ĨĴ
Ġcon f
oo th
Short cut
Ġac t
âĩ Ķ
à°²à°¬à°° à°ļà°¡
end or
ĠÎ ±
cri ption
cont rol
ograph y
lob al
0 24
4 19
5 85
5 41
6 30
6 17
7 18
7 28
7 32
A PI
B O
E v
N C
O thers
R el
W S
W ork
c el
e et
f ace
g en
h ul
m oment
n b
s à°ķ
t k
t he
t oc
v ari
Ã ¦
Î ¸
à ©
à°° à°¯à°¨
à°Ĥ âĢľ
à°ķ à°µà°¸à°¤
à°¤ à°ľà°¨
à°¦ à°Ńà°®
à°¯ à°¯à°ª
à±ĭ à±ĭ
à°ª à°ķà°¡
à°µ à°£à°®
à°Ĺ à°µà°¨
à°Ĺ à°¸à°Ń
Ġà°ª à°¸à°²
Ġà°ķ à°°à°ª
Ġà°ķ à°°à°ķà°Ł
Ġà°ķ à°µà°¯
Ġà°® à°¡à°µ
Ġà°¤ à°³à°¤
à°¹ à°ķà°¤
Ġà°İ à°Ĺà°¨
Ġà°Ĺ à°®à°²
Ġà°ľ à°ľ
à°ħ à°¡à°²
à°Ĩ à°Ĺà°¨
à°« à°°à°²
Ġà°ı à°İà°«
Ġà°ı à°ķà°®à°µ
Ġà°ķà°² à°Ĺà°Ł
à°ªà°¡ à°ķà°²
Ġà°¤à°° à°¨
à°ªà°° à°µ
à°°à°µ à°Ł
Ġà°§ à°¨à°¨
Ġà°ĵ à°¬à°¦
Ġà°ĵ à°·à°§
à°Ĳ à°ĵ
à°Ĳ à°Ĳà°ª
Ġà°µà°° à°¦à°°
Ġ3 14
à°¨à°µ à°¶à°ķ
Ġà°ªà°¡ à°¨à°µà°¸à°°
à°ļà°² à°ªà°¤
Ġ4 60
Ġ5 37
19 34
à°Ĩà°® à°§
Ġà°Ĩà°¶ à°ª
Ġ8 21
Ġ19 10
Ġ19 07
à°¯à°¬à°¡ à°µà°ļ
à°¸à°Ń à°°
à°ľà°² à°µà°¨à°°
à°°à°³ à°¤
Ġà°Ńà°¯ à°®à°¨
70 8
re me
re nt
18 1
Ġà°ħà°¹ à°®à°¦
100 00
Ġà°Īà°¸ à°¡
Ġt ext
Ġt rans
Ġ29 1
à°Ĭ à°¦
Ġ37 9
26 6
Ġb ank
27 2
ur al
Ġà°Ŀ à°³
77 1
36 2
Ġ44 4
ĠÂ ½
ĠX ML
Ġof f
Ġa f
Ġà°Īà°¯à°¨ à°¨
à°Ķ à°¤
Ġà°µà°ļà°¨ à°¬à°¦
Ġà°ķà°¨à°ªà°¡ à°¨
Ġk W
Ġà°ħà°²à°¸ à°Łà°Ĺ
ight s
à¥ ĭ
CO PD
hi p
Ġ-- --
à°ĭ à°Ĺ
Ġdi rection
imp ulse
CL R
dra ul
dra ft
"( ""
Ġà°İà°Ĳà°İ à°¡
stit ute
Ġcount ries
ĠFound ation
0 25
3 200
3 22
5 29
8 20
9 12
: %
B udget
E L
F D
G H
H y
K L
N B
V P
V PN
] ]
c r
h elp
j w
l og
m p
m ach
Ġ ~
Ġ Ð
à± Ħ
à°¨ à°ľà°°
à°¨ à°¯à°ª
à°¨ à°§à°°
à°² à°¦à°Ĺ
à°Ł à°¡à°¨
à°Ł à°Ĺà°¡
à°¸ à°¡à°¨
à°ª à°¯à°¨
à°¡ à°ªà°Ł
à°¡ à°¦à°²à°ļ
à°¡ à°¨à°µà°¸à°°
à°ļ à°ķà°°
Ġà°µ à°¦à°°
Ġà°® à°¯à°¶
à±įâĢĮ +
Ġà°¤ à°ļ
à±Ī ...
Ġà°¬ à°¦à°°
à°Ń à°ķà°°
à°µà°° à°¸à°²
à°İ à°İà°ª
à°Ĩ à°¨à°°
à°®à°¨ à°®à°²
Ġà°ħà°µ à°Ĺà°¤
Ġà°ķà°² à°ªà°ķ
à°ķà°² à°ļ
Ġà°ĩà°¦ à°®
à°°à°µ à°¶
à°¦à°² à°µà°²
Ġà°ħà°® à°°à°¤
à°°à°¦ à°ª
à°°à°¦ à°¶
à°ľà°¯ à°Ĺ
à°ľà°¯ à°¬
Ġà°ħà°ª à°ĸ
à°ī à°¡à°ķ
Ġ4 14
à°®à°¤ à°²à°ķ
Ġà°İà°µà°° à°¨à°Ĺ
à°µà°°à°ķ à°¦
Ġà°Ĩà°¶ à°²à°¤
50 2
50 8
Ġà°¨à°¡ à°ķà°²
Ġ19 13
Ġà°ķà°³ à°²à°¨
à°²à°Ĺ à°¦
à°²à°Ĺ à°Ł
Ġà°Ĩà°¡ à°µà°ļ
Ġà°¥ à°Ĺ
à°£à°® à°Ĺ
à°²à°Ń à°®à°µ
à±ģ) -
Ġ17 50
à±įâĢĭ âĢĭ
à±įâĢĮâĢĮ .
99 3
30 4
70 6
er b
Ġ21 00
40 9
me t
60 9
Ġà°Ńà°¯à°ªà°¡ à°¨à°¨
ĠC U
ĠC r
Ġt el
Ġt ube
ĠS c
ic tion
Ġà°ľà°¤ à°ķà°²
am b
48 4
ĠH igh
Ġin put
um ar
us s
à°ħà°µà°¸à°°à°® à°¨
un e
un n
à°µà°£ à°Ĺ
55 8
à°¤à°ªà°¡ à°Ł
36 4
id d
29 6
38 4
Ġ49 2
ĠX R
Ġg andhi
46 6
st udy
44 4
74 3
so ci
à°Ŀ à°°
98 4
à°°à°¬à°¡ à°¨
Ġà°ĩà°°à°µ à°¯
Ġà°ħà°°à°ķ à°ª
BM W
erv ation
Ġà°Ķà°· à°§à°®
old S
âĿ ĳ
Ġà± ©
draul ic
0 49
3 26
4 33
4 39
5 39
5 79
6 14
6 22
6 33
7 26
8 10
8 23
9 71
9 67
A d
C r
D D
F T
M B
f ile
l aw
n ess
r ation
s on
s ync
Ġ âĻª
à°¿ |
à°¾ Â«
à°Ĥ âĢĺ
à°¯ à°£à°²
à°¯ à°¸à°®à°¸
à°® à°ķà°²
à°® à°¦à°µ
à°Ĺ à°¬à°Ł
Ġà°¸ à°ľà°²
à°¿. \
à°¬ à°«
Ġà°Ĩ à°¯à°¤
Ġà°¦ à°¯à°Ĺà°²à°µ
Ġà°ľ à°²à°¨
à°ħ à°²à°²
à°ħ à°ĺ
Ġà°ħà°¨ à°®
à°°à°¤ à°Ĺà°²
à°Ĩ à°ķà°¤
à°¦à°° à°¹
Ġà°¯ à°ª
à°« à°°à°µ
Ġà°« à°¹à°¦
Ġà°¡ à°«
Ġà°§ à°¡à°ķ
à°¾? """
Ġà°ķà°¨ à°²
à°ļà°¨ à°²à°²
à°ı à°ķà°ªà°ķ
Ġà°¸à°¹ à°¨à°Ł
âĢĺ âĢĻ
à°¨à°° à°¹
à°ļà°° à°ļ
Ġà°īà°¦ à°¯à°¨
à°Ĵ à°İà°¨
20 6
Ġ4 31
Ġ4 71
à°®à°ķ à°®à°¯
19 24
à°ŀ à°¯
à°ŀ à°Ĺ
à°¡à°Ĺ à°ķ
Ġ6 40
à°ĺà°Łà°¨ à°²à°²
Ġà°ĩà°¤à°° à°¦
à°²à°µ à°²à°¨à°¨
Ġà°ķà°¥ à°²à°²
à°¡à°ķ à°¶
à°¶à°¨ à°²à°¤
Ġà°¬à°¡ à°¤
à°¹à°°à°£ à°¤
Ġà°İà°Ĺ à°°à°²
in f
à°ļà°Ĺà°² à°Ĺà°¡
Ġ40 5
at ter
at ab
40 2
à°µà°°à°Ĺ à°®à°¨
Ġ23 00
ĠC C
ĠC ent
ĠC BI
75 9
ĠS E
ĠS ci
ĠA ct
ĠI RCTC
Ġà°ķà°²à°ª à°µà°ļ
24 1
Ġ35 5
Ġs u
Ġs ection
Ġs ee
35 2
35 9
Ġc ur
Ġà°ªà°°à°® à°Ĺ
Ġp m
Ġà°īà°¡ à°ķà°¨
ĠG IF
ĠD r
48 7
Ġin d
Ġin menu
Ġd ef
ĠV o
ĠO ECD
49 3
49 7
à°°à°¥à°® à°«à°²à°®
à°Łà°ªà°° à°ļà°¡
78 3
76 7
76 9
st atic
Ġh and
68 1
Ġ46 3
Ġà°ĺà°Ł à°¸à°°
Ġà°Ĩà°¦à°°à°£ à°ķà°°
Ġà°µà°¦à°² à°¦
ir d
ir at
ap oor
qu e
Ġà°¨à°¡à°µ à°Ł
Ġi i
à°Ńà°Ĺ à°µà°¤
Ġà°Ĺà°¬ à°Ĺà°¬
hi ef
ric t
Ġsc rap
DR F
ĠAl l
à§ į
iet y
Õ¡Õ ¶
Ġrec ord
0 18
0 11
0 35
0 46
0 82
4 48
5 15
6 49
8 14
9 11
A t
F ull
G L
H IV
M M
c av
d ay
e a
e th
k g
s l
t bsp
v est
v endor
Î ¿
à ¬
Ġ _
à°¿ &
à±ģ âĢĮ,
à°¨ à°¥
à°² à°¸à°®
à°Ł à°¶à°ķ
à°Ł à°Ńà°¯
à°¸ à°¡à°²
à°µ à°ķà°¨
à°® à°°à°£à°ķ
à°ļ à°³
Ġà°ķ à°¯à°ª
âĢĮ à°¿
Ġà°ħ à°¥à°°
Ġà°¨ à°¹à°°
Ġà°¨ à°¡à°µà°¦
à°· à°¯à°¨
à°ľ à°ļ
Ġà°¤ à°ľà°ķ
à±Ī ?
à°¶ à°²à°¯
Ġà°Ĩ à°²à°¨
Ġà°Ĩ à°Ĺà°°
Ġà°¦ à°²à°ļ
Ġà°ľ à°¤à°ķ
Ġà°ľ à°Ĺà°¡
à°ĩ à°²à°ķ
à±ģ, âĢĻ
à°Ĩ à°®à°¨
Ġà°¯ à°¹
Ġà°®à°° à°µà°²
Ġà°®à°° à°µà°ķ
à°®à°¨ à°µà°¡
Ġà°ķà°² à°¡
à°ķà°² à°Ĺ
à°ªà°° à°Ĺ
Ġà°ĵ à°İ
à°¦à°² à°µà°¨
à°¤à°² à°ªà°Ł
à°¿? """
à°ļà°¨ à°ķà°°
à°ħà°¨ à°²
à°Ĳ à°Ĵà°¸
Ġà°ªà°¨ à°¸
à°°à°¨ à°ķ
à°·à°£ à°²à°ª
Ġà°Ĳ à°Ĳà°İà°®
à°ľà°° à°°
Ġà°ħà°ª à°¨
à°Ĵ à°®à°¨
Ġ4 45
Ġ5 70
à°¥à°² à°ļ
Ġ- .
Ġà°¸à°Ń à°¤
Ġà°İà°¦ à°Ĺà°²
19 35
à°¯à°µà°¸ à°°à°®à°¨
à°¸à°¨ à°Ĺ
Ġà°İà°ª à°«
Ġà°Ĭ à°Łà°²
à°¯à°¬à°¡ à°Ł
à°ļà°ķ à°¤
à°Łà°ªà°¡ à°µà°ļ
Ġ18 60
Ġà°ıà°ķ à°§
à°¡à°¤ à°²à°¨
à°Ĺà°£ à°®à°¨
70 1
er ation
à°ªà°°à°ļ à°µà°²
à°¯à°Ĺà°² à°¡à°¨
re ct
Ġ40 7
40 7
à°¦à°²à°ķ à°¡
80 2
Ġt urbines
Ġà°¸à°µà°°à°£ à°²à°¤
90 6
ĠM a
Ġ35 8
Ġs quare
Ġs ched
ĠU P
45 7
ĠP ri
à°Ĭ à°ķ
65 1
ĠF l
ĠH ow
Ġb lades
ĠE MI
77 2
ĠO n
Ġà°¤à°²à°ªà°¡ à°¬
Ġà°ļà°²à°¨ à°¶
à±ĢâĢĻ ,
Ġà°°à°®à°£ à°¤
à°Ĥ"" )
Ġg r
Ġa ut
Ġh im
Ġh ave
Ġ39 1
68 6
ra il
ug ht
66 7
58 4
Ġv al
88 2
à°ĤâĢ¦ ?
ir on
em i
ID AI
Ġ69 2
à°µà°Ĺà°² à°¦à°¨
Ġst ate
ph a
our ce
our se
ob ile
à°¤à°¹ à°·à°¸
Â§ à±įâĢĮ
Ġà°ħà°¨à°µà°¸à°°à°® à°¨
Ġwh ich
du ction
min us
Ġ--- >
Ġoper ation
Press Rel
toc ol
" ,
5 13
5 49
5 34
5 76
5 72
6 20
6 77
6 78
6 79
7 95
7 46
9 70
9 16
9 46
9 68
A D
D G
D VD
E U
K CS
N RC
S à°¨
n it
n um
s m
s er
s ub
Ï Ĥ
Ġ Ġ
à°¾ âĢĭ
à°¨ à°§
à°µ à°ľà°¸
à°µ à°¤à°°à°£
Ġà°ª à°¹à°°
Ġà°ķ à°¦à°°
Ġà°ķ à°¦à°¨
âĢĮ âĢĻ
à°§ à°¨à°°
à±Ĭ ?
Ġà°¦ à°¡à°¦
Ġà°¬ à°ª
à°Ń à°³
à°Ń à°¨à°ķ
à°ħ à°£à°ķ
à°µà°° à°µ
à°µà°° à°ªà°²
à°°à°¤ à°¯
à°İ à°¹à°¸
Ġà°¹ à°ª
à°°à°® à°²à°ª
à±ĩà°Ĥ :
Ġà°ķà°² à°¤à°²
à°ªà°Ł à°®
à°¯à°² à°°
à°¯à°² à°µ
à±Ģà°Ĥ :
Ġà°§ à°¨à°²
Ġà°· à°¡
Ġà°¨à°® à°ķ
Ġà°®à°¹ à°µ
Ġ3 85
à°Łà°² à°¦
à°ľà°¯ à°¤
à°Ĺà°² à°¡à°¨
à°ķà°ª à°¦
Ġ4 48
Ġ5 75
Ġà°İà°µà°° à°®
19 23
à°¯à°ªà°¡ à°Ĺà°²
Ġ6 70
Ġ6 32
à°ħà°ª à°¹
à°®à°² à°¬
à°³à°¨ à°²à°ª
Ġ8 24
Ġ8 88
à°µà°°à°£ à°¹
Ġà°Ľ à°ª
Ġà°Ľ à°Ĺà°¨
à°¯à°¬à°¡ à°°
Ġà°¨à°µ à°¯
à±ģ) ."
Ġà°Ĩà°Ĺ à°µ
Ġ18 85
à°°à°³ à°µ
30 9
70 5
on es
à°ħà°¸ à°¦
60 1
60 6
à°®à°³ à°®
ĠC a
ĠC ourt
à°¸à°¨à°¸à°Ń à°¨
ar bon
ĠT ime
Ġs econd
ĠR ep
à±ģâĢ¦ âĢĿ
ĠP ol
Ġ[ (
65 7
ro me
ĠG Hz
à°Īà°¯à°¨ à°¤
28 2
and ra
um an
Ġd ynamics
ĠE lection
Ġ38 8
36 3
ĠW TO
et s
et ooth
39 3
à°®à°ľ à°µà°°à°Ĺà°®à°¨
58 3
res p
Ġà°ħà°¸à°¹ à°ľà°®
Ġà°¸à°¹à°¨ à°¶
ir c
ab ha
Ġà°°à°ļà°¨ à°ķ
Ġà°ĭ à°Ĺ
à°¾"" ."
89 1
Ġr ank
Ġà°¨à°¡à°µ à°ķ
Ġi f
à² °
Ġà°īà°Ń à°¯à°¸à°Ń
com press
à® ¿
US B
lu etooth
eb site
TS creen
ma z
eric Name
vers ion
word s
ivers ity
ĠRA ID
Key words
angu age
( %
0 70
0 28
3 19
4 65
4 49
6 85
6 39
8 24
8 76
8 79
9 000
9 24
: -
A c
B G
C N
N D
R ed
W eb
e h
l in
l ist
p ol
s a
w n
w ard
Ù ĩ
à°² à°°à°¨
à°¤ à°µà°¸
à°¦ à°¦à°¯
à°¦ à°¸à°µ
à°¯ à°ªà°¤
à°ª à°²à°ķà°²
à°¡ à°¡à°¨
à±Ģ `
à°Ĺ à°¡à°Ĺ
Ġà°ª à°·
Ġà°ª à°Ĺà°³
Ġà°ª à°ķà°ªà°ķ
Ġà°ķ à°¡à°®
Ġà°µ à°·
à±Ĥ (
Ġà°¤ à°ĸ
à±Ī âĢĮ
à°§ à°ľà°²à°®
à°¬ à°¤à°Ĺ
à°¹ à°ļà°°
à°¹ à°ªà°¡à°²
Ġà°ī à°ĸ
à°£ à°¯à°ķ
Ġà°¦ à°ĸà°²
Ġà°ĩ à°¹
à°³ à°ķà°°
à°²à°¨ à°¡
Ġà°¶ à°¤à°ķà°®
Ġà°Ī à°¡à°¬
Ġà°¹ à°³
à°°à°® à°µà°¡
Ġà°Ł à°²
Ġà°ı à°®à°°
à°¿, âĢľ
à°¾, ,
à°ªà°° à°ļà°¡à°®
à°°à°¯ à°µ
Ġà°İà°¨ à°®
Ġà°ħà°° à°¡à°ľà°¨
Ġà°®à°¹ à°ľà°¨
Ġ3 22
à°¨à°² à°Ń
à°ł à°µ
à°¨à°ķ à°³
Ġ4 32
à°®à°ķ à°®à°¨
""" (
Ġà°İà°¦ à°Ĺà°¨
à°ŀ à°®
à°ŀ à°ļ
à°¸à°¨ à°ķà°°
Ġ7 74
Ġà°Ĭ à°²
Ġ12 50
à°ħà°µ à°¯à°µ
à°ķà°¤ à°²à°ķ
à°Ĺà°³ à°¸
Ġà°¸à°¦ à°µà°ķ
in let
à°¸à°¹ à°ľà°¸
Ġà°ıà°ķ à°¸
à°¶à°µ à°ª
Ġ50 1
70 3
18 97
60 2
à°ķà°µ à°²à°²
à°µà°¬à°¡ à°¦
ĠC ar
ĠC SS
à°¸à°¨à°¸à°Ń à°ªà°ķ
Ġà°¬à°¯à°Ł à°µ
Ġ60 7
en c
Ġà°°à°£ à°¤
ĠR BI
Ġm aterial
Ġc heck
Ġp df
ĠG SM
ĠF ran
47 8
Ġ36 8
Ġn ic
ĠE V
ĠV III
ur a
ur i
77 3
29 4
38 2
34 1
78 2
Ġ46 9
58 2
à°Ĳà°ı à°İà°²
ch ool
59 2
Ġà°°à°ļà°¨ à°¨
Ġre view
ist ory
ĠIn g
Ġà°¨à°¡à°µ à°µà°²à°¸
Ġâ ĹĨ
hi ft
oun c
ran sp
Ġà°Ĺà°¡à°Ĺ à°¡
Ġle ad
emb er
ĠIM F
Ġho use
urv ey
Gen ericName
oldS ky
0 10
3 17
4 18
5 22
5 38
6 38
6 64
6 34
6 76
7 19
8 12
8 75
8 29
8 66
9 15
9 48
9 34
9 43
G O
M G
V C
V S
W F
c ol
d esign
i OS
p o
à°¨ à°°à°®
à°ķ à°¨à°Ł
à°¤ à°ļà°ķ
à°¦ à°¯à°¤
à±ĩ `
à°Ł à°¸à°®à°¯
à°¸ à°£
à°¸ à°µà°¤
à°® à°ĸ
à°¡ à°¨à°°
à±Ģ """"
Ġà°ª à°¦à°¨
Ġà°ª à°¢
Ġà°µ à°²à°ªà°¨
âĢĮ /
Ġà°® à°¯à°ķ
à±įâĢĮ à°¾
à°· à°¤à°²
à°§ à°µà°²
à°§ à°¸à°¨
à°¹ à°Ĺà°²
à°¹ à°ķà°¨
à°£ à°¹à°¸
Ġà°Ĺ à°¤à°®
à°³ à°¡à°®
à°²à°¨ à°¯
à°²à°¨ à°®
Ġà°Ń à°§
à°µà°° à°ªà°°à°ļ
à°ĩ à°Ĵà°²
à°İ à°İà°ķ
à°Ĩ à°ªà°¤
Ġà°ı à°µà°¨à°Ĺ
Ġà°ªà°° à°Ĺ
à°¦à°¨ à°ªà°¡
à°ªà°¡ à°Ĺà°²
à°°à°¸ à°²
à°°à°¸ à°µà°¤
à°°à°µ à°Ń
Ġà°· à°¦
à°Ĥ, ,
à°²à°¤ à°Ĺ
à°ı à°¦à°¯
à°¯à°° à°¹
à±ģ? """
Ġà°ĺà°Łà°¨ à°²à°²
20 9
Ġ4 18
Ġ4 17
Ġ5 35
à°¥à°² à°®à°¨
à°Ĩà°¯à°¨ à°¯
à°¸à°® à°¯à°ª
Ġà°¤à°² à°²à°ķ
19 17
19 28
19 08
Ġ6 90
à°°à°¹ à°ľ
Ġ8 20
Ġ8 90
Ġ19 01
à°ĵ à°Ĺ
à°ĵ à°ĸ
Ġà°Ĭ à°°à°¡
à°§à°® à°Ĺ
10 50
à°¸à°Ń à°²à°ķ
à±įâĢĮ. ,
in n
à°īà°¦ à°¯à°ª
Ġ50 2
à°ķà°¸ à°¸
99 8
25 9
er ala
Ġà°¶à°¤ à°ĺ
Ġà°ħà°¹ à°²
à°§à°ªà°¡ à°¨
75 5
80 8
ĠA S
ĠA PI
ĠA ss
ĠI m
ĠT B
ĠT RS
Ġs er
Ġ32 7
à°ĺà°¨ à°¤à°ķ
65 6
he ad
à°¨à°¬à°¡ à°¦
Ġ34 3
um ps
Ġà°ªà°Ĺ à°²à°ķ
us ic
Ġn arendra
95 8
ur l
ĠL e
à°¨à°ªà°¡ à°Ĺ
Ġà°¶à°¨ à°Ĺà°²
ĠO R
36 6
36 00
38 1
à°ľà°°à°µ à°¨
à°µà°ľ à°²à°®
Ġh igh
68 2
68 4
Ġv is
Ġv olume
Ġà°ķà°¨à°ªà°¡ à°ķ
ri b
59 8
à°¤à°¦à°¨ à°®
à±ĭâĢ¦ !
98 7
Ġà°ķà°²à°µà°° à°ªà°°à°ļ
Ġre port
ang ana
ind er
à°¡à°¬à°¡ à°¤
Ġà°®à°¦à°¨ à°ªà°¡
Ġà°¤à°²à°² à°®
iz ed
per i
âĪ ĩ
Ġà°Ĩà°Łà°ķ à°Ł
PC R
ond a
UN D
Ã§ à°¸
ĠInt ernational
ipp ines
Ġagain st
ĠPhil ippines
ampl ing
Full Name
0 31
0 51
4 17
4 29
6 500
6 90
7 29
7 64
8 15
8 17
9 88
C SS
C oronavirus
D etail
G ov
H S
M i
N m
P ro
W i
a ul
e ffic
i rav
k i
n ect
o ot
p ng
s i
t emperature
u j
u ff
y e
Â ²
Â Ń
Â ¸Â°
Ð ¸
Ø ©
Ġ art
Ġ angle
à±į âĢľ
à°¾ à¥¥
à°ķ à°¯à°ķ
à°ķ à°¨à°°
à°¦ à°¸à°²
à°¦ à°¢à°ķ
à°® à°«à°²
à°¡ à°ªà°¡
à°Ĺ à°¨à°°
Ġà°¸ à°«à°²à°®à°µ
Ġà°µ à°ª
Ġà°µ à°°à°£
âĢĮ ..
Ġà°ļ à°¦à°²à°µ
Ġà°¨ à°¯à°®à°¯
à±įâĢĮ """"
Ġà°¤ à°²à°¯
à°¹ à°°à°ª
Ġà°¦ à°Ń
à°Ń à°«à°²à°®
à°Ń à°ªà°¡à°¤
Ġà°İ à°Ĳà°Ĳà°İ
Ġà°Ĺ à°ľà°Ĺ
Ġà°ľ à°®à°¦à°Ĺ
à°¾à°Ĥ "
à°¥ à°Ń
à°³ à°¬à°¡
Ġà°Ī à°¥à°°
à°¦à°° à°Ł
à°¦à°¨ à°Ĺà°°
à°¦à°¨ à°µà°¸à°°
Ġà°ħà°µ à°¬
à°ªà°¡ à°ķà°ª
à°ķà°¡ à°ªà°Ł
à°ªà°° à°ª
Ġà°ĵ à°«
à°¦à°² à°µà°¡
à°Ĳ à°¨à°ª
à°ľà°¨ à°ľ
à°ı à°Ĺ
à°ı à°Ĳà°ķ
à°°à°ľ à°¸
Ġà°īà°ª à°¶à°®
à°ľà°¯ à°ļ
à°¤à°ķ à°®à°£
Ġà°ªà°¡ à°Ĺà°²
Ġà°ªà°¡ à°®à°°à°²
Ġ20 40
Ġ4 65
à°¹à°¨ à°ļ
à°Ĵà°ķ à°®
à°Ĵà°ķ à°ļ
à°ĺà°Łà°¨ à°²à°¤
Ġ7 97
Ġ19 02
à°¦à°ķ à°¶à°ķ
à°¡à°ķ à°²à°²
âĢ¦ ?
Ġà°Ĩà°ª à°¸
à°ļà°Ĺ à°²à°¨à°¨
à°Ńà°® à°Ĺ
in ce
Ġà°ıà°ķ à°®à°¨à°¸
à±Ģ) -
à°± à°¯
à°°à°ªà°¡ à°µà°ļ
18 57
Ġà°¬à°¯à°Łà°ªà°¡ à°µà°ļ
ĠA T
it es
it ative
90 4
90 8
ĠM E
ĠM ozillian
ĠR S
ĠR s
Ġc an
45 8
Ġp re
ĠB oldSky
Ġ33 10
ĠG ov
ĠG UI
ĠG andhi
Ġà°ľà°Ĺ à°¦à°²
ĠD ec
26 00
47 1
47 4
ĠH P
ac ter
85 4
33 8
Ġn m
95 3
à°¤à°ªà°¡ à°Ĺ
ĠO DI
Ġà°¤à°²à°ªà°¡ à°Ł
Ġ49 3
ĠÂ «
Ġg o
58 7
88 7
ent ial
à°¨à°µà°° à°¹
ap e
Ġr pm
ĠIn stitute
ĠÂł Ġ
IC MR
Ġà°¨à°¡à°ªà°¡ à°®
ph ase
Ġà°Ĺà°Ĺ à°¨à°®
Ġj w
à°¿` .
our s
ff ect
à°¨à°ķà°² à°¯
hy draulic
Ġan alysis
Ġro t
Ġà°ķà°ľà°ķ à°¸
à±į` .
à±ĭâĢĿ .
HT TP
mit t
ĠIS BN
bh p
Res ult
à¤¼ à¤¿
ĠSoc iety
à°īà°¡à°ķ à°¬
" [
0 13
0 29
5 36
8 95
8 74
E PF
O OC
P E
P re
S olaris
T ube
V A
d ates
m al
p oint
t sp
t echnical
u tion
Ñ Ģ
Ġ <
à°ķ à°µà°²à°¸
à°¦ à°®à°°
à°® à°«
à°¡ à°¶
à°Ĺ à°µà°¡
Ġà°ª à°¦à°°
à°ļ à°ªà°°à°ļà°¡
à±Ĩ '
Ġà°ļ à°®à°°
Ġà°¨ à°¯à°µ
à°§ à°¨à°¸
Ġà°ī à°°à°µà°ķ
à°£ à°£
Ġà°¦ à°®à°¯
Ġà°¬ à°°à°¨
Ġà°ĩ à°İà°¨
à°Ī à°¤à°°
à°µà°° à°²à°¨
Ġà°¶ à°²à°µ
Ġà°Ī à°Ī
à°°à°¤ à°²à°¤
à°Ĩ à°¡à°¦
à°Ĩ à°¡à°®
à°Ĩ à°¦à°°à°£
Ġà°¸à°® à°Ń
à°°à°£ à°¦
à°®à°¨ à°¯
à±Į âĢĻ
à°²à°² à°¦
Ġà°ħà°§ à°¨
Ġà°ķà°² à°ªà°¤
à°°à°¸ à°ª
à°¸à°° à°¬
00 3
à°ķà°¡ à°¦
à°°à°µ à°¬
à°°à°µ à°®à°°
Ġà°§ à°¨à°ª
Ġà°¤à°¨ à°µà°¦
à°ı à°ķà°¤
Ġà°¸à°¹ à°ª
Ġà°īà°ª à°¸à°®
Ġà°Ĳ à°¡à°²
Ġà°Ĳ à°Ĳà°Ĳà°Ł
à°²à°ª à°¬à°¡
à°¤à°ķ à°Ĺ
Ġà°®à°§ à°¨à°ªà°¡
Ġà°ªà°¡ à°µà°¨
Ġà°ªà°¡ à°ķà°®
Ġà°ħà°¸ à°«
à°¨à°¸ à°¤
à°ł à°§
Ġ4 22
Ġ5 21
Ġ5 34
à°ªà°ķ à°¤à°¨
à°®à°ķ à°¨
à°ľà°ķ à°®
Ġà°ĩà°µ à°¤à°²
19 01
Ġ: .
Ġà°ķà°® à°²à°®
Ġ6 19
Ġ7 40
à°Ľ à°¸
à°°à°Ĺ à°®
à°ªà°£ à°ļ
âĢĺâĢĺ à±į
à°¯à°¦ à°³
Ġà°Ĺà°² à°Ĺà°²
Ġ18 70
Ġ18 57
Ġ50 8
à°ķà°¸ à°°à°¤
à°ªà°¬à°¡ à°°
à°ªà°°à°ļ à°µà°²à°¸
Ġ40 2
à°¨à°Ĺ à°°à°µ
à°®à°Ĺ à°ª
Ġà°Ńà°¯à°ªà°¡ à°¦
Ġà°Ńà°¯à°ªà°¡ à°µà°²à°¸
or ter
à°Łà°¤ à°²à°¨
ĠS SL
Ġ26 1
en a
el ect
45 6
Ġp ar
Ġp oll
ed it
ĠD O
Ġ48 8
26 3
à°¦à°ķà°° à°¸
Ġ36 4
Ġ36 7
ĠH g
Ġo ption
Ġf rame
77 9
Ġà°¤à°²à°ªà°¡ à°¡
Ġa ir
ov ie
à°¾à°Ĥ? "
79 7
Ġà°ķà°¨à°ªà°¡ à°µ
Ġà°Ńà°°à°¤ à°®
88 8
ri ver
98 1
09 1
89 4
Ġr ad
ex ual
ne w
ev i
ev en
ud d
ĠFirefox à°¨
ep t
pl in
ÂłÂł Âł
SO UND
à°¨à°Łà°¨ à°ķ
hy a
ma x
ear s
sh ow
Ġà°Ĩà°Ń à°°à°£à°®
Ġcont rol
ÙĦØ ¹
ĠRec ipe
des ktop
maz on
Ġà°Ĺà°ľà°Ĺ à°ľà°²
+ )
0 20
0 14
0 27
0 66
0 61
0 67
0 73
0 89
3 28
4 23
5 31
5 68
6 19
7 13
7 17
7 24
9 35
9 65
9 37
A nd
C H
C T
F B
F ran
G F
G I
I BM
J o
S cript
S QL
T o
U SA
W orld
c is
d omain
j ob
l ess
l oad
r ing
s up
s erv
v en
} ""
ã Ĥ
Ġ ï
à°² à°·à°ķ
à°¦ à°±
à°Ł à°Ĺà°²à°¦
à°µ à°·à°£
à°µ à°¶à°®
à°® à°Ĺà°°
à°® à°¡à°Ĺ
à±Ģ à±Ģ
à°Ĺ à°Ĺà°²
à°Ĺ à°¤à°®à°¯
Ġà°µ à°µ
âĢĮ `
Ġà°® à°¡à°¤à°²
Ġà°ļ à°²à°µ
Ġà°¨ à°²à°Ĺ
à°· à°¯à°²
à°ľ à°ªà°¤
à±Ī à°Ĥ.
à°§ à°¡
à°¬ à°²à°°
Ġà°ī à°¤à°ķ
Ġà°¦ à°¯à°ķ
à°Ń à°£à°¤
Ġà°İ à°ªà°°
Ġà°İ à°İà°²
Ġà°ľ à°µà°²
Ġà°ľ à°¹à°¨
à°¥ à°µà°°
à°¥ à°²à°¯
à°³ à°¨à°ª
à°²à°¨ à°²à°¨
à°ĩ à°İà°®
Ġà°¶ à°¯
Ġà°¹ à°¦à°¦
à°ĸ à°ªà°°
à°« à°·
Ġà°ı à°µà°Ĺ
à°°à°ķ à°ļ
à°ķà°° à°¦
à°¿, âĢĻ
à°¯à°ķ à°¤à°ª
à°®à°¨ à°µà°³
Ġà°ľà°° à°ªà°ķ
Ġà°ħà°µ à°¤à°²à°¨
à°¯à°² à°Ń
à°¨à°Ł à°²
à°¸à°° à°ļà°¨
à°ªà°¤ à°Ĺ
à°¯à°µ à°¨à°°
à°°à°µ à°³
à°·à°¯ à°ª
à°µà°¡ à°¡
Ġà°¤à°¨ à°ªà°¨
à°ľà°¨ à°ķà°®
à°²à°¤ à°Ł
Ġà°Ĳ à°Ĳà°ª
à°Ĵ à°İà°«
Ġà°ħà°¸ à°¨
à°ī à°®à°°
à°¨à°ķ à°Ń
Ġ4 68
Ġ5 99
à°®à°ķ à°°à°®
à°®à°ķ à°¤à°ķ
ĠâĢĺ .
à°ªà°² à°Ĺ
Ġ6 500
Ġ6 47
Ġà°ĺ à°¨à°¨
Ġ7 99
à°ľà°® à°£
50 3
Ġ8 10
à°µà°°à°£ à°¤
à°µà°°à°£ à°ª
Ġ19 15
Ġà°ķà°³ à°²à°²
Ġà°Ĭ à°¦à°°à°Ĺ
Ġà°Ĩà°¡ à°Łà°®
à±Ĥ, ""
à°ķà°Ĺ à°£
à°Ĥ: -
à±įâĢĮâĢĮ )
Ġ50 3
70 7
on y
re w
re ak
or ial
75 6
ĠS a
ĠA u
ic es
it t
ĠI T
90 3
ĠM ed
Ġs q
Ġs erv
Ġs ays
ĠN orth
Ġc c
ad e
45 1
45 2
45 5
ĠB a
ĠB MI
Ġà°ľà°¤ à°ªà°¨
à°¨à°¬à°¡ à°¨
47 7
Ġo pen
ac y
Ġf ilm
Ġb i
Ġb it
Ġd ata
95 6
un der
Ġ38 9
Ġà°Ŀ à°°
36 1
64 1
39 7
Ġ64 2
Ġ55 4
Ġà°¬à°²à°ªà°° à°ļà°¬à°¡
Ġh y
Ġh er
Ġ39 4
56 1
ra y
79 4
Ġv ector
88 9
od ay
Ġre g
Ġà°ħà°²à°¸ à°Łà°ķ
for d
Ġà°®à°¦à°° à°¸
ix ed
NA ME
Ġe ar
ult s
uc ation
ĠÎ ²
ĠBS D
à°¦à°¹à°¨ à°¬à°²
Ġà°ľà°²à°ķ à°³
Ġtr ump
UC N
Ġà°¸à°¤à°¤ à°¹à°°
oh li
ese Detail
Ġcustom er
ĠService Work
Ġaf ter
PressRel eseDetail
ĠServiceWork er
0 95
3 45
4 34
5 77
5 44
6 72
7 14
7 75
8 32
9 33
9 76
A g
B JP
F l
F AT
G M
K R
L P
M T
O D
O r
b ack
c a
c up
j un
r ate
t ical
Â ©
Î ¼
Ð ½
Ġ Ù
Ġ use
à°° à°¥à°ķ
à°ķ à°¤à°²à°¤
à±ĩ à±Ĩ
à°ª à°Łà°¨
à°Ĺ à°Łà°®
Ġà°ķ à°®à°¤
Ġà°® à°ķà°°à°®
Ġà°® à°¡à°ķà°¶
Ġà°ħ à°¸à°°
Ġà°ħ à°¹à°¨
à°¶ à°¯à°µ
à°¶ à°°à°¨
Ġà°Ĩ à°µà°¨
à±ģà°Ĥ ,
Ġà°¦ à°µà°¡à°²
Ġà°Ĺ à°¡à°µà°ķ
Ġà°ľ à°²à°¯
à°¥ à°¤à°²
à°¥ à°¨à°¤
à±Ĩà°Ĥ :
à°µà°° à°¦à°²à°ķ
à°İ à°Ĳà°İ
Ġà°¹ à°¸à°°
à°¯à°¨ à°¦
Ġà°ı à°°à°ķ
à°°à°ķ à°Ĺ
à°Łà°° à°¸
à°Łà°¨ à°¨
à±Į .
à°ªà°¡ à°Ĺà°²à°¦
00 4
à°¬à°¡ à°µà°²
à°°à°¯ à°ªà°¡
à°¯à°µ à°²à°¨
Ġà°®à°¨ à°ļ
Ġà°§ à°µ
Ġà°ĸ à°¤à°°
à°°à°¨ à°·
à°Ĺà°¤ à°®à°¨
Ġà°Ĩà°® à°¦
à°¨à°° à°¹à°¤
Ġà°īà°¤ à°ķà°¡
à°ķà°ª à°¨
à°ĺ à°¨à°®
Ġà°ķà°° à°Ĺà°¡
Ġ5 25
Ġ5 24
Ġ5 66
""" :
à°¢ à°ªà°°
à°¯à°ªà°¡ à°Ĺà°²à°°
à°ŀ à°°
à°İà°¨ à°Ń
à°ķà°Ł à°°à°¤
à±į- âĢĮ
à°²à°Ĺ à°®à°¨
Ġà°Ĩà°¡ à°Ĺà°²
Ġà°Ĩà°ķ à°³
Ġà°¨à°µ à°²à°ķ
à°²à°Ń à°°
Ġà°®à°¤ à°ķà°°
à°°à°³ à°²à°²
99 6
Ġà°ľà°°à°Ĺ à°¨à°Ł
à°± à°Ĺ
re et
40 1
Ġ0 11
60 8
al ly
80 5
80 6
ĠA BS
24 7
ĠM ot
ĠM ore
Ġs on
ĠU I
ĠU FS
à°Ĩà°ª à°¦à°²
ad u
ĠP ie
Ġ33 1
à°¨à°¬à°¡ à°ķ
48 6
à°Ĳà°İ à°İà°¸
Ġ48 5
Ġ48 6
ĠH z
ĠH ar
Ġo pt
Ġf irst
85 7
85 9
Ġ| -
55 7
36 8
36 9
id er
64 6
Ġl ist
Ġl aw
ul us
ĠâĢ¦ ?
ir th
Ġà°ħà°²à°¸ à°Łà°¨
Ġà°°à°¥ à°¸
ia omi
Ġà°¨à°°à°ķ à°¬à°¡
ant s
Ġth ro
Ġme n
BM I
erv o
à°¨à°Łà°¨ à°²
Ġsc am
ĠCh ina
UN IX
ĠAr t
Ġcol lection
eal th
expos ed
Un ix
Ġte am
Ġint o
amil y
evel op
iter ature
Ġcommun ication
Ġà°¤à°³à°¤ à°³à°²
) ...
0 22
0 23
2 300
3 12
5 24
5 27
6 25
6 11
6 35
8 22
8 44
8 69
A L
A b
D r
E FA
G C
G R
I B
J NU
N E
R F
S c
T H
b e
c oron
c ategory
d a
i er
k a
m ark
p a
p res
t urbines
Ö Ģ
Ø ³
â ĨĴ
à°² à°µà°¸
à°² à°§à°°
à°¦ à°¦à°µ
à±ĩ "
à°¸ à°¶
à°¸ à°²à°®
à°® à°¯à°¸
à°® à°Ńà°¦
à°¡ à°ªà°¨
à°Ĺ à°¨à°Ł
à°ļ à°¶
à°ļ à°°à°¸
à±Ĩ ""
Ġà°¸ à°¦à°¨
Ġà°µ à°¨à°¦
à°ľ à°®à°²
à±Ī âĢĵ
Ġà°° à°ľà°¸
à°¬ à°°à°¨
à°¹ à°¡à°²
à°£ à°Ĺà°£
Ġà°¦ à°£
Ġà°¦ à°®à°¨
Ġà°¬ à°¨à°¸
à°Ń à°¨à°¨
Ġà°İ à°Ĳà°İà°¸
Ġà°ĩ à°¨à°¸
Ġà°Ĺ à°ľà°°
à°ħ à°¹à°®
à°¥ à°¨à°¯
à°³ à°¨à°®
Ġà°Ń à°®
Ġà°¶ à°¤à°®
Ġà°Ī à°¤à°°
Ġà°Ī à°¯à°¬à°¡
à°Ĩ à°µà°ª
à°°à°® à°ļ
Ġà°¸à°® à°°à°µ
à°¤à°¨ à°Ĺ
à°¯à°² à°Ĺ
à°¸à°° à°³à°¤
00 5
à°®à°° à°µ
à°®à°° à°Ĺ
à°®à°° à°¹
à°¨à°¦ à°¯
à°¯à°° à°¹à°¦
à°·à°£ à°µ
à°·à°£ à°°à°¹
à°¨à°µ à°ª
à°¨à°µ à°²à°²
Ġà°Ĳ à°Ĳà°¸
à°¯à°¤ à°²à°²
Ġà°ªà°¡ à°µà°²à°¨
à°Ĵ à°Ĩà°°
Ġ20 26
Ġ4 19
Ġ4 500
Ġ4 13
Ġ4 47
Ġ5 55
à°Ĵà°ķ à°³
à°¢ à°²
à°¸à°® à°ļ
19 10
19 02
à°¯à°ªà°¡ à°ķà°ª
Ġ6 74
à°µà°¸ à°²
à°²à°µ à°µ
Ġà°¨à°¡ à°¤à°²à°¨
Ġ19 16
Ġà°Ľ à°¸
à°Ľ à°¤à°ķ
à°ĵ à°ĵ
à°ªà°£ à°Ĺ
Ġ"" {
à°³à°² à°¦
à°ķà°¤ à°Ł
à°¿) ."
.. ...
Ġà°®à°² à°ļà°¬à°¡
Ġ18 50
à°¸à°¹ à°ľà°µ
99 1
99 7
à°¹à°® à°¯
Ġà°Ķ à°²
Ġà°Ķ à°Łà°µ
Ġà°ľà°² à°¸à°®
à°¯à°¸à°Ń à°¨
18 93
or por
al p
ĠC ount
ĠC ong
ar ge
à°°à°®à°£ à°¤
Ġt able
ĠS outh
en ter
en se
ĠI t
Ġà°¨à°°à°¸ à°¯
ĠM ay
ĠT est
Ġs w
Ġm ass
ĠN S
ĠN RC
Ġc ross
Ġc ricket
ĠP RO
ĠP akistan
ĠG od
à°°à°ªà°° à°ļà°ķ
Ġ37 4
à°Ĳà°İ à°İà°«
Ġ48 9
à¤ §
à¤ ľ
33 9
Ġn on
un j
ol k
Ġ38 6
29 7
ig g
64 4
Ġ39 3
à°Ķ à°·
56 7
Ġà°¬à°²à°ªà°¡ à°¡
ĠK h
Ġà°ĭ à°£à°®
98 9
à±ĢâĢ¦ ?
ft ware
ak er
à°°à°Ĺà°² à°¦à°¨
SA ID
Ġy our
Ġth ree
à°¾.. ?
Ġen d
ace book
Ġ... ...
Ġun its
Ġle vel
IM F
Brand FullName
hem ical
ris hn
uro pe
redi ents
ĠIng redients
0 64
0 42
2 200
3 35
5 32
6 13
8 72
8 68
9 47
9 69
E ng
G P
H DL
O P
T el
T est
U P
d ict
e op
t i
t rans
y p
Â ¸
Õ ¸
Ġ âĢĮ,
à°° à°¬à°°
à°¤ à°Ĺà°²à°µ
à°¦ à°§
à°Ł à°¤à°ª
à°µ à°Ĺà°¤
à°® à°¯à°°
à°® à°¡à°¤
à°® à°ªà°°à°ļà°¬à°¡
à°Ĺ à°¨à°®à°²
Ġà°ķ à°¡à°µ
Ġà°µ à°ªà°¨
Ġà°µ à°¡à°¬
Ġà°ħ à°ļà°²
à±Ĥ "
à°· à°ķà°²
à°§ à°Ĺà°²à°µ
à°¬ à°ķà°°
à°¹ à°¸à°µ
à°£ à°ķà°²
à°£ à°¨à°¨
Ġà°ľ à°¨à°µ
à°²à°ķ à°¬
à°İ à°ļ
Ġà°¹ à°ľà°²
à°ĸ à°²à°ª
à°°à°® à°ľ
Ġà°®à°° à°²à°ķ
Ġà°ı à°µà°¨
Ġà°ı à°ķà°²à°µ
Ġà°Ĵ à°İà°¸
à°ķà°° à°Ńà°Ł
à°¯à°ķ à°£
à°¤à°¨ à°ªà°°à°ļà°¬à°¡
Ġà°ħà°§ à°®
Ġà°ķà°² à°¤à°ª
à°¯à°² à°µà°²à°¨
00 9
Ġà°§ à°Ĺ
Ġà°¨à°® à°²à°¡
à°°à°¦ à°¯
à°ı à°¦à°¨
Ġ3 45
à°²à°¯ à°®à°¨
à°¯à°¤ à°¯
à°ļà°° à°Ĺ
à°ĺ à°¨à°ª
à°ĺ à°¢
Ġà°ħà°¸ à°ķ
Ġ4 29
Ġà°¤à°² à°¬
Ġà°¤à°² à°¦à°¨
à°¡à°¨ à°¯
Ġà°§à°° à°Ĺ
Ġ6 66
Ġà°Ĩà°¶ à°²à°ª
à°µà°ķ à°µ
à°µà°ķ à°³
à°¸à°² à°µ
Ġ7 80
Ġ7 49
Ġà°¬à°² à°®à°¨
à°µà°°à°£ à°²à°¨
Ġà°ķà°¥ à°¨à°®
Ġ19 12
Ġ19 05
Ġà°Ĭ à°ļ
Ġà°Ĭ à°ľ
à°ķà°® à°¤à°®
Ġ9 90
Ġà°ħà°Ĺ à°ļ
Ġà°ħà°Ĺ à°ªà°¡
Ġà°Ĩà°ª à°Ĺà°²
in o
à±įâĢĭ âĢĵ
30 7
à°¥à°¨ à°Ĺ
21 1
à°īà°ª à°İà°¨
Ġà°ķà°¤ à°¡
75 7
Ġt er
Ġà°Ĩà°¦à°° à°£à°¤
ĠS ingh
ĠM D
ĠM M
ĠM LA
ĠN ATO
à±į"" ?"
ad ha
ĠP ar
Ġp ower
Ġp opulation
le y
le an
ĠB E
à°Ĭ à°¡
à°Ĭ à°°à°ķ
Ġà°®à°® à°¤à°ķ
Ġ45 5
à°Ĳà°ķ à°®à°¤
di mensional
à°ķà°¥ à°²à°¨
ame nt
Ġ34 4
85 1
Ġb o
Ġb ec
Ġb eta
Ġd ot
95 2
à°ħà°µà°¸à°°à°® à°¯
ĠE S
ĠE l
ĠV PN
ĠL CD
Ġà°µà°°à°¦à°² à°ª
77 6
34 6
ĠX P
ĠX S
ĠX Z
Ġw orld
ov er
Ġl ong
Ġl aun
56 6
66 1
à°ıà°ı à°Ĳ
Ġv i
Ġà°µà°¦à°² à°Ł
88 3
Ġà°Ĩà°ļà°°à°£ à°¯
à°¿'' .
os h
qu estion
ure d
Ġà°ķà°²à°Ĺ à°ķà°®
Ġà°¨à°¡à°µ à°Ĺà°²
à°ĩà°Ĵ à°Ĺ
Ġà¤ ¸
Ġpp m
cl us
Ġsp eed
PC L
pro tocol
ĠUK à°²
rad ial
co hort
cy cl
Ġmet res
fer ence
Ġà°¤à°¡à°ķ à°Ĺà°²
ava Script
Des cription
Ġsched ule
ransp ort
ervo ir
unj ab
" à°Ĥ
' :
0 21
0 65
0 48
0 38
5 21
5 14
6 45
6 37
7 25
7 27
8 26
8 42
9 22
9 13
B T
D NA
M y
N T
O T
R GB
S elf
S MART
W C
c ome
c os
f l
g mail
n ot
u ary
É ª
Ġ à±ģ
Ġ à±įâĢĮ
Ġ Ùħ
à°¨ à°¨à°Ł
à°² à°ľà°¨
à°ķ à°µà°¨
à°¯ à°¹à°¤
à°Ł à°¬à°¯
à°ª à°¶à°ķ
à°® à°²à°ªà°²
à°¡ à°¨à°²
à±Ģ "
à°Ĺ à°¨à°®
à°Ĺ à°ķà°¯
à°Ĺ à°¤à°¨à°®
à±Ĩ à±ĩ
Ġà°ķ à°¡à°ķ
Ġà°® à°łà°®
à°¿à°Ĥ âĢį
Ġà°ħ à°³
à°¿. -
à°· à°Ńà°®
à°· à°Ĺà°Ł
à°· à°«à°²à°®
Ġà°¤ à°¬à°²
à°§ à°®à°¨à°¸
à°¬ à°ķà°²à°¹
à°£ à°²à°¨
à°Ń à°ľà°°
Ġà°ĩ à°İ
à°ħ à°¡à°Ĺà°¡
à°¥ à°¶à°¤à°ķ
à°²à°¨ à°¬à°¡
Ġà°ħà°¨ à°Ĺà°²
Ġà°Ń à°Ĺà°²
Ġà°Ī à°Ĺà°°
Ġà°Ī à°ªà°¦
à°°à°¤ à°°à°®à°µ
Ġà°¹ à°°à°¨
à°Ĩ à°Łà°ķ
à°Ĩ à°ļà°°
à°¯à°¨ à°µ
à°¯à°ķ à°®à°Ĺ
Ġà°ľà°° à°ªà°¬
à±ĭà°Ĥ âĢĻ
à°²à°² à°µà°²
à°°à°µ à°ķà°ª
à±Ģà°Ĥ âĢĻ
à°°à°¦ à°ľà°²
Ġà°ļà°° à°°
à°°à°¨ à°Ĺ
à°ı à°®à°¨à°Ĺ
à°¶à°ķ à°¤à°ķ
à°·à°£ à°Ĺà°²à°µ
à°¨à°µ à°Ń
Ġà°¤à°® à°²à°ª
Ġà°ªà°Ł à°®à°Ł
à°¤à°ķ à°°à°®
à°Łà°ķ à°¯
à°¨à°ª à°ķ
Ġà°ħà°ª à°¦
à°Ĵ à°«
Ġà°¤à°Ĺ à°Ł
Ġ5 45
Ġà°Ĩà°§ à°°
à°ļà°¬à°¡ à°¦à°Ĺ
Ġà°İà°µà°° à°¦
à°¯à°ªà°¡ à°¨
Ġà°¨à°° à°¹à°°
à°°à°¹ à°¶à°ķà°²
à°ħà°ª à°ľà°¯
à°ªà°¨ à°Ĺ
Ġ7 70
Ġ7 12
Ġ7 68
Ġ8 40
Ġ8 80
Ġ8 54
Ġ, .
à°ĵ à°¡à°°
Ġà°Ĭ à°°à°µ
Ġ9 71
à°·à°ķ à°µ
à°ªà°¦ à°²à°ķ
Ġà°°à°µ à°³
Ġà°Ĩà°¡ à°¬à°¡
à°¨à°¡ à°µà°¡
âĢĿ ,
à°·à°® à°µ
à°Ĺà°¡ à°¤
à°Ĺà°¸ à°Ĺà°¸
Ġà°Ĩà°ª à°®à°¨
in ess
Ġ50 7
Ġ50 89
à°¹à°¤ à°¤
à°§à°µ à°³
Ġ40 4
Ġà°ľà°² à°§
à°¨à°¹ à°¸
Ġà°¸à°¬ à°¬à°¨
al oo
ĠC ity
ar get
à°·à°²à°ķ à°¨
75 8
ĠS olaris
Ġ26 00
ic y
en u
à°Ńà°¦ à°¶à°²
Ġ35 7
Ġà°°à°£ à°Ń
ĠR el
ĠR SS
à°²à°¬à°¡ à°Ĺà°²
ĠP S
Ġp etrol
Ġp si
ĠB rit
ĠâĢĮ âĢĮ
ĠD e
Ġà°ľà°°à°Ĺà°¡ à°®
48 9
and ard
ĠH yderabad
Ġf ree
th ing
Ġd ec
37 2
ol id
ĠV S
ĠV is
Ġ38 2
à°¤à°ªà°¡ à°¨
id ence
39 2
34 3
78 8
76 1
Ġg ood
à°Ĥ( _
79 1
Ġ` .
à±ģ'' .
à±įâĢĿ ,
ID S
98 6
os p
à°¨à°µà°° à°¤
09 2
ap lan
qu est
ex ternal
IP S
op e
av er
à°Ĺà°ķà°°à°® à°¨
ev ed
Ġà°ıà°¡à°µ à°Ł
à°¸à°µà°°à°£ à°²
à² ®
à² ¾
Ġac c
ith u
ime t
ĠUn iversity
han k
Ġat t
BA BLE
Ġmin ister
Ġro ck
Ġà°¸à°«à°²à°® à°Ĺ
Ġwh isk
à±įâĢĮâĢĮâĢĮ âĢĮ,
ĠâĪ Ļ
eric an
PP O
Ġman agement
Ġà°ħà°¦à°° à°¹
Ġspecification s
Ġred dy
Ġdies el
kin etic
iction ary
effic ient
technical query
0 19
0 98
0 86
3 18
4 13
5 16
5 17
5 95
6 24
6 65
6 31
8 28
8 49
9 74
D i
D el
F I
H I
I SL
L I
L TE
P r
T e
T RS
X T
] ,
b ird
g as
l l
p ect
s ection
v avir
w ood
x y
Î ¯
Ñ ģ
æ Ħ
Ġ ir
à°° à°¹à°¨
à°¨ à°Ńà°°
à°Ĥ &
à°ķ à°¨à°²
à°ķ à°ķà°Ł
à°¤ à°¶à°ķ
à±ĩ âĢĵ
à°ª à°¨à°Ł
à°ª à°ĺ
à°µ à°ªà°¡à°¤
à°® à°°à°¤
à°® à°¯à°¤
à°¡ à°¯à°²
à°¡ à°¯à°¬
à±Ģ âĢĭ
à±Ģ ''
à°Ĺ à°ªà°¦
à°ļ à°®à°²
à°ļ à°Łà°ªà°¡
à±Ĩ âĢ¦
Ġà°ķ à°Ń
Ġà°ķ à°ľà°Ĺ
Ġà°® à°Ĺà°¦
Ġà°ħ à°°à°®à°°
à°ľ à°²à°²
à°ľ à°²à°µà°£
à°¹ à°¦à°ķ
à°¹ à°¸à°ķ
Ġà°ī à°¬à°²
Ġà°¦ à°¯à°¯
à°Ń à°«à°²
Ġà°ľ à°Ĺà°ľ
Ġà°ľ à°µà°¸à°¤
à°²à°¨ à°ļ
Ġà°ħà°¨ à°µ
Ġà°ħà°¨ à°¬
à°²à°ķ à°¸
à°²à°ķ à°ªà°ķ
à°Ī à°«
à°Ī à°²à°²
à°Ī à°¡à°¬
à±ģ, âĢľ
Ġà°Ī à°Ĩà°°
à°°à°¤ à°µ
Ġà°¹ à°·à°¬
à°Ĩ à°¶à°¯
à°¯à°¨ à°Ĺ
Ġà°®à°° à°Ĺà°¨
Ġà°Ł à°Ĺ
à°ķà°° à°ļ
à±į, ""
Ġà°Ĵà°ķ à°ķ
à°¤à°° à°¸
à°¯à°® à°¦
Ġ( )
Ġ( *
à°ħà°¯ à°¸
à°®à°° à°¯
à°ªà°° à°ļà°µà°ļ
à°¦à°² à°²à°¨
Ġà°· à°¯à°²
Ġà°ķà°¨ à°ªà°°à°ļ
âĢĻ -
à°Ĳ à°Ĳà°Ĳà°Ł
à±ĩ. """
Ġà°Ĩà°® à°§
à°ı à°Īà°ķ
à°µà°¤ à°¸
à°¤à°ķ à°®à°¨
à°ľà°° à°Ĺà°¬
à±Ĩà±ĸ -
à±Ĩà±ĸ à±į
Ġà°¤à°Ĺ à°²à°²
Ġ4 38
à°ªà°ķ à°¶
à°®à°ķ à°¥à°¨
Ġà°¤à°ª à°¨à°¤
à°ķà°¨ à°¬à°¡
19 27
Ġ6 10
Ġà°®à°°à°£ à°®à°µ
Ġà°ĺ à°Łà°®
Ġ7 22
à°ķà°°à°£ à°¦
Ġ19 03
Ġ19 06
Ġà°ķà°³ à°Ĺ
à°°à°Ĺ à°¸
Ġà°Ĩà°Ł à°¸
Ġ9 18
Ġ9 69
Ġ9 61
à°¨à°¤ à°²à°ķ
à°ªà°¦ à°®à°µ
Ġ' ,
à°ļà°ķ à°¯
Ġà°¹à°¤ à°¸
Ġà°®à°¤ à°¬
à°¹à°°à°£ à°²à°¤
Ġ18 98
Ġ18 97
in ation
Ġ24 00
à°Ĺà°µ à°µ
à°Ĺà°Ł à°®à°¨
à°®à°¸ à°¤
on der
Ġà°İà°° à°Ĺà°¨
à°°à°ªà°¡ à°¦
re g
à±įâĢĮ) -
à°¯à°¤à°² à°ª
à°§à°ªà°¡ à°µà°ļ
à±į' âĢĮ
al t
al th
ĠS u
ĠS un
ĠA A
Ġà°¸à°µà°°à°£ à°¤
en umber
Ġ70 1
ĠI UD
90 5
ĠT R
Ġs m
el plin
ĠN e
à°Ńà°ľà°¨ à°²à°¨
Ġ500 00
à°Ńà°¯ à°Ń
45 4
ĠP re
ĠB o
65 3
à°Ĺà°ªà°¡ à°¦
ĠG o
ĠD ev
48 1
Ġ48 2
ĠH istory
Ġf eet
Ġd L
Ġd oll
ĠV R
id es
49 4
38 8
Ġw oman
66 3
79 2
ri me
ir l
ay a
98 2
iv ity
ap s
Ġà°ħà°¨à°µà°¸à°° à°ª
ist ry
Ġfor ces
oun g
à°İà°Ĳ à°İà°«
à±ĩà°Ĥ? "
MA N
Ġcom p
à±įâĢĮ` `
à® °
à¦ °
TC S
à°²à°¬à°° à°ļ
ÂłÂł ÂłÂł
out ube
pro duct
Ġit s
RO M
Ġra j
val ence
à³ ģ
à°ĩà°°à°µ à°¯
ĠGDP à°²
Ġmod el
ĠCom ment
ĠAnd hra
ush elplin
rot or
ool s
ĠÂłĠÂłĠÂłĠÂł ĠÂłĠÂłĠÂłĠÂł
ats App
Ġà°Ĺà°¡à°µ à°ķà°®
ĠNA SA
Sp ot
Ġsign al
Ġet c
Ġob ject
ĠCol le
atab ase
cav itation
Â§à±įâĢĮ à±ģ,
Ġà°īà°Ńà°¯à°¸à°Ń à°²à°¨
evelop ment
coron vavir
ushelplin enumber
coronvavir ushelplinenumber
, .
0 60
0 33
0 77
0 78
0 74
3 300
4 11
4 36
5 18
5 65
5 47
7 16
7 44
8 19
8 48
8 46
9 44
A B
N et
N ational
Q Shortcut
R et
S MS
c al
g uide
n ic
p ilot
s k
u ps
v an
v iron
¶ ÙĦØ¹
Å Ĵ
Ð º
Ġ ent
Ġ also
Ġà° Ļ
à°¨ à°¯à°ķ
à°¨ à°Łà°°
à°¦ à°Ĺà°¡
à±ĩ à±ģ
à°® à°µà°¤
à°® à°Ĺà°²à°°
à°Ĺ à°Łà°¨
à°Ĺ à°²à°¨à°¨
âĢĮ à°Ĥ,
Ġà°® à°ħà°¤
Ġà°ļ à°ķà°¨
à±ģ. âĢĿ
à°¿. ""
à°ľ à°«
à°ľ à°°à°¦
à°ľ à°¬à°°
à°¶ à°ļà°°
Ġà°Ĩ à°¡à°°
à°¹ à°·
Ġà°¦ à°¯à°ª
Ġà°İ à°²à°¨
Ġà°İ à°İà°ª
Ġà°İ à°Ĳà°İà°«
Ġà°ľ à°ªà°®
Ġà°ħà°¨ à°ª
à°²à°ķ à°®à°¯
à°Ī à°İà°®
Ġà°Ī à°°à°¨
Ġà°Ī à°®à°¦
à°İ à°µà°²
Ġà°¹ à°ļ
Ġà°¹ à°¤à°®à°µ
Ġà°¹ à°ľà°°à°µ
Ġà°¯ à°«
Ġà°¯ à°°à°ªà°¤
Ġà°ªà°° à°ļà°Ł
à°°à°ķ à°³à°²
à°¦à°¨ à°¦
à°°à°Ń à°¤
à°°à°Ń à°µ
à°µà°² à°¸à°°
à°¸à°° à°Ł
Ġà°Ĩà°¯à°¨ à°Ĺ
à°°à°§ à°®à°¸
Ġà°· à°·
à°ľà°¨ à°¦
Ġà°®à°¹ à°¨à°¯
à±ĩ. ...
à°¶à°ķ à°°à°¤
à±į. ,
à°Ĵ à°ľ
à°¨à°¸ à°®à°¯
à°ī à°µ
Ġà°ħà°¡ à°Ĺà°®à°¨
Ġ5 26
Ġ5 77
Ġà°¸à°®à°¯ à°¸
à°Ĩà°¯à°¨ à°®
19 05
19 09
19 06
à°ŀ à°¤à°²à°¨
à°¶à°ķà°¤ à°¤
à°ķà°Ł à°²à°ķ
Ġà°µà°² à°µà°¨
à°µà°ķ à°¯
Ġ7 93
Ġ8 30
Ġ8 500
Ġ8 29
à°¦à°µ à°¯
Ġà°Ĩà°Ł à°²à°ķ
à°·à°ķ à°°à°®à°¨
à°µà°¦ à°²à°ķ
à°°à°ķà°Łà°¨ à°²à°ª
Ġà°Ĺà°¡ à°ªà°ķ
à°¶à°¨ à°Ĺà°²
à°Ĺà°³ à°°
à°ļà°¯ à°ªà°°
à°ļà°¯ à°ªà°°à°ļ
à°¯à°Ĺ à°¢
70 4
à°ªà°¬à°¡ à°Ł
à°ħà°¸à°² à°¦
à°¯à°Łà°¨ à°²à°¨
Ġà°Ĭà°¹ à°²à°ķ
ĠC har
ar am
Ġà°ħà°°à°µ à°ķ
Ġ60 1
80 3
en e
Ġà°¸à°¹à°ľ à°®à°¨
90 7
à°ķà°³ à°¤
ĠM ah
ĠT CP
Ġs hort
ĠR ev
ĠR ao
à°²à°¬à°¡ à°¦
ĠU EFA
Ġc al
Ġc os
le ar
ĠB r
Ġà°ľà°¤ à°ķà°¡
ĠD ay
48 5
Ġ48 7
47 9
Ġ75 7
Ġf our
Ġf act
85 2
à¤ ¬
Ġb ar
om ic
Ġn ational
Ġà°ķà°¨à°¬à°° à°ļà°²
Ġd x
Ġd el
Ġd ep
Ġd omain
Ġd eath
ĠV X
ur u
ĠL IC
id ae
64 3
à°ķà°¬à°¡ à°¤
78 7
76 3
46 8
Ġl ife
Ġh p
Ġh yderabad
Ġ39 2
Ġ39 61
68 7
79 8
58 1
ul es
69 7
Ġ58 3
Ġ58 6
05 9
88 4
ab ility
Ġre l
Al l
Ġà°ľà°¨à°¨ à°®
ist s
ist ics
à°¶à°¦ à°ªà°°
à±ĢâĢ¦ !
IC S
Ġà°¦à°¹ à°¨à°®
ill i
à°ħà°¯à°¨ à°ķ
Ġà°¸à°ķà°² à°µ
Ġà°¨à°°à°ķ à°ª
ib r
AT A
Ġth ere
Ġme chan
per t
à°ĭ à°·
Ġun der
PC I
ern et
ern ment
Ġà°Ĭà°°à°ķ à°¯
ĠAr ch
à¯ ģ
Ġel ect
ĠMP EG
ĠCA A
ĠSo ftware
tri angle
ĠRes earch
ĠServ er
ĠTelang ana
________________ ________________
Ġkil led
ĠJo hn
lim it
rishn a
) '
/ )
0 40
0 26
0 32
0 69
0 52
0 84
4 31
5 64
5 46
6 29
8 65
8 34
9 79
9 63
A II
G DP
I OS
M ah
O n
S ync
W TO
Y C
Z n
a ho
d b
d ition
g es
g roup
h p
o ther
p ower
r pm
s w
s hi
s ampling
w a
y le
{ {
Å ł
Ø ª
Ġ q
Ġ es
à°¨ à°Ĭà°ª
à°¤ à°¤à°²à°ª
à°¦ à°Łà°®
à±ĭ âĢľ
à°Ł à°°à°ķ
à°µ à°ªà°¦
à°µ à°ľà°¨à°®
à°® à°ĺ
à°® à°Ĺà°³
à°¡ à°¸à°¨
à°ļ à°¯à°ª
Ġà°ķ à°£à°¤
Ġà°µ à°¸à°°
à°ľ à°²à°°
à±Ī ""
à±Ī à°ĥ
à°§ à°¹à°¸
à°§ à°°à°£à°¨
à°¬ à°¨à°¨
à±ģà°Ĥ à°Ĥ
à°¹ à°ķà°®
Ġà°ī à°®à°¯
à°£ à°²à°²
Ġà°ĩ à°§
Ġà°ľ à°®à°ķ
à°¾à°Ĥ (
à°¾à°Ĥ âĢĺ
à°¥ à°¤à°ª
à°¥ à°ªà°°à°ļà°¬à°¡
Ġà°ħà°¨ à°µà°²
à°²à°ķ à°¯
à°µà°° à°¹
à°°à°¤ à°²à°ª
à°İ à°·
Ġà°¹ à°¥
à°Ĩ à°Ĺà°®
à°ĸ à°¤à°¨
à°°à°® à°°à°¹
Ġà°ı à°Ĺ
Ġà°ı à°¡à°µà°¦
Ġà°¸à°® à°§
Ġà°¸à°® à°īà°ľ
à°®à°¨ à°ļ
Ġà°ħà°µ à°ª
à°ªà°¡ à°µà°²à°¸
à°®à°° à°§
à°ķà°¡ à°ªà°¡
Ġà°İà°¨ à°¬
à°¤à°® à°ļ
à°¤à°® à°²à°ª
Ġà°ĵ à°®à°¨
Ġà°· à°¨à°ķ
Ġà°ķà°¨ à°ķà°ª
à°ľà°¨ à°µ
Ġà°ħà°¯ à°¤
Ġà°¸à°° à°¦à°Ĺ
à°°à°ª à°°à°®
Ġà°Ĩà°® à°¡
à°ı à°ķà°°
Ġà°µà°° à°¹
Ġà°¤à°® à°¯
Ġà°īà°ª à°¦à°°
Ġà°®à°§ à°¨
Ġà°īà°¦ à°ľà°¨
à°²à°® à°¡
Ġ4 79
Ġ5 65
à°¥à°² à°¦
à°®à°ķ à°ķ
à°®à°ķ à°·
à°®à°ķ à°¥à°¤
à°®à°¤ à°®à°¨
à°®à°¹ à°ķ
Ġà°ħà°µà°¸à°° à°ªà°¡
Ġ6 24
Ġà°µà°² à°¦
Ġà°µà°² à°¯à°®
à°¿: "
à°¦à°µ à°µ
Ġ19 04
à°Ľ à°µ
à°ĵ à°µà°²
Ġà°Ĭ à°¯à°²
à°ķà°® à°Ĺ
Ġ9 70
à°°à°ļ à°ķ
à°ħà°µ à°¶
à°®à°¦ à°¸
à°¡à°Ł à°®à°¨
à±įâĢĮ. "
à°ľà°² à°¸
à°ľà°² à°ľ
Ġà°ıà°ķ à°¦
à°ªà°¬à°¡ à°Ĺ
er it
an j
40 4
18 70
18 85
18 94
60 4
60 5
à°ķà°µ à°Ĺà°²
à°¬à°¤ à°ķà°¡
ĠA N
ĠA nt
it or
Ġà°¦à°¯ à°µà°²
ĠI Q
ĠM on
ĠM CLR
Ġs ize
Ġà°ļà°¦à°µ à°Ĺà°²à°°
ĠR R
ĠR NA
Ġm s
35 8
ĠN ot
Ġc ar
ĠP hoto
ĠP radesh
ĠB Y
à°ĺà°¨ à°²à°¨
65 9
ĠG P
ĠF D
ĠF R
ĠF IR
à°ķà°¥ à°Ĺ
à°¡à°Ĺà°² à°°à°¨
à¤ ¶
Ġb et
Ġb ook
Ġd em
Ġd own
37 4
55 1
55 2
55 4
ĠV II
Ġà°ķà°²à°µ à°®à°¨
ĠO b
ĠO f
id s
Ġ44 2
ĠW eb
38 9
46 2
46 9
Ġ39 6
à°Ĺà°µà°° à°ª
68 9
Ġà°ľà°²à°® à°Ł
à°¤à°ªà°° à°ļà°¬à°¡
56 2
56 9
à°ıà°ı à°İà°«
79 3
79 6
88 6
fo re
em ple
Ġ68 7
Ġà°®à°¡ à°®à°²
à±Ģ' ,
os ed
à±įâĢ¦ ?
ub b
Ġà°ķà°Łà°ķ à°®
ph y
à°¨à°Ĺà°² à°¡
pl ay
In dian
sp ec
Ġe qu
à°¬à°³ à°Ĺà°¨
Ġhe art
ru ct
Ġra hul
ĠCA R
MC X
Ġtri als
Int ernational
New ton
ett ings
Ġho op
ĠTr ump
ĠDR DO
miss ion
bab u
cel eration
vendor ShortName
Ġaut om
andra babu
ounc il
ven tion
under bird
Ġopt im
urope an
viron ment
) âĢĻ
0 12
0 76
6 68
7 36
7 38
7 34
8 16
8 33
8 37
8 64
8 61
9 49
9 41
D T
F O
L ist
N EE
O K
O ne
O pen
R N
S UMO
T ata
X ML
[ (
e i
f ul
g an
h u
h am
m M
m and
n umber
t ext
w ards
Â ¯
Î ½
Õ «
à µ
Ġ à±ģà°Ĥ
Ġ à¨
Ģ ª
à°² à°Ĺà°²à°°
à°¤ à°¸à°®
à°¤ à°¸à°°à°«à°°
à°¦ à°Ĺà°²à°µ
à°Ł à°µà°¡
à°Ł à°¡à°µ
à°¸ à°²à°ª
à°¸ à°Ĺà°¡
à°¸ à°µà°¦à°¤
à°µ à°ķà°Ł
à°® à°¤à°ķ
à°¡ à°®à°²
à°Ĺ à°¯à°¤
à°ļ à°²à°¯
à°ļ à°¤à°²à°ª
âĢ ¡
Ġà°ķ à°¬à°²
Ġà°µ à°°à°¸à°ķ
Ġà°® à°ª
à±ģ. \
Ġà°¨ à°¥
Ġà°¨ à°¤à°¨à°¯
à°· à°µà°²
à°· à°¸à°¨
à°ľ à°²à°µ
à°ľ à°Ĺà°®
à°¶ à°ľ
à°§ à°°à°¹
Ġà°Ĩ à°µà°Ĺ
à°¹ à°¥
Ġà°ī à°«
Ġà°İ à°İà°Ĳ
Ġà°Ĺ à°²à°Ĺ
Ġà°Ĺ à°¦à°®
Ġà°ľ à°¡à°²
à°¥ à°ľà°²
à°³ à°Ń
à°Ī à°Ĳà°İà°²
Ġà°¶ à°łà°Ĺ
Ġà°Ī à°²à°²
à°Ĩ à°¨à°ķ
à°ĸ à°®à°¯
à°« à°¥
Ġà°ı à°ªà°¨
Ġà°ı à°Ĳà°¡
Ġà°ªà°° à°ļà°Ĺ
Ġà°Ĵ à°°à°²
Ġà°¸à°® à°°à°¶
à°ķà°° à°¡
à°¦à°¨ à°²à°²
Ġà°Ĵà°ķ à°Ń
à°¤à°° à°Ĺ
à°¤à°° à°£à°¤
à°®à°¨ à°¶
ĠâĢ ¤
à°°à°Ń à°²
à°ªà°¡ à°®à°¨
à°¾, ...
à°°à°¯ à°¸
à°°à°¯ à°ªà°¤
à°¤à°® à°®à°¨
Ġà°ĵ à°¡à°Ĺ
Ġà°ĵ à°¡à°ķ
à°Ĳ à°ĵà°ı
Ġà°ªà°¨ à°¨
Ġà°Ĩà°¸ à°®à°¯
à°µà°¨ à°Ń
à°ı à°ĵ
à°·à°£ à°®à°¨
à°¨à°µ à°ļà°¨
Ġà°Ĳ à°ļà°°
à°µà°¤ à°®à°¨
Ġà°ªà°¡ à°¦à°¨
à°Ĵ à°¦
à°ł à°²à°¨
Ġà°ħà°¡ à°Ĺà°¦
Ġ5 90
Ġ5 36
Ġ5 76
Ġ5 44
à°®à°¤ à°²à°¨
à°ļà°¬à°¡ à°Ĺ
à°¢ à°¤à°¨
Ġà°¤à°² à°²à°¨
19 11
à±ģ: "
à°¡à°¨ à°¬à°¡
Ġ7 13
Ġ7 24
à°¿: %
à°¤à°µ à°¦
Ġ8 60
Ġ19 09
Ġ9 28
Ġ9 77
Ġ9 62
à°¨à°¤ à°ª
à°ªà°¦ à°¬
Ġ"" -
10 75
Ġ18 90
Ġ18 65
Ġà°¬à°¸ à°µà°¨
à°Ńà°® à°µà°¡
99 4
70 9
an aly
Ġà°ľà°°à°Ĺ à°¨à°ª
à°Łà°Ĺ à°²à°¨
à°± à°¬
à°¯à°Ĺà°² à°Ĺà°¡
re ens
at ory
Ġà°ľà°² à°°à°µ
Ġà°ĩà°³ à°µà°°à°¸
Ġà°ķà°¡ à°ªà°ķ
or a
ĠC I
à°¯à°¶ à°¸
ĠA ustralia
Ġà°¸à°µà°°à°£ à°ª
90 9
à°¤à°¡ à°¬à°¡
ĠM BA
ĠT echnology
Ġs ur
Ġs ho
ĠP ict
ĠB ost
ed d
ro und
ĠG PS
à°Īà°¯à°¨ à°¨
ĠD NS
Ġ48 1
Ġ75 1
32 7
Ġin di
Ġin dian
ame s
Ġf all
Ġb u
à°Łà°¬à°¡ à°²
Ġd ay
95 7
à°¨à°µà°¨ à°®
ĠE X
ĠE v
Ġà°¨à°Ĺ à°°à°®à°¨
ol ly
Ġ38 3
Ġ38 7
ur ing
à°¤à°ªà°¡ à°ķ
29 1
Ġà°¸à°°à°³ à°µ
ig ma
78 1
ĠX L
Ġw ater
Ġ55 2
46 3
Ġl og
ĠK orea
ul er
Ġv ery
Ġ47 3
69 3
69 8
dia gram
iv er
ĠJ apan
09 6
09 7
Ġre f
89 2
rand om
Ġà°ªà°²à°ķ à°²à°¤
Ġà°ķà°²à°Ĺ à°ķà°ª
av i
IC MA
à°¸à°¦à°° à°¨
Ġà°ªà°Ĺà°² à°¡
ho ut
Ġcon stant
ĠSt ate
à® ®
con f
à°Ļ à°ª
ult ure
CS P
ank a
ens ion
DR DO
à°ķà°®à°ķ à°ªà°¡
ther mod
ĠBS NL
Ġsystem s
ĠIM X
ynam ic
ann el
ĠUV B
à°Ĺà°Ĺà°¨ à°¤à°²
Ġchar acter
Ġz ero
test s
enn ai
gn ome
anc er
Cont rol
Con f
mach ine
soci ation
ĠOR VM
Ġï Ģª
Ġà°¨à°²à°Ĺ à°Ĺ
pres ent
ĠPRO BABLE
BrandFullName DA
Eng lish
adha ar
ĠColle ge
ĠBost on
% -
0 99
0 68
0 71
0 43
0 62
4 35
4 38
5 500
6 16
6 23
7 21
7 48
8 27
9 25
9 80
9 27
9 39
9 62
= ""
A LL
B L
E P
F L
F ree
G K
H yderabad
H onda
I SO
J A
M enu
S H
W M
c m
d el
i us
k W
n s
p umps
t ar
u id
Ø ¬
Ġ Õ
à°¾ à±ģ.
à°¨ à°ħà°¨
à°¨ à°ªà°¡à°¤
à°¨ à°ªà°°à°ļà°¡
à°² à°ľà°°
à°¤ à°¶à°¤
à°¯ à°¦à°Ł
à°¯ à°µà°°à°ķ
à°ª à°Ĺà°¤
à°µ à°Ĺà°°
à°µ à°¤à°²à°¤
à°® à°¢
à±Ģ à±įâĢĮ
à°Ĺ à°¨à°ķ
Ġà°µ à°¦à°¨
Ġà°® à°Ĺà°°
Ġà°ħ à°¬à°°
à±ģ. ,
à±ģ. ""
à°· à°ªà°°à°ļà°¬à°¡
à°ľ à°Ńà°°
à°¶ à°ķà°¡
à°¶ à°ªà°¡à°ķ
à°¬ à°Łà°°
à°¹ à°ļ
à°£ à°¤à°¯
Ġà°¦ à°·
Ġà°ĩ à°°à°Ĺ
Ġà°Ĺ à°ľà°®
à°ħ à°¸à°¹à°ľ
à°Ī à°İà°¨
Ġà°Ī à°Ń
Ġà°Ī à°İà°²
à°İ à°²à°¨
à°İ à°Ĺà°¤
à°İ à°Ĳà°İà°¸
à°İ à°İà°Ĳ
à°Ĩ à°ªà°¡
à°Ĩ à°¤à°°à°µ
à°ĸ à°²à°µ
Ġà°¯ à°¬
Ġà°¯ à°µà°¤
Ġà°¯ à°¨à°®
à°« à°Ĺ
à°ķà°° à°ªà°¤
à±ĩà°Ĥ âĢį
à°¯à°ķ à°¶
à°¤à°° à°¬à°¡
à°¤à°° à°ªà°°à°ļ
à°²à°² à°µ
à°ªà°¡ à°¦à°¨
à°µà°² à°¦
à°¸à°° à°¯à°ķ
à°ķà°¡ à°Ĺà°¡
à°ªà°° à°ªà°¤
Ġà°®à°¨ à°®à°¨
Ġà°§ à°¨à°°
Ġà°§ à°¢à°ķ
Ġà°ĵ à°°à°²
à°ļà°¨ à°µ
à°Ĳ à°İà°ķ
à°Ĳ à°·à°°
à°°à°ľ à°²à°®à°§
à°¯à°¤ à°Ĺà°²à°µ
à°¨à°® à°ķ
Ġà°ªà°¡ à°Łà°®
à°²à°® à°²à°ª
Ġ4 34
Ġ5 78
Ġ5 72
Ġ5 41
Ġà°Ĩà°¦ à°®
à°¾à°Ĥ. .
à°¾à°Ĥ. """
à°ļà°¬à°¡ à°µà°²à°¸
Ġà°İà°µà°° à°ķ
Ġà°Ĩà°² à°¶
19 25
19 12
19 26
ĠâĢĿ ,
Ġ6 15
Ġ6 98
Ġà°®à°°à°£ à°ª
Ġà°µà°² à°µ
Ġà°ĺ à°Ĺ
Ġ7 60
Ġà°¬à°² à°µà°¤
Ġ8 25
à°µà°°à°£ à°ªà°°
à°ĵ à°Ĳà°¸
Ġ9 20
à°¨à°¤ à°µà°°
Ġà°Ĩà°¯ à°£
Ġà°ħà°Ĺ à°ªà°°à°ļ
Ġà°®à°³ à°ª
à°¯à°¦ à°¶
à°İà°ķ à°¨à°®
Ġ18 71
Ġ18 91
in ed
à±įâĢĭ :
à±įâĢĮâĢĮ :
99 2
à°®à°¸ à°ķ
à°ªà°¬à°¡ à°µà°ļ
à°¹à°¤ à°²à°ķ
er i
an th
à°± à°µ
à°§à°µ à°ª
12 000
at io
me chan
18 20
ĠC H
ĠC trl
ar p
75 3
Ġà°¬à°¯à°Łà°ªà°¡ à°Ĺà°²
Ġt sp
ĠS al
ĠS IP
it is
en ces
à°ļà°°à°£ à°²à°¨
ĠM T
ĠR am
à°¿"" )
ĠN i
Ġc hief
Ġà°ħà°ľà°¯ à°ª
Ġp ump
Ġp radesh
à°Ĭ à°°à°µ
à°Ĭ à°¹à°ķ
à°Ĺà°ªà°¡ à°µ
Ġ45 3
Ġà°µà°°à°¦ à°ķ
à°°à°ªà°° à°ļà°²
ĠD V
Ġo wn
ac es
Ġb ased
Ġb ott
om b
ol s
Ġ44 9
ĠW e
ĠX X
Ġ55 3
Ġa p
44 3
Ġ59 3
69 2
Ġà°Ĩà°µà°°à°£ à°ª
ri ve
ch annel
59 1
Ġà°ĭ à°£à°¸
iv o
og l
à°¶à°¦ à°ªà°°à°ļ
à°Ĵà°ķà°ª à°ķ
ight ly
Ġst e
if ied
har at
MA P
Ġmo tion
à±ģ` .
ah ul
ĠAr jun
CL A
olu tion
uk i
ĠØ ¶ÙĦØ¹
Ġres earch
eng al
ron ic
mun ity
ffic ial
Ġà°ľà°²à°ķ à°³à°¨
ĠRed mi
Pl us
ble m
UPS C
evel oper
loc ale
ĠYou Tube
Ġpres ident
ynold s
ĠElection s
Ġthro ugh
ĠCong ress
ibr ary
analy tical
$ @
. ""
0 17
0 85
0 63
3 14
4 14
5 78
5 73
7 85
7 33
7 39
8 77
9 28
9 78
G E
G V
I nd
L ink
M ed
N RE
R TC
R ef
T PS
T oo
T ime
U L
] [
c d
c ross
d om
f s
g ar
l or
p ers
s et
t el
y od
z e
Â ¼
Ã ¡
Ã ¨
Ï Ģ
Ï ī
× Ķ
â Ĺ
Ġ add
Ġ error
à°¿ à±įâĢĮ
à°¾ âĢĺ
à°Ĥ à°¾
à°¤ à°¯à°¨
à°¤ à°¡à°®
à°¦ à°¦à°Ĺ
à°¦ à°Ĺà°²à°¦
à°¯ à°¬à°²
à°Ł à°¯à°¨
à°Ł à°Łà°®
à°¸ à°µà°²
à°ª à°¦à°°
à°ª à°Ĺà°¡
à°ª à°§à°ķ
à°µ à°¯à°µ
à°µ à°µà°¡
à°µ à°ªà°¨
à°® à°Ĺà°¤
à°® à°®à°²
à°® à°ļà°ķ
à°® à°£à°®
à°® à°¤à°²à°¤
à°® à°ĺà°¨à°¤à°ķ
à°¡ à°µà°¤
à°Ĺ à°µà°ķ
Ġà°ª à°°à°¤
Ġà°¸ à°¶à°ķ
Ġà°® à°Ĺà°¨
à°¿à°Ĥ -
Ġà°ļ à°®à°ķ
à°· à°ªà°°à°ļà°¡
à°§ à°°à°£à°²
Ġà°Ĩ à°°à°¤
à°¹ à°®à°¦
Ġà°¬ à°ĸ
Ġà°¬ à°¡à°ķ
Ġà°İ à°Ĺà°¦
Ġà°Ĺ à°¦à°°
à°ħ à°§à°°
à°³ à°µà°¦
à°ĩ à°ļà°Ł
Ġà°¶ à°¹
à°İ à°±
à°Ĩ à°ªà°¨
Ġà°¯ à°Ł
Ġà°¯ à°®à°Ĺ
Ġà°®à°° à°µà°¦
Ġà°ªà°° à°ļà°¡à°®
Ġà°Ĵ à°«
à°¦à°¨ à°µà°¨
à°¯à°ķ à°²à°ª
Ġà°ľà°° à°ªà°µà°ļ
à±Į -
à°¤à°¨ à°Ĺà°°
Ġà°ķà°² à°ªà°²
Ġà°ķà°² à°µà°µ
à°ªà°¡ à°Łà°®
à°¸à°° à°²
00 8
à°°à°µ à°¡à°®
Ġà°®à°¨ à°®à°°
à°ļà°¨ à°Ĺà°²
à°ľà°¨ à°°à°¸
à°ľà°¨ à°ªà°¨
à°ı à°¥
à°¶à°ķ à°¦
Ġà°¤à°® à°®
Ġà°Ĳ à°ĵà°ı
à°ľà°¯ à°ªà°°
à±Ĩà±ĸ ?
à°¡à°² à°¸
à°ĺ à°¨à°¨
Ġà°ªà°¦ à°¸à°®
Ġ4 24
Ġ4 77
Ġ5 16
à°µà°¹ à°¸
à°Ĵà°ķ à°¦à°¶à°²
à°¢ à°ªà°¡
à°¸à°® à°µ
19 13
Ġ: :
à±ģ: âĢľ
Ġ6 18
Ġ6 80
Ġ6 48
Ġ6 62
à°¸à°¨ à°ªà°°
Ġ7 76
à°ķà°°à°£ à°µ
Ġ8 42
Ġ10 24
Ġà°¨à°¡ à°¤
Ġà°¨à°¡ à°ķà°ķ
Ġà°¨à°¡ à°ªà°¬
à°°à°Ĺ à°ķà°ª
à°ĵ à°°à°²
Ġà°Ĩà°Ł à°¬
Ġ9 25
Ġ9 40
Ġ9 14
Ġ9 78
Ġà°Ĳà°¦ à°µà°¸
Ġà°Ĺà°¡ à°ªà°Ĺà°²
à°¬à°² à°ªà°¡
Ġà°Ĺà°®à°¨ à°®
Ġ18 96
Ġ18 93
Ġ! !
Ġà°ıà°ķ à°¶à°°
à°µà°® à°£
à±įâĢĭ (
à°¥à°¨ à°²à°²
à°¥à°¨ à°²à°¤
er dict
an y
à°°à°£à°® à°Ĺ
à°¨à°Ĺ à°ķ
18 53
or m
or bon
al og
al pha
ĠC d
ĠC up
ĠC IA
à°¬à°¸ à°µà°¤
ĠS O
ĠS PF
Ġà°¸à°¹à°ľ à°µà°¨à°°
à°ļà°°à°£ à°¤
90 1
ĠM G
ĠM IT
Ġs um
Ġs ha
Ġs urvey
ĠR ad
ĠN BC
ĠN CP
ĠN arendra
Ġc ode
ĠP B
ĠP art
Ġp ers
Ġp aper
ĠB l
65 8
Ġ45 9
as th
as ter
ĠD B
ĠD is
ĠF e
à°¨à°¬à°¡ à°¤
à°¨à°¬à°¡ à°Ł
48 00
à°¡à°Ĺà°² à°Ĺ
ĠH e
à¤ £
Ġd u
ĠE D
55 6
ĠL PG
à°¨à°ªà°¡ à°²
id emi
Ġ44 6
ig ur
Ġà°ħà°¡à°Ĺ à°µà°²à°¸
78 4
Ġà°īà°ªà°¶à°®à°¨ à°®
Ġg od
Ġl at
Ġh ad
Ġ46 1
Ġ46 6
ĠK apoor
à°Ńà°ªà°¡ à°Ł
66 2
74 1
Ġv ideo
69 4
Ġk à°®
Ġk now
II T
88 1
od ing
à°ķà°®à°² à°¹
Ġà°ħà°¸à°¹ à°ľà°¤
fo und
à°Ŀ à°¨
ay er
à°ªà°Ĺà°² à°¦à°¨
Ġà°ħà°µà°¸ à°°à°¤à°²
Ġà°¹à°ľ à°°à°¤
à°°à°¹à°£ à°¶à°ķ
ist or
Ġà°ªà°²à°ķ à°²à°®
ne y
à°ıà°Ĳ à°ıà°¡
Ġà°ľà°¨à°° à°³
Ġ# %
à°ģ ,
à±ĩ' .
à°®à°²à°¤ à°ķ
125 00
PI N
Ġj ust
Ġà°īà°Ń à°¯à°¦
Ġpro tot
RS S
CA P
Ġà°¸à°¤à°® à°¤à°®à°¯
à® ª
NA M
Ġac res
Ġam erica
ĠQ R
aw an
ord in
eg ree
PA C
ond on
ef ault
ens us
HA L
Ġà°¸à°£ à°Ĺà°¡
Ġwh at
sel f
udi es
âĢĭâĢĭ âĢĭâĢĭ
pre valence
Ġfunction al
ĠPr ithu
à°£à°ªà°° à°ªà°¤
aun ch
na ire
ĠØ§ ÙĦ
loss es
CBS E
uz uki
Ph one
qual itative
EPF O
Fran cis
æĦ Ľ
ĠTR UE
aho o
yod hya
orbon ne
% %
( âĢĺ
. %
. âĢĮ
/ .
0 45
0 44
0 41
4 100
4 45
5 33
6 21
6 27
8 11
8 45
8 47
8 71
8 62
8 98
9 29
9 42
9 31
C G
C trl
F P
G T
K aplan
L a
M icrosoft
P KCS
Q X
S e
W D
d r
g l
g raph
j k
k e
k ing
k Wh
l ication
l abel
l iterature
m ir
m ult
z ero
Ã ¼
Î ¹
Ñ ı
à±į @
à°¿ à°¾
à°¾ âĢĮ,
à°¾ âĢį
à°° à°Ŀ
à°² à°®à°°
à°ķ à°µà°¸à°°à°®
à°¤ à°ĺ
à°¤ à°¡à°ķ
à°¤ à°ľà°¨à°®
à°¦ à°®à°¤
à°¯ à°Ĺà°¨
à±ĩ à°ģ
à°ª à°¦à°²à°¤
à°® à°·à°¨
à°¡ à°Ń
à±Ģ ""."
à°Ĺ à°°à°¸
à°Ĺ à°¤à°®à°µ
Ġà°¸ à°·
Ġà°µ à°²à°ª
Ġà°® à°¤à°¦
Ġà°ļ à°°à°µ
à±Ĥ âĢĿ
à°· à°«
à°ľ à°µà°Ĺ
à°ľ à°Ĺà°£
à°¶ à°ľà°¨
Ġà°° à°§à°¨
à°§ à°¸à°®à°¯
à°§ à°¶à°¤
à°¬ à°¨à°ķ
à°¹ à°¯à°¤
Ġà°¬ à°¦à°¨
Ġà°¬ à°°à°¬
Ġà°ĩ à°µà°¤à°²à°ķ
Ġà°ľ à°ķà°°
Ġà°ľ à°¯à°§
à°ħ à°Łà°ķ
à°³ à°ªà°¤
Ġà°ħà°¨ à°ªà°°
à°µà°° à°µà°°à°°
à°ĩ à°¥à°¨
Ġà°Ī à°ªà°°
Ġà°Ī à°ĺà°Łà°¨
à°İ à°¨à°²
à°ĸ à°°à°Ĺ
à°¯à°¨ à°²
Ġà°®à°° à°³
à°°à°ķ à°¬
Ġà°« à°ķà°°
à°¿, "
à°Łà°° à°°
à±Į âĢĻ.
à°¯à°® à°°
à°¯à°® à°¸
Ġà°ķà°² à°¶à°®
à°°à°¸ à°°à°£à°ķ
Ġ( (
à°¬à°¡ à°Ĺ
à°ķà°¡ à°ķà°²
à°·à°² à°µ
à°ªà°° à°§
Ġà°ħà°¦ à°ª
Ġà°ĵ à°ļ
Ġà°ĵ à°ļà°°
Ġà°ķà°¨ à°°
à°Ĳ à°®
Ġà°ªà°¨ à°²
Ġà°ªà°¨ à°¬
âĢĺ %
à°·à°£ à°¸
à°¨à°µ à°¯
Ġà°¤à°® à°¸
Ġà°¤à°® à°¦à°¨
Ġà°Ĳ à°ĩà°¸
Ġà°Ĳ à°Ĵà°İà°¸
à°¨à°° à°Ĺ
Ġà°ħà°ķ à°¶
à°¾. ...
Ġà°ħà°ª à°ľà°¯à°®
à°ĺ à°¯
à°ł à°Ĺà°²
Ġ4 75
Ġ4 27
Ġ4 64
Ġ4 78
Ġ4 76
à°Łà°® à°¸
Ġ5 63
à°®à°ķ à°µ
Ġà°ħà°¤à°¨ à°¨
à°¢ à°¤à°°
à°¢ à°®à°µ
19 16
19 03
19 07
à°¯à°ªà°¡ à°µà°²à°¸
Ġ: *
à°¯à°¸ à°¨à°®
à°¯à°¸ à°²à°¹
Ġ6 37
Ġ6 29
à°®à°² à°µà°²
Ġ7 14
Ġ7 11
Ġà°¨à°¡ à°ªà°ķ
Ġà°ķà°³ à°ķà°³
Ġà°Ĭ à°ļà°²
à°°à°¬ à°²à°¡
à°²à°Ĺ à°ªà°²
Ġ9 33
Ġ9 37
à°°à°ļ à°Ł
à°·à°ķ à°Ńà°Ł
Ġà°«à°² à°¸
Ġà°«à°² à°Ńà°°
Ġà°Ĩà°¡ à°¡à°®
Ġ12 000
à°Ĺà°® à°Ĺ
Ġà°Ĺà°¡ à°ªà°¨
à°µà°²à°¸ à°µ
à°İà°µà°° à°¯
à°µà°¯ à°ªà°°
Ġ18 40
in di
à°Łà°£ à°µ
à°°à°³ à°ª
Ġ17 89
on ic
Ġà°°à°® à°£à°¯
à°± à°ļ
12 50
re l
re ad
re qu
Ġà°¦à°³ à°®
Ġà°®à°¨à°® à°§
at o
à±įâĢĮ) /
Ġà°Ńà°¯à°ªà°¡ à°¬
or b
ĠC J
ĠC ont
à°īà°ª à°¶
à°°à°®à°£ à°²à°ķ
Ġà°®à°¸ à°ķà°Ĺ
Ġt wo
ĠS I
ĠS L
Ġ70 7
ĠI X
ĠI UCN
ĠM us
ĠM od
à°°à°¥ à°¯
ĠT O
Ġs pe
Ġà°ķà°¨à°¬à°¡ à°µà°²
ĠR GB
ĠU PI
Ġm ag
ĠN a
ĠN et
Ġc ot
Ġc ap
Ġc yl
ĠP ric
ĠP TI
Ġp hoto
Ġp nb
ĠB R
ĠB h
ĠB AS
ĠB luetooth
Ġ[ [
à°Ĭ à°¬
23 40
Ġ45 1
ĠâĢĮ .
ĠG DR
ĠG eneral
ĠF BI
ĠF eb
ĠF irst
am i
48 3
ac he
Ġf amily
th alp
om y
Ġd t
Ġd ead
Ġd elhi
ol a
ĠV olume
à°Łà°¸ à°µà°°à°£
ĠL at
à±ģ] ,
ĠW WE
ĠW WF
à±ģ... (_
Ġà°ķà°¦à°² à°¦
ĠX UV
Ġw ebsite
Ġa way
Ġl ike
Ġ39 8
68 3
68 8
56 3
ug ust
Ġ` `
"""" ""
69 6
oc al
ag er
à±ĢâĢĮ :
Ġ68 4
Ġà°®à°¡ à°¤à°ª
im um
ĠUS D
ind u
ind ra
ak shi
Ġà°ķà°²à°Ĺà°² à°¸
ev e
ho st
Ġà°Ĳà°¦à°µ à°¦
Ġà°ıà°¡à°µ à°¸
Ġfor m
Ġpro ject
Ġth an
ob er
Ġis s
ep end
Ġà¤ ®
ĠZ FS
à°Łà°Ĺà°² à°¡
Ġac id
US IC
Ġà°ªà°¡à°®à°° à°¨
out come
gine ering
IF F
/- ,
ĠÎ ¼
Ġwh en
Ġel e
ok ia
ĠDVD à°²
Ġco efficient
rop ical
rot ational
à°®à°¦à°¨ à°ªà°²
ĠIN H
ĠCS K
........ ........
tri b
pan y
unt u
ĠFA O
Ġcons ervation
Ġsub category
arm ing
aid u
tot al
law s
vest ig
resp ond
Ac cess
mitt ee
Ġdoll ars
Ġcyl inder
+ ,
0 87
8 18
8 39
8 41
9 10
9 38
G IF
H g
K I
N R
N SAID
P er
P TI
R D
S PI
S HA
X P
X X
n o
n cov
o so
p ath
r at
s ur
s ize
w h
w ar
y cl
Ä «
æ Ī
Ġ id
Ġ ut
Ġ imp
à° ½
à°¨ à°ħ
à°¨ à°¤à°¨à°®
à°¨ à°¤à°²à°¤
à°Ĥ à¥¥
à°² à°§à°¨à°®
à°¤ à°°à°¤
à°¦ à°·
à°¦ à°µà°¤
à°¦ à°ªà°°à°ļ
à±ĭ """
à°Ł à°«à°°
à°¸ à°µà°ķ
à°ª à°ªà°Ł
à°ª à°Ĺà°¡à°ª
à°µ à°§à°¨
à°® à°§à°¨
à°Ĺ à°®à°¦
à°ļ à°ªà°¡
à°ļ à°ķà°²
à°ļ à°ľà°¨
à°ļ à°¸à°¨
Ġà°ķ à°®à°¨
âĢĮ âĢĻâĢĻ
Ġà°ħ à°ķà°²
à±ģ. '
à°· à°µà°²à°¯
à°¶ à°ªà°¤
à°§ à°¹
à°¬ à°¦à°²
à°¬ à°µà°¤
à°¬ à°¸à°µ
à°£ à°µà°°
Ġà°¦ à°¶à°ª
Ġà°¬ à°¹à°°
Ġà°² à°¯à°ªà°°à°ļ
Ġà°İ à°ĩ
Ġà°Ĺ à°µà°¦
à°¾à°Ĥ ``
à°ħ à°²à°ķ
à°ħ à°¸à°¨
à°³ à°§
à°³ à°ªà°²
à°ĩ à°¦à°¨
à±ģ, "
à°°à°¤ à°ľ
Ġà°¹ à°°à°Ĺ
à°Ĩ à°¡à°¬
à°ĸ à°Ł
à°ĸ à°µà°°
à°ĸ à°ªà°°à°ļ
à°« à°¡à°°
à°« à°²à°µ
Ġà°®à°° à°µà°ķà°®
Ġà°ı à°ķà°ª
à°°à°ķ à°¦à°¨
à°°à°ķ à°¡à°®
Ġà°Ĵ à°²à°ķà°¬
Ġà°¸à°® à°¯à°ķ
à±ĩà°Ĥ '
Ġà°Ĵà°ķ à°¬
à°Łà°° à°µ
à°¤à°° à°Īà°¶
à°®à°¨ à°Ł
Ġà°ħà°µ à°¯à°µà°¦
à±Į '
à°¤à°¨ à°²à°¤
à°¯à°® à°§
Ġà°Ĩà°° à°¡
à°ªà°¡ à°¨à°ķ
à°ķà°² à°µà°²
Ġà°¤à°° à°Ĺà°¡
à°¯à°² à°ªà°Ł
à°Ĥ. ...
00 6
à°¬à°¡ à°ķà°ª
à°·à°² à°¦
à±Ģà°Ĥ (
Ġà°§ à°µà°²
Ġà°ĵ à°£
Ġà°ĵ à°İà°«
à°¦à°² à°Ĺà°²
à°µà°¡ à°µ
à°µà°¡ à°Ĺà°³
Ġà°· à°µ
Ġà°ħà°Ń à°°à°£
à±Ģ, ,
à°Ĳ à°²à°¤
à°ľà°¨ à°®à°¨
Ġà°ħà°® à°¯
à°°à°¨ à°°
Ġà°ħà°² à°Ĺ
Ġà°¸à°¹ à°ªà°°
à°¨à°µ à°¶
à°¤à°ķ à°µ
à°¨à°¨ à°ķ
à°Łà°ķ à°²à°²
à°ī à°¬à°°
Ġà°ħà°¡ à°¯
Ġ5 74
à°ªà°ķ à°Ł
Ġà°ªà°² à°ļà°¨
à°¯à°ªà°¡ à°µà°¦
Ġà°ľà°¨ à°Ń
à°²à°¡ à°ķ
Ġ6 22
Ġ6 28
Ġ7 34
Ġ7 96
Ġà°¬à°² à°¶
Ġ8 79
Ġ8 83
à°¦à°µ à°¯à°¸
à°°à°Ĺ à°¢
à°²à°Ĺ à°¬
Ġ9 46
à°¨à°¤ à°¯
Ġ"" .
Ġà°¬à°¹ à°²
à°Łà°¡ à°®à°¨
à±Ģ: )
à°¬à°² à°µà°°
à°«à°² à°¹
Ġ25 000
à°ķà°°à°® à°¯
Ġà°ħà°¦à°¨ à°®
18 60
à°ħà°¸ à°®à°°
Ġà°Ĵà°¡ à°¯
Ġà°Ĭà°¹ à°Ĺ
Ġà°Ńà°¯à°ªà°¡ à°µà°²
al ity
ĠC ast
à°īà°ª à°ĸ
à°°à°®à°£ à°²à°¨
ĠS P
ĠS orbonne
Ġà°ķà°µ à°³
ĠM CP
Ġs he
el eb
ĠU p
Ġm a
35 3
Ġp ost
à°Ĭ à°Ĺ
à°¿âĢĿ ,
Ġà°°à°¹ à°®à°¤
as a
Ġà°µà°°à°¦ à°¤
ĠG H
ĠG reat
ĠF I
ĠF Z
à°Ĳà°İ à°İà°²
à°¯à°ªà°° à°ļà°Ł
and a
Ġ75 9
Ġo ther
85 5
à°ķà°µà°° à°ª
à°¥à°²à°® à°Ĺ
à°Łà°¬à°¡ à°ķ
us iness
Ġd es
ol low
ur s
ĠL i
ĠO ct
id ity
à±ģ] ...
et ch
Ġà°ķà°¦à°² à°Ł
Ġ49 1
Ġà°®à°Ĺ à°¤à°¨
à±¦ à±¦
Ġ64 4
Ġ65 9
à°¡à°¤à°² à°µ
46 7
Ġl ive
Ġl anguage
Ġ39 7
à°ªà°¨à°² à°µ
à°Ķ à°ļ
ra h
à°Ĺà°¬ à°Ĺà°¬
Ġv olt
Ġthe ir
ot e
Ġ58 9
Ġk ine
ri eved
59 3
59 7
Ġ56 76
em ail
à°¾"" ,
à°ķà°£ à°ľ
os ph
89 3
Ġà°ªà°²à°ķ à°Ĺ
op en
ub le
ak h
Ġst ud
Ġà°ıà°¡à°µ à°ķ
oun ter
are d
SA T
à² ¡
Ġj k
Ġà°īà°Ń à°¯à°Ĺ
Ġà°Ĩà°ªà°¦ à°²à°¨
Ġà°Ĩà°ªà°¦ à°²à°²
à°ľà°¨à°ķà°°à°® à°¨
RA M
ST ag
ial og
ĠSt reet
à±įâĢĮ` ,
à® ¤
Ġ(% (
ĠHD R
IV AC
Ġdi rect
han n
-- --
out let
rol l
Cl O
Ġan n
à°ªà°ķà°°à°£ à°®
ound s
land s
ĠØ ¨
Ġà°¤à°¹à°¤ à°¹
rop ic
à°ķà°¨à°ķ à°¦
à°Ĺà°ªà°°à°ļ à°¦à°Ĺ
Th underbird
ild ren
Ġpart y
Ġtest ing
ĠØ§ ÙĦØ
à°ķà°ľà°ķ à°¸
aly an
ĠRE TScreen
âĤ ¬
Ġmill imet
à°¶à°¨à°Ĺà°ª à°ª
Ġloss es
Ev ent
nit ude
ĠFran k
Ġbi as
Ġà°ľà°²à°¯ à°ľ
irth day
orpor ation
question naire
osp ital
Del ta
ĠIUD à°²
olly wood
QX ml
Ġà°Ĺà°µà°¦ à°¬
Ġvolt age
0 90
0 36
4 37
4 46
5 23
5 71
6 26
6 47
6 71
8 78
8 31
8 63
8 73
A mazon
C u
D elhi
F M
G o
L VM
M in
M er
M bps
N TA
P ID
R DA
T ype
U A
U RI
X iaomi
Z o
a ff
d l
f act
f uck
g g
j a
l ight
n ov
n own
o à°¦
t v
u v
w e
w ater
Ã «
Ë Į
Î µ
Ï Ħ
à «
ã ģ
Ġ Ã©
Ġ ðŁ
à±į %
à±į à°¿
à±ģ à±Ĥà°Ĥ
à°° à°Ĺà°²à°µ
à°¨ à°Ĩà°°
à°ķ à°§à°²
à°ķ Name
à°¤ à°¬à°²
à°¦ à°®à°¨à°¸
à°¯ à°ĸ
à°¯ à°§à°¨
à±ĭ ''
à°Ł à°Ĺà°²à°µ
à°¸ à°¨à°ª
à°¸ à°Ĺà°¨
à°¸ à°Ĺà°¦
à°ª à°²à°®
à°® à°ļà°²
à°® à°±
à°® à°Łà°¤
à°Ĺ à°ªà°°à°ļà°¡
à°ļ à°ªà°Ł
à±Ĩ ...
Ġà°ħ à°ł
Ġà°ħ à°«à°°
Ġà°ļ à°°à°®à°Ĺ
à±Ĥ à±į
Ġà°¨ à°®à°¨
à°¶ à°¨à°°
Ġà°° à°®à°¦
à°§ à°²à°²
à°§ à°Ĺà°¯
à°¬ à°«à°°
à°£ à°¨à°ķ
Ġà°¦ à°¯à°²
à°Ń à°µà°°
Ġà°² à°¯à°ķ
Ġà°² à°¯à°¬
Ġà°İ à°³
Ġà°ĩ à°¨à°µ
Ġà°ĩ à°¹à°²
Ġà°Ĺ à°²à°¡
Ġà°ľ à°¯à°¨
à°ħ à°ķà°¡à°®
à°³ à°µà°²
à°²à°¨ à°ªà°¡
à°²à°ķ à°µ
à°²à°ķ à°¡à°¦
à°Ī à°²à°¨
à°Ī à°¤à°¨
Ġà°Ī à°Īà°İà°¸
Ġà°¯ à°¤à°¨
Ġà°¯ à°¹à°ľ
Ġà°Ł à°Ł
Ġà°ı à°Ĵà°ķ
Ġà°ı à°ıà°Ĳ
Ġà°¡ à°µà°²à°ª
à°¦à°¨ à°§
à°¦à°¨ à°Ńà°°
à°¯à°ķ à°·
à°¯à°ķ à°ļà°µ
à°¤à°° à°ļà°¯
Ġà°ħà°µ à°¡à°®
Ġà°ķà°² à°¤à°ªà°°
Ġ2 200
à°ķà°² à°ªà°¡
à°¾, .
à°µà°² à°°
à°¸à°° à°¹
à°ķà°¡ à°ķà°ķ
à°·à°² à°Ł
à°·à°² à°µà°°à°ķ
à°°à°¯ à°°
à°°à°µ à°²à°¨
à°°à°§ à°¨à°¸
Ġà°§ à°¨à°¸à°®
Ġà°ĵ à°¬à°°
à°¾? ...
à°Ĳ à°Ĵ
Ġà°ĸ à°¶
Ġà°ĸ à°¬
Ġà°İà°² à°®
à°µà°ļ à°°
à°ı à°²à°¨
à°ı à°¡à°¬
Ġà°¸à°¹ à°°à°¨
à°·à°£ à°¦
à°µà°¤ à°¯
à°¤à°ķ à°¤
à°¨à°¨ à°¡
à°Łà°ķ à°®à°¨
à°¨à°² à°ļ
à°ĺ à°¦
à°ļà°² à°¸
Ġ4 37
Ġ5 19
Ġ5 18
Ġ5 11
Ġ5 31
à°ªà°ķ à°¦à°³
Ġà°Ĩà°§ à°°à°£
à°®à°¤ à°µ
à°¾à°Ĥ. ..
Ġà°ªà°² à°ļà°Ĺ
à°ŀ à°µ
Ġà°ķà°® à°²à°¦
Ġà°ľà°¨ à°Ĺà°£
Ġ6 14
Ġ6 26
Ġ6 95
Ġà°®à°°à°£ à°®à°Ĺ
à°®à°² à°¦
Ġ7 64
Ġ7 61
à°¤à°µ à°²à°¨
à°³à°¨ à°ļ
50 7
Ġ8 12
Ġ8 72
à°ĵ à°Ĳ
Ġà°Ĭ à°°à°ķà°¨
Ġà°Ĩà°¤ à°¡
Ġà°Ĩà°Ł Name
Ġà°¤à°¦ à°¤à°°
Ġ9 22
à°¯à°¬à°¡ à°µà°²à°¸
à°¥à°® à°Ĺ
à°¦à°Ĺ à°¬à°¡
Ġà°ļà°¦ à°µà°°
Ġà°¨à°µ à°¶à°ķ
Ġà°Ĩà°ª à°¦à°¨
à°ªà°Ĺ à°²à°¨à°¨
à°¨à°¯ à°Ĺ
à°¡à°® à°ļ
Ġ18 30
Ġ18 55
Ġ18 72
Ġà°¬à°¸ à°ķ
à±įâĢĮâĢĮ -
à°®à°® à°¯
Ġà°Ĺà°£ à°ªà°µà°°
on or
an o
18 71
18 86
18 04
Ġà°Ĭà°¹ à°²à°¨
Ġà°Ńà°¯à°ªà°¡ à°¨à°µà°¸à°°
ĠC B
ĠC T
ĠC u
es y
à°¸à°¨à°¸à°Ń à°²à°²
à±ģ"" ?"
ar at
ar as
80 4
80 7
Ġt rain
ĠS V
ĠS m
ĠS y
ĠS ri
ĠS ch
ĠS MART
ĠA k
it ive
Ġ70 3
ĠM C
ĠM DR
ĠT DP
Ġs igma
el i
ĠR F
ĠR ail
ĠR eg
Ġà°ħà°Ĺà°° à°¬à°¤
ĠU PS
ĠU IDAI
Ġm app
ĠN ations
Ġc r
Ġc up
Ġà°µà°²à°¸ à°¬
ĠP ower
ĠP aul
Ġp eop
Ġp unjab
ĠB FS
à°Ĭ à°²
Ġ90 9
Ġ45 7
as ing
à°°à°ªà°° à°ļà°Ł
ĠD h
ĠD i
il it
à°¯à°ªà°° à°ªà°¤
à°¯à°ªà°° à°ļà°¬à°¡
Ġin c
Ġin f
85 6
Ġà°Ńà°Ĺ à°Ńà°Ĺ
à°ľà°Ĺ à°¦à°²
ĠE uropean
55 9
ĠV ir
à°¤à°ªà°¡ à°¡
ĠO K
ĠO PPO
ĠW ith
et al
34 4
Ġw ord
76 8
âĢĮâĢĮ âĢĮ
Ġ55 9
ĠK ing
ul a
ul y
Ġà°Ĺà°ľ à°¦
à°¿... (_
69 1
Ġ58 4
Ġk orea
Ġk ohli
05 3
à°ħà°ľ à°¹à°°
à°§à°°à°£ à°ª
59 6
ĠâĢ¦ !
ag an
ab or
à°İà°¡ à°®à°ķ
à°£à°¦ à°¶à°²
iv al
ĠJ r
à°°à°¬à°¡ à°Ł
89 7
im ate
ist ic
Ġà°ªà°²à°ķ à°²à°ķ
à°ıà°Ĳ à°İà°«
av es
ak es
08 1
ical ly
ail y
ail and
ph ys
à² ¨
à² Ĺ
art ment
RA C
IN E
à°ħà°¨à°µà°¸à°° à°ª
pl ication
Ġà¤ ª
con cept
RC B
sp an
ik ip
RI L
SO N
TP C
ian ce
ĠUn ion
CD C
Ġà°ªà°¡à°®à°° à°Ĺ
Ġsc reen
hy dro
à°ķà°®à°ķ à°Ĺ
Ġro ad
IS RO
PN G
ther fuck
Ġà°ķà°µà°² à°²à°ķ
und ai
ĠDC T
Ġmod ulus
ĠAn n
Ġsl ip
ĠÏ Ģ
ĠÏ ī
pr il
ĠEM V
Me Too
ren ch
Ġvari able
ĠGe org
Ġà® ķ
ĠSci ence
Ġà°¦à°¡à°¦ à°¡
ĠAss embly
olk ata
thalp y
ikip edia
$ $
' )
, ""
0 39
0 72
5 19
6 18
7 31
8 67
9 77
= '
D ialog
G e
R ec
S oc
S ee
S ocket
T T
U p
W ith
a use
b z
b er
c ases
d eveloper
f iles
g a
m is
n CoV
o ch
p ix
r d
r in
s y
t ab
u ch
Ã ´
Ä Ļ
Î ³
á ¸
Ġ à±ĩ
Ġ iv
à±į âĢĶ
à°¿ @
à°¿ à±ģ,
à±ģ =
à±ģ [
à±ģ âĢĺâĢĺ
à°¨ à°¡à°µ
à°¨ à°ĺà°Ł
à°¨ à°ªà°°à°ļà°¬à°¡
à°² à°¸à°²
à°¦ à°ªà°Ł
à°¦ à°¤à°Ĺ
à°¦ à°ªà°¡à°Ł
à°¯ à°°à°²
à°¯ à°¯à°Ĺ
à°¯ à°Ńà°¦
à±ĭ à±Ĩ
à°¸ à°§
à°ª à°¸à°°
à°ª à°²à°ķà°°
à°µ à°µà°¹
à°µ à°®à°¹à°®
à°® à°¬à°¦
à°® à°ªà°°à°ļà°¡
à°Ĺ à°¡à°Ł
à°Ĺ à°ľà°²
à°Ĺ à°°à°µà°¡
à°ļ à°°à°¤
à°ļ à°®à°¤
Ġà°ķ à°Łà°¨
Ġà°µ à°¡à°ķ
Ġà°ħ à°°à°®
Ġà°ļ à°®à°¨
Ġà°ļ à°²à°¸
Ġà°¨ à°¸à°¹
Ġà°¨ à°¤à°¡
à°· à°Ĺà°²
à°· à°ķà°ª
à°ľ à°°à°ª
Ġà°¤ à°§
à°¶ à°Ńà°¦
à°¬ à°°à°¤
à°¬ à°ªà°°
à±Ĭ à±į
Ġà°Ĩ à°¦à°°à°Ĺ
à±ģà°Ĥ :
à°¹ à°ªà°¡à°¤
Ġà°¦ à°¢à°ķ
Ġà°¬ à°¯à°¨
Ġà°² à°¯à°®à°Ĺ
Ġà°İ à°¯à°°
Ġà°ľ à°²à°°
à°ħ à°¨à°Ł
à°ħ à°ļà°Ł
à°¥ à°ķà°¤
Ġà°ħà°¨ à°¦à°Ĺ
à°Ī à°ªà°°
à°Ī à°Łà°²
à°Ī à°¤à°¡
à°İ à°Ĺà°¸
à°°à°® à°¹
à°°à°® à°¶à°ķ
à°« à°µ
Ġà°®à°° à°µ
Ġà°®à°° à°ł
Ġà°®à°° à°ķà°¤
Ġà°®à°° à°ķà°²à°¨
à°°à°ķ à°°à°¤
Ġà°Ĵ à°İà°«
à°ķà°° à°µà°°
à°¦à°¨ à°µ
à°¯à°® à°²
à°¯à°® à°ª
à°²à°² à°ļ
Ġà°¤à°° à°³
00 7
à°ķà°¡ à°²à°ķ
Ġà°Ĩà°¯à°¨ à°¨à°¨
à°ªà°° à°Ĺà°¡
à°ªà°¤ à°¯
Ġà°ĵ à°®à°°
Ġà°ĵ à°Ĳà°¸
Ġà°¤à°¨ à°ķà°¨
Ġà°ķà°¨ à°¨
à°ľà°¨ à°Ĺà°£à°¨
à°ľà°¨ à°Ĺà°£à°®à°¨
Ġà°ªà°¨ à°Ĺà°°
à°µà°¨ à°²à°ķ
à°µà°ļ à°®
à°ı à°ķà°®
à°°à°ľ à°°
Ġà°ħà°² à°Ń
à°·à°£ à°ļ
à°¨à°® à°µà°¡
à°Łà°ķ à°¥
Ġà°ħà°ķ à°Ł
Ġà°ªà°¡ à°¡à°®
Ġà°ħà°ª à°µà°°
à°¨à°¸ à°¨
Ġà°ªà°¦ à°ª
Ġ20 35
Ġ4 95
Ġ5 27
Ġ5 79
à°ķà°¨ à°Ĺà°°
à°®à°¤ à°ªà°°
à°ªà°² à°ļ
à°¢ à°¤à°²
à°¢ à°®à°¯
Ġà°¤à°² à°¬à°¡
19 15
Ġ6 13
Ġ6 17
Ġ6 45
Ġ6 85
Ġ6 78
Ġ6 71
à°ħà°ª à°¹à°°à°£
à°§à°¨ à°Ĺà°°
Ġà°ĺ à°Łà°ķ
Ġ7 18
à°¹à°° à°°
Ġ8 14
Ġ8 26
à°Ńà°µ à°¶
Ġ10 50
à°¦à°ķ à°¤à°²
à°ĵ à°¬à°¦
Ġà°Ĭ à°¨
Ġà°Ĭ à°¦à°Ĺ
Ġà°Ĩà°Ł à°µà°¸
Ġ9 75
Ġ9 83
Ġà°«à°² à°¶
Ġ' (
Ġà°Ĩà°¡ à°®à°¨
à°ħà°® à°ľ
âĢ¦ âĢ¦
Ġà°Ĺà°¡ à°µà°¡à°®
à±į) âĢĻ
Ġ15 20
à°¶à°¨ à°ķà°°
à°Ĺà°³ à°®
à°¿âĢĻ :
Ġà°Ĩà°ª à°µà°ļ
à°Łà°ªà°¡ à°µà°²à°¸
à°¿) )
Ġà°ķà°¦ à°ªà°²
Ġ18 38
Ġ18 79
Ġ18 69
in fo
Ġà°ıà°ķ à°µ
25 000
à°ªà°°à°ļ à°Ĺà°²
an es
Ġà°ĺà°¨ à°ªà°°à°ļà°¡
Ġà°Ńà°µà°¨ à°¨
à°¯à°Łà°¨ à°Ĺ
Ġ40 8
à°¨à°¹ à°ķ
18 50
18 80
18 61
Ġà°Ńà°¯à°ªà°¡ à°¨à°ķ
or ity
or ies
à°ķà°µ à°¸à°°
al es
à°®à°³ à°¦
14 40
à°¸à°¨à°¸à°Ń à°¤
ar ch
ar row
75 4
Ġà°¬à°¯à°Łà°ªà°¡ à°¨
80 1
Ġt ype
Ġt oday
ĠS har
Ġ27 00
ĠM O
ĠM RI
ĠM ark
à°ªà°¶ à°¯
ĠT e
ĠT ir
ĠR oad
ĠR CB
à°²à°¬à°¡ à°ķ
ĠP ark
à±ģâĢĿ ,
à°¦à°²à°µ à°¬
à°Ĺà°ªà°¡ à°Ł
as ad
ĠD ep
Ġ37 8
ĠF F
ĠF AT
Ġin ches
Ġf luid
Ġb ro
Ġb ox
à°ķà°¬ à°²à°®
um a
27 00
us p
Ġn ow
Ġd y
ĠE ast
ĠV OOC
ĠL a
77 4
Ġ44 1
Ġà°ĺà°¨à°¤ à°ª
Ġà°¸à°°à°³ à°°
ig in
Ġ64 1
Ġ64 6
Ġw ay
Ġw omen
Ġ65 1
Ġà°Ĵà°ķà°¦ à°¶à°²
Ġà°°à°®à°£ à°¨
Ġg as
Ġl ink
st er
st atus
Ġà°Īà°¯à°¨ à°ª
Ġthe ore
Ġ59 7
Ġk im
Ġk ind
Ġk Hz
Ġk umar
59 4
à°²à°ªà°¡ à°®
à°ªà°Ĺà°² à°Ĺ
98 3
iv il
Ġà°īà°Ńà°¯ à°ªà°ķ
89 6
IP v
à°ıà°Ĳ à°Ĳà°¬
Ġ} }
IC EF
Ġà°¦à°¹ à°¨à°ķ
Ġst ruct
à°¦à°Ĺà°² à°®
Ġâ ī
ect ive
hi k
130 1
if th
MS T
MS ME
à°ªà°ªà°¡ à°¨
à² ķ
ĠII T
our n
ob s
ep idemi
pl ace
Ġme d
int osh
ĠZ n
con s
à°Ļ à°¤à°²
cl ar
-- -
Ġà°ħà°µà°ķà°¤à°µ à°ķà°²à°ª
org an
uc lear
hy s
PC OS
PA N
St ar
Ø§ Ø
Ġle t
ĠID à°¨
ath er
PP P
ĠEx press
Ġres ults
Ġspec ial
system s
ĠAm erican
Ġqu estion
au th
Ġcons ent
ĠWh atsApp
Ðµ Ð
vari ables
sync Brand
ĠRep ublic
col or
And roid
Jo hn
Õ¸ Ö
cos ity
Ġatt ack
Ret rieved
Ġmechan ics
Ġbott le
igur ation
æĪ Ģ
Ġà°ķà°®à°²à°¦ à°³
! !
) ""
0 30
0 79
0 88
6 74
8 25
8 13
8 38
9 18
: :
B BC
C ar
E kiga
I t
K D
L D
M edia
N PS
N PR
O b
S à°ķ
U IDAI
W WE
a Å
b us
b all
c ular
c ourse
d uc
d own
e er
f ield
g in
m ation
p ost
r ig
t o
v ent
v ane
w al
w ide
w eb
w een
y cle
Ï ħ
à°¿ %
à°° à°°à°¤
à°° à°Ĺà°²à°¦
à°¨ à°°à°µ
à°² à°°à°ķ
à°² à°ļà°²
à°ķ à°¯à°ª
à°ķ à°Łà°ķà°Ł
à°¤ à°¹à°¶
à°¦ à°¡à°¨
à°¦ à°¶à°¨
à°¦ à°¶à°°à°¥
à°¯ à°°à°¸
à°¯ à°Łà°²
à°¯ à°ļà°Ł
à±ĩ ""."
à°Ł à°µà°¨
à°Ł à°ªà°¦
à°Ł à°¡à°ķ
à°¸ à°µà°¨
à°¸ à°¨à°°
à°ª à°ªà°¨
à°ª à°¬à°¦
à°µ à°¦à°²à°ļ
à°® à°Ĺà°®
à°¡ à°Ĺà°°
à°¡ à°¨à°µ
à±Ģ âĢĮ,
à±Ģ "",
à°Ĺ à°¨à°²
à°ļ à°µà°Ł
Ġà°µ à°²à°ķ
Ġà°µ à°ĺ
Ġà°µ à°¶à°ªà°°
âĢĮ âĢĿ
Ġà°® à°ĺ
Ġà°® à°²à°°
à±Ĥ à°¾
à±Ĥ âĢĻâĢĻ
à°¶ à°¯à°ķ
à°¶ à°ªà°¡à°²
Ġà°° à°®à°¨
à°§ à°§
Ġà°ī à°¡à°¯
à°£ à°µà°¤
à°Ń à°¯à°ķ
à°Ń à°°à°¹
Ġà°² à°Ł
Ġà°Ĺ à°ķ
Ġà°Ĺ à°£à°®
à°¥ à°ªà°¦
à°³ à°ķà°ª
Ġà°ħà°¨ à°µà°¦
à°µà°° à°ļ
à°µà°° à°ķà°²
à°İ à°²à°°
à°İ à°Ĳà°¬
à°Ĩ à°¸à°¨
à°Ĩ à°¡à°Ł
à°ĸ à°¬
à°ĸ à°ķà°°
à°¯à°¨ à°Łà°²
Ġà°¯ à°µà°²à°¨
Ġà°ªà°° à°ļà°ķ
Ġà°Ĵ à°ļ
Ġà°Ĵ à°°à°Ĺà°¬
Ġà°¸à°® à°¯à°²
à°ķà°° à°ľ
Ġà°¡ à°¦
Ġà°¡ à°Ł
à°¯à°ķ à°¤à°²
à°°à°£ à°¤à°²
à°¯à°® à°®à°¨
Ġà°ķà°² à°Ĺà°ļ
à°ªà°¡ à°¡à°®
à°°à°¸ à°¨à°ª
à°¯à°² à°¦
à°µà°² à°µ
à°µà°² à°µà°²
Ġ( @
à±Ģà°Ĥ -
à°¤à°® à°¸
Ġà°ĵ à°İà°²
Ġà°ĵ à°Ŀ
Ġà°¤à°¨ à°¦à°Ĺ
âĢĻ âĢĺ
Ġà°¸à°° à°«
Ġà°®à°¹ à°²à°ķ
à°Ĺà°° à°°
à°¨à°µ à°Ĺ
à°¨à°µ à°ľà°¨
à°¨à°µ à°¸à°°à°®
Ġà°īà°ª à°Ń
à°¤à°ķ à°¥à°¤
à°ħà°¦ à°¯
Ġà°ªà°¡ à°¨à°ķ
à°¾. """
à°ĺ à°¤
Ġà°ħà°¸ à°µà°°
Ġà°ħà°¸ à°®à°Ĺ
à°²à°® à°¦
Ġ20 28
à°¨à°ķ à°ªà°¡
Ġ4 23
Ġ4 72
Ġ5 28
Ġ5 64
à°ªà°ķ à°¤à°ª
Ġ- (
à°ķà°¨ à°¬à°°
Ġà°¸à°Ń à°Ĺ
ĠâĢĺ âĢĻ
Ġà°ĩà°ļ à°Ł
à°®à°¤ à°ª
""" .
à°¯à°ªà°¡ à°¦à°¨
à°¯à°ªà°¡ à°Łà°®
à°ŀ à°Ĺà°²
Ġ6 16
Ġ6 76
Ġ6 31
Ġ6 73
à°¸à°¨ à°²à°¨
Ġà°¨à°° à°¬à°²
Ġà°ĩà°¤à°° à°ª
Ġà°®à°°à°£ à°¶à°¯
à±į- à±į
Ġ7 15
Ġ7 75
Ġ7 48
Ġ7 27
Ġ8 23
Ġ8 27
à°²à°µ à°¦à°¨
Ġà°¨à°¡ à°ªà°°
à°ĵ à°Ī
à°ĵ à°Īà°İà°¸
Ġà°ıà°¡ à°µà°²
à°ļà°ķ à°µ
Ġà°¥ à°¯
à°¿âĢĻ )
Ġà°ħà°Ł à°Ĺ
Ġ18 000
Ġ18 11
Ġà°¨à°¨ à°Ĺ
Ġà°¸à°¦ à°Ń
in for
à±įâĢĮâĢĮ âĢĻ
à°§à°ķ à°¶
er al
er ia
er man
à°ªà°°à°ļ à°Ĺà°²à°¦
à°¯à°£ à°¦
à°ªà°® à°Ĺ
à°°à°ªà°¡ à°µà°²à°¸
at hy
Ġ0 21
18 99
18 90
18 48
à°®à°°à°£ à°¤
à°µà°¬à°¡ à°¡
es is
Ġ60 6
80 9
Ġt ho
Ġà°ħà°µà°Ĺ à°¤à°®
ĠS C
ĠS w
ĠS port
ĠS IM
Ġà°¸à°µà°°à°£ à°²à°ª
Ġ80 286
Ġ70 5
Ġ70 6
ĠM edia
ĠM ovie
Ġs k
Ġs ome
Ġs ec
Ġs ix
Ġs end
Ġs ite
Ġs even
Ġà°ķà°¨à°¬à°¡ à°°
ĠR ahul
Ġm ph
Ġc ho
Ġc ourse
à±ĭ) :
is ing
is ation
ĠP NG
Ġp le
ĠB ar
ĠB ab
à°¦à°³ à°¬
à°ĺà°¨ à°²à°ª
à°Ĭ à°¸à°°à°µ
à°Ĺà°ªà°¡ à°µà°ļ
Ġ45 4
ĠG i
ĠG al
ĠG rand
ĠD ist
ĠF acebook
à°¯à°ªà°° à°ļà°²
ĠH F
ĠH o
Ġ75 3
Ġ75 5
Ġin let
Ġin tern
Ġo il
ame ter
ac celeration
à¤ ·
th od
à°ıà°ķ à°§
om in
à°ľà°µ à°ķà°°
Ġd onald
à°µà°£ à°¬
ur y
ĠL CA
Ġà°®à°Ĺ à°¶
à°¦à°¶ à°²à°¨
Ġà°ħà°¡à°Ĺ à°¬à°¡
à°īà°¦à°¯ à°Ĺ
Ġw rit
Ġw ife
Ġ65 4
à°ªà°°à°® à°¶
Ġ55 7
Ġg edit
Ġl ight
Ġh ome
44 1
à°¯à°µà°² à°¦
ra w
ĠK arnataka
ĠK alyan
à°¤à°°à°£ à°µ
ot rop
à±ĩâĢĻ ,
Ġ58 8
à°°à°µà°ļà°¨ à°µ
Ġk han
67 3
ch ange
ht ml
à°¾à°Ĥ! "
em on
à°¨à°µà°² à°¦
Ġà°Ĳà°ı à°İà°¨
ire ct
ort al
Ġ69 6
à°°à°¬à°¡ à°ķ
Ġre m
og a
Ġà°¨à°µà°² à°²à°¨
qu ant
ang ential
ĠIn formation
Ġ96 11
Ġà°¸à°« à°²à°¤
Ġà°°à°¥ à°¸à°ª
à°ıà°Ĳ à°Ĳà°ı
à°¦à°Ĺà°² à°°à°¨
Ġi ii
Ġà°ķà°°à°µ à°¯
Ġ* .
Ġcon dition
com p
Ġà°Ĺà°¡à°ªà°¡ à°®
RA D
.... ..
140 6
DA P
con found
ĠHD MI
ĠQ FD
Ġà°ıà°Ĳ à°Ĳà°¬
Ġdesign er
Ġà°µà°¡à°ª à°³à°¨
à°¨à°Łà°¨ à°¤
ĠNew ton
Ġan other
MI T
Ø§ ÙĨ
ens ity
Ġbe ing
âĿ ı
ru ary
Ġra pe
ĠSA P
ash mir
à¨ ¾
ĠNT R
ĠTh ailand
ĠIM D
TI MST
ann ing
LE O
ĠCl ass
Un ited
ÙĪ Ø±
Ġapp ro
âŀ ¥
ĠAs sociation
uck et
ĠRed dy
vers e
Ġtime s
EF T
urn s
bo ard
ĠCR PF
Hy undai
Ġtel angana
unn er
Ġsection al
Ġlead er
Ġpoll s
Ġmen u
cycl op
Ġcal led
AII MS
Mah indra
NEE T
edd ing
thermod ynamics
à°¤à°¡à°ķ à°Ĺà°²
ĠFeb ruary
ĠOct ober
clar ification
Õ¸Ö Ĥ
" %
' t
) âĢĮ
, ...
0 55
0 56
0 83
4 64
8 36
8 43
9 26
9 66
A VM
B E
C ent
F TP
G NU
K B
M an
N W
N o
N CR
P od
S up
W B
a im
b r
b u
b erg
c ise
c arbon
d ot
d ev
d efault
g reen
m ode
n am
n ome
o j
r ist
r du
s ing
t ed
v id
w in
w ali
} .
Â £
Î ²
Î Ķ
Õ ¥
Ù Ĥ
à ½
á ¹
á ¼
Ġ angular
Ġ impeller
Ĥ ÄĻ
à°¿ âĢĶ
à°¿ à¥¤
à°¾ @
à°¾ à°¿
à±ģ >
à±ģ \
à°° à°°à°¨
à°° à°ł
à°¨ à°¡à°Ĺ
à°Ĥ `.
à°Ĥ Â·
à°² à°µà°¤
à°ķ à°¤à°°
à°ķ à°¸à°°
à°ķ à°µà°¨à°°
à°¤ à°¤à°Ĺ
à°¤ à°µà°²à°¸
à°¦ à°ķà°²
à°¦ à°ªà°¤
à°¦ à°ªà°¡à°¤
à°¯ à°Ĺà°°
à°¯ à°µà°°à°£
à°ª à°ªà°¡à°¡
à°µ à°£à°ķ
à°® à°Łà°ķ
à°® à°µà°²à°¸
à°¡ à°®à°ķ
à°¡ à°µà°°à°ķ
à°Ĺ à°²à°ķà°¤
à°Ĺ à°Ńà°Ł
Ġà°ª à°¸à°°
à±Ĩ /
Ġà°¸ à°«à°°
Ġà°µ à°¤à°¨
âĢĮ à±įâĢĮ
Ġà°® à°²à°¨
Ġà°® à°°à°¤
Ġà°ħ à°µà°°à°£à°²
à°· à°·
à°· à°°à°§
à°· à°ªà°¡à°¤
à°· à°¸à°¤
à°· à°ķà°ªà°¦
à°ľ à°°à°¨
Ġà°¤ à°¬à°¸
à±Ī âĢĿ
à±Ī âĢĻ.
à°¶ à°°à°§
à°¶ à°°à°¹
Ġà°° à°²
Ġà°° à°ĸ
Ġà°° à°¸à°µ
à°¬ à°ĸ
à°¬ à°¸à°®à°¸
à°¹ à°¯à°ķ
Ġà°ī à°®à°¨
à°Ń à°¤à°®
Ġà°² à°ĸà°¨
Ġà°Ĺ à°°à°ª
Ġà°Ĺ à°¡à°µà°¦
Ġà°ľ à°®à°²
à°ħ à°¡à°ķ
à°ħ à°°à°ķà°ª
à°³ à°µà°°
à°³ à°ªà°°
à±Ĩà°Ĥ ?
à°²à°ķ à°®à°µ
Ġà°Ī à°¸à°®
à°°à°¤ à°Ĺà°²à°µ
à°Ĩ à°Ĩ
à°Ĩ à°ĸ
à°Ĩ à°Ĺà°ķ
à°ĸ à°®à°¨
Ġà°¯ à°®à°²
Ġà°®à°° à°¨
Ġà°ı à°µà°¯
Ġà°ı à°°à°ķà°®
Ġà°« à°ĸà°°
Ġà°¡ à°¤à°¡
à°®à°¨ à°µà°°
à°¯à°® à°Ł
Ġà°ķà°² à°²à°ķ
à°ķà°² à°²à°¨
à°ķà°² à°µà°°à°ª
à°°à°¸ à°Ńà°²
à°¾, âĢĿ
Ġ( #
à°¸à°° à°¯à°²
à°ķà°¡ à°¨à°¨
à°¯à°µ à°¯à°¸
à°¤à°® à°¡à°ķà°²
Ġà°ĵ à°¡à°Ł
à°µà°¡ à°ķ
à°µà°¡ à°¬
à°µà°¡ à°ķà°ª
Ġ. ....
à°¤à°² à°Ĺ
à°¤à°² à°ªà°²
à°¤à°² à°ªà°°à°ļ
Ġà°¤à°¨ à°¸
Ġà°ķà°¨ à°¸
âĢĻ :
à°Ĳ à°ıà°ıà°İà°«
Ġà°ªà°¨ à°Ĺ
à°°à°ª à°ļ
à°¨à°¦ à°¦
à°ı à°µà°°
Âł ĠÂłĠÂłĠÂłĠÂł
Ġà°¸à°¹ à°¯à°ķ
à°Łà°² à°µà°²
Ġà°¤à°® à°ķà°¨
à°¨à°¨ à°Ĺà°°
à°Łà°ķ à°¦
à°ĺ à°®à°¨
à°ł à°ªà°°à°ļ
Ġà°ħà°¡ à°®
Ġ4 21
Ġ4 26
Ġ5 22
Ġ5 23
Ġ5 47
Ġ5 32
Ġ5 95
Ġ5 49
à°²à°° à°Ĺ
à°ļà°¬à°¡ à°¨à°ª
à°ļà°¬à°¡ à°¡à°®
19 04
Ġà°ľà°¨ à°Ĺà°£à°®à°¨
à°¡à°Ĺ à°Ĺ
Ġ6 12
Ġ6 35
Ġ6 23
Ġà°ĩà°² à°µ
Ġà°Ĩà°¶ à°ļ
Ġà°Ĩà°¶ à°¯à°®à°¨
Ġ7 35
Ġ7 69
Ġ7 98
à°¤à°µ à°ª
Ġà°¬à°² à°Ńà°¦
Ġà°ķà°³ à°¤
à°°à°Ĺ à°¬à°¡à°¤
à°ĵ à°·à°§
à°ķà°® à°µà°¡
à°ķà°® à°ķà°ª
Ġ9 10
Ġ9 30
Ġ9 12
Ġ9 21
Ġ9 34
Ġ9 52
Ġ9 67
Ġ9 59
Ġ9 73
à°µà°¦ à°Ĺ
à±Ĥ, .
à°¦à°¯ à°¦
à°Ĺà°¡ à°¡
à°Ĺà°¡ à°²à°¨
Ġà°¥ à°ķ
à±į) /
à°µà°²à°¸ à°ķ
Ġ14 50
Ġ14 000
Ġà°Ĩà°ª à°¬à°¡
Ġà°ħà°¬ à°§
Ġ18 77
Ġ18 64
Ġ18 44
Ġ18 61
Ġ18 82
Ġ16 94
à°¸à°¹ à°µ
Ġà°ıà°ķ à°¸à°Ń
15 13
à°¤à°Ł à°¤
à±įâĢĮâĢĮ '
à°ķà°¸ à°¤
à°ķà°¸ à°¬
à°·à°¯à°® à°¦
70 2
er j
er ies
à°µà°Ł à°®à°¨
on i
an ing
Ġà°ĵà°¡ à°²à°ķ
à°¸à°Ĺ à°¬à°¡
à°¯à°Łà°¨ à°²à°²
Ġà°¦à°³ à°¸à°°
at ors
at ural
à°¨à°¹ à°³
18 30
18 98
18 84
18 91
à±įâĢĮ) âĢĻ
à°ħà°Ń à°¦
à°§à°ªà°¡ à°µà°¦
à°¯à°¯ à°ªà°°à°ļ
à°¨à°¸à°Ń à°²
ĠC al
ĠC ha
ĠC heck
à±į( _
à±įâĢĮâĢĻ )
Ġà°¬à°²à°® à°¯
Ġt ransport
ic ide
ic les
it a
en ef
ĠI ST
ĠM ic
ĠM umbai
ĠT CS
Ġs ens
Ġs elf
Ġs chool
Ġà°ļà°¦à°µ à°µà°²à°¸
à°µà°ª à°°à°®
ĠU TF
ĠU CLA
à°ŀà°¤à°² à°¤
Ġm om
ĠN PR
ĠN EX
Ġc er
Ġc ome
ĠP b
ĠP ilot
Ġp o
Ġp ack
le ment
à°Ĭ à°¸
à°Ĭ à°ļà°ķ
à°Ĭ à°¹à°²
Ġà°®à°® à°¤à°¨
as ht
he w
ĠG W
ĠD E
ĠD M
ĠD ies
à°Łà°£à°® à°Ĺ
ĠF ifth
à°¨à°¬à°¡ à°¡
il ter
ĠH y
Ġo pp
à°ıà°¡ à°µà°¨
Ġf ield
Ġf uel
Ġb ug
Ġb ack
Ġb ike
à°Łà°¬à°¡ à°¡
Ġn e
Ġn et
95 5
95 9
ĠE nt
ol v
ĠV al
ur ity
ur der
ĠL O
ĠL LP
Ġà°Ŀ à°µ
ĠO P
ĠO fficial
à°°à°¥à°® à°®
à°¯à°µà°° à°ª
Ġ49 4
Ġà°ħà°¡à°Ĺ à°¦à°²
ĠX Y
ĠX VI
Ġw est
Ġ55 6
Ġg et
Ġl ook
st r
Ġh ar
à°Ķ à°¦
ra b
à±įâĢį ,
ĠK umar
ĠK erala
ug g
ut es
ri m
ri end
oc ation
ay t
ĠJ P
ĠJ W
ĠJ io
ĠJ avaScript
09 4
ĠUS à°²
Ġà°ªà°²à°ķ à°ķ
ers ion
à°ıà°Ĳ à°¯
Ġ} )
à±ĤâĢ¦ ?
CO M
if y
Ġj o
Ġy outube
Ġcon v
Ġcon nect
our ces
com ing
à°ĤâĢĻâĢĻ .
all s
pl us
ast ic
à® µ
ĠQ u
Ġà°¤à°°à°® à°¡
Ġe ffect
à°ľà°¤ à°ļ
à°¨à°Łà°¨ à°ª
Ġ""% (
à°Ĺà°ªà°° à°ļà°²
Ġsc i
TE R
one y
Ġan y
ish es
Ġbe en
ĠIP O
short Name
IS BN
ink ing
âĿ ¤
ĠAl so
ci ent
Ġel ection
ash ing
hot os
Ġman y
ĠEx t
AI B
ĠLinux à°²
ĠMS ME
Ġcol span
ĠMB BS
iet f
Ġnew s
ĠMy SQL
oper ation
format S
Ġstr ing
Ġà°®à°¥à°¨ à°ªà°¡
ĠMar ch
miss ions
ĠJan uary
Bi har
mat ics
ĠVo LTE
ĠOn line
ĠMozillian s
ĠCount y
ĠBrit ish
Î¯ Î±
ubb les
Ġequ ation
mechan ical
asth an
Ġlat he
oso phy
ĠFrank lin
Ġtheore m
aÅ ĤÄĻ
aÅĤÄĻ sa
" à°¾
) âĢĿ
- )
/ ,
9 45
9 32
9 36
< >
A BS
A udio
A yodhya
C II
D ST
D NS
F or
F act
J D
K it
M r
M om
M ost
N P
N PCI
O CSP
S w
T LS
U à°²
V O
V ijay
W in
Z A
Z F
d k
d t
d ec
j ust
k ey
k arnataka
l t
m u
n m
n es
n ection
p ad
p ur
p age
s ide
t wo
t witter
u a
v in
Å į
É ĳ
Î º
Î »
Õ ¶
× Ļ
Ġ à±ĥ
Ġ Ã§
à± §
à±į _
à±į âĢ
à±į ÂŃ
à°¿ âĢĮ,
à±ģ _
à±ģ âĢį
à±ģ \""
à°° à°Łà°®
à°° à°¡à°ķ
à°° à°Łà°ķà°¨
à°¨ à°µà°¡
à°¨ à°Ĺà°²à°µ
à°¨ à°¦à°²à°ļ
à°² à°¤à°²à°¤
à°ķ à°ķà°°
à°ķ à°¬à°Ł
à°ķ à°§à°¨
à°¤ à°¶à°°
à°¤ à°¸à°®à°¯
à°¦ à°¤à°²
à°¯ à°¥à°¨
à±ĭ "
à±ĭ à°¾
à°Ł à°¦à°²
à°Ł à°ªà°ķ
à°Ł à°µà°Ĺ
à°¸ à°¡à°ķ
à°ª à°ĸ
à°µ à°ªà°ķ
à°µ à°ħà°§
à°µ à°µà°¹à°°
à°® à°ªà°¤
à°® à°¹à°¨
à°® à°ªà°²
à°¡ à°§
à°¡ à°¹
à°¡ à°¤à°ķ
à°Ĺ à°Ĺà°²à°°
Ġà°ª à°Ń
âĢĮ à±Ĩ
Ġà°® à°®à°²
Ġà°® à°²à°Ĺ
Ġà°® à°¥à°ķ
Ġà°ħ à°¤à°°
Ġà°ħ à°Ľ
Ġà°ħ à°²à°ķà°°
Ġà°ļ à°Ĺ
Ġà°ļ à°¹
à±Ĥ ]
Ġà°¨ à°°à°¶
Ġà°¨ à°¯à°¸
Ġà°¨ à°µà°¸
Ġà°¨ à°²à°¤à°Ĺ
à±įâĢĮ à±į
à°¿. âĢĿ
à°· à°°à°°
à°ľ à°ªà°Ł
à°ľ à°¸à°¨
à°ľ à°§à°°
Ġà°¤ à°ķà°°
Ġà°¤ à°¯à°°
à±Ī à±į
à°¶ à°¦à°®
à°¬ à°ªà°¡
à°¬ à°¹à°°
Ġà°Ĩ à°¨à°ķ
à°¹ à°¤à°Ĺ
à°¹ à°ªà°°à°ļà°¡
à°£ à°ķà°Ł
à°£ à°¤à°²à°¨
Ġà°¦ à°¹à°²
Ġà°¬ à°¡à°¦
à°Ń à°°à°¦
à°Ń à°¨à°ª
à°Ń à°¨à°¤
Ġà°İ à°®à°¨
Ġà°İ à°Ĳà°Ł
Ġà°Ĺ à°¦à°¨
à°¾à°Ĥ ),
à°¾à°Ĥ âĢį
à°ħ à°°à°¸
à°ħ à°ªà°ķ
à°ħ à°£à°Ĺ
Ġà°ħà°¨ à°¦
à°²à°ķ à°¦
à°Ī à°®à°¦
à°Ī à°¥à°°
à°µà°° à°Ń
à°ĩ à°§
Ġà°Ī à°¦à°°
Ġà°Ī à°¤à°¨
à°°à°¤ à°ªà°°à°®
à°°à°® à°¯à°®
à°°à°® à°ªà°°
Ġà°¯ à°µà°ķ
Ġà°®à°° à°¦
Ġà°Ł à°ªà°Ł
Ġà°ı à°ĵ
Ġà°ı à°²à°Ĺ
Ġà°ı à°Īà°µ
Ġà°ı à°Ĳà°¬
Ġà°ı à°Ĳà°ľ
à°°à°ķ à°£
Ġà°Ĵ à°ľ
Ġà°Ĵ à°µà°°
Ġà°¸à°® à°°à°®
à±į, .
à±ĩà°Ĥ âĢĻâĢĻ
Ġà°Ĵà°ķ à°Ĺ
Ġà°Ĵà°ķ à°°à°®
Ġà°Ĵà°ķ à°ªà°ķ
à°®à°¨ à°®à°¨
à°Łà°¨ à°µà°¸à°°
à°¯à°® à°¬
Ġà°ķà°² à°ªà°Ĺ
Ġà°ķà°² à°¤à°ªà°¡
à°ķà°² à°µà°°
à°°à°¸ à°µà°®
à°°à°¯ à°ªà°Ł
à°°à°µ à°¬à°¡à°¤
Ġà°§ à°ķ
à°¦à°² à°ªà°Ł
Ġ. """
Ġà°¤à°¨ à°¦à°¨
Ġà°· à°¹à°¬
Ġà°¨à°Ł à°ķ
à°Ĳ à°·
à°ľà°¨ à°¶à°ķ
à°²à°¤ à°²à°ķ
Ġà°ªà°¨ à°®
à°µà°¨ à°ľ
à°ı à°ªà°¨
à°ı à°µà°¯
à°ı à°Ĳà°İà°¸
Ġ3 200
à°Łà°² à°µà°²à°¨
Ġà°īà°ª à°²à°¬
Ġà°Ĳ à°İà°ķ
Ġà°Ĳ à°ĵà°Ł
à±ģ? ...
à°¤à°ķ à°ļ
à°¤à°ķ à°µà°ļ
à°¤à°ķ à°³à°²à°ķ
à°¨à°¨ à°²à°¨
à°ľà°° à°Ĺà°¨
Ġà°īà°¦ à°¯à°¸
à±ĸ à±ĸ
à°¨à°¸ à°¸à°°
à°²à°® à°¯à°®
Ġà°ķà°° à°Ĺà°¨
Ġà°ħà°¡ à°Ĺà°®
à°¨à°ķ à°°à°®à°¨
Ġ4 28
Ġ4 74
Ġ5 15
Ġ5 48
Ġ5 33
Ġ5 46
Ġ5 62
Ġ5 67
à°¥à°² à°µ
à°®à°ķ à°£
Ġà°¸à°Ń à°µ
à°ļà°¬à°¡ à°¦à°¨
à°Ĵà°ķ à°¤à°¨
à°°à°ľà°² à°µ
Ġ6 27
Ġ6 38
Ġ6 800
Ġ6 61
Ġ6 63
à°ķà°Ł à°ªà°¤
Ġ7 25
Ġ7 45
Ġ7 26
à°¿: âĢľ
Ġà°¬à°² à°¸
50 4
50 5
à°ķà°°à°£ à°ķà°°
Ġ8 99
Ġ8 75
Ġà°¨à°¡ à°ķà°¤
Ġà°¨à°¡ à°ķà°¦
Ġà°¨à°¡ à°ªà°µà°ļ
Ġà°Ľ à°°
à°ĵ à°İà°²
Ġà°Ĭ à°ªà°¡
Ġà°Ĭ à°¹à°¨
Ġà°Ĭ à°¡à°Ĺ
Ġ9 54
Ġ9 84
à°ªà°¦ à°ª
à°¨à°¡ à°µà°²
à°Ĺà°¦ à°¤
à°¯à°¬à°¡ à°ķà°®
à°¡à°ķ à°±
à°ļà°ķ à°®à°¨
Ġà°Ĺà°¡ à°ªà°¦
Ġà°¬à°¹ à°®à°¨
Ġà°¥ à°®
Ġ15 13
à°Łà°ªà°¡ à°µ
à°¿) -
Ġà°ħà°¬ à°²
Ġà°®à°¤ à°®à°¨
Ġà°ķà°¦ à°ª
à°°à°¸à°¨ à°²à°²
Ġ18 10
Ġ18 99
Ġ18 75
Ġ18 80
Ġ18 32
Ġ18 88
Ġ18 63
Ġ18 89
Ġ18 84
Ġ18 81
à°§à°ķ à°°à°®à°¨
à°·à°¯à°® à°Ĺ
à°¥à°¨ à°²à°¯
à°®à°® à°¯à°®
Ġà°ĺà°¨ à°ªà°°à°ļà°¬à°¡
à°± à°²à°²
à°± à°²à°®
re c
Ġà°İà°¡ à°®à°¤
à°¬à°¯ à°Łà°ª
at ell
à°®à°¯ à°ªà°°
Ġà°ľà°² à°«
à°Ĥ) ."
Ġà°¸à°ķ à°¶
à°®à°µ à°¶
à±į' (
à°ĥ .
Ġ28 00
à°µà°¬à°¡ à°¨
22 90
Ġà°Ĩà°¦à°° à°£à°¯
ĠA p
ĠA ugust
ĠA pril
it hout
ĠI CA
ĠI TR
à°Łà°²à°ķ à°¨
90 2
Ġ) :
ĠM R
ĠT rans
ĠT emple
Ġs har
Ġà°°à°£ à°Ĺ
ĠR ho
ĠR ob
ĠR PM
à°¿"" ?"
à°²à°¬à°¡ à°¨
à°¡à°µà°² à°¤
ĠU DF
Ġm on
Ġm iss
Ġm arri
ĠN E
ĠN w
ĠN DRF
Ġc op
Ġc oll
Ġà°µà°²à°¸ à°²à°ķ
is er
is ed
is hank
Ġà°ªà°°à°® à°µ
ĠP an
ĠP DP
ĠP oll
ĠP NB
Ġp akistan
le g
Ġ90 3
Ġ90 7
Ġ45 6
à°ķà°ļ à°ļ
he t
ĠG E
ĠD S
ĠD X
ĠD ell
ĠF DA
ĠF ield
am y
à°¨à°¬à°¡ à°Ĺ
il ing
Ġin stru
Ġf ra
Ġf ound
Ġà°°à°ĺ à°°
à°¾à°ĤâĢĻ .
om a
Ġd p
ĠE con
ĠE lect
ĠE ICMA
ol i
ol y
ol ence
ĠV ol
ĠV ijay
Ġà°Ŀ à°ľ
ĠW HI
à±ģ... "
et er
ĠX IV
Ġ65 2
Ġà°°à°®à°£ à°ķ
Ġà°°à°®à°£ à°¦
Ġg u
Ġg re
Ġg en
Ġg rad
Ġh a
Ġà°Īà°¯à°¨ à°¯
Ġà°İà°¡à°® à°ª
ĠK ar
ug e
Ġà°Ĭà°°à°Ł à°Ĺ
Ġà°ħà°¯à°¨ à°¨
à°¿... ..
ut t
ot a
ot o
res ervoir
Ġ58 1
Ġ58 2
Ġk apoor
à°Ĳà°ı à°Ł
ent ropic
ag g
ag ar
ag ing
à°ªà°Ĺà°² à°®à°¨
iv ed
Ġ78 7
09 3
Ġre t
Ġre le
ap plication
Ġr atio
im ple
ĠUS SR
Ġ96 60
av y
Ġà°ªà°¤à°¨à°® à°µà°¡
Ġst ri
Ġst udies
brand Sh
ill a
à°¦à°Ĺà°² à°¦à°¨
à°¾âĢĿ ,
ph one
ME A
Ġà°ħà°¡à°Ĺà°¡ à°®
pp o
Ġy ears
Ġgov t
à°¹à°ľ à°¤
à°¹à°ľ à°²à°®
Ġà°ļà°µà°ķ à°¬
pl es
Ġme mb
Ġà¤ ¹
Ġà¤ Ń
à® ²
int eg
SS R
ĠZ X
per ty
NA SA
ha h
oz z
ÂłÂł Ġ
BC CI
Ġà°ħà°²à°ķ à°¬
ry pt
EA N
Ġhe alth
ree k
à±ĪâĢĻ ,
CS K
St ate
HA I
Ġbe fore
sh orter
put er
use um
CE T
à³ Ĩ
Ġex p
RE TScreen
uk e
tr ue
ĠTh er
Ġres ign
ict ure
JP EG
oy al
eng th
ĠAm erica
Th er
Ġà°¬à°¸à°µ à°ª
ĠMA PI
bl ig
bl ock
Ġprocess ing
MD N
ĠNA ME
inc idence
cript ive
rid ge
ĠEd ition
Ġvari ables
PU BG
des criptive
Ġmill ion
cur rent
ĠSup reme
bab ility
Ð¾ Ð
ĠOr gan
ste ps
Ġ---- -
Ġcur rent
Ġà°¦à°¡à°¦ à°¡à°²
ones ia
ĠTime s
Ġsecond s
uj arat
orter Name
Ġrock et
section al
Ġent ry
Ġbet ween
Ġoptim ization
âĢ¡ à±į
reens hot
gar h
requ ency
ĠBAS IC
Ġkine matics
Ġscreen ing
ayt m
2290 1406
Ġfra ud
brandSh orterName
) /
) ]
) ""."
- %
0 37
0 34
5 700
8 400
9 14
9 64
A nt
B B
B ox
B luetooth
C ount
D rag
E MA
H e
H ow
I b
K S
L M
M ult
M CP
M CLR
N F
N e
N CP
N BA
P OS
Q OD
R PN
S uzuki
U R
V T
V elocity
Z E
a int
b et
b untu
c er
c ar
d m
d oc
e el
f ixed
g r
g lobal
g tk
h vi
l ib
l ife
m oz
o S
o th
o ps
r ite
s en
t d
t en
w ise
× ķ
Û ģ
æ ĥ
æ Ĺ
Ġ ic
Ġ ant
Ġ ____
Ġ à¥¤
à°¿ _
à°¿ à±Ģ
à°¿ à±ĥ
à°¿ âĢĺâĢĺ
à°° à°Łà°¨
à°° à°·à°°
à°¨ à°ļà°²à°¨
à°Ĥ %
à°Ĥ âĢĮ,
à°² à°Ĺà°¤
à°ķ à°¨à°¨
à°ķ à°µà°¸
à°ķ à°ķà°®
à°ķ à°®à°¨à°¸
à°ķ à°¨à°µà°¸à°°
à°¤ à°·
à°¤ à°ªà°ķ
à°¦ à°ĺ
à°¦ à°®à°²
à°¦ à°¶à°®
à°¯ à°ľà°¯
à°¯ à°ľà°°
à±ĭ à±Ĭ
à±ĭ ""."
à±ĩ Â¸
à°Ł à°¸à°®
à°Ł à°¡à°Ĺ
à°¸ à°Ĺà°°
à°ª à°¤à°°
à°ª à°²à°¯
à°ª à°µà°¤
à°ª à°¹à°²
à°ª à°ªà°¡à°ķ
à°ª à°ľà°¨à°ķ
à°µ à°¯à°²
à°µ à°ªà°°à°ļ
à°® à°¸à°¨
à°® à°Ńà°ķ
à°® à°°à°ķà°²
à°® à°Ĺà°²à°¦
à°¡ à°«
à±Ģ à±ģ
à°Ĺ à°¤à°°
à°Ĺ à°¸à°°
à°Ĺ à°§à°¨
à°Ĺ à°ķà°®
Ġà°ª à°§à°ķà°®
à°ļ à°¬à°¦
à±Ĩ à±įâĢĮ
à±Ĩ à±Ī
Ġà°ķ à°¡à°¦
Ġà°ķ à°°à°£à°®
Ġà°ķ à°µà°²à°ª
Ġà°¸ à°¶
Ġà°¸ à°¯à°®
Ġà°¸ à°²à°®
âĢĮ `.
Ġà°® à°ľà°°
Ġà°® à°ķà°¨
Ġà°ħ à°²à°ķà°²
Ġà°ħ à°²à°ķà°¨
Ġà°ļ à°°à°ķ
à±Ĥ à°Ĥ)
Ġà°¨ à°µà°¹
Ġà°¨ à°°à°µà°¨
à±įâĢĮ âĢ¦.
à°· à°¤à°¤
à°ľ à°¦à°°
Ġà°¤ à°Ĺà°°
à°¶ à°°à°Ń
à°¶ à°ªà°°à°ļà°¡
à°§ à°°à°¤
à°¬ à°Ĺà°²
à±Ĭ âĢĮ
Ġà°Ĩ à°°à°£
à±ģà°Ĥ )
à°¹ à°µà°°
à°¹ à°ľà°°
à°¹ à°¨à°¸
Ġà°ī à°¡à°¤
Ġà°İ à°Ĺà°°à°Ĺ
Ġà°ĩ à°ĩ
Ġà°ĩ à°¤à°®
Ġà°Ĺ à°²à°¨
Ġà°Ĺ à°°à°®
Ġà°Ĺ à°¯à°²
Ġà°ľ à°µà°¨
à°¥ à°ªà°¡
à°¥ à°¤à°Ĺ
Ġà°ħà°¨ à°¡à°®
Ġà°Ń à°¬
à°Ī à°ķà°²
à°Ī à°Ĳà°İà°¸
à°Ī à°ĺà°Łà°¨à°ķ
à°ĩ à°°à°ķ
Ġà°¶ à°¨à°ķ
à°İ à°Ĺà°µ
à°İ à°Ĳà°Ĳà°İà°®
Ġà°¹ à°°à°¦
à°Ĩ à°Łà°µ
à°Ĩ à°¯à°ķà°Ł
à°ĸ à°¨à°°à°¹
à°¯à°¨ à°¸
Ġà°¯ à°¹à°¤
Ġà°¯ à°²à°¹
Ġà°ı à°Ń
Ġà°ªà°° à°¨
à°°à°ķ à°µà°ļ
Ġà°¸à°® à°°à°Ń
Ġà°¸à°® à°¸à°®
Ġà°« à°«
Ġà°« à°°à°ķ
à±ĩà°Ĥ ""
à°¯à°ķ à°ķ
à°¯à°ķ à°µ
à°°à°£ à°®à°¦
Ġà°ľà°° à°¨
Ġà°ľà°° à°ªà°°
à°·à°¨ à°ķ
Ġà°ħà°µ à°¨à°¤
à°¤à°¨ à°®à°¯
à°¤à°¨ à°®à°Ĺ
Ġà°ħà°§ à°ķ
à°°à°Ń à°ķ
à°ªà°¡ à°Ĺà°²à°¦à°¨
à°ķà°² à°ªà°²
Ġà°¤à°° à°¹à°²
à°¯à°² à°Ł
Ġ( ?
à°¸à°° à°ªà°¡
à°·à°² à°¯
à°°à°µ à°¦à°¨
à°µà°¡ à°ķà°Ł
Ġà°ħà°Ń à°°
Ġà°¨à°Ł à°µ
Ġà°¨à°Ł à°ľ
à°Ĳ à°µà°°
à°Ĳ à°ĵà°Ł
à±įâĢĮ, ,
à°°à°ª à°°à°¤
Ġà°Ĩà°¸ à°¨à°®
à°µà°¨ à°¯
à°¨à°¦ à°¶à°²
à°ı à°Ĳà°¡
Ġ3 300
Ġ3 400
à°·à°£ à°¯à°¨
à°·à°£ à°ķà°°à°®
à°¨à°µ à°µ
Ġà°Ĳ à°ĸ
Ġà°Ĳ à°ĩà°¡
Ġà°ıà°® à°¡
à°µà°¤ à°¦
à°²à°ª à°°à°®
à°¨à°¨ à°®
à°Łà°ķ à°ķà°°
à°ľà°° à°Ĺà°ķ
à°ľà°° à°Ĺà°µà°²à°¸
à°ħà°¦ à°¸à°²
à°Ĵ à°Ĺ
à°ī à°ĸ
à°ļà°² à°°
Ġà°ħà°¡ à°Ĺà°µ
Ġ5 13
Ġ5 39
à°ħà°² à°¸à°¤
à°µà°¹ à°¨
à°ľà°ķ à°µ
à°Ĵà°ķ à°ķ
à°¯à°ªà°¡ à°Ĺà°²à°µ
à°¯à°¸ à°¦
à°¯à°¸ à°¨à°ªà°¡à°ķ
à°ŀ à°²à°²
Ġà°ľà°¨ à°Ķà°·à°§
ĠâĢĿ )
Ġ6 600
Ġ6 67
Ġà°ĩà°² à°¸
à°µà°¸ à°Ńà°²
à°§à°¨ à°¯
Ġà°ĺ à°Łà°ª
Ġà°ĺ à°¨à°Łà°²
Ġ7 28
Ġ7 79
Ġ7 41
Ġ7 88
Ġ7 91
Ġ8 95
Ġ8 66
Ġ8 74
Ġ8 57
ĠâĢľ .
Ġà°Ĩà°¨ à°¤
à°µà°Ĺ à°¡
Ġà°¨à°¡ à°¤à°¨
Ġà°¨à°¡ à°µà°¡à°®
Ġà°Ĭ à°°à°¨
Ġ9 16
Ġ9 80
Ġ9 26
Ġ9 47
Ġ9 55
Ġ9 58
Ġ9 86
à°¯à°¬à°¡ à°ķà°ª
à°ħà°µ à°ª
à°ħà°® à°°à°¤
à°¦à°¯ à°®à°¨
à°¦à°¯ à°Ĺà°²
Ġà°Ĺà°¡ à°¬
Ġ15 000
à±ģ! ,
à°¶à°¨ à°ľ
Ġà°Ĩà°ª à°¬
à°²à°Ń à°Ń
Ġ200 00
Ġ18 15
Ġ18 78
Ġ18 51
Ġ18 53
Ġ18 86
Ġ18 94
Ġà°ıà°ķ à°µà°ļà°¨
à°Łà°£ à°®à°¨
à°µà°® à°µ
à±įâĢĮâĢĮ (
à°Ĺà°£ à°¨à°ªà°°
er ed
Ġà°Ĺà°£ à°¨à°ķ
à±Ģ) /
à±Ģ) âĢĻ
Ġà°ĺà°¨ à°¶
Ġà°ľà°°à°Ĺ à°ļ
à°± à°²à°µà°²
Ġà°ĵà°¡ à°²à°²
re view
Ġà°Ķ à°Ĺ
at el
Ġà°ľà°¯ à°®à°¨
me s
à°¯à°®à°¨ à°Ĺ
or der
à°µà°¬à°¡ à°Ĺ
ĠC ase
ĠC ons
ĠC ouncil
à°¸à°¨à°¸à°Ń à°ļ
à±įâĢĮâĢĻ (
à±ģ"" )."
ar th
11 25
Ġ60 2
à°°à°®à°£ à°ª
Ġt emperature
Ġà°Ĩà°¦à°° à°£à°²
ĠS ub
ĠS ept
ĠA L
ĠA TP
ĠA IDS
ic ip
it ical
it ics
Ġ80 3
Ġ80 5
Ġà°¨à°°à°¸ à°®
ĠM V
ĠM ax
ĠT ri
ĠT witter
Ġà°ķà°¨à°¬à°¡ à°Ĺ
Ġm d
Ġm umbai
Ġà°ªà°°à°® à°¦
ĠP V
ĠP er
ĠP KCS
ĠP awan
ĠB A
ĠB ro
ĠB CE
ĠB aloo
ĠB engal
Ġ[ %
à°ħà°®à°° à°¨
à°ªà°µ à°ļà°¨à°®
à°¿âĢ¦ âĢĿ
à°Ĥ- -
ĠâĢĮ -
Ġà°ħà°¨à°Ĺ à°²à°¨
as on
Ġ% .
ĠG l
ĠG old
ĠG tk
di um
ĠF und
ĠF etch
am u
am an
Ġ48 3
ĠH a
ĠH ealth
Ġo p
à¤ ¡
à¤ ļ
Ġb as
Ġd r
95 1
ĠE m
ĠE MS
ĠE PF
ĠL LC
ĠO ff
à±ģ] ]
ĠX II
Ġw ell
Ġw ere
Ġw ithout
76 2
76 6
Ġg irl
Ġh ow
à°Ĩà°¡ à°ªà°¡
ra k
Ġà°¬à°²à°ªà°¡ à°Ĺ
Ġv erdict
Ġthe m
à°§à°Ĺ à°¯à°²
Ġà°ħà°¯à°¨ à°ķ
Ġ59 1
Ġ59 8
ut o
ut ton
Ġà°ķà°¨à°ªà°¡ à°ķà°ª
umb ers
Ġk Wh
05 4
Ġà°°à°ļà°¨ à°²à°¤
Ġà°ªà°°à°ļ à°µà°²
os ition
à±ĭ' ,
iv a
à°°à°¬à°¡ à°²
Ġr n
à°µà°Ĺà°² à°®
ex peri
à°²à°µà°¬à°¡ à°¤
ĠY S
ĠY ahoo
av ati
Ġà°Ĺà°¡à°ª à°µà°²à°¸
à±ĤâĢ¦ !
Ġà°ķà°§ à°²à°¨
IC E
Ġst at
ill ion
Ġà°®à°¦à°¨ à°µà°°
à°ªà°¦à°² à°ª
à°¾âĢĿ .
if f
SA I
à² ¦
à² Ĥ
ĠOne Plus
AT I
AT M
Ġpro duct
à°ĸà°²à°¨ à°®
âľ §
Ġen g
ess ion
all i
Ġà¤ ¦
à® Ł
Short name
à¦ ¨
à¦ ¬
Ġmo therfuck
âĩ ¨
ĠQ Shortcut
Ġà°ıà°Ĳ à°¯
BC Result
ry ption
CP L
ern o
ern al
Ġpl ace
ount ain
CS IR
ĠURL à°¨
ish ed
Ø§ Ø±
Ø§ Ø¯
ss age
AN I
AN N
EE E
ood s
Ġra il
val id
Ġel se
RE M
ĠMac intosh
à°ļà°¯à°¤ à°Ĺà°²à°µ
ER D
eng ali
Ġtri b
row n
ĠUnix à°¨
Ġsh ow
Ġcont in
Ġar rest
ĠPl us
ĠRe ynolds
ĠCon f
ĠEng lish
Ġpric es
ĠSp ec
arg o
stit ution
mod el
Ġlb f
Ġkil omet
ĠInd onesia
Ġà°İà°°à°Ĺ à°¨à°Ł
ĠMI ME
apt ain
Ġconf iguration
vari able
uss ian
ĠCent ral
pol icy
Ġser ies
rib ution
ours era
Ġrot ation
ally a
ĠArt icle
trans l
Ġbu ild
Ġmag nitude
Per missions
Ġà°ľà°¨à°Ĺà°£ à°¨à°ķ
Ġpeop le
epidemi ological
reenshot s
QOD BCResult
æĥ ħ
ĠFetch Event
0 47
A ir
A ustralia
B H
B P
C ol
D e
D à°²
F luid
F rench
H MS
I f
I ME
J K
L e
M à°²
M od
M RI
M TS
M odi
N IA
P ics
P ack
P ost
R FC
S ub
S ystem
T r
V E
] )
a ugh
c at
c oronavirus
c ounter
d o
d elhi
d egree
e qu
f m
h and
i od
i qu
l ang
l ock
m ap
o T
o ud
p ar
p ass
r r
Â ¿
Ã ¶
Ä ĵ
Ï ĥ
Ñ Ĥ
Ñ ĥ
Õ ¿
Ú ©
ä º
ï ĥ
ð Ĳ
Ġ ec
Ġ user
à°¿ Â«
à±ģ +
à±ģ |
à°° à°·à°¨
à°¨ à°°à°¦
à°¨ à°¶à°ķ
à°¨ à°µà°°à°ķ
à°² à°¬à°Ł
à°ķ à°°à°ķà°Ł
à°ķ à°¹à°¤
à°ķ à°Ńà°¤
à°ķ à°§à°°à°²
à°¦ à°ªà°ķ
à°Ł à°°à°®
à°Ł à°Ĺà°¤
à°Ł à°¦à°Ĺ
à°Ł à°¦à°²à°ļ
à°¸ à°·à°¨
à°¸ à°·à°¨à°²
à°ª à°ªà°¤
à°µ à°ĩ
à°® à°¯à°ķ
à°® à°¶à°°
à°¡ à°¨à°ª
à°Ĺ à°¨à°ª
à°Ĺ à°ľà°®
à°Ĺ à°¬à°²
à°ļ à°ľà°°
à°ļ à°¹à°²
âĢ ³
Ġà°ķ à°¸à°°
âĢĮ à±ĩ
âĢĮ à°¿à°Ĥ
Ġà°® à°Ĺà°¸
Ġà°ħ à°ªà°Ł
Ġà°ħ à°ľà°¨
Ġà°ļ à°¯
Ġà°ļ à°Ĺà°¨
à±ģ. ]
à±Ĥ âĢĺ
Ġà°¨ à°ķà°°
Ġà°¨ à°°à°¸à°¨
Ġà°¨ à°ķà°³
à°¿. &
à°ľ à°¯à°²
à°ľ à°ªà°°à°ļ
à°¶ à°£
à°¶ à°µà°¨
à°¶ à°µà°®
Ġà°° à°°
Ġà°° à°¸à°¹
Ġà°° à°¸à°Ĺ
à°§ à°ªà°Ł
à°§ à°°à°ª
à°§ à°ķà°¸
à°§ à°ªà°°à°ļà°¡
à°¬ à°µà°°
à°¬ à°¨à°¸
à°¬ à°ķà°¥
à°¬ à°ªà°°à°®
à±Ĭ )
à±ģà°Ĥ âĢį
à°¹ à°²à°®
à°¹ à°£à°²
à°£ à°ªà°ķ
Ġà°¬ à°¡à°¨
Ġà°¬ à°¯à°ª
à°Ń à°¯à°¤
à°Ń à°£à°¨
Ġà°² à°¯à°¬à°¦
Ġà°İ à°¥à°°
Ġà°ĩ à°İà°®
Ġà°ľ à°·
à°ħ à°²à°ª
à°ħ à°Ĺà°ª
à°²à°¨ à°µà°¸à°°
à°²à°ķ à°£
à°Ī à°¤à°Ĺ
à°ĩ à°¤à°°à°®
à°°à°¤ à°µà°²
Ġà°¹ à°¨à°®
à°Ĩ à°¹à°°
à°¯à°¨ à°ļà°°
à°°à°® à°°à°µ
Ġà°¯ à°µà°®
Ġà°®à°° à°µà°°
Ġà°ı à°²à°¤
Ġà°ªà°° à°Ń
Ġà°ªà°° à°ľà°¨
Ġà°¸à°® à°¬
Ġà°¸à°® à°°à°¸
à°¦à°¨ à°Ĺà°²à°°
à±ĩà°Ĥ )
à°®à°¨ à°¦à°Ĺ
à°·à°¨ à°¨
Ġà°ħà°µ à°²à°ķ
à°²à°² à°Ĺ
Ġà°ħà°§ à°¨à°ª
Ġà°ķà°² à°¬à°¡
"" ),
"" ?"
"" )."
Ġ( +)
à°ĩà°¦ à°¸à°²
à°®à°° à°ļà°°
Ġà°ĩà°¦ à°µ
à°¤à°® à°¤à°®
à°Ĩà°° à°¬
Ġà°ķà°¨ à°ľ
à°Ĥ, .
Ġà°ĸ à°ľà°¨
Ġà°Ĩà°¸ à°²
Ġà°ļà°° à°ĸ
à°Ĺà°¤ à°¸
à°ı à°®à°°
à°ı à°°à°¨
Âł ĠÂłĠÂł
à°·à°£ à°¶à°ķ
Ġà°Ĳ à°ĵà°¬
à±ģ? ,
à°¤à°ķ à°¥à°¨
à°ľà°° à°Ĺà°²
à°¨à°ª à°ªà°ª
Ġà°ªà°¡ à°®à°Łà°¨
à°¾. ,
Ġà°ħà°ª à°¶à°ķ
à°ĺ à°Łà°²
à°ĺ à°Łà°ª
à°°à°¶ à°¨
à°ł à°¦
à°ł à°¤à°¨
à°¹à°¨ à°¤à°¯
Ġà°¤à°² à°Ĺ
à°°à°ľà°² à°¸
à°¯à°ªà°¡ à°°
Ġà°ķà°® à°¤à°®
Ġ6 55
Ġ6 34
Ġ6 68
à°¸à°¨ à°¬à°¦
à°§à°¨ à°®à°¨
Ġ7 16
Ġ7 36
Ġ7 66
Ġ7 94
à°¤à°µ à°ķà°²
à°³à°¨ à°²à°²
Ġ8 37
Ġ8 36
Ġ8 71
Ġ8 53
Ġ8 84
Ġ, ""
à°²à°µ à°®à°¨
Ġ10 20
Ġà°Ľ à°¤à°°
à°ĵ à°²à°ķ
Ġ9 24
à°°à°ļ à°Ĺ
à°ªà°£ à°²à°²
à°¯à°¬à°¡ à°¦à°¨
à°ħà°µ à°¯à°µà°¦
à°Ĺà°¡ à°ªà°²
à±į) "
à±į) ."
à°Ĥ: %
à±ģâĢĻ ?
Ġà°¸à°² à°¹à°¦
Ġ18 46
Ġ18 73
Ġ18 87
Ġ16 000
in ar
in ci
in ition
ĠâĢĻ ,
Ġà°ıà°ķ à°ªà°¤
à°īà°¦ à°¯à°¨
à±įâĢĭ âĢĻ
à°¥à°¨ à°²à°ª
à°¡à°¤ à°²à°ķ
à°ªà°¬à°¡ à°µ
à°®à°® à°¤à°ķ
Ġà°Ĺà°£ à°ªà°°
on ia
à±įâĢĻ )
à°°à°ªà°¡ à°°
re m
re present
me dia
Ġà°ľà°² à°ľà°²
18 72
18 79
18 51
18 81
Ġà°ĩà°® à°¡
or p
ĠC N
ĠC amp
ĠC oursera
à±ģ"" ),
à°Łà°¤ à°°à°®à°µ
Ġt ra
ĠS ec
ĠA U
ĠA c
ĠA v
ic ed
en i
Ġ80 6
Ġ80 386
ĠM J
ĠM en
ĠM ec
ĠM ag
ĠM ID
ĠM iss
ĠT T
Ġs pl
Ġs ong
Ġs ample
Ġs ingh
Ġs exual
Ġs akshi
Ġà°°à°£ à°ķ
Ġm urder
Ġà°µà°²à°¸ à°²à°ª
Ġà°¬à°¤ à°ķà°¡à°®
à°¦à°ª à°ª
ĠP E
ĠP O
ĠP ad
ĠP ass
ĠP GA
ĠP HP
Ġp age
le x
ĠB ag
ĠB lu
ĠB ook
à°¦à°³ à°ªà°¤
ed ucation
Ġà°Ĺà°£à°¨ à°²à°¨
Ġ90 6
à°¿âĢ¦ âĢ¦
as an
Ġ% @
ĠG u
ĠG AT
à°Īà°¯à°¨ à°¦
ĠD iv
ĠD evelopment
ĠF Y
ĠF MEA
à°¡à°Ĺà°² à°®à°¨
à°¡à°Ĺà°² à°µà°¨
à°¡à°Ĺà°² à°¡à°¨
Ġà°°à°ļ à°¯à°¤
Ġo ld
Ġf ut
Ġf ollow
Ġb eg
Ġb hp
à°Łà°¬à°¡ à°¨
om s
us ed
Ġn orth
Ġn irav
Ġd s
Ġd er
Ġd ocument
95 4
ĠE qu
ĠV iew
ĠL A
ĠL TE
ĠL ibrary
ĠL aunch
Ġà°¶à°°à°µ à°£
ĠW ar
ĠW aÅĤÄĻsa
à±ģ... ..
Ġà°ļà°²à°¨ à°®
Ġ49 6
ĠÂ µ
Ġà°ħà°¡à°Ĺ à°¬
ĠX V
ĠX à°İà°¸
Ġw eb
Ġ65 7
à°§à°¨à°²à°¨ à°¨
Ġg ro
st ate
st one
Ġh ere
Ġà°ľà°¨à°® à°Ĺ
Ġv ijay
ut orial
Ġk N
Ġk ing
Ġk ey
Ġk arnataka
fo il
âĻ ¥
em y
em and
ay an
ire d
à°ķà°£ à°¬à°¦
à°³à°Ĺ à°²à°¨
à°°à°¬à°¡ à°¡
Ġre v
Ġre ference
à°¾à°ĤâĢĻâĢĻ .
Ġr ates
Ġand hra
im a
im age
qu er
à°µà°Ĺà°² à°°à°¨
ex ample
op ic
ind ust
à°Ĺà°¬à°¡ à°Ł
à°Ńà°°à°¤ à°®
Ġst art
ill s
Ġi Phone
à±ģâĢĮ :
Ġà°ķà°Łà°ķ à°Łà°²
à°¿] ]
ev er
ho le
hi le
Ġà°£ à°²
à°§à°ªà°°à°ļ à°µà°²
à² ¯
Ġj ds
Ġy oung
ib er
à°ªà°²à°ķ à°²à°¨
à°İà°Ĳ à°Ĳà°İ
MA X
ell ing
ĠSt at
BS NL
à°Ńà°¯à°ªà°¡ à°µà°¦
ast e
Ġà¤ ¨
Ġà¤ ¬
à® ¯
à® ¾
SS C
à¦ ®
pe g
Ġmo z
sp eed
Ġdi mensional
cl ient
Ġhe ad
Ġsc ale
Ġsc rew
TS H
ĠCD à°²
ĠCD MA
pro bability
à°ľà°Ńà°µà°¨ à°®
DE R
ĠÎ ³
PM GK
ru it
ĠAr my
Ġà°³ à°¨
Ġà°¤à°¹ à°ªà°¨
ax ial
ĠØ ³
DO M
Ġà°ķà°°à°ķ à°°à°²
itle y
Ġspec ies
Ġtri al
ĠUV A
à°¸à°ªà°° à°ļà°ķ
Ġà°Ĩà°®à°¨ à°Ĺà°²
SC TIMST
àª ¾
Ġà°®à°°à°ķ à°¤à°®
Ġtr ue
ĠâĢį (
à°ħà°¡à°Ĺ à°ķ
ĠMy Gov
ĠFor ce
Ġmy gov
885 9
Ġà°²à°ľ à°ªà°¤
ĠBi ography
ĠMin ister
Ġpass es
part icle
En gine
mach ines
irc ular
udd in
sup port
ĠMed ical
Ġserv er
ĠÙ ¾
Tel ugu
Ġbec ome
ĠCAR ES
Free BSD
Ġmapp ing
ĠGeorg e
otrop ia
Ġsci ence
atell ite
ĠSept ember
% @
) *
) ?
- ,
/ %
0 15
9 23
A VC
B u
B aloo
B mM
C ogl
D is
D ev
E lect
E uler
G UI
H DA
I EC
L O
L X
M TV
N M
N RI
P ush
R n
R ev
S ri
S ound
S ER
S ource
S hift
U T
U PI
a q
b a
b b
c in
c us
c ap
c ert
c heck
d n
d atabase
e ep
e ase
e ah
f ix
i ation
i ency
l am
m ar
o on
o uld
p ot
r as
r act
s um
s ol
s ch
s econd
t c
t ection
t rail
v tv
y al
y es
Ã ¤
Ã Ļ
Î ·
à º
à°¿ [
à°° à°¯à°ķ
à°° à°°à°¹
à°° à°Ľ
à°° à°¥à°¨
à°° à°ĺà°Ł
à°¨ à°¯à°µ
à°¨ à°¨à°¦
à°¨ à°Ĵà°ķ
à°² à°¹à°°à°£
à°² à°Ĺà°²à°µ
à°² à°ĺà°°
à°² à°¤à°°à°¬à°¡
à°ķ à°Łà°¨à°°
à°¤ à°Ĺà°¨
à°¯ à°ªà°¤à°ķ
à±ĭ `.
à±ĩ âĢĺ
à±ĩ âĢĶ
à°¸ à°¨à°µ
à°ª à°¬à°²
à°µ à°§à°ķ
à°µ à°¤à°®à°¯
à°® à°Ĺà°¨
à°® à°¸à°Ńà°²
à°¡ à°ķà°¡
à°¡ à°¨à°®
à±Ģ ]
à±Ģ âĢĺ
Ġà°ª à°²à°ķà°®
à°ļ à°¯à°¨
à°ļ à°«
à±Ĩ à±Ĥ
âĢ ¢
Ġà°ķ à°¦à°²à°µ
Ġà°¸ à°°à°®
Ġà°¸ à°¤à°µ
Ġà°µ à°¯à°ķ
Ġà°ħ à°°à°¤
Ġà°ħ à°ļà°Ł
Ġà°ħ à°¦à°°à°ķ
Ġà°ħ à°Łà°ķà°ª
Ġà°ħ à°Ļ
à±Ĥ âĢľ
Ġà°¨ à°ķà°¨
Ġà°¨ à°£à°ļ
à°¿. (
à°ľ à°ªà°¡
Ġà°¤ à°ªà°¤
à°¶ à°°à°ķ
à°¶ à°²à°®
à°¶ à°ľà°¨à°ķ
à°¬ à°²à°ª
à°¬ à°¤à°ķ
à°¬ à°ľà°°
à±Ĭ !
Ġà°Ĩ à°¯à°ķ
Ġà°Ĩ à°ľà°¨
à°¹ à°¤à°µ
Ġà°² à°¯à°²
Ġà°İ à°°à°¨
Ġà°İ à°ĩà°İà°¸
Ġà°ľ à°ĸ
Ġà°ľ à°¯à°¬
à°¥ à°ªà°Ł
à°³ à°£
à°²à°¨ à°²à°ķ
Ġà°Ń à°¡
Ġà°Ń à°µà°ķ
à°²à°ķ à°ªà°¤
à°²à°ķ à°²à°ª
à°Ī à°ħ
à°ĩ à°²à°¨
Ġà°¶ à°·
Ġà°Ī à°ħ
Ġà°Ī à°¸à°°
Ġà°Ī à°ªà°¨
Ġà°Ī à°ĺà°Łà°¨à°ª
Ġà°Ī à°ıà°¡
à°°à°¤ à°²à°²
à°İ à°Ĵ
à°İ à°ĩà°²
Ġà°¹ à°¦à°°
Ġà°¹ à°¯à°Ĺ
à°Ĩ à°¨à°µ
à°Ĩ à°Łà°®
à°ĸ à°°à°¤
à°ĸ à°¤à°°
à°ĸ à°¨à°¨
à°¯à°¨ à°ªà°²
à°¦à°° à°£à°²
à°¦à°° à°ªà°¡à°²
à°« à°¸à°°
Ġà°Ł à°¨à°²
Ġà°ı à°¸à°°
Ġà°ı à°ħà°°
Ġà°ı à°Ĳà°µ
Ġà°ı à°Ĳà°İà°«
à°°à°ķ à°¯
à°°à°ķ à°³à°ķ
Ġà°Ĵ à°£
Ġà°Ĵ à°¬à°°
Ġà°« à°µà°¦
Ġà°¡ à°¡
à°¦à°¨ à°¨à°Ĺ
Ġà°Ĵà°ķ à°ľ
à°¤à°° à°ĸ
à°°à°£ à°¸
à±ĭà°Ĥ )
à°¤à°¨ à°ľ
à°¤à°¨ à°²à°²
à°¤à°¨ à°Ĺà°²à°µ
à°²à°² à°µà°°à°ķ
Ġà°ķà°² à°ªà°Ł
Ġà°Ĩà°° à°µà°¸
à°¸à°° à°ªà°¡à°ķ
à°ªà°° à°µà°¶
à°°à°¯ à°¶
à°¯à°µ à°¯
à°°à°µ à°Ĺà°²
à°°à°µ à°ªà°°à°ļ
à°·à°¯ à°¤à°¨
Ġà°§ à°²
Ġà°ĵ à°²à°²
à°¦à°² à°µà°Ĺ
à°µà°¡ à°µà°¨
à°µà°¡ à°µà°ļ
à°°à°² à°ļ
Ġà°ħà°° à°Ĺà°¦
à°Ĳ à°²à°¯
à°Ĳ à°¡à°¬
à°Ĳ à°Īà°¡
à°Ĥ, ""
à°ľà°¨ à°®à°Ĺ
à°²à°¤ à°¯
à°°à°ª à°Ĺ
Ġà°ĸ à°¤à°®
Ġà°ĸ à°°à°¹
à°µà°¨ à°ļ
à°µà°¨ à°µà°¸à°°
Ġà°ļà°° à°ļ
Ġà°Ĩà°® à°²
à°ı à°«
à°ı à°ķà°¸
à°¯à°° à°°
à°¯à°° à°ļà°¯
Ġà°ħà°² à°²à°¨
Ġà°ħà°² à°¯à°ķ
à°¨à°µ à°¤à°°
Ġà°¤à°® à°ªà°Ł
Ġà°¤à°® à°µà°¦
Ġà°Ĳ à°Łà°°
à°ľà°¯ à°¹
à°ľà°¯ à°Ĺà°°
à°¯à°¤ à°µ
à°Ĺà°² à°Ĺà°¡
à°ĺ à°¨à°Ĺ
à°Ĵ à°Ĳ
à°Ĵ à°İà°®
à°¨à°¸ à°ª
à°²à°® à°¹
Ġà°ķà°° à°Ĺà°¦
à°ļà°² à°¦
à°ł à°®à°¨
à°ł à°¤à°ķ
à°ł à°ªà°¦
Ġ4 200
Ġ4 33
Ġ4 36
Ġ5 17
Ġ5 68
à°ħà°² à°¯à°¨
à°ªà°ķ à°³à°ķ
à°®à°ķ à°§
Ġà°°à°ķ à°®à°¯
Ġà°İà°µà°° à°µ
Ġà°İà°¦ à°Ĺà°ķ
à°¯à°¸ à°¤
à°ŀ à°¤à°ķ
Ġà°ľà°¨ à°¶
Ġà°ľà°¨ à°§à°¨
à°¡à°Ĺ à°²à°²
à°¡à°µ à°¯
à°¡à°µ à°²à°¨
Ġ6 21
Ġ6 11
à°¸à°¨ à°¯
Ġà°¨à°° à°°
à°Ĩà°® à°°à°£
Ġà°®à°°à°£ à°Ńà°¯à°®
à°ħà°ª à°¹à°°
à°ħà°ª à°¸à°µ
Ġà°Ĩà°¶ à°¯à°®
Ġ7 32
Ġ7 95
Ġ7 72
à°¤à°µ à°µ
Ġ8 64
Ġ8 58
Ġ8 43
Ġ8 62
Ġ8 97
à°²à°µ à°ª
Ġà°¨à°¡ à°¯
Ġà°Ľ à°¬
à°ĵ à°·
Ġà°Ĭ à°¯
Ġà°Ĭ à°Łà°¨
Ġà°Ĭ à°¡à°¬
à°²à°Ĺ à°²à°¨
Ġ9 35
Ġ9 85
Ġ9 27
Ġ"" '
Ġ"" (
Ġ"" !"
Ġà°Ĩà°¡ à°¶
à°¶à°® à°Ĺ
à°µà°¦ à°¹à°¨à°®
à±Ĥ, ..
à°¦à°¤ à°¤
Ġà°¶à°ķ à°²à°ķ
à°¦à°® à°Ł
Ġà°ħà°Ĺ à°Ĺ
à°ķà°¤ à°²à°²
à±į) '
Ġ15 80
Ġ15 53
Ġ15 98
à±ģ! )
Ġ14 40
à°ľà°² à°¦
à°¯à°¦ à°Ĺà°¨
Ġà°Ĵà°ķà°° à°¯
Ġà°¬à°¡ à°µà°²
Ġà°¨à°µ à°ª
Ġà°¨à°µ à°¤à°°
Ġà°®à°¤ à°ķà°²à°¹
Ġà°ķà°¦ à°ªà°¡
à°¬à°² à°µà°¨
Ġà°Ĩà°Ĺ à°µà°¨
à°¡à°® à°µ
Ġ18 20
Ġ18 12
Ġ18 17
Ġ18 48
Ġ18 76
Ġ18 62
Ġ18 41
Ġà°¬à°¸ à°¦
à°ļà°Ł à°®à°¨
ĠâĢĻ !
Ġ17 61
Ġ17 92
à°®à°£ à°¨
à°īà°¦ à°¯à°ķ
Ġà°µà°¨ à°Ń
15 65
à±įâĢĭ ),
à°§à°° à°²à°ķ
à°Ĺà°Ł à°Ĺ
à°¡à°¤ à°²à°²
Ġà°ħà°®à°° à°ľà°µ
Ġ100 000
on se
Ġà°īà°² à°µà°²
an di
an cy
an alysis
Ġà°ľà°® à°ĸ
Ġ/ /
Ġà°°à°® à°«
à°°à°ªà°¡ à°µà°¦
Ġà°®à°¨à°® à°¡
40 8
à°Ĥ) -
18 14
18 95
18 96
18 92
18 06
18 01
Ġà°ķà°¡ à°µà°¨
Ġà°µà°¡ à°¯
Ġà°Ńà°¯à°ªà°¡ à°®
à°¯à°®à°¨ à°¸
à°İà°ª à°«
à°ķà°µ à°³
al m
al se
al ways
Ġà°¦à°¶ à°¤
Ġà°¦à°¶ à°²à°ķ
14 50
14 80
16 99
16 48
ĠC hief
ĠC orporation
à°Łà°¤ à°²à°ķ
ar b
ar ia
à°·à°° à°«
11 000
11 40
Ġà°ħà°°à°µ à°Ł
Ġ60 9
Ġà°¬à°¯à°Łà°ªà°¡ à°¦
Ġt echn
Ġt reat
Ġt witter
ĠS R
ĠS ar
ĠS ystem
ĠS HA
ĠS ee
ĠS hah
ĠA K
ĠA h
ĠA CE
ĠA SC
ĠA cc
ĠA fric
ĠA mazon
ĠA wards
ic ine
it i
à°¤à°²à°ķ à°°à°£
en ing
en ix
17 88
ĠI A
ĠI PS
ĠM al
ĠM ad
ĠM icro
ĠM VP
ĠM USIC
ĠM useum
ĠT M
ĠT ext
ĠT urbo
Ġs and
Ġs uc
Ġs eg
Ġs abha
el low
el ines
à°¾âĢĻ ?
Ġà°°à°£ à°¸
ĠR C
ĠR FC
ĠR ocket
ĠR iver
à°²à°¬à°¡ à°Ĺ
à°¡à°µà°² à°¯
ĠU AE
Ġm atter
Ġm usic
ĠN U
ĠN FC
ĠN CAA
ĠN ightly
ĠN TPC
Ġc irc
à°¯à°ķà°°à°® à°¨
ĠP D
ĠP F
ĠP P
ĠP ers
ĠP AN
ĠP ost
Ġp ic
Ġp ron
ĠB ang
à°£à°¤ à°Ĺà°²
à°Ĺà°ķ à°µà°ļà°®
Ġ90 8
ro s
as w
as tern
he at
ĠG C
ĠG O
ĠG a
ĠG PU
ĠD J
ĠD es
ĠD av
ĠD EC
ĠF C
ĠF O
à°¨à°¬à°¡ à°µ
à°¨à°¬à°¡ à°µà°²
il k
Ġ36 00
ĠH ome
ĠH indu
Ġin list
Ġf eat
Ġf ather
à¤ ¥
um in
us es
Ġn aidu
Ġd uring
37 00
à°¦à°°à°£ à°Ĺà°²
ĠE PA
ĠE DS
ĠE kiga
Ġà°¨à°Ĺ à°²à°¤
ol ts
ĠV x
ĠV RS
à°¤à°ªà°¡ à°µà°ļ
ĠL M
ĠL eg
ĠL ok
ĠO ld
id ional
ĠW onder
Ġà°µà°£ à°ķà°¡
ĠX M
Ġ65 3
Ġ55 1
Ġ55 8
Ġg e
Ġg row
Ġa ge
ra j
ra ft
ĠK am
ĠK CR
à°ħà°¹ à°ľ
à°¤à°°à°£ à°Ĺ
ul s
Ġv irat
Ġ59 2
Ġà°ľà°°à°ª à°Ĺà°²
Ġà°ľà°°à°ª à°µà°²à°¸
so ur
res earch
Ġà°Ĩà°µà°°à°£ à°ķ
Ġk de
05 7
em pt
ag o
ag ram
ab h
Ġ600 00
à°¦à°¬ à°¯à°²
à°²à°ªà°¡ à°ķ
Ġà°ķà°²à°µà°° à°ªà°¡à°ķ
ĠJ une
à°ļà°¦à°µ à°Ł
à°¨à°µà°° à°ª
Ġ78 4
Ġ78 6
Ġ78 9
Ġre st
og n
Ġà°¨à°µà°² à°Ĺ
Ġà°¨à°µà°² à°²à°ķ
ang o
ĠY ZF
av al
ub Med
Ġà°¨à°¡à°µ à°µà°²
Ġst ation
Ġst ates
à°§à°µà°° à°ª
à°¦à°Ĺà°² à°®à°¨
Ġâ ľ
à°¨à°¤à°² à°¯
CO V
ph en
ud dy
Ġà°¸à°«à°² à°ªà°°à°ļ
à°Īà°Ī à°İà°¸
Ġj ob
Ġpro duction
âľ ĵ
à±ĭ( _
RA I
Ġen ter
ST EP
IN X
ĠCO RS
ĠSt ar
à°ķà°ªà°° à°ļà°ķ
nd er
à® ķ
ĠQ t
ik i
ines e
âĪ ł
aw az
à°Ĺà°ªà°° à°ļà°ķ
pro gram
"""% (
RO AN
ee k
Ġro ot
ru th
PN B
Ġwh ere
à¯ ĭ
ox ide
ash ed
Ġbl og
PP E
Ã© e
Ġpoint s
ĠØ ¬
ĠCPU à°²
ual ly
Ġco uld
ise ase
eng er
led ge
ero foil
rot ating
GS M
Ġtri angles
à°®à°°à°£à°® à°Ĺ
à°ķà°Łà°ķ à°µ
ĠInt el
ĠInt ernet
Ġcol or
ĠAM X
Ġag ent
work er
impell ers
Ġcl ass
à§ ģ
UC KL
UC bz
unt ur
Ġint eg
oper ating
ĠIs lands
Ġinter view
Ġ(- )
Ġev ery
âĤ ¹
FF IC
etail s
stru ct
ĠJan hvi
ĠRT GS
ĠNY SE
omet ax
mp athy
At trib
eth ical
sl ide
sm art
Ġrank ing
Ġif rame
compress or
CN N
Ġear th
ĠMot o
RF ID
ĠES PN
Ġacc ident
Ñģ Ðº
ĠSu ite
Ġsm all
Ġà°Ĺà°²à°Ĺ à°²à°²
uid elines
NRE GA
mult i
ĠPric e
ĠLat est
XP ath
à°½ à°§
eleb r
Ġ5676 76
Ġà°İà°¡à°®à°¤ à°Ł
ĠICA O
Ib BmM
ZE HDA
Ġinlist box
UCbz IbBmM
UCbzIbBmM vtv
" >
* ,
, âĢľ
3 100
= )
A BC
A udi
B engali
C Y
C IS
D B
E O
E nt
E SL
H W
I BS
I FS
I BD
J EE
J avaScript
L og
L AN
L OR
M U
M DR
M iss
N AT
N arendra
P a
P PD
R NA
R eg
R aj
R eal
S he
S IP
T DP
U X
U ID
U GC
V R
V o
V ivo
W O
[ [
a itley
b is
c b
c ed
c ustom
d p
f ast
f eat
f ree
f ull
h or
h al
i res
i ri
i que
j o
j et
k nown
l ines
l anguage
m g
m orth
n arendra
o à°ļ
o id
o ff
r up
s à°²
w er
w ent
w indow
x ford
y r
z a
} {
Â ¤
Ä ĩ
Î ¬
Ġ àª
Ġ river
à°¿ +
à°¿ à°¿à°Ĥ
à°¾ à±įâĢĮ
à°¾ ||
à±ģ à±ģ.
à±ģ Â«
à°¨ à°¦à°°
à°¨ à°¹à°°
à°² à°¡à°¨
à°² à°¢à°ķ
à°ķ à°Łà°²
à°ķ à°®à°¤
à°¤ à°¤à°®
à°¤ à°Ńà°µà°¨
à°¤ à°Ĺà°²à°¡
à°¦ à°ķà°Ł
à°¦ à°ªà°¦
à°¯ à°Ĺà°¤
à±ĩ "",
à°¸ à°·
à°¸ à°ķà°Ł
à°¸ à°¤à°¤
à°¸ à°°à°£à°²à°¨
à°ª à°®à°¤
à°ª à°¹à°°à°£
à°µ à°¯à°°
à°µ à°¯à°ª
à°µ à°§à°ª
à°® à°ªà°¦
à°® à°ķà°°à°°
à°¡ à°ķà°°
à°¡ à°¸à°²
à°Ĺ à°¯à°²
à°Ĺ à°°à°¦à°Ĺ
Ġà°ª à°Ĺà°¨
à°ļ à°Łà°²
à°ļ à°®à°¯
Ġà°µ à°¶à°®à°¯
âĢĮ âĢĮ,
Ġà°® à°¸à°Ĺ
à±ģ. âĢĻâĢĻ
à±Ĥ &
à±Ĥ ''
Ġà°¨ à°§
Ġà°¨ à°¤à°¨
Ġà°¨ à°µà°¤
Ġà°¨ à°¬à°°
à±įâĢĮ âĢĺ
à°¿. '
à°· à°°à°¦
à°ľ à°¸à°Ńà°²
Ġà°¤ à°¡à°ª
Ġà°° à°¬à°¦
à°§ à°²à°µ
à°§ à°Ńà°°
à°§ à°¸à°¤
à°¬ à°¨à°¤
Ġà°Ĩ à°²à°°
Ġà°Ĩ à°ĺà°®
Ġà°ī à°¦à°¨
à°£ à°Ĺà°¤
Ġà°¬ à°£
Ġà°¬ à°°à°¸
Ġà°¬ à°¡à°Ĺ
Ġà°¬ à°·à°°
à°Ń à°¸à°®à°¯
à°Ń à°°à°¤à°¨
Ġà°İ à°°à°ķ
Ġà°İ à°µà°¤
Ġà°ľ à°¯à°µ
Ġà°ľ à°ķà°µà°°
Ġà°ľ à°łà°°
à°ħ à°²à°¯
à°ħ à°¹à°²
à°¥ à°¨à°Ĺà°°
à°³ à°ĸ
à°³ à°®à°¯
à°²à°¨ à°ªà°°à°®
à±Ĩà°Ĥ (
à±Ĩà°Ĥ )
Ġà°ħà°¨ à°Ĺà°²à°°
Ġà°Ń à°¯à°¡
à°²à°ķ à°¡à°ķ
à°Ī à°ªà°¨
à°Ī à°Ĳà°Ł
à°ĩ à°Ĳ
à±ģ, '
à±ģ, âĢĻâĢĻ
à°°à°¤ à°°à°®à°¯
à°İ à°Ĳà°Ł
à°Ĩ à°Ń
à°Ĩ à°µà°²
à°Ĩ à°¶à°¨
à°Ĩ à°¤à°¡
à°ĸ à°ķà°µà°³
à°¯à°¨ à°®à°²
à°°à°® à°§
Ġà°¯ à°ľà°¨
Ġà°¯ à°®à°¦
Ġà°®à°° à°Ĺà°¬
Ġà°« à°ĸ
à±į, ...
à±ĩà°Ĥ ."
à°¯à°ķ à°¡
à°¯à°ķ à°²à°¨
Ġà°Ĵà°ķ à°¶
Ġà°Ĵà°ķ à°¡à°¯
à°¤à°° à°¬
à°°à°£ à°§
à°®à°¨ à°ªà°Ł
à°®à°¨ à°ªà°²
Ġà°ħà°µ à°¸à°®
à°¤à°¨ à°ªà°Ł
à°¤à°¨ à°µà°²
à°¤à°¨ à°µà°¦
Ġà°ķà°² à°µà°¦
Ġà°Ĩà°° à°µà°¦
à°°à°Ń à°¸
à°¾, âĢľ
à°Ĥ. #
Ġ( ,
à°®à°° à°¦
à°ķà°¡ à°ļ
à°ķà°¡ à°µà°°
à°ķà°¡ à°²à°¤
à°ªà°° à°¬
à°°à°µ à°¯
Ġà°®à°¨ à°°
Ġà°ħà°¦ à°²
Ġà°ħà°¦ à°ľ
Ġà°ĵ à°¡à°µ
Ġà°¤à°¨ à°Ĺ
Ġà°¤à°¨ à°¶
Ġà°· à°¯
à°ļà°¨ à°¦
à°ħà°¨ à°¡à°®
à°Ĥ, âĢĿ
à°ľà°¨ à°ļ
à°°à°ª à°ª
Ġà°Ĩà°® à°¡à°¦
à°ı à°ļ
à°ı à°İà°ķ
à°ı à°¡à°µà°¦
à°Łà°² à°¸
à°·à°£ à°ªà°Ł
à°¨à°µ à°¬
Ġà°īà°ª à°µà°°
à°¯à°¤ à°ķà°²
à°¤à°ķ à°®à°µ
à°¨à°¨ à°ª
à°¨à°® à°¦
à°Łà°ķ à°µ
à°¯à°¡ à°ķ
Ġà°īà°¦ à°ķà°®
Ġà°ªà°¡ à°®à°°à°ķ
20 40
à°Łà°® à°Ĺ
Ġ5 14
Ġ5 29
Ġ5 73
à°ªà°ķ à°ļ
Ġ- ."
à°ķà°¨ à°ªà°¡
Ġà°¸à°Ń à°²à°¤
à°ªà°² à°®à°¨
""" )
""" {
à°¸à°® à°²
à°¸à°® à°¦
à°¸à°® à°¶
à°¯à°µà°¸ à°¨
à°ŀ à°¸
à°ŀ à°²à°¤
à±ģ: \
Ġ6 64
à°°à°¹ à°¸à°¨à°®
à±į- ,
Ġà°ĺ à°¨à°Ł
à°ªà°¨ à°²à°²
à°ªà°¨ à°¹à°³
Ġ7 19
Ġ7 78
Ġ7 31
Ġ8 32
Ġ8 76
Ġ8 51
Ġ8 86
à°µà°°à°£ à°ªà°°à°®
Ġ10 12
Ġ10 66
ĠâĢľ (
Ġà°¨à°¡ à°ªà°Ĺà°²
à°¦à°ķ à°¯
à°¦à°ķ à°¸
à°Ľ à°Ł
Ġà°®à°¦ à°¦
Ġà°ĩà°¸ à°ķ
à°°à°Ĺ à°µà°²à°¸
à°ĵ à°·à°¨
à°ĵ à°¨à°°
à°ĵ à°İà°ķ
Ġà°Ĭ à°¤à°ªà°¦
Ġà°Ĭ à°¯à°²à°²
à°ķà°® à°ķà°²
Ġ9 79
Ġ9 43
Ġ9 87
à°¨à°¤ à°°à°®
Ġà°ıà°¡ à°¬
à°ªà°£ à°ľ
à°ªà°¦ à°®à°¨
Ġ"" )
à°¶à°® à°§
à°¤à°¦ à°Ĺ
à°³à°² à°ªà°Ł
âĢĿ )
Ġ12 99
à°¡à°ķ à°ķ
à°°à°ķà°Łà°¨ à°Ĺ
à°ļà°ķ à°ªà°°
à°ļà°ķ à°¤à°ª
Ġ15 40
Ġ15 91
Ġ14 60
Ġ14 11
à°Ĺà°³ à°¯
Ġà°Ĩà°µ à°¸à°°
Ġà°Ĩà°ª à°µà°¦
à°¸à°°à°® à°¨
à±ģâĢĻ !
Ġ11 000
Ġ11 77
à°İà°µà°° à°¦
à°İà°µà°° à°®
à°²à°Ń à°¦
à°¨à°¯ à°®à°¨à°¸
à°ľà°¸ à°®à°¨
Ġà°®à°² à°ļà°²
Ġà°Ĩà°Ĺ à°¯
Ġ18 14
Ġ18 47
Ġ18 95
Ġ18 67
Ġ16 10
in ox
Ġà°ıà°ķ à°¬
Ġ17 91
Ġà°Ĩà°²à°¯ à°ª
à°®à°£ à°Ĺ
à°¡à°¬ à°³
Ġà°ħà°®à°° à°ľ
er us
er ence
à°ªà°°à°ļ à°¦
à°¯à°£ à°²à°¤
à°¯à°£ à°²à°ª
Ġà°ĺà°¨ à°¹
Ġà°ĺà°¨ à°¤à°Ĺ
Ġà°ħà°¦à°¨ à°®à°¨
à°¸à°Ĺ à°¢
à°¯à°Łà°¨ à°²à°¤
à°¨à°Ĺ à°Ĺ
Ġà°ľà°² à°¶à°¯
à°¯à°¸à°Ń à°¸à°Ń
Ġà°ĩà°³ à°¯
18 75
18 37
18 49
18 38
18 69
18 52
18 87
18 03
à±įâĢĮ) âĢĮ,
à°§à°ªà°¡ à°°
Ġà°¦à°¶ à°¦
ĠC F
ĠC FC
ĠC ensus
Ġà°īà°¦à°¯ à°²à°ķ
à±ģ"" %
Ġà°®à°²à°¯ à°ª
Ġà°¬à°¯à°Łà°ªà°¡ à°ķ
Ġt ur
Ġt ie
Ġt urn
Ġt arget
ĠS N
ĠS TS
ĠS abha
ĠS chool
ĠA X
ĠA FB
Ġ80 7
ĠI PC
à°Łà°²à°ķ à°²
ĠM AC
ĠM uk
Ġs un
Ġs aid
ĠR H
ĠR EM
ĠU t
Ġm us
Ġm ay
Ġm ult
ĠN D
ĠN m
ĠN ow
ĠN ep
ĠN DA
ĠN ature
Ġc ity
Ġc ork
Ġc rit
Ġc ert
Ġc ases
is entropic
à±ģâĢ¦ âĢĻ
à±į"" ),
à°£à°ķ à°¥à°¨
ad i
ĠP R
ĠP e
ĠP res
ĠP ack
Ġp rime
Ġà°īà°¡ à°ķà°²
as i
as ure
à°Łà°¬ à°¯à°²à°¯
Ġà°µà°°à°¦ à°ª
Ġà°µà°°à°¦ à°²à°²
ĠG ood
ĠG erman
di r
ĠD TS
ĠD onald
ĠF X
and s
ĠH O
ĠH i
ĠH er
ĠH ot
Ġ75 8
85 3
Ġb ab
Ġb ucket
Ġà°ªà°Ĺ à°²à°¨à°ķ
Ġd en
Ġd ate
Ġd iced
un k
ol f
ĠV i
ĠV MS
ĠL G
ĠL ife
ĠL td
ĠO N
Ġà°ĺà°¨à°¤ à°²à°¨
ĠW omen
et y
et ing
et era
à°ľà°°à°µ à°®à°¨
Ġà°¬à°¨ à°¶
Ġà°ħà°¡à°Ĺ à°ķà°ª
à°£à°ª à°°à°®
Ġw arming
Ġw edding
Ġw ould
Ġg ust
Ġg ener
Ġg uide
Ġg nome
Ġl arg
st at
Ġh or
Ġh el
Ġh uman
à°¤à°ªà°° à°ļà°²
Ġ46 2
Ġà°¤à°²à°ª à°Ĺ
ra z
Ġà°¬à°²à°ªà°¡ à°¨
ĠK rishna
ĠK YC
ĠK olkata
Ġà°Ĺà°ľ à°²à°ķ
à°Īà°ĵ à°²à°¤
Ġv ir
ot ive
so on
Ġ58 7
Ġà°Ĩà°µà°°à°£ à°¨
Ġk bit
à°µà°¤à°² à°µà°²
Ġ99 2
Ġ99 6
Ġà°Ĩà°ļà°°à°£ à°¸
Ġà°¤à°²à°¨ à°°
Ġ56 161
em por
ag a
ab our
à°¦à°ªà°¡ à°²
à±įâĢĿ )
à°¤à°°à°ķ à°°à°®à°¨
Ġà°®à°¡ à°®à°¨
à°ĩà°³ à°¯
iv ing
Ġ119 0
ĠJ S
ĠJ ust
ĠJ ack
ĠJ ames
ĠJ uly
ĠJ obs
ap ur
im al
Ġà°¨à°µà°² à°ĸ
Ġà°®à°°à°® à°Ĺ
ĠIn di
op p
ak ing
ak age
ak sh
Ġ} ,
Ġ88 1
IC ICI
Ġà°µà°°à°¸ à°ª
Ġst uff
à°ħà°¯à°¨ à°ª
Ġâ ĩ
Ġâ Ĺ
à°¸à°®à°° à°¯
à°¾âĢĻâĢĻ .
à°¨à°Ĺà°² à°®
har asht
à² ²
à°®à°Ĺà°² à°®
Ġy eah
ant um
ST A
ST S
ĠSt ory
Ġà°¬à°¤à°ķ à°Ł
Ġà°¨à°µà°° à°¸
pl oy
pl ane
Ġme dia
Ġà¤ ķ
à® ©
à¦ ¦
à¦ ²
In fo
à°ļà°ªà°° à°ļà°²
Ġe ffic
Ġà°ıà°Ĳ à°Ĳà°ı
Ġà°Ķà°· à°§à°¤
Ġdesign s
cl ude
end ul
aw ards
org à°²
à°¿"""" ."""
ĠCD C
ĠCD à°¨
Ġpl ant
ĠCh rome
à¤° à¤¤
AM O
act ive
ĠIP v
UN ESCO
Ġmm Hg
Ġro d
ĠÎ ¸
à°·à°¶ à°¯à°¨
Ġà°İà°Ĺà°¬à°¡ à°Ł
Ġra ins
Ġà°ħà°®à°¨ à°¤
à°¸à°°à°£ à°²à°ķ
ĠâĪ Ĺ
sc he
à¨ °
ok es
tr act
ĠTh ere
Ġch ildren
FA O
DC T
arend ram
ET F
OH C
Wh at
Ġqu ality
Int er
New s
bi as
tri angles
à¥Ģ )
Ġapp lication
CB DT
à§ ĩ
ĠIS RO
red it
Ġim d
Ġpart icle
Ch ennai
ble ms
pr int
App le
af e
ĠMan agement
Ġwork ing
Ġcount ry
Ġfl ight
"' ""
LT TE
Ġset up
loc ation
time s
Ġev ent
747 7
Ex t
âĤ Ĥ
Ġà°®à°Ĺà°¤ à°Ĺ
Ġpr act
dis c
à°ªà°¨à°¸ à°ª
ĠMI UI
ĠABC D
BrandShortName à°¨
inter view
Ġbut ton
Ġph one
object ives
ĠCan ada
Ġoff ic
idd le
inf ections
eth ics
ĠCourt esy
ĠGov ernment
ĠDec ember
ĠNorth ern
Ab out
Ġter rit
clus ion
ĠNe XT
ĠRev iew
erit as
anj e
spec ific
ĠPict ures
Ġste ering
Ġjust ice
Ġprotot ype
respond With
Ġmillimet res
ĠRF ID
ĠKing dom
abor atory
usp end
ourn al
Ġlet ter
auth or
infor med
ĠHo use
confound ing
Cent ral
Éĳ ËĲ
à±ĸà±ĸ à±Ĩ
iser FS
ĠWHI TE
RPN ishank
experi ment
Ġkilomet res
ðĲ İ
Ġsakshi education
Ġà°ĸà°°à°¹ à°°à°ª
ĠASC II
Ġseg ment
ĠWonder stone
sour ce
UCbzIbBmMvtv H
Ġgust ing
harasht ra
" \""
% %).
( '
0 58
3 400
7 300
9 500
= (%
? )
A H
A V
A ct
A RC
A uth
A IDS
B e
B er
C a
C ot
C BI
C UPS
C ovidIndiaSeva
D MA
D onald
E c
E d
F e
G D
G mail
G DM
H M
I ST
I OC
J an
K KR
L R
L V
L i
L ife
M F
M a
M n
N ot
N CA
N ep
N ode
N ative
N DRF
O NS
P ad
P OC
P opulation
P ICS
Q u
R x
R en
S o
T RI
T IFF
U B
U AE
U GH
V is
V IC
V GA
V ika
W ord
X Y
X IP
Y ou
Y ama
[ ]
a erofoil
b s
b and
b oo
b oy
c re
d river
e es
f irst
f rame
f uel
g edit
h r
h old
j i
l o
l ic
m ad
m osph
n i
p k
p ublic
r Cl
s ign
s end
s ettings
t ools
t utorial
u an
u aw
w an
y ear
y anka
Ï Į
Ø ´
Ø ¹
Ù İ
Ú ¯
ó ł
Ġ Ô
Ġ à±Ģ
Ġ est
Ġ angles
à±į #
à±į >
à°¿ à±ģ?
à°¾ &
à±ģ #
à±ģ à°¾
à±ģ âĢĮâĢĮ
à°° à°¡à°¨
à°¨ à°Ĩ
à°¨ à°ĸà°°
à°¨ à°«à°²
à°¨ à°°à°ķà°®
à°Ĥ +
à°Ĥ Â«
à°² à°¦à°°
à°² à°¡à°²
à°² à°¬à°²
à°² à°¦à°²à°ļ
à°ķ à°¦à°°
à°ķ à°¨à°®
à°ķ à°ķà°¨
à°ķ à°Ĺà°¦
à°ķ à°£à°®
à°ķ à°µà°²à°¨
à°¤ à°¡à°¬
à°¯ à°Ĺà°¦
à°¯ à°¯à°®à°¯
à°¯ à°ļà°°à°£à°¨
à±ĭ Â§à±įâĢĮà±ģ
à±ĭ Â§à±įâĢĮà±ģ,
à±ĩ à°¿
à°¸ à°¨à°¸
à°¸ à°¹à°°
à°¸ à°¦à°¨à°®
à°ª à°«
à°ª à°£à°¯
à°ª à°¹à°°
à°ª à°µà°¯
à°µ à°µà°¨
à°µ à°ªà°²
à°® à°¤à°°
à°® à°ħà°¤
à°® à°ľà°²
à°® à°µà°²à°¨à°¨
à°® à°Ĺà°®à°¯
à°¡ à°¯à°¨
à°¡ à°ªà°ķ
à±Ģ &
à±Ģ `.
à°Ĺ à°ľà°¨
à°Ĺ à°°à°ª
à°Ĺ à°²à°¯
à°Ĺ à°ļà°°
à°Ĺ à°§à°°
Ġà°ª à°²à°¨
Ġà°ª à°«
Ġà°ª à°°à°®à°¤
à°ļ à°Ĺà°¨
à±Ĩ ).
Ġà°ķ à°¦à°¯
Ġà°ķ à°§à°ķ
Ġà°¸ à°¡à°²à°²
Ġà°µ à°Ľ
Ġà°µ à°°à°®à°¨
âĢĮ '
Ġà°ļ à°°à°¸
à±ģ. #
à±Ĥ âĢĭ
Ġà°¨ à°²à°¨
Ġà°¨ à°¹à°¤
à±įâĢĮ à°Ĥ
à±įâĢĮ à±įâĢĮ,
à°· à°¸à°®
à°· à°ķà°Ł
à°· à°ªà°¡à°ķ
à°· à°°à°¬à°¦
à°ľ à°¤à°²
à°ľ à°µà°¦
Ġà°¤ à°°à°ķ
Ġà°¤ à°°à°¤à°®
à±Ī ]
à±Ī à±Ĩ
à±Ī à°Ĥ,
à±Ī ..
à°¶ à°Ĩà°°
à°¶ à°¯à°ªà°¡à°ķ
Ġà°° à°Ĺà°²
Ġà°° à°¹à°¨
Ġà°° à°¹à°¤
à°§ à°ķà°¨
à°§ à°¸à°®
à°§ à°¤à°¯
à°§ à°¬à°²
à°¬ à°ĺ
à±Ĭ à¥¥
Ġà°Ĩ à°¯à°²
à±ģà°Ĥ .
à°¹ à°µà°²
à°¹ à°Ĺà°°
Ġà°ī à°°à°²
à°£ à°¦à°²
à°£ à°¶à°°
à°£ à°¬à°²à°®
Ġà°¦ à°°à°²
Ġà°¬ à°°à°®
Ġà°¬ à°°à°ķ
Ġà°¬ à°²à°¤
à°Ń à°µà°¸
Ġà°² à°¤à°²
Ġà°² à°¢
Ġà°² à°®à°§
Ġà°² à°¯à°ªà°°
Ġà°Ĺ à°§
Ġà°ľ à°¯à°¨à°¨
à°¾à°Ĥ ).
à°ħ à°®à°¨
à°ħ à°ļà°²
à°ħ à°Ĺà°®
à°¥ à°ªà°¤
à°¥ à°ªà°°à°ļà°¡
à°³ à°¨à°Ł
à°³ à°ķà°®
à±Ĩà°Ĥ !
Ġà°Ń à°°à°§
Ġà°Ń à°¯à°¸
à°µà°° à°¦à°°
à°ĩ à°Ĳà°İà°²
Ġà°¶ à°°à°Ń
Ġà°¶ à°·à°Ń
Ġà°Ī à°Ĳà°¸
à°İ à°¥à°°
à°ĸ à°°à°²
à°ĸ à°ªà°°à°®
à°°à°® à°¬
à°°à°® à°³
à°°à°® à°¨à°¸
à°°à°® à°²à°µà°²à°¨
Ġà°¯ à°µà°²à°ķ
à°« à°¦
à°« à°²à°ķà°®
à±ĥ à±ģ
Ġà°ı à°ķà°²
Ġà°ı à°İà°ķ
Ġà°ı à°Īà°²
Ġà°ªà°° à°ļà°¦
à°°à°ķ à°¨à°ª
à°ķà°° à°Ł
à°ķà°° à°ľà°¨à°®
à°¦à°¨ à°ļ
Ġ1 199
à°¤à°° à°²à°¨
à°¤à°° à°µà°°
à°®à°¨ à°¹à°³
à°¤à°¨ à°²à°ķ
à°¤à°¨ à°®à°¨
à°ªà°¡ à°ª
à°ķà°² à°¬à°¡
à°ķà°² à°µà°¡
à°°à°¸ à°¨à°¤
à°°à°¸ à°ªà°¡à°¤
à°Ĥ. )
Ġ( Â£
à°¨à°Ł à°®
à°¬à°¡ à°µ
à°ķà°¡ à°¸
à°ķà°¡ à°¬à°¡
à°ķà°¡ à°µà°°à°ķ
Ġà°Ĩà°¯à°¨ à°µà°²à°¨
à°·à°² à°¹
Ġà°§ à°¨à°¦
Ġà°ĵ à°°à°ķ
Ġà°ĵ à°¶à°¨
à°¦à°² à°¦
à°¦à°² à°¬
à°µà°¡ à°µà°²à°¸
Ġà°ķà°¨ à°Ĺà°²
à°ļà°¨ à°µà°²à°¨
Ġà°ħà°° à°µà°²
âĢĻ )
à°Ĳ à°Ĵà°Ł
à°°à°¦ à°¯à°¨
à°µà°¨ à°¡
à°°à°¨ à°¸
à°°à°¨ à°°à°¸
à°ı à°Ĳà°Ĩà°°
à°¯à°° à°¥
à°°à°ľ à°¯
à°¨à°µ à°¸à°¹
Ġà°¤à°® à°³à°¨
Ġà°īà°ª à°¬à°²
Ġà°Ĳ à°ľà°¯
Ġà°Ĳ à°¡à°¬
Ġà°ıà°® à°¤
à°¨à°° à°°
à°¯à°¤ à°µà°²
à±ģ? âĢĿ
à°¤à°ķ à°¥à°²
Ġà°īà°¦ à°ķ
Ġà°īà°¦ à°°à°®
Ġà°ªà°¡ à°¸
à±Ĩà±ĸ !
à±Ĩà±ĸ à±ĸ
à°¡à°² à°¶
à°ĺ à°Łà°²à°¨
à°²à°® à°¸
à°ł à°ªà°°
Ġà°¤à°Ĺ à°²à°ª
Ġ20 29
Ġ4 300
à°Łà°® à°µà°¡
Ġ5 231
à°ªà°ķ à°¸
à°®à°ķ à°¤à°¤
à°µà°¹ à°£à°®
Ġà°¸à°Ń à°¯
à°®à°¤ à°¦
à°®à°¤ à°Ĺà°²
à°¾à°Ĥ. ...
à°ļà°¬à°¡ à°Ĺà°²à°µ
Ġà°ªà°² à°ļà°¬à°¡
à±ĭ, ,
Ġà°İà°µà°° à°¤à°¨
à°ŀ à°²à°¨à°¨
Ġà°ħà°µà°ķ à°¶
Ġà°ľà°¨ à°¹
à°¡à°µ à°Ń
ĠâĢĿ !
Ġ6 39
Ġ6 88
Ġà°¨à°° à°µà°°
à°°à°¹ à°ªà°¡
Ġà°ĩà°¤à°° à°Ń
à°Ĩà°® à°¦
à°ħà°ª à°¹à°°à°£à°ķ
Ġà°ĺ à°Łà°²
à°ªà°¨ à°¸à°°
Ġ7 21
Ġ7 17
Ġ7 85
Ġ7 71
Ġà°¬à°² à°¦
à°ķà°°à°£ à°¶
Ġ8 11
Ġ8 22
Ġ8 13
Ġ8 17
Ġ8 56
Ġ8 69
Ġ8 63
Ġ8 98
Ġ8 89
à°µà°Ĺ à°³
à°¦à°ķ à°®à°¨
Ġà°ķà°³ à°²à°¤
à°Ľ à°Ĺà°²
à°ĵ à°¡à°¬
Ġà°Ĭ à°ªà°°
Ġà°Ĭ à°Łà°¯
Ġ9 15
Ġ9 17
Ġ9 23
Ġ9 48
Ġ9 39
Ġ9 72
Ġ9 44
Ġ9 51
Ġ9 53
Ġ9 57
Ġà°ıà°¡ à°¡
Ġà°ıà°¡ à°µà°¨
à°·à°ķ à°²à°ķ
à°ªà°¦ à°ľ
Ġ"" #
Ġ' "
Ġ' ?
à°¨à°¡ à°ļ
à°®à°¦ à°¤
à°¦à°¯ à°¶
à°·à°® à°¸
10 24
Ġà°Ĺà°¡ à°µà°¨
Ġà°¨à°² à°¬
à°ķà°¤ à°Ĺà°²
à°¦à°Ĺ à°®à°¨à°®
à°£à°® à°¸
à°Łà°¡ à°¡
à°Łà°¡ à°²à°ķ
Ġ14 98
à°¶à°¨ à°Ĺà°°
à°ľà°² à°¶à°ķ
Ġà°¬à°¡ à°¡
à°Ĺà°³ à°ķà°°
Ġà°Ĩà°µ à°®
Ġà°Ĩà°µ à°²à°¨
Ġà°¨à°µ à°¸à°°
Ġà°Ĩà°ª à°Ĺà°²à°°
à°µà°¯ à°ªà°°à°ļà°¡
à°²à°Ń à°¸
Ġà°®à°¤ à°¤
Ġà°Ĩà°Ĺ à°ķà°ª
Ġà°Ĩà°Ĺ à°µà°¦
Ġ18 42
Ġ18 68
Ġ18 66
Ġ18 43
Ġ13 50
Ġà°¬à°¸ à°µà°¨à°Ĺ
Ġ16 17
in ternal
in formation
à°¸à°¹ à°¨à°®
Ġ17 25
Ġ17 57
15 000
15 90
à±įâĢĭ /
à±įâĢĮâĢĮ ),
à°µà°²à°¨ à°Ĺ
à°§à°ķ à°µ
à°¡à°¤ à°°à°®
à°ķà°°à°® à°Ĺ
à°¦à°¡ à°®à°¨
Ġ100 1
Ġà°Ĺà°£ à°ª
on quer
500 00
Ġà°ľà°°à°Ĺ à°ķà°®
à±įâĢĻ (
12 30
re f
à°¯à°Łà°¨ à°²à°ª
Ġà°Ķ à°ª
at ur
at ri
Ġà°ľà°¯ à°ľà°¯
Ġà°ľà°² à°Ĺà°²
18 15
18 22
18 78
18 56
à°ħà°¸ à°²à°ķ
Ġà°µà°¡ à°ķà°¡
à±į' )
Ġà°Ńà°¯à°ªà°¡ à°°à°¨
à°ķà°¶ à°¤
à°¹à°¸ à°ª
Ġ23 40
al ian
ĠC or
ĠC ur
ĠC PI
ĠC BD
ar an
ar avati
âĢĻâĢĻ âĢĺâĢĺ
Ġ60 3
Ġ60 8
Ġà°¬à°¯à°Łà°ªà°¡ à°°
Ġà°¬à°¯à°Łà°ªà°¡ à°µ
à°³à°¨à°ķ à°°à°®à°¨
Ġt error
Ġà°ħà°µà°Ĺ à°¤à°®à°µ
ĠS e
ĠS on
ĠS um
ĠS ource
ĠS eries
ĠA G
ĠA f
ĠA ng
ĠA ward
ĠA FP
it ch
en ch
17 50
Ġ80 8
Ġ80 9
Ġ70 4
ĠI d
ĠI OS
ĠI FS
ĠI ts
à°¨à°¦à°¨ à°¡
à°¾- -
ĠM PV
ĠM CC
ĠM ont
à°°à°¥ à°®à°¹
ĠT S
ĠT er
ĠT ED
ĠT FT
Ġs in
Ġs oc
Ġs yn
Ġs hot
Ġs hift
Ġà°ļà°¦à°µ à°¦à°Ĺ
ĠR SA
ĠR ights
à°¿"" .
ĠU FC
Ġm ind
Ġm aj
Ġm ax
Ġm ade
à°°à°« à°¡
ĠN GO
ĠN okia
ĠN EFT
Ġc bi
Ġc ategory
Ġc lean
ĠP PD
ĠP etrol
Ġp in
Ġp ur
Ġp ublic
le akage
ĠB est
ĠB oss
ĠB eta
ĠB VS
à°Ĭ à°¯à°²
Ġ90 1
Ġ90 2
Ġà°ĩà°¤ à°°à°ķ
à°¿âĢ¦ âĢĻ
as c
Ġà°µà°°à°¦ à°¬
he el
he alth
ĠG I
ĠG M
ĠG S
ĠG lobal
di dates
à°°à°ªà°° à°ļà°µà°ļ
ĠD ynamics
ĠD ictionary
âĢį âĢį
ĠF TP
am uri
à°¾âĢ¦ âĢĿ
and roid
Ġin n
Ġf ore
Ġf ace
Ġf ile
Ġb in
Ġb ase
Ġb irthday
à°²à°µà°² à°¸à°²
à°Łà°¬à°¡ à°°
à°Łà°¬à°¡ à°µà°²
th is
th esis
us am
Ġn a
Ġn ine
Ġn umbers
à°¶à°¨à°® à°µà°¡
Ġà°ķà°¨à°¬à°° à°ļà°µà°ļ
Ġd ev
Ġd rop
Ġd pi
Ġd raw
Ġd isease
ol der
ĠL and
ĠL ine
ĠL og
ĠL ive
ĠL ake
Ġà°Ŀ à°Ŀ
à°¨à°ªà°¡ à°¦
ĠO ut
ĠO BC
Ġà°ĺà°¨à°¤ à°µà°¹
ĠW ater
ĠW AP
Ġà°¤à°²à°ªà°¡ à°²
à±ģ... ...
à°°à°¥à°® à°ļ
à°°à°¥à°® à°«à°²
ig ure
ome st
39 00
à°ľà°°à°µ à°Ĺ
à°ķà°¬à°¡ à°²
ĠX E
ĠX T
ĠX à°Ĩà°°
ĠX enix
à°ªà°°à°® à°¹
à°Ĩà°¶ à°²à°¨
Ġg ang
Ġg ive
Ġg reen
Ġa v
Ġa ff
Ġa uth
Ġl ov
Ġh ospital
à±ĭâĢĻ ,
Ġà°Ĩà°¦à°°à°£ à°µà°²à°¨à°¨
ĠK a
ĠK ohli
ul f
ul i
Ġ59 6
Ġà°ľà°°à°ª à°®à°¨
ut i
à°¹à°¦à°ªà°¡ à°Ĺà°²à°¦
Ġà°Ĩà°Łà°² à°ª
res ult
Ġà°ªà°ł à°¨à°®
Ġk erala
à°µà°¤à°² à°¤à°Ł
à°°à°ªà°°à°ļ à°µà°²
à°Ĳà°ı à°İ
à°Ĳà°ı à°İà°®
ĠâĢ¦ âĢ¦.
à°Ŀ à°²
ir bh
Ġà°°à°ļà°¨ à°Ĺ
Ġà°İà°µà°¡ à°¨
à°²à°ªà°¡ à°Ĺ
Ġ180 6
à°ħà°µà°ķ à°¤à°µà°ķà°²
Ġ68 1
Ġ68 9
à°¾"" ?"
à°®à°Ń à°Ł
os is
à°Ĭà°° à°Łà°¨
iv ery
ĠJ EE
Ġ78 2
Ġ69 1
Ġ69 4
Ġre action
à°¸à°¹à°ľ à°¤
ap ple
og i
Al t
Ġr ight
im b
im il
à°¤à°¬ à°²à°®
ang er
Ġà°ªà°²à°ķ à°µà°ļ
ĠIn fo
ĠY ork
à°¶à°ªà°° à°ļà°²
à¥ Ĥ
ia h
IC CI
Ġst ress
à°¦à°Ĺà°² à°¡
à°¦à°Ĺà°² à°¡à°¨
ph ot
if est
à² µ
Ġ900 1
Ġj ong
Ġy ear
ĠFirefox à°²
ric s
CA R
Ġth umb
Com munity
Ġen erg
Ġen thalpy
ST UN
ĠCO PD
ct c
ess ment
ĠSt art
Ġon ly
Ġcom press
Ġcom pan
ĠOS PF
FC I
à°§à°®à°¤ à°¸
à¦ ¿
ha i
Ġmo st
à°ļà°ªà°° à°ļà°¡à°®
sp ace
Ġà°¤à°¡à°¬à°¡ à°Ł
à°¹à°ªà°° à°ļà°²
Ġdi fferent
Ġdi oxide
ĠRRR à°²
ian s
ult ural
ram s
aw a
aw ada
Ġhe x
Ġsc al
ern or
Ġpl anning
à±ĩ... ...
ĠCh inese
ĠUN IVAC
ĠUN ICEF
able d
Ø§ Ùħ
ĠPC OS
CC I
ĠAl lu
PM C
PN M
sc ri
soft ware
CE RT
à±ĢâĢĿ .
ject s
Ġex it
ĠCom mittee
ĠHT TPS
ĠEx it
dra g
sel ection
à°Łà°¸à°Ń à°²à°ķ
app y
ĠAm b
ĠAm iga
Ġà± ł
ĠIN R
Th ere
Ġqu ery
ĠAM F
ĠAM T
Int ernet
ĠPl ay
ĠPl ant
ĠRes ult
à¯į )
jp g
ÙĬ Ø±
UK S
UK à°²
SR H
SR TC
WE LL
au ce
Ġim age
Ġim ran
Pl an
ble india
ĠRe iserFS
ĠFA STag
à°ħà°Ńà°¯ à°¹à°¸
ĠSp ace
aut om
ĠTr ue
ĠEn ergy
ĠEn vironment
ĠEn cyclop
Ġà°¤à°¡à°ķ à°Ĺ
ingh am
Re ynold
Ġwe ight
ĠInd ex
ĠJo es
WA Y
redi bleindia
Ġdist rict
riv ate
alk ing
ĠST D
ste in
Ġact or
Hy dro
idd en
Ad d
ĠCent re
Ġsu icide
Ġind ex
Ġdef inition
Ġrecord ing
vest ment
Î¿ ÏĤ
Ġval ue
Ġval idity
ĠRep ort
Red mi
ĠAu ction
Ġà°§à°Ĺ à°§à°Ĺ
Ġbec ause
Ġlaun ches
Ġvi olence
Di wali
Pr int
Ġ(* .
ĠBo ard
Ġetc etera
________________________________ ________________________________
Ġsur face
Ġà°¯à°¨à°® à°²à°ķ
Ġsha ft
ĠRad io
ordin ate
GT K
ĠTO PS
ĠBR CA
epend ent
Ġstud ents
ilit ary
ĠDep artment
quant itative
ĠDies el
Ġnet work
ĠJP EG
Ġà°Łà°ªà°Ł à°ª
ĠRob ert
Ġmemb ers
doc s
IME I
augh ter
ïĥ ĺ
inci ples
Ġspl itter
asw amy
Attrib ute
ĠâĹ ı
endul kar
arendram odi
uaw ei
ół ģ
onquer or
ĠBVS N
irbh aya
" à±ĩ
% '
) âĢĮ,
) ).
* '
9 73
A p
A ss
A sh
B ay
B ack
C an
C ap
C AT
C IA
D TM
E l
E qu
E nd
F Y
F it
F PI
F IX
F TA
G ERD
H t
H AT
H CP
I UCN
L F
L CA
L ast
L ocation
M H
M on
M ar
M BA
M HA
M obile
N i
N on
N IP
N SS
N okia
O M
O ut
O ver
P al
P HP
R V
S V
U TI
U PAC
U buntu
V al
V olume
V ista
W W
W ater
b ad
f ps
f ect
f ont
i it
i ment
i os
i ps
j id
k o
l er
l ld
m ons
n à°®
o à°Ĺ
o har
p H
p et
p ell
p ocket
p opulation
p etrol
r b
r c
s à°¤
s man
t u
t ask
u it
v es
v ious
x x
x er
} '
Ã ī
Ù Ĳ
â ¦
â Ħ
å Ĳ
Ġ ep
Ġ æĹ
à°¿ *
à°° à°ļà°¡
à°° à°ĺà°°
à°¨ à°°à°¤
à°¨ à°ĸ
à°¨ à°ī
à°¨ à°Ĺà°²à°¦
à°Ĥ âĢĶ
à°² à°¦à°²
à°² à°ľà°²
à°² à°·à°°
à°ķ à°¤à°µ
à°¤ à°µà°¹
à°¤ à°ľà°ķ
à°¦ à°¤à°ķ
à°¦ à°ĺà°Łà°¨
à°¦ à°¶à°°
à°¯ à°ķà°°à°£
à°¯ à°¦à°ķ
à±ĭ "",
à°Ł à°§
à°¸ à°Łà°¨
à°¸ à°ªà°Ł
à°ª à°®à°ķ
à°ª à°ķà°ªà°ķ
à°ª à°¨à°µà°¸à°°à°®
à°µ à°ĸ
à°µ à°¯à°ķ
à°µ à°¸à°®à°¯
à°® à°¯à°¦
à±Ģ âĢľ
à°Ĺ à°ķà°²
à°Ĺ à°¦à°²
à°Ĺ à°ªà°²
à°Ĺ à°²à°ķà°°
à°Ĺ à°Ĺà°²à°¦à°¨
Ġà°ª à°¥à°¨
à°ļ à°°à°ķ
à°ļ à°¯à°µ
à°ļ à°®à°£
Ġà°ķ à°ħà°·
Ġà°¸ à°°à°µ
Ġà°¸ à°¬à°²
Ġà°µ à°¯à°²
Ġà°µ à°¦à°²à°µ
âĢĮ âĢ¦
âĢĮ à±ĥà°Ĥ
Ġà°® à°¤à°°
Ġà°® à°¯à°¸à°Ń
Ġà°® à°¤à°¨à°®
Ġà°® à°Ŀ
Ġà°ħ à°¯à°¨à°¤
Ġà°ħ à°°à°®à°¨
Ġà°ļ à°²à°°
à±Ĥ à°ģ
Ġà°¨ à°ĸà°®
à±įâĢĮ ÃĹ
à±įâĢĮ âĢ¡à±į
à°· à°³
à°· à°¸à°°
à°ľ à°ĸ
à°ľ à°¹à°¨
à°ľ à°µà°¸
à°ľ à°ªà°°à°ļà°¡
à±Ī `
à°¶ à°¹
à°¶ à°ªà°Ł
à°¶ à°¨à°µ
à°¶ à°¯à°ª
Ġà°° à°¨à°Ĺ
Ġà°° à°¥à°°
à°§ à°ľ
à°§ à°²à°¯
à°§ à°µà°¸
à°§ à°µà°²à°¨
à°¬ à°·à°¨
Ġà°Ĩ à°µà°¡
Ġà°Ĩ à°¨à°²
à±ģà°Ĥ âĢĻ
à°¹ à°¦à°°
à°¹ à°¹à°¸
Ġà°ī à°¥
Ġà°ī à°¤à°°
Ġà°ī à°ªà°¤
Ġà°ī à°§à°®
à°£ à°¸à°®
à°£ à°¬à°²
Ġà°¬ à°ļà°¨
à°Ń à°¬
Ġà°İ à°®à°²
Ġà°İ à°Ĳà°¬
Ġà°ĩ à°¦à°°
Ġà°ĩ à°®à°°
Ġà°ĩ à°Ĩà°°
Ġà°ĩ à°Ĵ
Ġà°ĩ à°İà°«
à°ħ à°¶à°ķ
à°ħ à°²à°®
à°ħ à°¡à°Ĺà°Ł
à°¥ à°¸à°¹
à°³ à°Ĺà°¡
à°³ à°Ĺà°²à°¦
à°²à°¨ à°µ
Ġà°ħà°¨ à°¦à°°
Ġà°ħà°¨ à°ĺ
Ġà°Ń à°¯à°µ
à°²à°ķ à°ķ
à°²à°ķ à°Ń
à°Ī à°Ń
à°µà°° à°¬
à°ĩ à°İà°¨
Ġà°¶ à°¦à°°
Ġà°¶ à°µà°¯
Ġà°Ī à°¹
à°°à°¤ à°ķà°¨
à°°à°¤ à°µà°²à°¨
à°İ à°ĩà°ª
à°Ĩ à°²à°ª
à°Ĩ à°¶à°Ĺ
à°Ĩ à°µà°¶
à°ĸ à°¦à°°
à°ĸ à°ªà°¤
à°ĸ à°¨à°µ
à°ĸ à°ļà°°
à°°à°® à°£à°¯
à°¦à°° à°ļ
à°¦à°° à°¨à°ª
Ġà°¯ à°ªà°¡
à°« à°§
à°« à°²à°ª
Ġà°ı à°°à°¨
à°°à°ķ à°³à°¨
à°°à°ķ à°®à°¯
Ġà°Ĵ à°İ
Ġà°Ĵ à°ĩà°¸
à±į, (
Ġà°Ĵà°ķ à°¡à°µ
à°¤à°° à°ļà°¨
à°¤à°° à°Ĺà°¨
à°®à°¨ à°¬à°¡
à°®à°¨ à°ķà°¨
à°®à°¨ à°Ĺà°°à°²
Ġà°ľà°° à°ªà°¬à°¡
à°Łà°¨ à°®
à°·à°¨ à°¬
Ġà°ħà°µ à°µ
à±ĭà°Ĥ -
à°¤à°¨ à°ķà°¨
à°¯à°® à°¯à°®
à°¯à°® à°§à°°
à°²à°² à°®à°°
Ġà°ķà°² à°µà°¡à°®
Ġà°ķà°² à°ªà°¡à°®
à°ªà°¡ à°µà°¨
à°ªà°¡ à°ķà°®
Ġ( /
Ġ( âĪĴ
à°¬à°¡ à°®à°¨
à°ķà°¡ à°°
à°ªà°¤ à°®
à±Ģà°Ĥ )
Ġà°®à°¨ à°¦à°¨
Ġà°§ à°¨à°ķ
Ġà°ĵ à°¤
à°¦à°² à°¸
à°¤à°² à°¹
à°ļà°¡ à°²
Ġà°· à°ª
Ġà°· à°¹à°¦
à°¾? '
Ġà°ķà°¨ à°¬
à°ļà°¨ à°ªà°²
Ġà°¨à°® à°¤
Ġà°ħà°° à°¦
Ġà°ħà°° à°¶
à°Ĳ à°²à°²
à°Ĳ à°²à°ª
à°Ĳ à°Ĳà°¡
à°Ĳ à°Īà°İà°¸
à°Ĳ à°Īà°İà°²
Ġà°ħà°¤ à°¡à°¨
Ġà°ħà°® à°²à°ª
Ġà°ĸ à°¸
à°µà°¨ à°¹à°³
à°°à°¨ à°²
à°ı à°ķà°µ
à°ı à°ķà°¦
à°ı à°¡à°µà°ķ
Âł ĠÂł
à°²à°¯ à°¯
à°²à°¯ à°ľ
Ġà°Ĳ à°¨à°µ
Ġà°Ĳ à°Īà°¸
Ġà°Ĳ à°ľà°µ
à°²à°ª à°Ĺà°²à°°
Ġà°ªà°Ł à°ķ
à°ľà°¯ à°¯
à°¯à°¤ à°µà°²à°¨
à°Ĺà°² à°ļ
à°¤à°ķ à°¦
Ġà°µà°¸ à°²
à°ľà°° à°Ĺà°°
à°Ĵ à°İà°²
20 28
à°²à°® à°°à°£
Ġà°ķà°° à°Ĺà°Ł
à°ī à°°à°µà°ķ
Ġ20 47
Ġ20 32
Ġ5 71
à°ħà°² à°¬
à°ħà°² à°ľà°¡
à°ķà°¨ à°ľ
à°Ĺà°¨ à°°à°¸
à°ľà°ķ à°¸à°®
à°Ĩà°¯à°¨ à°µ
Ġà°¸à°Ń à°ļ
à°ļà°¬à°¡ à°Ĺà°²à°¦
à°¤à°Ĺ à°®à°¨
Ġà°¤à°² à°Ĺà°¡
à°¯à°ªà°¡ à°¡à°®
à°ŀ à°¶
à±ģ: ""
Ġà°ķà°® à°²à°ķ
à°İà°¨ à°¬
à°¡à°Ĺ à°¡à°¤
à°¡à°µ à°¦à°¶
Ġ6 33
à°¸à°¨ à°Ń
à°°à°¹ à°¤
à°°à°¹ à°¶
Ġ7 33
Ġà°¬à°² à°¬à°²
à°³à°¨ à°¬
à°ķà°°à°£ à°ªà°°
Ġ8 16
Ġ8 33
Ġ8 61
Ġ8 87
Ġ8 94
Ġ8 93
à°²à°µ à°²à°²
à°µà°°à°£ à°²à°¤
à°µà°Ĺ à°¢
Ġà°¨à°¡ à°¤à°²
à°¦à°ķ à°Ĺ
à°¦à°ķ à°¬
Ġà°ķà°³ à°²à°ª
à°Ľ à°Ľ
à°°à°Ĺ à°¡à°¨
à°°à°Ĺ à°¡à°ķ
à°°à°Ĺ à°Ĺà°²à°¦
à°ĵ à°¤
à°ĵ à°ķà°²
à°ĵ à°¨à°®
à°ĵ à°Ĳà°İà°²
Ġà°Ĩà°Ł à°²à°¤
Ġ9 19
Ġ9 31
Ġ"" /
Ġ' :
Ġ' *'
à°Ĺà°¦ à°²à°ķ
Ġ12 90
à°ħà°µ à°¤à°°à°£
Ġà°Ĺà°¡ à°ªà°¦à°Ĺ
Ġà°ħà°Ĺ à°ª
Ġà°¥ à°²à°ªà°¤
Ġ15 50
Ġ15 60
Ġ15 90
Ġà°Ĺà°¤ à°ıà°¡
à°£à°® à°¯à°®
à°£à°® à°µà°¡
à°¯à°¦ à°¶à°²
Ġà°ļà°¦ à°°à°®
à°Ĺà°³ à°ķà°°à°®
Ġà°Ĺà°² à°¦à°¨
à°Łà°ªà°¡ à°°à°¨
à°Łà°ªà°¡ à°Łà°®
Ġ11 50
à°¿) (
à°¿) ?
à°µà°¯ à°ªà°°à°ļ
à°¨à°¯ à°¶
à°¨à°¯ à°Ń
.. ."
à°ķà°ķ à°ķ
Ġà°®à°² à°¦
à°ļà°¯ à°ªà°¤
Ġ18 24
Ġ18 36
Ġ18 39
Ġ18 34
Ġ18 54
Ġ18 83
à°¯à°§ à°²
Ġ16 70
Ġ16 23
Ġà°ªà°¥à°ķ à°®à°¨
Ġà°İà°Ĺ à°¦à°¨
in à°²
Ġ! """
Ġà°ıà°ķ à°Ń
à°µà°® à°Ĺ
Ġ17 99
Ġ17 96
15 47
Ġà°ħà°®à°° à°ļ
à°ªà°¬à°¡ à°¬
à°ªà°¬à°¡ à°¦à°Ĺ
à°®à°® à°Ĺ
an ian
an ces
à°Łà°Ĺ à°²à°¨à°¨
Ġà°µà°¯à°¸ à°ª
à°ªà°® à°¯
à°± à°°
à±įâĢĻ :
Ġà°ĵà°¡ à°²à°¤
re es
re ely
Ġà°İà°¡ à°²à°¨
Ġà°İà°¡ à°®à°¨
at hi
à°®à°Ĺ à°¬
Ġà°ľà°² à°ļà°°à°®
à°¨à°¹ à°¯
à°Ĥ) âĢĻ
18 65
18 32
18 77
18 41
18 59
18 82
Ġà°ħà°¹ à°°à°¹
à°®à°µ à°³
Ġà°Īà°¸ à°ª
à°®à°³ à°¤
Ġà°¦à°¶ à°¬
à°µà°¬à°¡ à°µà°¦
ĠC han
à°°à°¡ à°®à°¨
à°¬à°¸ à°¬
Ġt ro
Ġt ow
Ġt echnology
Ġt angential
ĠS ho
ĠS rin
ĠA ge
ĠA udio
ic o
ic har
it ing
en k
en ame
17 48
17 93
ĠI B
ĠI ETF
ĠM n
ĠM eg
ĠM AN
ĠM obile
ĠM usic
ĠT I
ĠT et
ĠT im
ĠT op
ĠT ax
ĠT ype
ĠT DS
ĠT wo
Ġs y
Ġs ing
Ġs eat
el a
el t
à°¾) -
ĠR D
ĠR h
à°¿"" )."
à°²à°¬à°¡ à°µà°²à°¸
Ġà°ħà°£ à°ªà°¬à°¡
ĠU s
ĠU BS
Ġ300 00
Ġm A
Ġm iles
ĠN B
ĠN M
ĠN IT
ĠN PP
Ġc a
Ġc at
Ġc are
Ġc ancer
Ġc ycle
à°¯à°ķà°°à°® à°¯
is i
is on
is ters
Ġà°ªà°°à°® à°°
ĠP U
ĠP at
ĠP ress
ĠP hys
Ġp at
Ġp ay
le cular
ĠB y
ĠB en
ĠB PA
ĠB DR
Ġà°®à°£ à°ª
à°Ĭ à°°à°Ł
Ġà°ļà°® à°Łà°²
à°¾à°Ĥ, âĢĿ
Ġ90 5
ro re
Ġà°®à°® à°¤à°²
à°Ĺà°ªà°¡ à°ķ
Ġà°ľà°¤ à°ķà°¡à°¤
Ġà°Ķà°·à°§ à°¶
as er
he era
ĠG en
ĠG ix
ĠG roup
di rect
ĠD TH
ĠF ire
am era
am mu
à°¡à°Ĺà°² à°Ĺà°¡
il osophy
Ġ48 4
Ġ48 76
and amuri
ĠH K
ĠH BO
ĠH AL
Ġin à°²
Ġin vis
Ġin formation
Ġf in
à°ķà°µà°° à°Ł
Ġb on
Ġb reak
Ġb olts
Ġb uddy
th y
Ġà°Ńà°Ĺ à°Ńà°Ĺà°²
om uk
us ion
Ġn ess
Ġn ext
Ġn uclear
Ġd evi
Ġd evelopment
ĠE A
ĠE C
ĠE uler
Ġà°¨à°Ĺ à°²à°ķ
ol ks
ur g
ĠL ib
ĠL ong
ĠL arge
ĠL ondon
Ġà°Ŀ à°¨
Ġà°ķà°²à°µ à°ķà°ª
ĠO ppo
id ing
id hi
ĠW M
ĠW est
ĠW indow
ĠW illi
Ġà°¸à°°à°³ à°¤à°¨
et c
à°ªà°µà°² à°¦
Ġà°¹à°¤à°® à°µà°Ĺ
ĠÂ ±
Ġà°ªà°¤à°¨ à°¬
ec ology
ĠX box
ĠX iaomi
Ġ65 6
Ġà°¹à°¯ à°¹à°¯
Ġg l
Ġg ear
Ġg old
Ġl it
st age
st able
st agram
Ġ120 5
Ġh al
Ġh ot
Ġh old
à±ĭâĢĻ )
à°Ķ à°²
à°Ķ à°¨à°¨
ĠK I
ĠK n
ĠK PA
ug ar
à°ıà°ı à°²
à°ıà°ı à°Ĳà°¬
à°¹à°¦à°ªà°¡ à°Ł
Ġà°ķà°¨à°ªà°¡ à°°
à°°à°µà°ļà°¨ à°ª
à°¶à°¤ à°ªà°¥
à°Ĳà°ı à°Ĩà°°
Ġ99 3
ead y
Ġà°Ĩà°ļà°°à°£ à°²à°¨
ri al
ri um
oc r
oc arp
em ic
ag n
ag ue
à°¦à°ªà°¡ à°¡
Ġ180 3
Ġto p
ID E
à°ªà°Ĺà°² à°¡à°¨
Ġ68 6
Ġà°®à°¤à°ª à°°à°®à°¯
à°¾"" )
Ġà°īà°ªà°¨ à°¯à°¨
iv en
ĠJ NU
ĠJ SON
Ġ69 3
à°°à°¬à°¡ à°¤
ap ps
og y
Ġà°ıà°ķà°ķ à°£
Ġr am
im d
im ble
Ġà°ªà°¡à°µ à°²à°²
qu ake
à°µà°Ĺà°² à°®à°¨
à°µà°Ĺà°² à°¡à°¨
ex p
ist on
Ġx y
à¥ °
à¥ Į
op h
op ra
à°Ĺà°¬à°¡ à°¤
à°ıà°Ĳ à°Īà°İà°¸
av ing
à°¤à°¬à°¡ à°Ł
Ġâ Ĩ
à°¿] ,
à°ĩà°¤ à°£
à°ħà°°à°µ à°Ł
à°ķà°¥à°² à°µ
Ġà°£ à°ķ
à°°à°Ĺà°² à°¡
are ena
à°¨à°Ĺà°² à°®à°¨
ud a
à² ³
pp ed
Ġy es
ib us
Ġà°īà°Ń à°¯à°¸
Ġpro f
Ġpro file
ric h
à°¹à°ľ à°¤à°¨
ob o
à°¾.. ,
RA S
ell a
.... ...
Ġcom ple
pl ug
ast ri
Ġme aning
Ġà¤ ¤
Ġà¤ °
Ġà¤ ħ
Ġà¤ ļ
à°¹à°¯ à°ľà°®
ĠZ est
con nect
RC P
à¦ ¸
Ġmo on
à°ķà°°à°ķ à°°à°²
à°¨à°ķà°² à°µ
IV E
ase Result
ik ely
à°¹à°ªà°° à°ļà°ķ
Firefox à°ķ
Ġdi d
Ġdesign ing
lu e
ĠWindows à°²
eb ook
ue en
118 5
Ġsp ace
rol ley
ĠCD E
Ġpl an
Ġà°īà°¡à°ķ à°µ
pro cess
pro blem
ĠCh ennai
ĠCh opra
SL V
ple ment
HA M
ĠPC I
EE SL
oll ar
à³ Ĥ
Ġbl ast
âĢİ )
IT R
AC H
Ġnot ebook
ax ford
à°īà°Ń à°¯à°¸à°Ńà°²
ĠCom pany
AI R
Ġres p
ĠUSA à°ķ
app a
GS E
Ġtri angle
row s
row ser
user name
att le
att hew
ĠIN D
âĢĭâĢĭ âĢĭ
ĠAM D
à±į] ]
ats app
ĠPl ayer
ĠRes ults
isk s
Ġcl aim
DM CP
ures h
Ġtechnical query
de ep
ĠPr asad
à´ ķ
pr ise
Ġte ach
Ġà² ķ
Ġno thing
Ġinter est
Ġper iod
âĢ² .
ĠEd ucation
ĠRec ord
Ġstr ateg
NH M
air s
Re quest
à°¶à°ªà°°à°ļ à°¦
à¤Ĺ à¤°
cur ve
dis ha
Stream er
ĠAir port
En c
ãĥ ³
Ġsup reme
à© °
GH MC
Ġtel ugu
uss ia
atter y
atab di
Ġsu ch
ĠPri yanka
", ""
compress ible
eh icle
à°¸à°£ à°Ĺà°¡
Ġser ial
ĠSociety à°ķ
Ġair port
World wide
Dr RPNishank
IB aseResult
Ġlaun ched
ĠAN I
conf ig
alog ue
Ġprotot yp
dr ug
Ġcap ital
Mer idional
Socket Engine
ĠOP EC
ozz le
ĠEPF O
transl ated
äº º
ĠMec han
11000 1
ĠAfric a
Ġsuc cess
UCKL ES
Real me
Ġtur ret
Yama ha
boo lean
DTM F
ĠGix xer
Ġdevi ation
) âĢĵ
* )
+ +
, )
, âĢĿ
/ *,
9 72
? """
B W
B l
B io
B PCL
C d
C FC
D o
D ist
D ep
D ata
E MS
E PA
E co
E mpathy
F low
F DL
G Conf
H B
H DR
H indi
I d
I ATA
J S
J ag
J apan
K YC
L G
L ock
L eg
M ID
M TP
M ark
M MR
M ozillian
M umbai
N I
N Y
N a
N EX
N HAI
O L
O ECD
P L
P t
P ol
P SA
P age
P PF
Q R
Q Native
Q IBaseResult
R P
R un
S m
S erv
S IA
S elect
T er
T arget
U ST
U TF
U SSR
W est
W hy
Z à°·
_ $$
a ign
b ho
b ody
b ert
b rid
b ubbles
c id
c ine
c ast
c ode
c enter
d ep
d ictionary
d ensity
e kiga
f c
f il
f ied
f aces
g ro
g rid
h ad
h ol
h ab
h ub
j ured
l av
l ook
l ength
m ph
n irav
o e
o le
o il
o res
p at
p aper
p icture
r um
r ang
r ont
r ated
r unner
s cient
t or
t ro
t ropical
u ction
v ol
v ard
w ell
w atch
x id
z o
µ ÖĢ
Â ¨
Â ®
Â º
Ã ±
Ã ½
Ã Ĭ
Ã ł
É Ĵ
Ð »
× ĵ
Ø ²
Ø Ń
Ù ¾
à Ń
Ġ à±Ĩ
Ġ âĸº
Ġ ri
Ġ ËĪ
à± ®
à± ¯
à±į ^
à°¿ à±ĸ
à°¾ à¥¤
à°¾ Â§à±įâĢĮà±ģ,
à±ģ à±ĩ
à±ģ à°¾à°Ĥ
à±ģ à±ĥ
à±ģ ï»¿
à°° à°¡à°Ĺ
à°° à°Ļ
à°¨ à°Ĺà°£
à°¨ à°¤à°²à°ª
à°² à°³
à°² à°īà°¤
à°² à°¹à°Ł
à°ķ à°¸à°®à°¸
à°¤ à°¢
à°¤ à°¹à°°
à°¤ à°Ĺà°²à°¦
à°¤ à°ĭà°¤
à°¦ à°£
à°¦ à°¡à°ķ
à°¦ à°¶à°Ĺ
à±ĭ âĢĺ
à±ĭ à°ģ
à±ĭ ....
à±ĩ """"
à°Ł à°·
à°Ł à°Ĺà°°
à°Ł à°µà°°à°ķ
à°Ł à°ķà°¡à°ªà°Ł
à°¸ à°°à°¤
à°¸ à°µà°¦
à°¸ à°¹à°¦
à°¸ à°°à°£à°²
à°¸ à°°à°£à°Ĺ
à°ª à°¯à°²
à°µ à°£à°¨
à°µ à°ªà°¡à°ķ
à°® à°ħà°¨
à°® à°°à°®à°Ĺ
à°® à°¦à°µà°¦
à°¡ à°ªà°°
à°¡ à°µà°°à°ª
à°¡ à°®à°°à°ļ
à°Ĺ à°«
à°Ĺ à°ħà°¶
Ġà°ª à°Łà°¨
à°ļ à°·
à°ļ à°®à°°
à°ļ à°ķà°¨
Ġà°ķ à°ªà°°
Ġà°ķ à°¤à°²
Ġà°ķ à°¸à°®
Ġà°ķ à°²à°ķà°¨
Ġà°ķ à°¦à°¨à°°
Ġà°¸ à°ľà°¨
Ġà°¸ à°¨à°ķ
Ġà°¸ à°¶à°¸
Ġà°¸ à°¡à°²à°¨
Ġà°µ à°°à°µ
Ġà°µ à°²à°°
Ġà°µ à°¯à°¬
Ġà°µ à°°à°µà°¡
Ġà°® à°Ĺà°¡
Ġà°® à°ĸà°¨
Ġà°® à°¯à°®à°¯
Ġà°ħ à°¯à°²
Ġà°ħ à°³à°ª
Ġà°ļ à°¶
Ġà°ļ à°İ
à±ģ. _
Ġà°¨ à°²à°®
Ġà°¨ à°µà°ķ
Ġà°¨ à°¹à°ª
à°¿. âĢĻâĢĻ
à°¿. $$
à°· à°ī
à°· à°ķà°¨
à°· à°°à°¸à°¤
à°· à°¤à°°à°¹
à°· à°µà°¨à°®
à°ľ à°µà°¡
à°ľ à°¡à°²
à°ľ à°¸à°Ń
Ġà°¤ à°«
à°¶ à°µà°¦
Ġà°° à°Ń
Ġà°° à°µà°¨
Ġà°° à°ĺà°¨
à°§ à°ĩ
à°§ à°²à°ª
à°§ à°°à°Ĺ
à°§ à°µà°Ł
à°§ à°°à°£à°®
à°¬ à°²à°¯
à±Ĭ à±Ģà°Ĥ
à°¹ à°°à°¤
à°¹ à°ĸ
à°¹ à°ķà°²
à°¹ à°®à°¤
à°¹ à°¯à°Ĺ
Ġà°ī à°Ľ
à°£ à°ķà°¡
à°£ à°ķà°ķ
Ġà°¬ à°°à°²
à°Ń à°°à°®à°µ
Ġà°² à°ĺà°µ
Ġà°İ à°ĸ
Ġà°ĩ à°¨à°°
Ġà°ĩ à°¨à°ª
Ġà°Ĺ à°°à°Ĺ
Ġà°Ĺ à°¦à°Ĺ
Ġà°Ĺ à°®à°Ĺ
Ġà°ľ à°¤à°¤
Ġà°ľ à°ĺà°¨
à°ħ à°Ĩ
à°ħ à°¦à°°
à°ħ à°¤à°²
à°ħ à°°à°¨
à°ħ à°ľà°®
à°ħ à°µà°¦
à°ħ à°¥à°°
à°ħ à°¡à°Ĺà°²
à°¥ à°¨à°µ
à°³ à°Ĺà°ķ
à°²à°¨ à°²à°²
à°²à°¨ à°µà°²
Ġà°ħà°¨ à°Ĺà°¨à°Ĺ
Ġà°Ń à°¹
à°²à°ķ à°¥
à°²à°ķ à°²à°¨
à°²à°ķ à°¨à°ļ
à°Ī à°¹
à°Ī à°ļà°°
à°Ī à°¨à°Ĺà°°
à°Ī à°ıà°¡
à°µà°° à°Ł
à°ĩ à°Ĳà°Ł
Ġà°¶ à°¦
Ġà°¶ à°µà°°
Ġà°Ī à°³
Ġà°Ī à°Łà°°
à°İ à°¯à°°
à°İ à°ļà°Ł
à°İ à°Ĳà°ķ
à°İ à°ĩà°İà°¸
à°Ĩ à°¸à°²
à°Ĩ à°ľà°®
à°Ĩ à°µà°°à°£
à°Ĩ à°¯à°£
à°Ĩ à°µà°°à°£à°²
à°Ĩ à°µà°°à°£à°ª
à°ĸ à°¹
à°ĸ à°²à°®
à°ĸ à°ªà°¡à°¤
à°°à°® à°ªà°¯
à°¦à°° à°£à°¤
Ġà°¯ à°µà°°
Ġà°¯ à°®à°¨
Ġà°¯ à°®à°ª
Ġà°¯ à°µà°¤à°²à°¨
Ġà°¯ à°®à°Ńà°Ł
Ġà°®à°° à°²à°¨
Ġà°®à°° à°²à°ª
Ġà°®à°° à°ķà°²à°¤
Ġà°ı à°Ĳà°ķ
Ġà°ı à°ıà°ı
Ġà°Ĵ à°°à°Ĺ
Ġà°¸à°® à°ľ
Ġà°¸à°® à°µà°°
à°ķà°° à°¬
à±į, âĢĿ
à°¦à°¨ à°µà°ļ
à±ĩà°Ĥ âĢ¦
Ġ1 198
Ġà°ħà°µ à°¯
à±Į '.
à±ĭà°Ĥ '
à±ĭà°Ĥ âĢĻâĢĻ
à°¤à°¨ à°Ĺà°²
Ġà°ķà°² à°µà°Ĺ
Ġà°ķà°² à°Ĺà°µ
Ġà°ķà°² à°µà°°à°®
à°ªà°Ł à°µà°°à°ķ
Ġà°Ĩà°° à°µà°²
à°ķà°² à°¶
Ġà°¤à°° à°°
à°µà°² à°Ĺ
à°µà°² à°¯à°®
"" )"
à°¸à°° à°ļà°¯
à°¬à°¡ à°µà°²à°¸
à°ķà°¡ à°ī
à°ªà°° à°ļà°¬à°¡à°²
à°°à°¯ à°Ĺ
à°·à°¯ à°µà°°
à°·à°¯ à°ķà°°à°£
Ġà°®à°¨ à°ľ
Ġà°®à°¨ à°Ń
à°¤à°® à°¬
Ġà°§ à°¬
à°¦à°² à°µà°Ł
Ġ. ,
Ġ. --
à°¿? ,
Ġà°¦à°° à°¹
Ġà°· à°§
Ġà°· à°¹à°¨
à°¾? .
à°¾? âĢĿ
à°ļà°¨ à°ªà°¤
Ġà°ħà°° à°ª
à°ħà°¨ à°¤à°°
à°ľà°¨ à°¬
à°²à°¤ à°¦
à°°à°¦ à°³
Ġà°®à°¹ à°ķ
Ġà°®à°¹ à°²à°²
Ġà°®à°¹ à°®à°¦
à°µà°¨ à°²à°¤
à°µà°¨ à°²à°ª
à°°à°¨ à°ª
à°°à°¨ à°µà°ļ
à°ı à°µà°¨
à°ı à°ħà°°
à°¯à°° à°ļà°¨
à°°à°ľ à°µ
Ġà°µà°° à°µà°°
à°Ĺà°° à°¡
à°Ĺà°° à°¬
Ġà°İà°ķ à°°à°®
Ġ3 100
à°·à°£ à°Ń
à°·à°£ à°ķà°²
à°·à°£ à°¸à°¹
à°·à°£ à°¦à°³
à°¨à°° à°Ł
à°µà°¤ à°µ
à°µà°¤ à°°à°®
à°²à°ª à°ķà°ª
à±ĩ, âĢľ
à°¤à°ķ à°¸
à°¨à°® à°Ł
à±į. ...
Ġà°ħà°ķ à°¯
à°ľà°° à°¥
à°¨à°² à°¦
Ġà°ªà°¡ à°®
Ġà°ªà°¡ à°ķà°²à°ķ
Ġà°ħà°ª à°®
à±Ĩà±ĸ :
à°¡à°² à°Ĺ
à°ĺ à°¨à°¸
à±Īà°Ĥ :
à°ł à°ļ
Ġ20 27
Ġà°ħà°¡ à°¬
à°¨à°ķ à°¬
à°Łà°® à°§
à°¦à°Ł à°¸
Ġ5 61
à°ħà°² à°¸à°Łà°Ĺ
à°ªà°ķ à°µ
à°®à°ķ à°¤à°²
à°µà°¹ à°®
à°Ĺà°¨ à°Ĺà°°
à°Ĩà°¯à°¨ à°ªà°Ł
Ġà°ħà°¤à°¨ à°²
à°®à°¤ à°¤à°¤
à°ļà°¬à°¡ à°µà°¨
à°ļà°¬à°¡ à°Łà°®
Ġà°ªà°² à°µ
""" âĢľ
Ġà°İà°µà°° à°¬
Ġà°İà°¦ à°Ĺà°Ł
à°¸à°® à°Ń
Ġà°¤à°² à°Ń
à°¯à°ªà°¡ à°®
à°²à°¡ à°¬
à°¸à°¨ à°µà°²
à°°à°¹ à°²
à°ķà°Ł à°¶
Ġà°®à°°à°£ à°ķà°°
Ġà°®à°°à°£ à°®à°¨
à±į- -
Ġà°µà°² à°ļ
à°ħà°ª à°ļ
à°ħà°ª à°¨à°®
Ġà°Ĩà°¶ à°ķà°²
Ġà°Ĩà°¶ à°ªà°¡à°¤
à°®à°² à°µ
à°®à°² à°¤à°¨
Ġà°ĺ à°¤à°¨
Ġà°ĺ à°¨à°°
Ġà°ĺ à°¢
Ġ7 44
Ġ7 67
à°ľà°® à°¦à°Ĺ
Ġ8 19
Ġ8 15
Ġ8 70
Ġ8 28
Ġ8 48
Ġ8 49
Ġ8 38
Ġ8 78
Ġ8 68
Ġ8 73
Ġ, âĢĿ
à°²à°µ à°¯
à°²à°µ à°Ĺà°²à°¦
à°ħà°¤à°¨ à°²
Ġ10 33
à°¯à°ª à°¦à°ľ
Ġà°Ĩà°¨ à°¬
Ġà°¶à°° à°¬
à°¦à°ķ à°¤à°ķ
à±į: %
Ġà°ĸà°° à°°
à°ĵ à°İà°®
Ġà°Ĭ à°°à°®
Ġà°Ĭ à°Łà°²à°¨
Ġ9 13
Ġ9 45
Ġ9 65
Ġ9 32
Ġ9 74
à°¨à°¤ à°¡
Ġà°ıà°¡ à°¯
à°·à°ķ à°¦à°³
à°ªà°£ à°ĸ
à°ªà°¦ à°¯
Ġ' {
à°¶à°® à°µà°¡
à°¨à°¡ à°ªà°¡
à°µà°¦ à°²à°¨
Ġ12 67
à°Ĺà°¡ à°²à°¤
à°¸à°Ń à°²à°²
à°¸à°Ń à°ªà°ķ
Ġà°¬à°¹ à°®
à±į) )
à°¦à°Ĺ à°Ł
Ġ15 10
Ġ15 17
à°Ĺà°³ à°¹
Ġà°Ĩà°ª à°®
Ġ11 16
à°İà°µà°° à°¬
à°¿! """
Ġà°®à°¤ à°¶
Ġà°®à°¤ à°¹
à°¬à°² à°ļ
à°¬à°² à°¶
à°¹à°°à°£ à°²à°ķ
à°¡à°® à°¯
Ġ18 35
Ġ18 49
Ġ13 48
Ġ13 81
Ġ16 40
Ġ16 52
Ġà°İà°Ĺ à°ľ
in et
in ite
ĠâĢĻ âĢĻ.
Ġà°ıà°ķ à°Ľà°¤
à°µà°® à°°à°£à°®
Ġ17 40
Ġ17 60
Ġ17 55
Ġ17 72
Ġ17 73
Ġ17 98
à°īà°¦ à°ľà°¨
à°īà°¦ à°¹à°°
15 10
15 82
à°«à°² à°°à°ķ
à°§à°ķ à°¬
25 60
à°ķà°°à°® à°µ
à°®à°¸ à°ķà°¬
à°ªà°¬à°¡ à°¦à°¨
on line
à°¯à°£ à°²à°ķ
an ia
à°ĩà°¤à°° à°µ
à°± à°²à°¬
Ġà°§à°¨ à°¶
Ġà°§à°¨ à°¬à°²
12 80
à°°à°ªà°¡ à°Ĺ
re nd
Ġ40 30
at ar
at ives
at nam
18 55
18 42
18 44
18 74
18 62
18 88
18 54
Ġà°ķà°¡ à°ªà°°
Ġà°Ńà°¯à°ªà°¡ à°µ
à°¯à°¯ à°¯
al u
Ġà°īà°· à°¶
16 18
Ġà°µà°²à°¨ à°Ĺ
à°®à°°à°£ à°¦
ĠC e
ĠC op
ĠC ook
es tern
à°²à°¦ à°ķà°°
ar r
à°Ĩà°¯à°¨à°ķ à°¦
Ġt ree
Ġt rad
Ġt own
ĠS W
ĠS ol
ĠS RS
ĠS ync
ĠS hift
ĠA st
ic ular
it an
it ude
Ġà°¸à°µà°°à°£ à°Ĺ
en ic
en gineering
17 40
17 80
17 92
Ġ80 1
Ġ80 80
Ġ70 2
ĠI g
ĠI NS
ĠI FA
Ġ) -
à°ķà°³ à°ª
ĠM c
ĠM u
ĠM er
ĠM om
ĠM ach
ĠM ess
ĠM bps
ĠT ar
ĠT LS
ĠT amil
ĠT rib
ĠT ools
Ġs al
Ġs it
Ġs ol
Ġs ex
Ġs ett
Ġs ource
Ġs ampling
Ġs RGB
ĠR o
ĠR t
ĠR et
ĠR ay
ĠR os
ĠR MP
ĠR IL
ĠR eal
à°¿"" """"""
Ġà°ħà°£ à°ļà°¡
ĠU rdu
Ġm L
Ġm id
Ġm ha
Ġm icro
Ġm ale
Ġm ovie
Ġm allya
Ġm ilitary
ĠN P
ĠN on
ĠN IA
ĠN CR
Ġà°ªà°¤à°ķ à°ª
Ġc u
Ġc or
Ġc ast
Ġc ha
Ġc arbon
Ġc over
Ġc ensus
Ġc argo
à°Ńà°¯ à°Ńà°ķ
à°£à°ķ à°³à°¨
Ġà°ªà°°à°® à°¯
ĠP W
ĠP SA
à°ĤâĢĻ -
Ġp al
Ġp hot
Ġp ull
Ġp umps
le ep
300 00
ĠB H
ĠB u
ĠB ack
ĠB CCI
ĠB axford
Ġ90 4
ro duction
à°Ĺà°ªà°¡ à°¡
Ġà°ľà°¤ à°ªà°¡
Ġà°ľà°¤ à°ªà°°à°ļà°¡
as ic
as ma
as cal
as jid
Ġ% ,
ĠG A
ĠG ET
ĠG mail
ĠG CF
ĠG Conf
di ameter
à°Īà°¯à°¨ à°ª
ĠD Y
ĠD ar
ĠD el
ĠD ig
ĠD ate
ĠD ata
ĠD ie
ĠD irect
Ġ37 00
ĠF S
ĠF T
ĠF ed
ĠF rom
ĠF DI
am ics
il s
à°¯à°ªà°° à°ļà°ķ
à°ħà°¡ à°Ĺà°¨
ĠH CL
ĠH uman
Ġ75 6
Ġo ath
Ġo wa
ame sh
Ġf a
Ġf ac
Ġf ire
Ġf eed
Ġf iles
à¤ ħ
à¤ Ń
Ġb r
Ġb ur
Ġb eat
Ġb usiness
th i
om atic
us ers
Ġn adu
Ġd j
Ġd m
Ġd eg
Ġd etails
à°¨à°µà°¨ à°°
à°¦à°°à°£ à°ª
ĠE H
ĠE N
ĠE ST
ĠE mb
ĠE SI
ol ic
ĠV irat
ĠV ivo
ur t
ĠL V
ĠL Z
ĠL aw
ĠL uc
ĠO EM
ĠO TT
id is
Ġà°¸à°°à°³ à°¤à°¤
à°°à°¥à°® à°®à°¨
Ġà°®à°Ĺ à°§à°¨
Ġà°®à°Ĺ à°§à°²
ĠÂ §
Ġw in
Ġw indow
Ġw atch
Ġw onder
Ġg al
Ġg reat
Ġa ux
Ġl a
Ġl o
Ġl ock
st ep
st ream
st andard
Ġh eld
Ġà°Īà°¯à°¨ à°¦
Ġà°ľà°²à°® à°¯à°®à°µ
tion s
ĠK L
ĠK ill
ĠK KR
à°ıà°ı à°¤
à°ħà°¹ à°®à°¦
ul in
Ġv iii
Ġ59 4
ot s
ot ost
à°¹à°¦à°ªà°¡ à°¨
Ġà°ļà°¦à°µà°¡ à°®à°¨
Ġà°Ĩà°µà°°à°£ à°¦
à°µà°¤à°² à°ļ
ter m
II à°²
ri p
à°°à°¯à°² à°°
ch i
od ds
ine ar
Ġà°ķà°¡à°Ĺ à°Ł
ir m
ir y
ay out
Ġà°°à°ļà°¨ à°¤
à°£à°¦ à°²à°²
à°ħà°µà°ķ à°¤à°µà°ķ
à°ªà°Ĺà°² à°°à°¨
Ġ68 3
iv as
Ġ119 2
Ġ119 7
ĠJ agan
ap ore
à°ķà°¸à°Ń à°¤
Ġr ace
Ġà°¦à°µ à°ĸ
Ġà°ľà°¨à°¨ à°·
im ated
à°¿.. ?
à°ľà°¬ à°²à°®
ist ical
ist ration
Ġà°ªà°²à°ķ à°¦
Ġà°ªà°²à°ķ à°Ł
ĠIn vestig
à°²à°µà°¬à°¡ à°¡
Ġà°°à°¥ à°ļà°ķ
Ġà°ķà°²à°Ĺ à°¦à°¨
ĠY X
ne ver
av ig
Ġà°¦à°« à°¦à°«
Ġ} :
à°¡à°¬à°¡ à°²
à°¨à°ªà°° à°ļà°ķ
Ġà°¤à°Ĺà°² à°Ĺ
IC K
IC AR
Ġst yle
à°İà°µà°¡ à°¬
CO MM
CO UGH
à°ģ !
Ġfor mer
130 7
Ġà°Ĭà°¦ à°µà°²
if ul
ME N
Ġà°Ĩà°¬ à°Ĺ
SA S
à² ¶
à² Ł
age Kit
à°Īà°Ī à°Ī
Ġj e
Ġy s
ib ility
ach in
Ġgov ernment
Ġpro duc
ric tion
ric ity
âľ «
à°¹à°ľ à°°à°¤
à°ıà°Ī à°İà°¸
CA B
Ġth ing
ob e
Com mit
RA FFIC
ial ly
ĠCO LOR
Ġà°¬à°¤à°ķ à°Ĺà°²
BS E
à°Ńà°¯à°ªà°¡ à°Ł
Ġcom mittee
all en
Ġme ans
à® ³
à°Łà°Ĺà°² à°®
per cent
Ġac cess
Ġac count
%, '
à°ļà°ªà°° à°ļà°ķ
yn a
NO TE
Ġht ml
Ġà°µà°¶à°® à°µ
à°İà°İ à°Ĩà°°
sp b
sp ective
ik anth
Firefox à°¨
Ġdi g
Ġdesign ers
US E
cl osed
se e
ain ed
CD MA
âĪ ¼
à°°à°Ĺà°¬à°¡ à°Ł
ile d
IA ST
hy d
Ġpl ate
Ġpl ane
ĠURL à°²
St ep
HO TO
Ø§ ÙĦ
Ġà°ªà°£ à°ľ
ens ive
Ġmin istry
Ġmin utes
à°µà°°à°ªà°° à°ļà°Ĺ
AM C
Ġà°ķà°²à°ķ à°²à°®
PF RDA
sh ock
ci ation
""", ""
tp Request
ĠSA RI
pos ition
à¯ Ī
ox ic
Ġà°³ à°²
ĠâĪ ļ
CE O
à³ ĩ
Ġbl ack
Ġbl ood
à±įâĢĮâĢ¦ !
Ġex ample
Ġex peri
à±ĭ.. ,
à¨ ¿
ok e
ok ing
ĠBS E
ĠCom mission
123 456
li ament
ĠCPU à°¨
min al
IL E
FA STag
Ġà°Ĩà°®à°°à°£ à°¦
Ø± ÙĬ
line ar
rot ation
ĠUV O
Ã§ à°ª
ĠInt er
Ġà± ¨
Ġcont ext
Ġar ch
Ġsl ider
Ġqu ar
Ġare a
DI O
DOS à°²
ÙĪ Ùħ
ĠServ ices
ĠAs ian
pan el
bl ood
à°¨à°« à°³
ĠCon an
ĠAP EC
ĠEM B
ĠEM s
ĠEM UI
ĠAC T
hem atic
ks i
Ġus ed
ĠNO X
na o
ĠCBS E
ask ar
HR D
loc al
mo tion
ĠBi har
ipp ing
ym ph
bar uddin
ĠSup er
Am aravati
ĠFree BSD
Con nection
WA AM
orn ia
ĠAb d
ĠRO M
qual ity
à²¿ )
moment s
à© Ģ
Ġà°®à°¡à°µ à°¬à°¡
Ġtrans fer
cr ude
à°ªà°¯à°¨ à°®à°¯
ĠCC TV
ĠSci ences
Ġrecord ed
ĠPri me
ĠFl oor
Ġaut o
rail ways
sm all
ounc ed
inn ing
head ing
Ġvis cosity
Ġrot or
mitt ed
ÑĢ ÐµÐ
Ġà°ļà°®à°° à°µà°²
FB U
Ġhy dro
Ġear ly
Ð½ Ð¸
Ġson ia
be an
Ġacc used
xy gen
ĠAndhra bho
pilot d
ĠChar an
Zn O
Ġautom otive
mM d
àµ į
Ġsho uld
Ġindi es
ĠEv ery
Ref erence
âĹ ĭ
âĢĭâĢĭâĢĭâĢĭ âĢĭâĢĭâĢĭ
Ġproject s
epend ence
Ġdirect or
hann el
phys ical
Ġ'( -)
ĠShar ma
ĠTe am
organ ic
Ġ021 10
Ġtho ught
Ġintern et
enef its
ĠNEX RAD
Ġjo in
ashing ton
<> <>
Ġgrad ient
ĠTher blig
EMA IL
Ġfut ure
Ġâľ ¦
ROAN ING
ometax india
Ent er
went y
ĠPres ident
Ġbab y
Ġlarg est
raz il
Cot rol
POC SO
ÏĮ ÏĤ
ench mark
Ġsoc ial
omest ic
Ġcompan ies
auce pan
Ht tpRequest
ichar d
ĠNB FC
ĠPU BG
Ġinvis cid
ĠMechan ics
Jag uar
QNative SocketEngine
à°¿.$$ _
Ġowa isi
otost ock
à°ħà°µà°ķà°¤à°µà°ķ à°²à°ķ
ĠAndhrabho omi
" à±į
# ),
' âĢĮ
) ),
+ .
A DA
A MP
A CP
A BLE
A go
B harat
C m
C ase
C CD
C ycl
D HA
D BT
E m
E PC
E MI
E ye
E ICMA
F ED
F ilm
G N
G PS
G RA
H L
H V
H RE
H MD
H PCL
I Q
I ON
J DS
K A
K ar
K VIC
L DAP
M Y
M MS
M USIC
N V
N FC
N BC
N IT
N umber
O TP
P B
P H
P e
P ar
P ay
P hoto
R t
R ay
S k
S um
S outh
S creen
T ech
T STEP
U DA
V iew
V LC
V OOC
W e
a udio
b n
b ed
c ul
c urv
c asing
d c
d x
d ollar
e or
f a
f requency
g b
g rad
h as
h ome
h ini
h uman
i Commit
j it
j ay
j ection
k h
k es
l ers
n c
o i
o à°¤
o à°Ł
o ugh
p al
p id
p aram
r ust
r ating
r isk
s or
s ys
t à°¸
u ed
u els
v ar
v ed
v ector
w ebsite
x ml
y out
Â ¹
Ã ¢
É ¡
Ê Ĭ
Î £
Î ®
Î ĳ
Ð ´
Õ ´
Ö ĩ
Ú Ĩ
Ġ ^
Ġ à±ĭ
Ġ à±Ĥ
Ġ left
Ġ à¥¥
Ġ ident
Ġ uri
Ġ ×Ļ
à± ª
Ġà° ±
à±į Â»
à°¿ à±ĩ
à°¾ >
à±ģ *
à°° à°¨à°¦
à°° à°¢
à°° à°Ĺà°²à°°
à°° à°ľà°¨à°®
à°¨ à°ĩ
à°¨ à°ĩà°¦
à°¨ à°®à°°
à°¨ à°Ĺà°¤
à°Ĥ *
à°Ĥ @
à°² à°ĸà°°
à°ķ à°Ĺà°¡
à°ķ à°¹à°ķ
à°ķ à°ªà°°à°ļà°¡
à°¤ à°¥à°®
à°¤ Name
à°¦ à°ªà°¨
à°¦ à°¬à°²
à°¦ à°īà°¨
à°¯ à°°à°ª
à°¯ à°«à°²
à°¯ à°¹à°¸
à±ĭ à°¿
à±ĭ """"
à°Ł à°¸à°Ńà°ķ
à°Ł Åł
à°¸ à°Łà°°
à°¸ à°µà°¡
à°¸ à°¬à°²
à°¸ à°°à°£à°ķ
à°¸ à°¸à°¤
à°¸ à°ªà°¡à°ķ
à°¸ à°¨à°ªà°²
à°ª à°Ĺà°¨
à°ª à°¬à°Ł
à°ª à°°à°®à°¤
à°µ à°ľà°²
à°µ à°£à°¤
à°® à°ªà°Ł
à°® à°¸à°Ń
à°® à°¬à°¡à°¤
à°¡ à°¤à°°
à°¡ à°¸à°°
à±Ģ >
à°Ĺ à°·
à°Ĺ à°ľà°°
à°Ĺ à°ķà°¨
à°Ĺ à°³à°²
à°Ĺ à°Ĺà°²à°µ
Ġà°ª à°Ĺà°ª
à°ļ à°ªà°²
à°ļ à°¬à°Ł
à°ļ à°¦à°¨à°®
à±Ĩ &
à±Ĩ ]
à±Ĩ à±Ĩà°Ĥ
à±Ĩ âĢĿ
âĢ ĳ
Ġà°¸ à°¤à°°
Ġà°µ à°ĸ
Ġà°µ à°¹à°¨
âĢĮ à±ģ.
Ġà°® à°ķà°°à°°
à°¿à°Ĥ )
Ġà°ħ à°Ĺà°¨
Ġà°ħ à°ĸà°°
Ġà°ħ à°Ĺà°¡
Ġà°ħ à°¥à°®
Ġà°ħ à°²à°²à°¤
Ġà°ħ à°¦à°°à°²
Ġà°ļ à°¤à°°
Ġà°ļ à°ªà°²à°ļ
à±Ĥ à°Ĥ.
à±Ĥ âĢĻ.
Ġà°¨ à°°à°¨
Ġà°¨ à°¯à°¤
Ġà°¨ à°¯à°®à°¨
Ġà°¨ à°°à°¨à°°
à°· à°¯à°ķà°®
à°ľ à°°à°®
à°ľ à°·à°¨
à°ľ à°µà°²
à°ľ à°ĺ
à°ľ à°ł
à°ľ à°¹à°°
à°ľ à°Ĺà°ľ
Ġà°¤ à°¶
Ġà°¤ à°¡à°µà°ķ
à±Ī âĢ¦.
à°¶ à°¨à°¦
à°¶ à°µà°¸
à°§ à°ĺ
à°§ à°µà°ķ
à°§ à°µà°¦
à°§ à°¤à°²à°ª
à°§ à°¢à°ķ
à°¬ à°°à°¸
à°¬ à°¨à°²
à°¬ à°ķà°®
Ġà°Ĩ à°°à°ķ
Ġà°Ĩ à°®à°°
à°¹ à°°à°ķ
à°¹ à°ķà°ª
à°¹ à°£à°¨
à°¹ à°£à°®à°¯
Ġà°ī à°°à°¦
à°£ à°ķà°°
à°£ à°°à°¸
à°£ à°²à°ª
à°£ à°®à°¦
à°£ à°£à°®
à°£ à°Ńà°µà°¨
à°£ à°µà°¸à°¤
Ġà°¦ à°§
Ġà°¦ à°Ĺà°°
Ġà°¬ à°¨à°µ
Ġà°¬ à°¨à°ķ
Ġà°¬ à°°à°ķà°Ĺ
à°Ń à°¨à°²
à°Ń à°Ĺà°®
à°Ń à°¯à°®à°¨
Ġà°² à°¤à°¨
Ġà°² à°¤à°ķ
Ġà°İ à°¶
Ġà°İ à°°à°²
Ġà°ĩ à°ĸ
Ġà°ĩ à°İà°ķ
Ġà°Ĺ à°Ń
Ġà°Ĺ à°°à°¯
Ġà°Ĺ à°²à°®
Ġà°ľ à°ĸà°°
Ġà°ľ à°µà°Ĺà°³
à°¾à°Ĥ /
à°¾à°Ĥ à°ĥ
à°¾à°Ĥ ""."
à°ħ à°³
à°¥ à°ľ
à°¥ à°¤à°²à°¨
à°¥ à°¸à°¤
à°³ à°°à°¸
à°³ à°µà°°à°ķ
à°³ à°ħà°¸
à°³ à°¨à°ªà°¦
à°²à°¨ à°¸
Ġà°ħà°¨ à°¤à°°
Ġà°ħà°¨ à°®à°¤
Ġà°ħà°¨ à°Ĺà°²à°®
Ġà°Ń à°µà°®
Ġà°Ń à°Ĺà°¦à°¤
à°Ī à°¸à°®à°¯
à°Ī à°ĺà°Łà°¨à°¤
Ġà°¶ à°°à°®
Ġà°¶ à°²à°Ń
Ġà°¶ à°ªà°§
Ġà°Ī à°¥
Ġà°Ī à°²à°ķ
Ġà°Ī à°İà°ķ
Ġà°Ī à°ħà°Ń
Ġà°Ī à°¯à°¨à°¤
à°İ à°Łà°°
à°İ à°²à°¤
à°İ à°²à°ª
Ġà°¹ à°ĸ
Ġà°¹ à°®à°°
Ġà°¹ à°¯à°¬
à°Ĩ à°¥
à°Ĩ à°µà°¨
à°Ĩ à°¡à°¨
à°Ĩ à°µà°ķ
à°¯à°¨ à°µà°¨
à°°à°® à°µà°°
Ġà°¯ à°ļ
Ġà°¯ à°²à°ķ
Ġà°¯ à°ªà°°
à±ĥ :
à±ĥ à±į
à±ĥ âĢĮ
Ġà°®à°° à°¬
Ġà°ı à°¯à°°
Ġà°ı à°ķà°¨
Ġà°ı à°¸à°®à°¯
Ġà°ªà°° à°°
Ġà°ªà°° à°ļà°µà°ļ
Ġà°ªà°° à°ļà°Ĺà°²
Ġà°ªà°° à°Ĺà°¡à°ª
Ġà°Ĵ à°¸à°Ĺ
Ġà°īà°¨ à°ķ
Ġà°« à°¢
à°¿, à±į
Ġà°¡ à°¯à°Ł
à±į, âĢĮ
à±į, ..
à°¯à°ķ à°¦
à°¯à°ķ à°³à°²
à°¤à°° à°²à°ķ
à°¤à°° à°ļà°¨à°¨
à°¤à°° à°ªà°¡à°ķ
à°°à°£ à°¸à°¹
à°®à°¨ à°µà°²
Ġà°ħà°µ à°µà°ļ
à±Į :
à±ĭà°Ĥ !
à°¤à°¨ à°ªà°²
à°²à°² à°®à°¨
Ġà°ķà°² à°®
Ġà°ķà°² à°ªà°°
Ġà°ķà°² à°Ĺà°°
Ġà°ķà°² à°Ĺà°Ĺ
Ġà°Ĩà°° à°¦
à°ªà°¡ à°®à°°à°²
à°ķà°² à°Ĺà°²
à°ķà°² à°®à°¯
à°°à°¸ à°¹
à°°à°¸ à°®à°¯
à°Ĥ. ,
Ġ( +
Ġ( ^
00 20
à°ķà°¡ à°²à°ª
à°·à°² à°¸
à°·à°² à°Ĺ
à°°à°¯ à°£à°®
Ġà°İà°¨ à°ķ
à°¯à°µ à°µà°¸
à±Ģà°Ĥ '
Ġà°§ à°ª
Ġà°§ à°¨à°¤
à°µà°¡ à°Łà°®
Ġ. à±į
à°¤à°² à°°
Ġà°¤à°¨ à°µà°²
à°¿? ""
Ġà°· à°¬à°¨
à±Ģ, .
à±Ģ, ...
à°¾? ,
Ġà°ķà°¨ à°®
à°ļà°¨ à°°
Ġà°ħà°° à°¨
Ġà°ħà°° à°Ĺà°ķà°ª
âĢĻ (
à°ħà°¨ à°ªà°°
à°Ĳ à°ĩà°¸
à°Ĳ à°Īà°Ł
à°Ĥ, âĢľ
à°ľà°¨ à°°à°¹
à°²à°¤ à°ª
Ġà°ªà°¨ à°µ
Ġà°ªà°¨ à°¸à°ª
à°°à°ª à°®
Ġà°ħà°® à°µ
Ġà°ĸ à°°à°µ
à±ĩ. ....
Ġà°Ĩà°¸ à°®
à°°à°¨ à°®
à°Ĺà°¤ à°ª
à°ı à°°à°ķ
à°ı à°Ĳà°ª
à°ı à°Łà°µ
à°¯à°° à°Ł
à°°à°ľ à°Ĺ
Ġà°ħà°² à°¹à°¬
Ġà°¸à°¹ à°§à°°
Ġà°¸à°¹ à°Ĺà°®à°¨
à°·à°£ à°¤à°¨
à°·à°£ à°ªà°¡
à°²à°¯ à°¦
à°¨à°µ à°ķà°²
à°¨à°µ à°¶à°°
Ġà°īà°ª à°¨à°Ĺà°°
Ġà°Ĳ à°¤à°°
Ġà°Ĳ à°Īà°İà°²
Ġà°Ĳ à°Ĵà°İ
Ġà°Ĳ à°ıà°ıà°İà°«
à°¨à°° à°¹à°°
à°ľà°¯ à°ªà°¤
à°ľà°¯ à°°à°®à°£
à°Ĺà°² à°®à°°
à°¤à°ķ à°·
à°Łà°ķ à°¸
à°ľà°° à°Ĺà°¦
à°ľà°° à°Ĺà°¡
à°¨à°ª à°¥
Ġà°ħà°¸ à°²à°¯
20 35
à°¨à°¸ à°¬
à°°à°¶ à°°
à°ł à°¹
Ġ20 49
Ġ4 600
à°Łà°® à°¹
à°¦à°Ł à°ªà°¡
Ġ5 69
à°²à°° à°¹
à°ªà°ķ à°³à°¤
Ġ- %
à°¹à°¨ à°²à°¨
à°¹à°¨ à°²à°ķ
à°¹à°¨ à°ªà°°
ĠâĢĺ #
à°®à°¤ à°ķà°²à°¹
Ġà°ªà°² à°µà°°
""" *
à°¸à°® à°¤à°²
Ġà°Ĩà°² à°¯à°¨
Ġ: %
à°¯à°¸ à°ĸ
à°¯à°¸ à°¨à°ªà°¡
à°¯à°¸ à°®à°°à°¯
à°®à°¹ à°²à°²
Ġà°ľà°¨ à°¬
à°¡à°Ĺ à°²à°¨à°¨
à°¡à°µ à°¬à°¡
Ġà°§à°° à°°
Ġ6 300
à°°à°¹ à°¯
à°°à°¹ à°£à°®
Ġà°ĩà°¤à°° à°µ
Ġà°®à°°à°£ à°ķ
Ġà°µà°² à°Ĺ
Ġà°µà°² à°µà°²
Ġà°µà°² à°¸à°Ĺ
Ġà°Ĩà°¶ à°°
Ġà°ĺ à°²
à°¸à°² à°¦
à°ªà°¨ à°Ĺà°°
Ġ7 400
Ġ7 29
Ġ7 46
Ġ7 62
Ġ7 73
à°¤à°µ à°±à°ķ
à°ķà°°à°£ Name
Ġ8 18
Ġ8 34
Ġ8 67
à°²à°µ à°Ĺà°²à°°
à°µà°°à°£ à°¸
Ġ10 28
Ġ10 78
Ġ10 61
Ġ10 54
Ġà°¨à°¡ à°®
Ġà°¨à°¡ à°µà°ļ
Ġà°¨à°¡ à°ªà°Ĺ
à°¦à°ķ à°¤à°¤
Ġà°Ľ à°ķ
Ġà°Ľ à°¦
à°Ľ à°µà°ļ
Ġà°®à°¦ à°®
à°°à°Ĺ à°µà°¦
à°ĵ à°£
à°ĵ à°«
à°ĵ à°ªà°ķ
Ġà°Ĭ à°¡à°²
à°°à°¬ à°²à°®à°µ
à°²à°Ĺ à°µ
Ġ9 95
Ġ9 36
Ġ9 49
Ġ9 29
Ġ9 89
Ġ9 81
Ġ' _
Ġà°Ĩà°¡ à°¸
à°¶à°® à°µà°¨
à°¨à°¡ à°ª
à°³à°² à°ļ
Ġ12 75
à°¦à°¯ à°¯
à°°à°ķà°Łà°¨ à°ķà°°
à°·à°® à°ªà°°
10 55
à°¶à°² à°ļ
âģ Ħ
Ġà°¬à°¹ à°µà°²
à°¥à°ķ à°¶
à°¥à°ķ à°³à°²
Ġà°¥ à°ª
à±į) ""
Ġ15 11
Ġ15 85
Ġ15 76
Ġ15 72
Ġ15 62
Ġ14 90
Ġ14 05
Ġà°ļà°¦ à°µà°ļ
Ġà°Ĩà°ª à°Ĺ
à°Łà°ªà°¡ à°µà°²
Ġà°¸à°² à°¸à°²
Ġà°®à°¤ à°µà°°
à±ģ) [
âĢĭ ,
à°¹à°°à°£ à°²à°ª
Ġà°Ĩà°Ĺ à°µà°ļ
à°ļà°¯ à°®à°¨
Ġ18 19
Ġ18 25
Ġ18 45
Ġ18 74
Ġ18 92
Ġà°¬à°¸ à°¡
à°¯à°§ à°ķ
Ġà°ħà°µà°¸à°°à°® à°Ĺ
Ġ16 20
Ġ16 50
Ġ16 60
Ġ16 44
à°¯à°Ł à°®à°¨
Ġà°İà°Ĺ à°°à°ķ
Ġà°İà°Ĺ à°¬à°¡à°¤
in à°ķ
in ic
in ity
à±Ĩ. ,
à°¸à°¹ à°Ĺà°®à°¨
Ġà°ıà°ķ à°¦à°³à°¬
à°°à°Ł à°Ĺ
à°¾! !
Ġ17 24
Ġ17 83
Ġ17 08
à°¯à°Ĺ à°Ł
à°¯à°Ĺ à°£
15 28
à±įâĢĭ ?
à±įâĢĮâĢĮ âĢĵ
Ġ30 60
à°Ĺà°µ à°¤à°®
à°«à°² à°¶
à°§à°° à°ĸ
99 99
on ly
Ġà°ľà°°à°Ĺ à°µà°¦
à°¬à°¦ à°¬
à°¯à°¯à°¨ à°ķ
12 70
re ed
re ng
re verse
à°¸à°Ĺ à°ķ
à°¨à°Ĺ à°°à°²
à°¯à°¸à°Ń à°²à°¨
à°Ĥ) )
18 64
18 76
18 46
18 68
18 67
18 07
à°§à°ªà°¡ à°¦
Ġà°Ńà°¯à°ªà°¡ à°®à°¨
à°¤à°ľ à°¤à°²
à°ķà°²à°ķ à°¨
or i
à°®à°¡ à°®à°²
à°¡à°¸ à°¬
16 50
16 10
à°µà°¬à°¡ à°µ
ĠC L
ĠC ap
ĠC CD
ĠC ategory
ĠC ricket
es india
es pa
à°īà°ª à°¦à°°
à±ģ"" .
ar ak
ar ct
11 75
à°¬à°¸ à°µà°¨
Ġà°ħà°°à°µ à°¸
Ġà°°à°¸ à°ľ
à°¯à°ķà°¤ à°²à°¨
Ġt ake
Ġt amil
Ġt ech
Ġt yp
Ġt emple
[...]
