{"<sos>":0,"<eos>":1,"<pad>":2,"<unk>":3,"!":4,"\"":5,"#":6,"$":7,"%":8,"&":9,"'":10,"(":11,")":12,"*":13,"+":14,",":15,"-":16,".":17,"/":18,"0":19,"1":20,"2":21,"3":22,"4":23,"5":24,"6":25,"7":26,"8":27,"9":28,":":29,";":30,"<":31,"=":32,">":33,"?":34,"@":35,"A":36,"B":37,"C":38,"D":39,"E":40,"F":41,"G":42,"H":43,"I":44,"J":45,"K":46,"L":47,"M":48,"N":49,"O":50,"P":51,"Q":52,"R":53,"S":54,"T":55,"U":56,"V":57,"W":58,"X":59,"Y":60,"Z":61,"[":62,"\\":63,"]":64,"^":65,"_":66,"`":67,"a":68,"b":69,"c":70,"d":71,"e":72,"f":73,"g":74,"h":75,"i":76,"j":77,"k":78,"l":79,"m":80,"n":81,"o":82,"p":83,"q":84,"r":85,"s":86,"t":87,"u":88,"v":89,"w":90,"x":91,"y":92,"z":93,"{":94,"|":95,"}":96,"~":97,"¡":98,"¢":99,"£":100,"¤":101,"¥":102,"¦":103,"§":104,"¨":105,"©":106,"ª":107,"«":108,"¬":109,"®":110,"¯":111,"°":112,"±":113,"²":114,"³":115,"´":116,"µ":117,"¶":118,"·":119,"¸":120,"¹":121,"º":122,"»":123,"¼":124,"½":125,"¾":126,"¿":127,"À":128,"Á":129,"Â":130,"Ã":131,"Ä":132,"Å":133,"Æ":134,"Ç":135,"È":136,"É":137,"Ê":138,"Ë":139,"Ì":140,"Í":141,"Î":142,"Ï":143,"Ð":144,"Ñ":145,"Ò":146,"Ó":147,"Ô":148,"Õ":149,"Ö":150,"×":151,"Ø":152,"Ù":153,"Ú":154,"Û":155,"Ü":156,"Ý":157,"Þ":158,"ß":159,"à":160,"á":161,"â":162,"ã":163,"ä":164,"å":165,"æ":166,"ç":167,"è":168,"é":169,"ê":170,"ë":171,"ì":172,"í":173,"î":174,"ï":175,"ð":176,"ñ":177,"ò":178,"ó":179,"ô":180,"õ":181,"ö":182,"÷":183,"ø":184,"ù":185,"ú":186,"û":187,"ü":188,"ý":189,"þ":190,"ÿ":191,"Ā":192,"ā":193,"Ă":194,"ă":195,"Ą":196,"ą":197,"Ć":198,"ć":199,"Ĉ":200,"ĉ":201,"Ċ":202,"ċ":203,"Č":204,"č":205,"Ď":206,"ď":207,"Đ":208,"đ":209,"Ē":210,"ē":211,"Ĕ":212,"ĕ":213,"Ė":214,"ė":215,"Ę":216,"ę":217,"Ě":218,"ě":219,"Ĝ":220,"ĝ":221,"Ğ":222,"ğ":223,"Ġ":224,"ġ":225,"Ģ":226,"ģ":227,"Ĥ":228,"ĥ":229,"Ħ":230,"ħ":231,"Ĩ":232,"ĩ":233,"Ī":234,"ī":235,"Ĭ":236,"ĭ":237,"Į":238,"į":239,"İ":240,"ı":241,"Ĳ":242,"ĳ":243,"Ĵ":244,"ĵ":245,"Ķ":246,"ķ":247,"ĸ":248,"Ĺ":249,"ĺ":250,"Ļ":251,"ļ":252,"Ľ":253,"ľ":254,"Ŀ":255,"ŀ":256,"Ł":257,"ł":258,"Ń":259,"Ġt":260,"he":261,"Ġa":262,"in":263,"re":264,"Ġthe":265,"on":266,"er":267,"is":268,"Ġs":269,"ha":270,"nd":271,"Ġw":272,"ed":273,"en":274,"Ġc":275,"Ġo":276,"Ġf":277,"es":278,"at":279,"it":280,"Ġb":281,"Ġp":282,"or":283,"an":284,"Ġin":285,"ar":286,"al":287,"ing":288,"Ġof":289,"Ġd":290,"ou":291,"Ġto":292,"Ġm":293,"il":294,"as":295,"ic":296,"Ġand":297,"The":298,"ion":299,"le":300,"ro":301,"ent":302,"Ġis":303,"Ġha":304,"id":305,"Ġbe":306,"Ġn":307,"Ġre":308,"ĠS":309,"ve":310,"Ġl":311,"ct":312,"ot":313,"om":314,"st":315,"am":316,"ad":317,"ĠM":318,"ver":319,"Ġg":320,"his":321,"Ġe":322,"hat":323,"ol":324,"ĠC":325,"ĠR":326,"et":327,"el":328,"ay":329,"ut":330,"im":331,"Ġon":332,"ir":333,"ĠA":334,"ĠP":335,"ur":336,"Ġfor":337,"ow":338,"ter":339,"ra":340,"ĠI":341,"ly":342,"us":343,"ill":344,"ation":345,"Ġst":346,"Ġhe":347,"Ġal":348,"Ġh":349,"ce":350,"Ġare":351,"ĠB":352,"ak":353,"res":354,"ig":355,"od":356,"Ġhas":357,"Ġwas":358,"ere":359,"ĠK":360,"Ġthat":361,"ĠT":362,"ment":363,"ul":364,"ith":365,"ri":366,"ers":367,"hi":368,"Ġy":369,"un":370,"Ġit":371,"os":372,"ch":373,"Ġan":374,"est":375,"ab":376,"ist":377,"ĠG":378,"her":379,"ĠN":380,"ia":381,"Ġpro":382,"Ġby":383,"Ġwith":384,"ĠD":385,"Ġhave":386,"pp":387,"Ġde":388,"Ġcon":389,"Ġnot":390,"Ġas":391,"He":392,"Ġwill":393,"Ġthis":394,"and":395,"Ġat":396,"\"\"":397,"ice":398,"Ġfil":399,"ain":400,"Ġse":401,"um":402,"ate":403,"ag":404,"nt":405,"Ġcom":406,"op":407,"Ġ1":408,"ld":409,"art":410,"our":411,"Ġv":412,"Ġfilm":413,"if":414,"th":415,"em":416,"It":417,"Ġth":418,"ĠJ":419,"ĠInd":420,"Ġsa":421,"ies":422,"han":423,"Ġne":424,"Ġgo":425,"Ġwh":426,"so":427,"ac":428,"ort":429,"ĠH":430,"ong":431,"rom":432,"Ġle":433,"se":434,"Ġmo":435,"Ġbeen":436,"pe":437,"Ġr":438,"Ġ2":439,"red":440,"Ġu":441,"Ġsu":442,"ant":443,"Ġk":444,"Ġwere":445,"iv":446,"Ġfrom":447,"Ġsaid":448,"Ġalso":449,"ud":450,"ht":451,"ister":452,"Ġyou":453,"ess":454,"Ġhis":455,"Ġex":456,"ial":457,"ction":458,"ity":459,"inister":460,"ive":461,"olice":462,"ident":463,"Ġdo":464,"qu":465,"'s":466,"Ġpl":467,"har":468,"ok":469,"cc":470,"Ġwor":471,"ress":472,"Ġinc":473,"oc":474,"This":475,"ĠRa":476,"ĠL":477,"ĠV":478,"Ġall":479,"ĠRs":480,"ould":481,"Ġ(":482,"ie":483,"ther":484,"ime":485,"ric":486,"ust":487,"00":488,"But":489,"ire":490,"Ġsh":491,"ome":492,"ry":493,"vern":494,"ase":495,"one":496,"very":497,"ard":498,"ast":499,"ian":500,"ated":501,"ap":502,"ĠIndia":503,"wo":504,"ge":505,"ef":506,"ik":507,"ĠMinister":508,"du":509,"ous":510,"ĠF":511,"Ġhad":512,"av":513,"ĠE":514,"vernment":515,"ight":516,"Ġme":517,"ll":518,"are":519,"Ġj":520,"out":521,"Ġres":522,"Ġab":523,"Ġwe":524,"cted":525,"Ġpe":526,"What":527,"ctor":528,"ĠU":529,"Ġcomp":530,"How":531,"ind":532,"Ġor":533,"ople":534,"Ġag":535,"ĠPr":536,"ore":537,"ang":538,"all":539,"Ġpolice":540,"ure":541,"ide":542,"ell":543,"Ġpart":544,"nder":545,"There":546,"ep":547,"ount":548,"ĠW":549,"Ġcan":550,"ame":551,"Ġoff":552,"ost":553,"ever":554,"Ġup":555,"Ġar":556,"Ġcro":557,"Ġim":558,"ff":559,"ue":560,"..":561,"Ġlead":562,"Ġman":563,"Ġno":564,"ug":565,"Ġso":566,"port":567,"Ġthem":568,"ake":569,"Ġtheir":570,"Ġint":571,"They":572,"hed":573,"ted":574,"In":575,"Ġother":576,"Ġpeople":577,"Ġone":578,"ary":579,"ine":580,"Ġro":581,"Ġout":582,"Ġsp":583,"JP":584,"vie":585,"Ġgovernment":586,"age":587,"ail":588,"\"\"\"":589,"esh":590,"Ġper":591,"Ġad":592,"ish":593,"Ġreg":594,"ace":595,"Ġacc":596,"ays":597,"ered":598,"ans":599,"ree":600,"ations":601,"te":602,"Ġus":603,"ater":604,"ult":605,"Ġun":606,"hief":607,"Ġthey":608,"Ġtwo":609,"Ġthere":610,"ble":611,"oug":612,"Ġdis":613,"Ġlo":614,"ear":615,"ah":616,"ions":617,"Ġhim":618,"Ġcont":619,"orm":620,"ack":621,"ĠO":622,"ical":623,"Ġabout":624,"fter":625,"ich":626,"ath":627,"Ġtr":628,"ip":629,"Ġ3":630,"amil":631,"Ġunder":632,"der":633,"Ġwork":634,"Ġagain":635,"ongress":636,"ho":637,"Ġwho":638,"ence":639,"hen":640,"irst":641,"per":642,"ital":643,"ound":644,"now":645,"Ġnew":646,"ber":647,"lo":648,"ade":649,"Ġen":650,"ĠY":651,"Ġcase":652,"Ġover":653,"Ġam":654,"ced":655,"Ġapp":656,"Ġsc":657,"ndra":658,"hil":659,"ew":660,"Ġrec":661,"li":662,"ana":663,"Ġtime":664,"ond":665,"pt":666,"Ġte":667,"les":668,"odi":669,"Ġher":670,"Ġmovie":671,"ank":672,"ition":673,"We":674,"Ġincident":675,"Ġdid":676,"ĠBJP":677,"ons":678,".\"":679,"Ġ20":680,"Ġstate":681,"Ġfirst":682,"Ġdire":683,"ates":684,"ance":685,"oll":686,"og":687,"Ġqu":688,"ach":689,"ket":690,"ĠSt":691,"ass":692,"able":693,"ord":694,"ally":695,"Ġcl":696,"ĠRaj":697,"Ġits":698,"Ġwhich":699,"Ġcount":700,"we":701,"Ġinv":702,"ings":703,"ely":704,"ied":705,"hy":706,"ont":707,"ose":708,"Ġknow":709,"Ġany":710,"ub":711,"aw":712,"oin":713,"aj":714,"ased":715,"ĠIndian":716,"However":717,"ens":718,"ign":719,"akh":720,"ĠCongress":721,"ife":722,"osp":723,"Ġcrore":724,"ĠTel":725,"ru":726,"reat":727,"Ġser":728,"ĠModi":729,"ĠCh":730,"Ġpres":731,"Ġbeing":732,"mit":733,"Ġhapp":734,"ai":735,"rit":736,"Ġwhat":737,"old":738,"She":739,"ect":740,"vel":741,"ious":742,"Ġele":743,"ven":744,"Ġdec":745,"Ġdist":746,"iz":747,"Ġlik":748,"rict":749,"mer":750,"ple":751,"dy":752,"ged":753,"That":754,"Ġshould":755,"Ġagainst":756,"ospital":757,"ory":758,"Ġprodu":759,"ved":760,"ational":761,"Ġmore":762,"Ġra":763,"Ġtak":764,"Ġvery":765,"Ġafter":766,"Ġspe":767,"igh":768,"Ġlakh":769,"Ġmar":770,"Ġyour":771,"Ġinto":772,"ough":773,"med":774,"ren":775,"Ġmed":776,"ile":777,"ash":778,"ss":779,"form":780,"Ġ5":781,"Ġwould":782,"ec":783,"oth":784,"ourt":785,"Ġsha":786,"Ġmade":787,"Ġneed":788,"elhi":789,"ĠRed":790,"Ġpre":791,"Ġ4":792,"Ġsec":793,"oun":794,"ces":795,"me":796,"abad":797,"ĠCha":798,"cial":799,"ured":800,"ked":801,"Ind":802,"Ġplay":803,"emb":804,"Ġbet":805,"Ġfar":806,"Ġbec":807,"Ġoffic":808,"ctions":809,"ures":810,"arn":811,"ĠReddy":812,"ities":813,"Ġmany":814,"Ġinvest":815,"ks":816,"ma":817,"ĠGo":818,"up":819,"Ġcent":820,"Ġinj":821,"lic":822,"Ġpr":823,"adesh":824,"man":825,"other":826,"ĠIn":827,"Ġhospital":828,"hild":829,"iss":830,"Ġget":831,"Ġcountry":832,"Ġrele":833,"ases":834,"ents":835,"Ġfe":836,"iff":837,"Ġpers":838,"Ġgood":839,"itu":840,"Ġrem":841,"Ġtra":842,"Ġac":843,"ne":844,"Ġsome":845,"ise":846,"ĠDelhi":847,"ĠSing":848,"Police":849,"...":850,"Ġday":851,"ĠGod":852,"Ġmat":853,"tain":854,"ĠChief":855,"alth":856,"Ġthese":857,"Ġour":858,"ite":859,"aus":860,"Ġevery":861,"get":862,"ody":863,"Ġdistrict":864,"uring":865,"ict":866,"ya":867,"Ġhow":868,"ram":869,"You":870,"hes":871,"lud":872,"ĠSingh":873,"Ġdiff":874,"Ġlike":875,"umar":876,"ĠRam":877,"Ġact":878,"vers":879,"Ġ-":880,"ward":881,"Ġthan":882,"ĠPradesh":883,"ĠMa":884,"Ġchild":885,"here":886,"Ġthree":887,"own":888,"Ġbo":889,"ating":890,"ĠAr":891,"Ġmeet":892,"ments":893,"way":894,"tern":895,"20":896,"Its":897,"na":898,"Ġshe":899,"Ġatt":900,"Ġwell":901,"Ġplace":902,"Ġfamil":903,"Ġbut":904,"day":905,"Ġsuch":906,"eng":907,"ars":908,"Ġadd":909,"Ġnum":910,"No":911,"Ġco":912,"urn":913,"Ġhel":914,"Ġtaken":915,"So":916,"act":917,"ower":918,"angana":919,"Ġinclud":920,"als":921,"ween":922,"Ġhappen":923,"read":924,"yder":925,"ible":926,"Ġminister":927,"Ġchan":928,"ful":929,"Ġregist":930,"Ġdoes":931,"yderabad":932,"oh":933,"Ġtook":934,"Ġind":935,"And":936,"Ġbetween":937,"Ġloc":938,"'t":939,"rest":940,"ĠUn":941,"Ġparty":942,"Ġmy":943,"Ġpos":944,"Ġrel":945,"Ġiss":946,"Ġexp":947,"Ġcha":948,"Ġtoo":949,"Ġinvestig":950,"Ġyear":951,"Ġpol":952,"arendra":953,"Ġonly":954,"nded":955,"ink":956,"Ġwom":957,"hip":958,"cy":959,"Ġ6":960,"Ġreport":961,"ala":962,"ev":963,"Ġregistered":964,"ĠAn":965,"Ġann":966,"Ġworld":967,"Ġcases":968,"jay":969,"ix":970,"mp":971,"As":972,"Ġwater":973,"und":974,"ts":975,"Ġwhen":976,"any":977,"Ġofficial":978,"Ġtake":979,"Ġsoc":980,"ati":981,"Ġpost":982,"eep":983,"ĠNarendra":984,"ĠPrime":985,"Ġinjured":986,"elf":987,"ised":988,"Ġthen":989,"Ġarrest":990,"Ġstud":991,"pport":992,"ats":993,"aug":994,"Ġcome":995,"19":996,"Ġass":997,"ness":998,"Ġhelp":999,"ĠGand":1000,"ĠKumar":1001,"Ġdisc":1002,"used":1003,"vent":1004,"ting":1005,"ugu":1006,"Ġlife":1007,"Ġdirected":1008,"ann":1009,"Ġent":1010,"Ġgiv":1011,"end":1012,"ors":1013,"ently":1014,"India":1015,"ĠCom":1016,"wn":1017,"Ġdet":1018,"Ġbr":1019,"Ġfl":1020,"pect":1021,"Ġstart":1022,"Ġwhile":1023,"Ġthr":1024,"ata":1025,"Ġsay":1026,"An":1027,"ollow":1028,"ĠThe":1029,"ood":1030,"uch":1031,"ited":1032,"Ġgr":1033,"kar":1034,"velop":1035,"Ġ19":1036,"ĠGandhi":1037,"ision":1038,"Ġ7":1039,"ng":1040,"Ġchief":1041,"Ġdeath":1042,"Ġmedia":1043,"Ġprov":1044,"Ġsoon":1045,"Ġcomm":1046,"Ġfamily":1047,"ĠSha":1048,"eho":1049,"Ġkill":1050,"Ġfin":1051,"Ġ\"\"":1052,"istan":1053,"Ġhere":1054,"Ġnumber":1055,"Ġjust":1056,"fore":1057,"Ġlook":1058,"vah":1059,"ms":1060,"ehovah":1061,"its":1062,"Ġgoing":1063,"All":1064,"ather":1065,"Why":1066,"Ġcons":1067,"Ġsame":1068,"Ġleaders":1069,"umb":1070,"Ġdiffere":1071,"Ġdem":1072,"Ġcar":1073,"Ġresp":1074,"abu":1075,"),":1076,"Ġwant":1077,"ral":1078,"Ġcap":1079,"ool":1080,"ck":1081,"ĠSh":1082,"Ġset":1083,"ĠTelugu":1084,"resident":1085,"Ġdied":1086,"Ġsee":1087,"ari":1088,"ĠTelangana":1089,"aid":1090,"ins":1091,"ret":1092,"000":1093,"Ġwon":1094,"ject":1095,"ĠTamil":1096,"On":1097,"uk":1098,"Ġarrested":1099,"Ġ10":1100,"ution":1101,"Th":1102,"Ġchildren":1103,"ĠAnd":1104,"Ġimp":1105,"ause":1106,"Ġ8":1107,"Ġannoun":1108,"xt":1109,"Ġcor":1110,"ics":1111,"rib":1112,"led":1113,"Ġsocial":1114,"Ġmon":1115,"ob":1116,"Ġrole":1117,"Ġhealth":1118,"ave":1119,"Ġpolit":1120,"Ġcrores":1121,"For":1122,"ft":1123,"Ġproble":1124,"Ġincre":1125,"Ġbl":1126,"Ġav":1127,"oot":1128,"ci":1129,"Ġduring":1130,"Ġconf":1131,"Is":1132,"akistan":1133,"St":1134,"ĠJehovah":1135,"ission":1136,"ific":1137,"Ġspot":1138,"ouse":1139,"Ġconst":1140,"ular":1141,"arli":1142,"Ġfollow":1143,"Ġocc":1144,"lain":1145,"ener":1146,"Ġimport":1147,"Ġinform":1148,"riv":1149,"ctors":1150,"Ġyet":1151,"ual":1152,"Ġsm":1153,"Ġthrough":1154,"Ġpresent":1155,"Ġcol":1156,"Ġcall":1157,"Ġbel":1158,"Ġhigh":1159,"Ġsur":1160,"ared":1161,"Do":1162,"Ġback":1163,"Ġmeeting":1164,"Ġperson":1165,"Ġfour":1166,"ried":1167,"Ġsitu":1168,"usic":1169,"Ġlast":1170,"ĠState":1171,"ately":1172,"Ġif":1173,"cess":1174,"Ġpass":1175,"gan":1176,"Ġmake":1177,"eth":1178,"mers":1179,"ought":1180,"ters":1181,"Ġmost":1182,"wood":1183,"Ġquest":1184,"hra":1185,"ues":1186,"ran":1187,"ĠHe":1188,"ib":1189,"olly":1190,"eg":1191,"50":1192,"ov":1193,"ove":1194,"ĠCourt":1195,"ĠSab":1196,"Ġaccused":1197,"uth":1198,"uss":1199,"osed":1200,"cer":1201,"oy":1202,"Ġph":1203,"ijay":1204,"inist":1205,"Ġeven":1206,"Ġ201":1207,"Ġcomple":1208,"ax":1209,"DP":1210,"Ġter":1211,"Ġteam":1212,"Ġcould":1213,"ĠHyderabad":1214,"Ġcourt":1215,"Ġrece":1216,"ollywood":1217,"Ġhand":1218,"Ġothers":1219,"Ġserv":1220,"amp":1221,"ince":1222,"Ġthose":1223,"Ġsecond":1224,"ines":1225,"ale":1226,"ages":1227,"ided":1228,"ty":1229,"Ġdown":1230,"aun":1231,"Ġbu":1232,"Ġright":1233,"ĠAs":1234,"ived":1235,"ĠPresident":1236,"Ġtem":1237,"Ġ'":1238,"rol":1239,"ready":1240,"Ġmuch":1241,"ele":1242,"Ġcontin":1243,"row":1244,".\"\"\"":1245,"tal":1246,"ives":1247,"olog":1248,"Ġgiven":1249,"Ġsy":1250,"Ġvide":1251,"Ġshall":1252,"ĠGovernment":1253,"Ġdes":1254,"Ġjoin":1255,"aking":1256,"Ġdont":1257,"Ġdevelop":1258,"Ġelections":1259,"embly":1260,"Ġrun":1261,"Ġreleased":1262,"Ġdifferent":1263,"Ġboth":1264,"Ġsub":1265,"je":1266,"Ġrep":1267,"Ġfilms":1268,"Ġreas":1269,"oor":1270,"Ġpresident":1271,"ries":1272,"ices":1273,"augh":1274,"ey":1275,"umbai":1276,"ĠShar":1277,"ning":1278,"ĠMan":1279,"Ġbus":1280,"irus":1281,"Ġdone":1282,"Ġkilled":1283,"ĠMo":1284,"ative":1285,"Ġeff":1286,"ists":1287,"ĠSabha":1288,"Ġlove":1289,"Ġfeat":1290,"Ġway":1291,"Ġleader":1292,"Every":1293,"Ġregard":1294,"Ġalready":1295,"Ġproduced":1296,"ĠAd":1297,"Ġmatter":1298,"Ġwin":1299,"ched":1300,"Ġ9":1301,"king":1302,"ails":1303,"ural":1304,"Ġvis":1305,"Ġbefore":1306,"Ġson":1307,"Ġgot":1308,"ired":1309,"ani":1310,"Ġinst":1311,"ara":1312,"Ġcond":1313,"Ġgreat":1314,"Ġbro":1315,"Ġsituation":1316,"embers":1317,"ility":1318,"Ġformer":1319,"Ġimportant":1320,"medi":1321,"imes":1322,"Ġamong":1323,"icip":1324,"ricket":1325,"thing":1326,"Ġlar":1327,"ĠCent":1328,"rish":1329,"Ġpower":1330,"Ġdue":1331,"Ġavail":1332,"Ġtrans":1333,"ump":1334,"Ġdays":1335,"ĠIs":1336,"rong":1337,"Ġresult":1338,"Ġcur":1339,"Ġmonth":1340,"chool":1341,"ĠML":1342,"ĠBank":1343,"Ġhome":1344,"Ġwhere":1345,"Ġanother":1346,"Ġvideo":1347,"Ġlong":1348,"Ġreported":1349,"Thats":1350,"Ġhappened":1351,"Ġsupport":1352,"ĠRao":1353,"Ġcomplain":1354,"ccess":1355,"Ġwomen":1356,"Ġseats":1357,"ants":1358,"Ġben":1359,"ves":1360,"Ġexam":1361,"ĠRah":1362,"ior":1363,"hal":1364,"loy":1365,"ublic":1366,"ĠKhan":1367,"Ġattack":1368,"ued":1369,"ĠPakistan":1370,"air":1371,"ĠPro":1372,"Ġdep":1373,"ached":1374,"Ġmust":1375,"ges":1376,"Ġ12":1377,"pped":1378,"ross":1379,"irl":1380,"Ġtest":1381,"agar":1382,"Ġtreat":1383,"Ġve":1384,"Ġop":1385,"Ġsever":1386,"gest":1387,"Ġmembers":1388,"ract":1389,"Ġeach":1390,"con":1391,"Ġseen":1392,"These":1393,"Ġcame":1394,"com":1395,"Ġnext":1396,"ris":1397,"BI":1398,"arty":1399,"Ġbig":1400,"Ġinf":1401,"Ġseveral":1402,"Ġlaun":1403,"Ġmusic":1404,"Ġdef":1405,"Ġtal":1406,"Ġfac":1407,"New":1408,"ĠAss":1409,"ten":1410,"Ġimmedi":1411,"Ġbody":1412,"ands":1413,"His":1414,"Ġdaugh":1415,"ĠAndhra":1416,"Ġwife":1417,"Ġappro":1418,"ina":1419,"Ġhar":1420,"Ġlot":1421,"Al":1422,"uc":1423,"ick":1424,"Ġfarmers":1425,"ering":1426,"ways":1427,"BJP":1428,"ving":1429,"Ġatte":1430,"rist":1431,"oss":1432,"rent":1433,"Ġrequ":1434,"Ġaccident":1435,"stem":1436,"retary":1437,"Ġsuccess":1438,"Ġmarket":1439,"ush":1440,"Ġcommit":1441,"oney":1442,"Ġhouse":1443,"ĠSec":1444,").":1445,"Ġhead":1446,"mission":1447,"ute":1448,"Ġread":1449,"asht":1450,"ada":1451,"ID":1452,"Ġob":1453,"ĠTr":1454,"chn":1455,"Ġdirector":1456,"Ġremain":1457,"Ġfew":1458,"andid":1459,"Ġlater":1460,"ĠRahul":1461,"ĠSharma":1462,"Ġinter":1463,"aka":1464,"Ġactor":1465,"ament":1466,"iness":1467,"Ġend":1468,"ĠVijay":1469,"riend":1470,"Ġheld":1471,"Ġsim":1472,"outh":1473,"Ġcare":1474,"Ġfound":1475,"ĠMP":1476,"ild":1477,"Ġ&":1478,"Ġtotal":1479,"ĠUS":1480,"Ġasked":1481,"Ġpric":1482,"Ġprog":1483,"Ġavailable":1484,"ĠHind":1485,"Ġdecision":1486,"Ġofficials":1487,",\"\"":1488,"Ġannounced":1489,"Ġshow":1490,"Ġunt":1491,"Ġwrit":1492,"Ġyears":1493,"ĠDe":1494,"Ġrecently":1495,"Ġcity":1496,"aly":1497,"Ġdetails":1498,"ock":1499,"the":1500,"has":1501,"erest":1502,"ajor":1503,"icket":1504,"arent":1505,"Ġname":1506,"Ġstill":1507,"Ġsl":1508,"Some":1509,"Ġwent":1510,"Ġthings":1511,"Ġvill":1512,"ek":1513,"Ġspecial":1514,"pur":1515,"Ġeng":1516,"ording":1517,"ashm":1518,"Ġret":1519,"udi":1520,"Ġmay":1521,"Ġsent":1522,"Ġstarted":1523,"Ġbank":1524,"Ġins":1525,"Ġrelease":1526,"engal":1527,"ull":1528,"Ġbeg":1529,"Ġlaw":1530,"ĠLok":1531,"ember":1532,"atch":1533,"sw":1534,"Ġsk":1535,"Ġnever":1536,"ĠGu":1537,"Ġ15":1538,"After":1539,"Ġref":1540,"ivers":1541,"ides":1542,"ressed":1543,"Ġproject":1544,"Ġtreatment":1545,"ĠMar":1546,"Ġaction":1547,"rime":1548,"ashtra":1549,"adu":1550,"Ġprot":1551,"angu":1552,"Who":1553,"Ġcle":1554,"If":1555,"Ġdemand":1556,"Ġpoin":1557,"ĠSu":1558,"ird":1559,"Ġacross":1560,"Ġprom":1561,"tt":1562,"Ġemp":1563,"ĠChrist":1564,"Ġwhy":1565,"Ġmain":1566,"Ġcalled":1567,"oup":1568,"ote":1569,"Ġroles":1570,"Many":1571,"Ġvict":1572,"Ġstudents":1573,"Ġ.":1574,"Ġmod":1575,"ption":1576,"tle":1577,"ĠNational":1578,"Ġaway":1579,"Ġfather":1580,"ohli":1581,"OV":1582,"Ġpop":1583,"ished":1584,"Ġroad":1585,"Ġhowever":1586,"reme":1587,"Ġnear":1588,"aut":1589,"Ġcomplaint":1590,"rishna":1591,"ĠUnion":1592,"ency":1593,"Ġed":1594,"Ġcandid":1595,"Ġaround":1596,"els":1597,"ĠParty":1598,"arious":1599,"Ġcricket":1600,"illion":1601,"Ġform":1602,"Ġimmediately":1603,"ours":1604,"inistry":1605,"ĠAm":1606,"Ġ200":1607,"arnat":1608,"urity":1609,"wards":1610,"wal":1611,"TR":1612,"Ġalle":1613,"conom":1614,"Ġshoot":1615,"urther":1616,"Ġquestion":1617,"ushed":1618,"Then":1619,"avirus":1620,"mi":1621,"self":1622,"pected":1623,"Ġincluding":1624,"Ġword":1625,"Ġaff":1626,"Ġbecome":1627,"ĠShah":1628,"onavirus":1629,"Ġknown":1630,"Ġdel":1631,"Ġused":1632,"OVID":1633,"Ġposs":1634,"ized":1635,"Ġ14":1636,"Ġreached":1637,"ets":1638,"Ġinterest":1639,"Ġstates":1640,"Ġch":1641,"vi":1642,"arnataka":1643,"ĠNew":1644,"SR":1645,"ppos":1646,"Ġalong":1647,"Ġinvestigation":1648,"Ġgu":1649,"Ġfive":1650,"Ġgirl":1651,"ĠMumbai":1652,"Ġown":1653,"ĠZ":1654,"Ġreal":1655,"body":1656,"Ġschool":1657,"ified":1658,"Ġbenef":1659,"Ġcrit":1660,"ook":1661,"Ġfa":1662,"Ġpoll":1663,"Ġstar":1664,"lood":1665,"Ġsince":1666,"eneral":1667,"ĠWor":1668,"ĠTDP":1669,"Ġstory":1670,"Ġsystem":1671,"az":1672,"Ġmajor":1673,"Ġissue":1674,"ism":1675,"Pe":1676,"ffic":1677,"ĠChandra":1678,"esus":1679,"wit":1680,"Ġshi":1681,"rap":1682,"ĠMad":1683,"icle":1684,"Ġpersons":1685,"ead":1686,"aram":1687,"ĠCOVID":1688,"Not":1689,"rin":1690,"Ġthink":1691,"Ġnews":1692,"ĠTe":1693,"Ġ11":1694,"ually":1695,"ham":1696,"Ġfriend":1697,"Ġevent":1698,"Ġnow":1699,"harashtra":1700,"ĠBengal":1701,"ĠShri":1702,"Ġev":1703,"Ġland":1704,"Ġbelie":1705,"Ġcre":1706,"Ġsays":1707,"Ġmin":1708,"ena":1709,"Ġeas":1710,"ĠKap":1711,"jun":1712,"ĠPras":1713,"Ġlet":1714,"Congress":1715,"pend":1716,"Ġadv":1717,"Ġprocess":1718,"ternational":1719,"Ġmet":1720,"Ġrecord":1721,"dd":1722,"arents":1723,"Ġpet":1724,"gar":1725,"Both":1726,"Ġvir":1727,"Ġtimes":1728,"rodu":1729,"Ġlist":1730,"ety":1731,"ĠMal":1732,"ĠShi":1733,"itive":1734,"ĠSri":1735,"cing":1736,"Ġsign":1737,"babu":1738,"Ġvarious":1739,"Ġansw":1740,"Ġplaying":1741,"line":1742,"Ġair":1743,"Ġfr":1744,"ashmir":1745,"Ġhum":1746,"ĠHindi":1747,"aim":1748,"Ġarea":1749,"Ġlit":1750,"ner":1751,"Ġhist":1752,"ology":1753,"eld":1754,"uge":1755,"CP":1756,"ĠPM":1757,"Ġpolitical":1758,"pl":1759,"When":1760,"ark":1761,"Ġdaughter":1762,"Whats":1763,"Two":1764,"Ġchar":1765,"Ġreceived":1766,"Ġfore":1767,"Ġbook":1768,"Ġgrow":1769,"Ġopen":1770,"Ġrushed":1771,"Ġfire":1772,"Ġtrue":1773,"Ġhit":1774,"Ġinformation":1775,"Ġproblem":1776,"Ġdiscuss":1777,"Ġtoget":1778,"Ġtogether":1779,"Ġoccas":1780,"view":1781,"One":1782,"Ġcurrent":1783,"Ġfeatures":1784,"hile":1785,"Ġuse":1786,"At":1787,"ĠEng":1788,"enior":1789,"Ġturn":1790,"ination":1791,"reen":1792,"Ġtop":1793,"Ġcost":1794,"Ġbecause":1795,"Ġprices":1796,"Ġrest":1797,"ĠTest":1798,"Ġindust":1799,"Ġcolle":1800,"Ġdr":1801,"Ġmoney":1802,"ĠPra":1803,"Ġtemple":1804,"Ġmen":1805,"Ġheart":1806,"Ġfood":1807,"10":1808,"Ġaccount":1809,"ĠJag":1810,"Ġstars":1811,"land":1812,"ĠKohli":1813,"ĠKashmir":1814,"gy":1815,"ĠCM":1816,"Ġexper":1817,"ĠCor":1818,"Ġlangu":1819,"Ġgive":1820,"Ġlost":1821,"People":1822,"Ġ18":1823,"ĠAb":1824,"ĠAct":1825,"ĠBabu":1826,"Ġdoing":1827,"eal":1828,"Ġsal":1829,"war":1830,"Ġshif":1831,"erv":1832,"Ġbest":1833,"aks":1834,"arliament":1835,"ield":1836,"ĠAssembly":1837,"Ġoper":1838,"eleb":1839,"CC":1840,"ĠKarnataka":1841,"upreme":1842,"ĠHigh":1843,"Ġproblems":1844,"Ġprotest":1845,"Ġ2020":1846,"ror":1847,"Ġparticip":1848,"rat":1849,"Rs":1850,"hing":1851,"stand":1852,"ait":1853,"ee":1854,"Ġeconom":1855,"ja":1856,"Ġvisit":1857,"ined":1858,"ĠAll":1859,"Ġdeb":1860,"Ġext":1861,"Ġcountries":1862,"uthor":1863,"app":1864,"Ġnational":1865,"hand":1866,"Ġrul":1867,"Ġoccasion":1868,"Ġtre":1869,"go":1870,"Ġwar":1871,"eh":1872,"Ġmother":1873,"Ġlocal":1874,"Ġdead":1875,"Ġtoday":1876,"Ġdevelopment":1877,"be":1878,"Ġ13":1879,"irat":1880,"arth":1881,"Ġkeep":1882,"ury":1883,"amm":1884,"ĠEx":1885,"cent":1886,"Ġinvestigating":1887,"Ġshifted":1888,"Ġcondu":1889,"ging":1890,"ĠJesus":1891,"Ġwoman":1892,"ormer":1893,"Ġhig":1894,"Ġfurther":1895,"awan":1896,"witter":1897,"ĠKaly":1898,"Ġpublic":1899,"ĠVen":1900,"Ġelection":1901,"Ġput":1902,"Ġsus":1903,"Ġsing":1904,"nce":1905,"ĠAmit":1906,"Dont":1907,"Ġplayed":1908,"Ġserious":1909,"arlier":1910,"Ġthing":1911,"Ġreason":1912,"ĠWorld":1913,"hesh":1914,"ĠPat":1915,"Ġbat":1916,"udget":1917,"pecial":1918,"Ġrespect":1919,"stit":1920,"mon":1921,"Ġ16":1922,"arat":1923,"ams":1924,"iving":1925,"Ġparents":1926,"ĠPun":1927,"ense":1928,"onse":1929,"Ġel":1930,"Ġsom":1931,"river":1932,"ature":1933,"icide":1934,"Ġworking":1935,"ians":1936,"Ġveh":1937,"Ġchange":1938,"Ġche":1939,"Ġemploy":1940,"ulture":1941,"ames":1942,"Ġviral":1943,"Ġpur":1944,"cha":1945,"Ġsche":1946,"Ġruns":1947,"Ġsuff":1948,"avy":1949,"Prime":1950,"ĠBible":1951,"Ġ50":1952,"isha":1953,"Ġsix":1954,"Ġval":1955,"ĠMaharashtra":1956,"ĠPrasad":1957,"Ġprop":1958,"Ġexc":1959,"ences":1960,"era":1961,"Ġdidnt":1962,"Ġstand":1963,"ones":1964,"itness":1965,"irector":1966,"Ġhuge":1967,"Ġsmall":1968,"Ġdon":1969,"Ġceleb":1970,"Ġfun":1971,"Ġjob":1972,"Ġreally":1973,"Ġattended":1974,"Ġleft":1975,"Ġfiled":1976,"lish":1977,"por":1978,"Ġnothing":1979,"Ġclaim":1980,"Ġlaunched":1981,"Ġprogram":1982,"ĠDev":1983,"Ġest":1984,"aidu":1985,"More":1986,"iew":1987,"hav":1988,"ĠKapoor":1989,"Hyderabad":1990,"arly":1991,"ned":1992,"ĠBollywood":1993,"ger":1994,"Ġcompany":1995,"Ġareas":1996,"hu":1997,"ĠSecretary":1998,"ĠKalyan":1999,"Ġphot":2000,"Ġbased":2001,"Ġexpected":2002,"Ġdecl":2003,"Ġadded":2004,"Ġpay":2005,"Ġperform":2006,"uri":2007,"unity":2008,"Un":2009,"ĠNaidu":2010,"Ġcomes":2011,"Ġthird":2012,"orn":2013,"orth":2014,"asing":2015,"Ġbrother":2016,"ayal":2017,"pr":2018,"ĠCon":2019,"Ġmatch":2020,"Ġart":2021,"Ġprice":2022,"Ġtechn":2023,"Ġallow":2024,"not":2025,"cept":2026,"ĠCommission":2027,"ĠAl":2028,"Ġengine":2029,"ration":2030,"ĠChar":2031,"ĠTwitter":2032,"Ġlevel":2033,"Ġspir":2034,"ti":2035,"Go":2036,"Ġwicket":2037,"ert":2038,"Ġ24":2039,"Ġpositive":2040,"Ġequ":2041,"rying":2042,"Ġsuicide":2043,"onda":2044,"Ġinformed":2045,"Ġbas":2046,"erala":2047,"Ġshooting":2048,"Ġmaking":2049,"dom":2050,"Ġfollowing":2051,"Ġfight":2052,"ĠSupreme":2053,"Ġleg":2054,"Ġinclude":2055,"Ġdev":2056,"Ġpast":2057,"my":2058,"ĠUtt":2059,"Ġvot":2060,"Other":2061,"Ġsecurity":2062,"Ġbecame":2063,"Ġcoronavirus":2064,"Ġspok":2065,"ĠShiv":2066,"Ġ30":2067,"ention":2068,"uries":2069,"With":2070,"artment":2071,"Ġbre":2072,"ling":2073,"bs":2074,"Ġoil":2075,"Ġplac":2076,"Ġorgan":2077,"rand":2078,"Ġbann":2079,"Ġ17":2080,"Ġmarried":2081,"Ġbuild":2082,"ĠPolice":2083,"Ġreturn":2084,"Ġconsid":2085,"bal":2086,"vind":2087,"ĠDep":2088,"Ġyoung":2089,"Ġsol":2090,"ĠCol":2091,"Ġhappy":2092,"over":2093,"Ġeffect":2094,"Ġmil":2095,"jab":2096,"ality":2097,"uru":2098,"Ġgone":2099,"ke":2100,"idence":2101,"Ġorder":2102,"ĠBhar":2103,"ka":2104,"band":2105,"ĠChandrababu":2106,"ience":2107,"Ġ25":2108,"Ġview":2109,"Ġcaptain":2110,"ches":2111,"ĠTh":2112,"Ġris":2113,"weet":2114,"Ġtour":2115,"Ġcr":2116,"RS":2117,"Ġsupp":2118,"Ġstrong":2119,"Ġking":2120,"Ġresponse":2121,"Ġissued":2122,"adav":2123,"meric":2124,"iversity":2125,"less":2126,"Are":2127,"ias":2128,"pposition":2129,"Ġeduc":2130,"Ġdies":2131,"abin":2132,"jarat":2133,"Ġseries":2134,"Ġcaus":2135,"ĠBi":2136,"Ġcontest":2137,"icult":2138,"ĠNadu":2139,"Ġreasons":2140,"Ġpolitics":2141,"To":2142,"ustral":2143,"Ġaut":2144,"Ġcust":2145,"Ġpati":2146,"adi":2147,"tee":2148,"Acc":2149,"Ġ100":2150,"ertain":2151,"Ġmur":2152,"Ġrespons":2153,"ither":2154,"ĠAg":2155,"Ġparties":2156,"Ġvillage":2157,"Ġlarge":2158,"ĠChand":2159,"Ġresults":2160,"Ġcoming":2161,"ĠSat":2162,"Ch":2163,"Ġsw":2164,"ulation":2165,"ained":2166,"ĠSam":2167,"Ġneeds":2168,"Ġmillion":2169,"Ġhard":2170,"Ġsong":2171,"Ġpriv":2172,"Ġalways":2173,"Ġdiv":2174,"iah":2175,"Ġfeel":2176,"Ġtaking":2177,"iance":2178,"Ar":2179,"akes":2180,"ĠStates":2181,"que":2182,"ĠKrishna":2183,"ĠWest":2184,"Ġtold":2185,"henn":2186,"Ġface":2187,"Ġfind":2188,"Ġdifficult":2189,"arch":2190,"ĠJan":2191,"Ġled":2192,"ĠYadav":2193,"ancial":2194,"ims":2195,"ething":2196,"Former":2197,"Ġdou":2198,"Ġhold":2199,"aul":2200,"Ġgold":2201,"Sh":2202,"ika":2203,"mitted":2204,"Ġshared":2205,"Ġfriends":2206,"Ġredu":2207,"Ġactiv":2208,"Ġmove":2209,"irth":2210,"Ġfem":2211,"Ġplan":2212,"Ġrain":2213,"Ġcam":2214,"Ġconne":2215,"Ġdise":2216,"Ġpossible":2217,"Ġopport":2218,"ically":2219,"abinet":2220,"ories":2221,"Ġem":2222,"irm":2223,"ession":2224,"Ġfans":2225,"Ġjud":2226,"ĠUttar":2227,"aker":2228,"reng":2229,"Ġfail":2230,"Ġplays":2231,"Ġdate":2232,"aged":2233,"ĠMed":2234,"Ġgroup":2235,"hennai":2236,"ike":2237,"hya":2238,"Ġstep":2239,"par":2240,"ork":2241,"ĠChina":2242,"itiz":2243,"Ġkind":2244,"iol":2245,"Ġworkers":2246,"Ġexpressed":2247,"ĠSon":2248,"Ġsaf":2249,"Ġhop":2250,"Ġoccur":2251,"Ġcondition":2252,"usband":2253,"CR":2254,"ĠSrin":2255,"Ġcannot":2256,"Add":2257,"Ġhistory":2258,"ĠSe":2259,"Ġweek":2260,"Ġold":2261,"Ġlives":2262,"Ġbetter":2263,"Ġconstitu":2264,"PM":2265,"99":2266,"ĠNar":2267,"Ġkey":2268,"put":2269,"Ġalleged":2270,"reed":2271,"Ġbusiness":2272,"uty":2273,"rael":2274,"asthan":2275,"Ġentire":2276,"itions":2277,"Ġfall":2278,"cies":2279,"anka":2280,"idd":2281,"ily":2282,"ĠAir":2283,"athi":2284,"ĠTrump":2285,"ĠSc":2286,"Ġeveryone":2287,"Ġworks":2288,"Ġpict":2289,"Ġdemanded":2290,"Ma":2291,"Ġloss":2292,"Ġ,":2293,"Ġrate":2294,"Ġunderstand":2295,"Im":2296,"Ġproper":2297,"ying":2298,"ĠRes":2299,"Ġcamp":2300,"ĠCentre":2301,"Ġtax":2302,"sel":2303,"ohit":2304,"oo":2305,"Indian":2306,"ĠMLA":2307,"Ġfemale":2308,"According":2309,"Ġthous":2310,"ĠAf":2311,"Ġphone":2312,"Ġearth":2313,"ĠFor":2314,"Ġpan":2315,"Ġcontrol":2316,"Ġglo":2317,"Ġchall":2318,"Ġindustry":2319,"icles":2320,"Ġfinal":2321,"orts":2322,"Ġmot":2323,"Ġmight":2324,"Ġsenior":2325,"inal":2326,"Ġstreng":2327,"irman":2328,"Ġstr":2329,"Ġtrain":2330,"ton":2331,"Ġwithout":2332,"Ġanything":2333,"ored":2334,"Ġpress":2335,"Ġgetting":2336,"Ġlearn":2337,"Ġprote":2338,"anth":2339,"Ġsaying":2340,"Ġord":2341,"ĠIsrael":2342,"Ġcong":2343,"Ġshort":2344,"inance":2345,"ery":2346,"Ġcompleted":2347,"Ġeasy":2348,"Ġru":2349,"Ġelect":2350,"Her":2351,"Ġassembly":2352,"Theres":2353,"ĠParliament":2354,"nel":2355,"Ġcou":2356,"Ġprof":2357,"Ġquestions":2358,"Ġcurrently":2359,"Ġamount":2360,"ustice":2361,"Three":2362,"pper":2363,"Ġcontinue":2364,"Here":2365,"iver":2366,"iod":2367,"ient":2368,"Ġple":2369,"Ġfut":2370,"Ġauthor":2371,"Ġservices":2372,"ps":2373,"Ġoffice":2374,"RD":2375,"ĠMinistry":2376,"Ġmedical":2377,"ruct":2378,"Ġreve":2379,"Ġexample":2380,"ĠEle":2381,"Ġcho":2382,"ĠMohan":2383,"coming":2384,"Ġlikely":2385,"by":2386,"wam":2387,"uck":2388,"nam":2389,"ĠGujarat":2390,"Ġrelations":2391,"Ġsuper":2392,"ason":2393,"Ġissues":2394,"ammu":2395,"Ġresign":2396,"irc":2397,"Ġhuman":2398,"ali":2399,"Ġconcer":2400,"ĠEn":2401,"itional":2402,"Ġfront":2403,"Ġaudi":2404,"Ġlod":2405,"Ġbeh":2406,"ids":2407,"Ġbrought":2408,"Ġsomething":2409,"ification":2410,"Ġfull":2411,"ĠKerala":2412,"hest":2413,"ĠGods":2414,"Ġtruth":2415,"ĠHealth":2416,"ĠPunjab":2417,"Everyone":2418,"Ġterror":2419,"ĠBang":2420,"vernor":2421,"ees":2422,"Ġpri":2423,"Ġfaith":2424,"Ġwrong":2425,"Ġinit":2426,"Ġunto":2427,"Ġident":2428,"Ġanswer":2429,"Ġtill":2430,"Ġap":2431,"Ġregion":2432,"Ġever":2433,"Ġviol":2434,"oms":2435,"ĠTRS":2436,"Where":2437,"Ġdecided":2438,"ograp":2439,"ĠDr":2440,"ĠMLAs":2441,"Ġmeas":2442,"ibility":2443,"ĠHospital":2444,"Ġstation":2445,"Ġfact":2446,"ĠMahesh":2447,"aled":2448,"Ġprovide":2449,"Ġes":2450,"Ġincreased":2451,"Ġfield":2452,"ĠYSR":2453,"Ġannounce":2454,"rid":2455,"ĠSouth":2456,"ĠArjun":2457,"ept":2458,"Ġperiod":2459,"ĠSa":2460,"bed":2461,"engers":2462,"Ġens":2463,"App":2464,"Ex":2465,"Ġwords":2466,"ĠJehovahs":2467,"airs":2468,"Ġchanged":2469,"Ġhusband":2470,"ĠNTR":2471,"Ġcelebr":2472,"ains":2473,"Ġbudget":2474,"ointed":2475,"inc":2476,"soci":2477,"ustralia":2478,"unt":2479,"Ġbring":2480,"Ġlive":2481,"ĠCentral":2482,"ards":2483,"Ġfuture":2484,"Ġdistricts":2485,"Ġdest":2486,"30":2487,"ĠHar":2488,"ĠCharan":2489,"Ġpopular":2490,"ected":2491,"hant":2492,"ĠSan":2493,"ĠMot":2494,"Ġtell":2495,"bo":2496,"reet":2497,"Ġcandidates":2498,"Ġpeace":2499,"ĠSena":2500,"ĠMay":2501,"ights":2502,"Ġwritten":2503,"Ġage":2504,"Ġmind":2505,"Ġbeaut":2506,"Ġdoctors":2507,"Ġtit":2508,"ron":2509,"Ġimpro":2510,"Ġinjuries":2511,"Ġtweet":2512,"ĠIP":2513,"Ġspread":2514,"Ġside":2515,"500":2516,"ports":2517,"Ġproduct":2518,"Ġey":2519,"Ġprovided":2520,"70":2521,"ively":2522,"uted":2523,"ĠVar":2524,"Ġur":2525,"ances":2526,"Ġpercent":2527,"Ġbow":2528,"Tel":2529,"amb":2530,"Ġpoints":2531,"Ġdeal":2532,"Ġgave":2533,"Ġactress":2534,"de":2535,"ex":2536,"ivas":2537,"Ġfree":2538,"Ġgl":2539,"Ġstat":2540,"Ġlodged":2541,"Ġfell":2542,"Ġrelig":2543,"plement":2544,"Ġjoined":2545,"ĠVirat":2546,"Ġhear":2547,"Ġexpect":2548,"ises":2549,"Ġdesign":2550,"going":2551,"Ġlargest":2552,"vies":2553,"Ġupon":2554,"Ġbirth":2555,"ĠPawan":2556,"Pro":2557,"Ġeducation":2558,"khar":2559,"ĠJagan":2560,"Raj":2561,"rain":2562,"ung":2563,"Ġty":2564,"chan":2565,"Ġsingle":2566,"Ġhimself":2567,"Ġhero":2568,"Ġmor":2569,"ĠCBI":2570,"ortem":2571,"Ġincrease":2572,"Ġblood":2573,"Ġfund":2574,"Ġplaces":2575,"ĠRe":2576,"ude":2577,"eration":2578,"acher":2579,"ĠVenk":2580,"rif":2581,"IC":2582,"down":2583,"ph":2584,"Ġseem":2585,"cil":2586,"range":2587,"ĠHome":2588,"onal":2589,"Ġincreasing":2590,"urs":2591,"Ġbanner":2592,"cl":2593,"ĠKing":2594,"ĠJammu":2595,"hankar":2596,"Ġmeans":2597,"mar":2598,"25":2599,"ĠRail":2600,"Ġmovies":2601,"Ġdam":2602,"ilities":2603,"ST":2604,"ware":2605,"imum":2606,"Ġcause":2607,"ĠPar":2608,"aries":2609,"Ġbelieve":2610,"Ġbad":2611,"Also":2612,"ĠDay":2613,"Ġtrad":2614,"Modi":2615,"Ġprivate":2616,"gn":2617,"Ġachi":2618,"inem":2619,"Ġservice":2620,"Ġthought":2621,"Ġgener":2622,"Ġ0":2623,"ĠUniversity":2624,"gr":2625,"Ġinvol":2626,"Ġvari":2627,"ring":2628,"ential":2629,"Ġ40":2630,"ane":2631,"Ġwhe":2632,"Ġinn":2633,"ites":2634,"ayed":2635,"ium":2636,"ĠRajasthan":2637,"amed":2638,"Ġsector":2639,"of":2640,"Ġ21":2641,"Me":2642,"Ġimplement":2643,"overed":2644,"Let":2645,"men":2646,"wan":2647,"uro":2648,"Ġworked":2649,"Ġinternational":2650,"Ġsold":2651,"ĠKar":2652,"Ġide":2653,"une":2654,"Ġapplic":2655,"aff":2656,"Ġlim":2657,"Ġdoesnt":2658,"Ġleading":2659,"everal":2660,"Ġcapital":2661,"had":2662,"resent":2663,"Ġcommon":2664,"Ġbegin":2665,"Ġprev":2666,"ruction":2667,"Ġonce":2668,"Tr":2669,"ĠBS":2670,"Ġlow":2671,"nding":2672,"hara":2673,"ĠBh":2674,"Ġearlier":2675,"Ġtri":2676,"Ġready":2677,"Wh":2678,"Ġsons":2679,"cle":2680,"ension":2681,"Ġless":2682,"ley":2683,"Ġhon":2684,"Ġcirc":2685,"Ġsuccessful":2686,"joy":2687,"Ġfinancial":2688,"Bollywood":2689,"hon":2690,"ops":2691,"Ġtowards":2692,"iding":2693,"Ġnight":2694,"hatt":2695,"Ġsil":2696,"ĠShe":2697,"Several":2698,"itizens":2699,"Ġpain":2700,"Ġbehind":2701,"emic":2702,"Ġneeded":2703,"ouncil":2704,"Ġstatement":2705,"ĠMus":2706,"ĠTha":2707,"Ġpetrol":2708,"riculture":2709,"Ġenc":2710,"side":2711,"Ġlittle":2712,"Ġparts":2713,"ĠAsh":2714,"Ġlab":2715,"ĠPl":2716,"minist":2717,"ĠQ":2718,"Ġhal":2719,"iron":2720,"ĠPand":2721,"Ġunderway":2722,"isl":2723,"ras":2724,"to":2725,"ize":2726,"Ġleast":2727,"Ġproduction":2728,"Ġcast":2729,"rem":2730,"oura":2731,"pted":2732,"uf":2733,"gation":2734,"ĠAmeric":2735,"Ġnation":2736,"ables":2737,"Ġbegan":2738,"Ġopt":2739,"istrict":2740,"Ġdiesel":2741,"yal":2742,"odies":2743,"riage":2744,"Ġjoint":2745,"ĠGeneral":2746,"Ġclose":2747,"Ġparticipated":2748,"Ġdoub":2749,"ĠJustice":2750,"adha":2751,"Ġreview":2752,"iety":2753,"ern":2754,"ĠColle":2755,"uti":2756,"Ġhaving":2757,"Ġshot":2758,"Ġmonths":2759,"ĠChennai":2760,"Ġlight":2761,"Ġcandidate":2762,"Another":2763,"la":2764,"Ġmult":2765,"Ġseven":2766,"Ġwickets":2767,"Ġpatients":2768,"eb":2769,"ilt":2770,"Ġpaid":2771,"ateg":2772,"Ġfamilies":2773,"Ġmurder":2774,"rop":2775,"Ġclear":2776,"Ġcouple":2777,"selves":2778,"Ġcritic":2779,"erence":2780,"Ġrespond":2781,"Will":2782,"Ġwatch":2783,"ourse":2784,"ilar":2785,"15":2786,"Ġdra":2787,"Ġmean":2788,"ĠBihar":2789,"oon":2790,"ĠAk":2791,"Ġupcoming":2792,"resh":2793,"Ġpow":2794,"ened":2795,"Com":2796,"Later":2797,"atives":2798,"Ġang":2799,"rah":2800,"Ġannouncement":2801,"Ġcoll":2802,"ama":2803,"Ġhous":2804,"Ġconducted":2805,"Ġrail":2806,"ĠSrinivas":2807,"Ġcertain":2808,"opal":2809,"Ġtw":2810,"weh":2811,"Ġwait":2812,"Ġconnection":2813,"ival":2814,"Ġpar":2815,"ahweh":2816,"iler":2817,"Ġful":2818,"Ġdeaths":2819,"Ġgrowth":2820,"Mumbai":2821,"Ġpoint":2822,"My":2823,"Ġdirect":2824,"Ġaward":2825,"isions":2826,"Ġquite":2827,"ĠLord":2828,"12":2829,"Ġcontro":2830,"ys":2831,"pers":2832,"Or":2833,"vere":2834,"aman":2835,"Ġachie":2836,"fort":2837,"Ġpolls":2838,"ĠDirector":2839,"io":2840,"ĠSun":2841,"Te":2842,"udd":2843,"Dire":2844,"Ġresol":2845,"Ġaccording":2846,"Their":2847,"Ġministers":2848,"Ġcal":2849,"eed":2850,"Ġcamera":2851,"Ġwithin":2852,"ources":2853,"mortem":2854,"come":2855,"iful":2856,"hab":2857,"Ġseat":2858,"Ġfear":2859,"icy":2860,"ĠYS":2861,"Ġcharact":2862,"aching":2863,"ĠUnited":2864,"Ab":2865,"Ġmiss":2866,"ners":2867,"while":2868,"oid":2869,"Ġdisease":2870,"ĠX":2871,"Ġrap":2872,"ceed":2873,"Ġpassed":2874,"Ġwhole":2875,"Ġrequired":2876,"Ġaddress":2877,"Ġeverything":2878,"oud":2879,"ĠRan":2880,"TC":2881,"iran":2882,"head":2883,"rab":2884,"Ġisnt":2885,"ĠBo":2886,"Ġ22":2887,"Ġgame":2888,"Ġyouth":2889,"most":2890,"spe":2891,"Ġbodies":2892,"Ġnecess":2893,"Ġself":2894,"Ġtrib":2895,"Ġeat":2896,"erc":2897,"Ġlocated":2898,"Ġgeneral":2899,"Ġdece":2900,"Ġelse":2901,"duc":2902,"ternal":2903,"Ġhands":2904,"Pakistan":2905,"Ġver":2906,"Ġthough":2907,"ufact":2908,"Ġtalk":2909,"otal":2910,"Ġtown":2911,"Ġoffer":2912,"Ġjour":2913,"ising":2914,"Ġlanguages":2915,"ĠBal":2916,"Ġhighest":2917,"Ġclass":2918,"Ġworth":2919,"Ġdriver":2920,"While":2921,"Ġonline":2922,"Ġrevealed":2923,"Ġcomposed":2924,"Ġlanguage":2925,"ilm":2926,"Ġimm":2927,"Ġthousand":2928,"Ġmass":2929,"ĠSit":2930,"ayalam":2931,"apur":2932,"Ġappear":2933,"sc":2934,"Ġdeclared":2935,"Ġstudy":2936,"lished":2937,"Ġactive":2938,"epend":2939,"ĠLO":2940,"avid":2941,"ĠIndias":2942,"Ġ2019":2943,"Ġsecretary":2944,"Be":2945,"Ġpract":2946,"mber":2947,"honi":2948,"21":2949,"hys":2950,"aster":2951,"jected":2952,"Ġpray":2953,"rote":2954,"Ġvehicles":2955,"leep":2956,"Ġoccurred":2957,"Ġmom":2958,"ĠSub":2959,"edd":2960,"Ġsele":2961,"ĠSar":2962,"Ġsum":2963,"Ġenjoy":2964,"Ġsto":2965,"ikram":2966,"Ġintrodu":2967,"isation":2968,"Ġrecent":2969,"\"\".\"":2970,"Ġheavy":2971,"akers":2972,"ills":2973,"velopment":2974,"omen":2975,"Ġspec":2976,"Ġpassengers":2977,"Ġscheme":2978,"Ġseason":2979,"Ġglobal":2980,"Telangana":2981,"Ġden":2982,"ĠLORD":2983,"Ġdata":2984,"jan":2985,"isc":2986,"Ġemer":2987,"Ġways":2988,"ney":2989,"utions":2990,"ĠRo":2991,"omes":2992,"add":2993,"riy":2994,"aily":2995,"ĠNag":2996,"Ġmess":2997,"Ġcommitted":2998,"lim":2999,"olk":3000,"Ġcomplet":3001,"Ġaccom":3002,"Ġmix":3003,"pan":3004,"Ġdrink":3005,"Ġcard":3006,"Ġtrying":3007,"ĠAfric":3008,"ĠRaju":3009,"ship":3010,"Ġelectric":3011,"ĠKann":3012,"ivil":3013,"Ġlaunch":3014,"Ġsurv":3015,"Ġscen":3016,"ĠYahweh":3017,"US":3018,"af":3019,"Ġhost":3020,"ĠLe":3021,"Ġfollowed":3022,"agement":3023,"Ġprep":3024,"ĠAustralia":3025,"Ġpersonal":3026,"Ġfailed":3027,"ously":3028,"ĠRajya":3029,"Ġpopulation":3030,"ĠBl":3031,"incip":3032,"itation":3033,"Ġrecovered":3034,"Ġschools":3035,"Ġcourse":3036,"Ġmarriage":3037,"Ġrise":3038,"ĠGovernor":3039,"Ġfoot":3040,"ots":3041,"ection":3042,"Ġvac":3043,"aryana":3044,"Ġforward":3045,"omin":3046,"ĠCo":3047,"Ġclean":3048,"sequ":3049,"rs":3050,"jee":3051,"stitution":3052,"Ġwal":3053,"Rah":3054,"Ġoften":3055,"ier":3056,"Ġefforts":3057,"Ġconstituency":3058,"iet":3059,"Ġpoor":3060,"Ġfast":3061,"star":3062,"ĠMalayalam":3063,"Ġbenefit":3064,"ini":3065,"Ġchanges":3066,"ohan":3067,"Ġlock":3068,"During":3069,"Ġhappening":3070,"Ġanyone":3071,"Ġiniti":3072,"ĠShankar":3073,"Ġvictim":3074,"Ġcant":3075,"ĠGr":3076,"ĠFinance":3077,"aign":3078,"Ġprevent":3079,"Ġwrote":3080,"ĠCabinet":3081,"ĠMand":3082,"ĠAff":3083,"unicip":3084,"Ġclaimed":3085,"ĠKe":3086,"ovid":3087,"Delhi":3088,"Ġhope":3089,"Ġsan":3090,"Ġi":3091,"Ġcompan":3092,"unities":3093,"then":3094,"Ġsure":3095,"Ġtar":3096,"Ġaudience":3097,"ift":3098,"Ġstated":3099,"Ġraised":3100,"Ġrese":3101,"Ġearly":3102,"Ġbuilding":3103,"ify":3104,"ĠSal":3105,"vest":3106,"Ġbor":3107,"ĠMadhya":3108,"Ġestab":3109,"Ġrepresent":3110,"Am":3111,"Ġrelationship":3112,"Ġrev":3113,"cap":3114,"Ġhol":3115,"Ġdefe":3116,"Ġusing":3117,"Ġteas":3118,"ona":3119,"oses":3120,"Ġvirus":3121,"Ġemployees":3122,"ĠNagar":3123,"Ġcut":3124,"Ġones":3125,"Ġfunction":3126,"Ġstop":3127,"Ġstri":3128,"ĠDepartment":3129,"Chief":3130,"pir":3131,"itam":3132,"Ġable":3133,"Ġexist":3134,"Ġpot":3135,"uly":3136,"irmed":3137,"Ġmanufact":3138,"elfare":3139,"Ġfest":3140,"Ġ23":3141,"Ġteams":3142,"indu":3143,"ĠMah":3144,"Ġeyes":3145,"ript":3146,"Ġcentral":3147,"wara":3148,"Rahul":3149,"Ġbasis":3150,"Ġskin":3151,"wa":3152,"Ġagree":3153,"Ġsens":3154,"Ġallowed":3155,"Of":3156,"IT":3157,"Ġcompet":3158,"atural":3159,"Ġhigher":3160,"ĠCouncil":3161,"mend":3162,"undred":3163,"urance":3164,"Ġmorning":3165,"Ġthats":3166,"book":3167,"Ġneg":3168,"ĠChristian":3169,"Ġofficer":3170,"rew":3171,"Ġmeasures":3172,"Ġhours":3173,"Ġexperience":3174,"erred":3175,"11":3176,"ĠSci":3177,"Ġz":3178,"Ġlat":3179,"Ġ28":3180,"ĠApp":3181,"Ġcomplete":3182,"Ġport":3183,"nes":3184,"ream":3185,"onald":3186,"Ġcities":3187,"illed":3188,"year":3189,"aya":3190,"Ġrich":3191,"Ġdeg":3192,"Ġstay":3193,"IM":3194,"urope":3195,"Ġbeautiful":3196,"ĠAffairs":3197,"Ġmob":3198,"Ġshare":3199,"Ġprogramme":3200,"itnesses":3201,"ĠInternational":3202,"ructure":3203,"Ġsimilar":3204,"elt":3205,"Ġprobe":3206,"40":3207,"Ġsaw":3208,"Most":3209,"ĠSy":3210,"ĠMe":3211,"ĠAnil":3212,"Ġeither":3213,"Directed":3214,"ĠDistrict":3215,"utt":3216,"Ġposted":3217,"Ġtechnology":3218,"AP":3219,"ĠArt":3220,"uki":3221,"Ġspeed":3222,"Ġkm":3223,"erous":3224,"Ġdaily":3225,"Ġess":3226,"TDP":3227,"Ġhouses":3228,"ban":3229,"Ġrecorded":3230,"Ġabove":3231,"Ġnamed":3232,"ĠAh":3233,"Mean":3234,"mes":3235,"Ġmember":3236,"Ġmakes":3237,"atic":3238,"Ġgets":3239,"Ġoptions":3240,"Four":3241,"ultural":3242,"Ġsmart":3243,"aksh":3244,"ode":3245,"ĠAdv":3246,"60":3247,"Ġeconomy":3248,"ĠSuper":3249,"ĠAli":3250,"ĠOr":3251,"ĠSm":3252,"Ġteacher":3253,"ĠIm":3254,"Ġdeceased":3255,"Ġcreated":3256,"Ġtakes":3257,"zuki":3258,"apan":3259,"uresh":3260,"ratul":3261,"Ġturned":3262,"Ġspeak":3263,"quir":3264,"Ġhappens":3265,"Ġuntil":3266,"kash":3267,"Ġsimple":3268,"encies":3269,"oul":3270,"Ġheav":3271,"ogn":3272,"Ġsteps":3273,"ivid":3274,"Ġwarn":3275,"Ġlooking":3276,"Meanwhile":3277,"Ġprogress":3278,"Ġcampaign":3279,"Ġbenefits":3280,"Ġfav":3281,"Ġpand":3282,"Ġoffered":3283,"Ġregarding":3284,"Ġdidn":3285,"Ġspiritu":3286,"Ġnecessary":3287,"oint":3288,"Ġscored":3289,"Ġinfl":3290,"Ġincome":3291,"ĠRavi":3292,"Ġpressure":3293,"Only":3294,"ĠKannada":3295,"Ġadmitted":3296,"ĠTo":3297,"unicipal":3298,"ĠPad":3299,"Ġassist":3300,"Ġ60":3301,"Ġbanks":3302,"MC":3303,"esides":3304,"Ġmer":3305,"Ġattend":3306,"Ġcaused":3307,"ipur":3308,"Take":3309,"lled":3310,"ji":3311,"Ġposition":3312,"ĠDevelopment":3313,"ĠCup":3314,"Ġalliance":3315,"icular":3316,"Ġexte":3317,"Ġprojects":3318,"TV":3319,"icked":3320,"empt":3321,"Ġvehicle":3322,"Ġletter":3323,"ĠYou":3324,"Ġbuilt":3325,"alls":3326,"Ġtweeted":3327,"Ġcontrib":3328,"AN":3329,"Ġdeep":3330,"Can":3331,"BS":3332,"Since":3333,"Ġsister":3334,"ĠHaryana":3335,"Ġeconomic":3336,"ĠEnglish":3337,"ability":3338,"Ġcompanies":3339,"aught":3340,"Ġfine":3341,"Ġhealthy":3342,"ĠDavid":3343,"mony":3344,"Ġheard":3345,"Ġliving":3346,"Ġpo":3347,"pping":3348,"ĠArmy":3349,"Ġinstit":3350,"ĠNo":3351,"ĠCorpor":3352,"Ġnorm":3353,"Ġmag":3354,"armers":3355,"Ġdisp":3356,"ducation":3357,"viron":3358,"Ġroads":3359,"lit":3360,"Ġopposition":3361,"ows":3362,"Ġwanted":3363,"Ġrains":3364,"Re":3365,"bers":3366,"uel":3367,"Ġflood":3368,"ĠNorth":3369,"Ġopportunity":3370,"osing":3371,"utes":3372,"Ġground":3373,"Ġmarkets":3374,"Ġauthorities":3375,"where":3376,"ĠMinisters":3377,"Ġconfirmed":3378,"Ġarrange":3379,"Ġlockdown":3380,"Ġanti":3381,"ĠCommit":3382,"ĠAt":3383,"illi":3384,"Ġmilit":3385,"ĠArun":3386,"Ġcolour":3387,"Ġacted":3388,"ĠCovid":3389,"Ġsat":3390,"gu":3391,"ĠIPL":3392,"iled":3393,"Ġnearby":3394,"Vijay":3395,"Ġconsum":3396,"Ġsevere":3397,"Ġcommittee":3398,"Ġpandemic":3399,"Ġnet":3400,"ĠIndians":3401,"itude":3402,"erman":3403,"Ġnon":3404,"alore":3405,"Ram":3406,"Su":3407,"Ġplann":3408,"Ġhalf":3409,"Ġrequest":3410,"Ġofficers":3411,"Ġcinem":3412,"Ġpurp":3413,"Ġvictory":3414,"Ġcontrovers":3415,"18":3416,"olkata":3417,"Ġadminist":3418,"aterial":3419,"Ġsignific":3420,"vironment":3421,"ĠMuk":3422,"part":3423,"Nobody":3424,"ĠBan":3425,"ĠTata":3426,"erve":3427,"Ġbur":3428,"Ġregular":3429,"ledge":3430,"atory":3431,"Ġhot":3432,"gations":3433,"Ġpersonnel":3434,"back":3435,"Mar":3436,"ocked":3437,"ĠTV":3438,"Ġlakhs":3439,"ĠRohit":3440,"ĠSuzuki":3441,"Lets":3442,"Rec":3443,"Have":3444,"ator":3445,"Cor":3446,"Ġreports":3447,"Ġspoke":3448,"Ġmotor":3449,"Ġappointed":3450,"ĠPrab":3451,"Ġtrade":3452,"Ġsuffered":3453,"Ġfoc":3454,"Ġthou":3455,"ns":3456,"Ġlate":3457,"Ġsym":3458,"ze":3459,"Ġhelps":3460,"Union":3461,"Ġcustom":3462,"ĠHa":3463,"Cha":3464,"awada":3465,"Ġresponsibility":3466,"hold":3467,"Ġcitizens":3468,"Ġspirit":3469,"Ġmoment":3470,"Ġcontinues":3471,"min":3472,"ĠHindu":3473,"Ġcoun":3474,"Ġbelong":3475,"ĠBharat":3476,"Ġquar":3477,"omet":3478,"Ġbegun":3479,"Yes":3480,"Ġenough":3481,"rast":3482,"ĠPaul":3483,"ĠKam":3484,"ĠNe":3485,"ĠInstit":3486,"Ġincludes":3487,"Ġbelow":3488,"aby":3489,"Ġtrailer":3490,"Ġvotes":3491,"Ġfru":3492,"indra":3493,"Ġseized":3494,"ĠJos":3495,"ĠRuss":3496,"pes":3497,"Ġ%":3498,"Ġsust":3499,"Ġgoes":3500,"Ġtarget":3501,"Ġdig":3502,"Ġill":3503,"hot":3504,"Ġmoved":3505,"Ġstrengthen":3506,"Ġran":3507,"Ġforces":3508,"Our":3509,"edic":3510,"Ġriver":3511,"Ġassoci":3512,"ternet":3513,"earch":3514,"ators":3515,"eds":3516,"Ġcere":3517,"ĠDhoni":3518,"ĠWar":3519,"Ġindivid":3520,"ĠServ":3521,"Ġ[":3522,"ER":3523,"Ġsleep":3524,"for":3525,"ĠUP":3526,"nath":3527,"Ġobs":3528,"amples":3529,"Ġknows":3530,"iting":3531,"ĠEast":3532,"Ġ2018":3533,"ĠOD":3534,"ĠWhat":3535,"Ġrelated":3536,"Pl":3537,"ĠRep":3538,"ĠRav":3539,"Ġensure":3540,"Ġtou":3541,"log":3542,"ĠMy":3543,"verage":3544,"ĠSuresh":3545,"Ġprime":3546,"Ġcru":3547,"eni":3548,"Ġprevious":3549,"Ġvers":3550,"Ġcritical":3551,"Ġcharacter":3552,"Ġdaughters":3553,"Ġgovernments":3554,"Now":3555,"Ġten":3556,"ĠSund":3557,"Ġthreat":3558,"Ġline":3559,"Ġelected":3560,"evi":3561,"Ġclosed":3562,"Ġcompletely":3563,"ergy":3564,"Ġrules":3565,"Ġ?":3566,"ĠPan":3567,"ĠDes":3568,"Such":3569,"Ġpetition":3570,"ĠRoy":3571,"riyanka":3572,"Ġsug":3573,"Ġproducts":3574,"ĠMPs":3575,"Ġforeign":3576,"Ġexpectations":3577,"Music":3578,"Ġdoctor":3579,"utive":3580,"ladesh":3581,"new":3582,"uv":3583,"ĠCl":3584,"Ġcomb":3585,"hood":3586,"Ġmedic":3587,"otion":3588,"Ġmaintain":3589,"acebook":3590,"Over":3591,"Ġleave":3592,"AD":3593,"ĠRamesh":3594,"ĠWitnesses":3595,"Ġconduct":3596,"Ġperformance":3597,"Ġsac":3598,"nal":3599,"Ġbox":3600,"Ġaffected":3601,"Ġformed":3602,"uary":3603,"Ġgra":3604,"Ġappre":3605,"Ġ70":3606,"bh":3607,"ĠHouse":3608,"rance":3609,"nect":3610,"Ġcash":3611,"Ġthy":3612,"pecially":3613,"Ġactors":3614,"iqu":3615,"quiry":3616,"Dr":3617,"Ġtravel":3618,"ĠEnter":3619,"Ġask":3620,"ming":3621,"ĠPatel":3622,"person":3623,"Ġreach":3624,"Ġproducing":3625,"ĠCommittee":3626,"tty":3627,"ĠProdu":3628,"avari":3629,"Ġstopped":3630,"Ġdestro":3631,"Ġinvolved":3632,"Ġseriously":3633,"Ġdiscussed":3634,"Ġtele":3635,"olit":3636,"Ġsex":3637,"Ġexerc":3638,"Ġsociety":3639,"Ġchalleng":3640,"ager":3641,"Ġdebut":3642,"ushka":3643,"abh":3644,"cell":3645,"Ġbiggest":3646,"urt":3647,"Ġred":3648,"Don":3649,"Earlier":3650,"Director":3651,"ĠConstitution":3652,"Man":3653,"Ġvote":3654,"ĠIndust":3655,"pril":3656,"itha":3657,"lied":3658,"Ġparticular":3659,"Ġsuggest":3660,"ization":3661,"Ġpictures":3662,"Ġbowl":3663,"ĠKingdom":3664,"ably":3665,"rown":3666,"ĠPet":3667,"Ġquality":3668,"Ġweight":3669,"ĠEurope":3670,"Ġmaterial":3671,"othing":3672,"Ġidentified":3673,"Pre":3674,"Ġ26":3675,"ĠEngland":3676,"work":3677,"Ġactually":3678,"Ġ80":3679,"hase":3680,"Than":3681,"hel":3682,"Ġmodel":3683,"16":3684,"Ġphys":3685,"Ġanim":3686,"aves":3687,"Ġahead":3688,"ĠJa":3689,"bar":3690,"Ġblack":3691,"Ġautom":3692,"Ġcoop":3693,"Ġactivities":3694,"200":3695,"sh":3696,"play":3697,"ksha":3698,"ĠVis":3699,"CCI":3700,"Ġprim":3701,"att":3702,"Ġmis":3703,"Ġinteresting":3704,"AM":3705,"Ġsupply":3706,"Ġcareer":3707,"Ġvalue":3708,"Ġbit":3709,"ĠAfrica":3710,"rief":3711,"Ġet":3712,"let":3713,"Ġreceiving":3714,"itor":3715,"Ġresearch":3716,"fall":3717,"Ġwind":3718,"Ġconstruction":3719,"Ġpicture":3720,"Ġcentury":3721,"ĠAP":3722,"Ġtor":3723,"Ġincidents":3724,"Ġant":3725,"ĠBoard":3726,"ĠDonald":3727,"ĠYog":3728,"Even":3729,"uled":3730,"Ġarri":3731,"Ġconsider":3732,"anda":3733,"Ġwants":3734,"ĠNit":3735,"Ġundergoing":3736,"Ġaccept":3737,"ethod":3738,"Ġproducer":3739,"ĠChairman":3740,"ounded":3741,"Ġshar":3742,"Ġoppos":3743,"Ġjointly":3744,"Ġdemoc":3745,"ĠTem":3746,"dra":3747,"Ġboy":3748,"Ġscreen":3749,"Ġtry":3750,"igation":3751,"ĠCorporation":3752,"inent":3753,"phone":3754,"enced":3755,"ĠFilm":3756,"Ġcontinued":3757,"reedom":3758,"Ġcommand":3759,"100":3760,"ashed":3761,"Ġsepar":3762,"Ġhospitals":3763,"Ġorig":3764,"ource":3765,"Ġincluded":3766,"ooja":3767,"Ġmention":3768,"ĠGodavari":3769,"speed":3770,"ĠBe":3771,"AT":3772,"cu":3773,"vey":3774,"14":3775,"garh":3776,"Ġalone":3777,"igg":3778,"17":3779,"Ġearn":3780,"Ġinstru":3781,"First":3782,"Ġbi":3783,"Ġgrant":3784,"Ġlocals":3785,"ĠChristians":3786,"Ġgear":3787,"ĠKCR":3788,"Ġrisk":3789,"Ġgod":3790,"Ġforce":3791,"Ġrejected":3792,"amous":3793,"Ġcustody":3794,"abor":3795,"amily":3796,"Ġtemper":3797,"Ġtried":3798,"inder":3799,"elling":3800,"Ġphoto":3801,"hem":3802,"Ġsalt":3803,"oice":3804,"Ġcongre":3805,"ĠTechn":3806,"dict":3807,"efence":3808,"Ġinnings":3809,"Ġmobile":3810,"Ġflow":3811,"Ġsqu":3812,"Ġrecogn":3813,"Ġpolicy":3814,"oes":3815,"Ġmajority":3816,"Ġ/":3817,"Ġminor":3818,"edding":3819,"Government":3820,"About":3821,"Ġboard":3822,"Ġinvestment":3823,"ison":3824,"antly":3825,"anna":3826,"jri":3827,"Ġdeter":3828,"Ġquick":3829,"From":3830,"Ġ27":3831,"Ġserved":3832,"ests":3833,"int":3834,"Ġenergy":3835,"Ġ2014":3836,"ĠPrakash":3837,"Ġbrothers":3838,"ĠSpe":3839,"ĠYSRCP":3840,"redit":3841,"Ġmand":3842,"ĠApril":3843,"Ġhundred":3844,"ĠJud":3845,"Ġdeveloped":3846,"ĠCommissioner":3847,"ĠVenkat":3848,"ties":3849,"Ġhistor":3850,"Ġoffers":3851,"ĠSp":3852,"ĠSonia":3853,"ĠBengaluru":3854,"inese":3855,"Ġopportunities":3856,"Ġremains":3857,"Ġwhom":3858,"Ġmount":3859,"achin":3860,"By":3861,"Ġnatural":3862,"Sim":3863,"chay":3864,"Ġchallen":3865,"Ġthemselves":3866,"fect":3867,"Ġer":3868,"Ġgiving":3869,"ĠGe":3870,"Ġtrust":3871,"rant":3872,"wide":3873,"het":3874,"Ġsongs":3875,"Ġupd":3876,"Ġlegisl":3877,"ĠAhmed":3878,"Ġlatest":3879,"ayana":3880,"Res":3881,"ires":3882,"Ġapply":3883,"unic":3884,"Sal":3885,"ĠComm":3886,"ĠAy":3887,"80":3888,"udents":3889,"Ġtreated":3890,"ĠCont":3891,"Ġrailway":3892,"Ġexplain":3893,"Ġalmost":3894,"Ġtoll":3895,"Ġterm":3896,"Ġ199":3897,"Ġhy":3898,"Ġbless":3899,"Ġfeature":3900,"idel":3901,"ĠBill":3902,"Ġconstit":3903,"au":3904,"ĠCollege":3905,"lam":3906,"wamy":3907,"load":3908,"remely":3909,"Sha":3910,"use":3911,"val":3912,"rated":3913,"Ġ500":3914,"Ġprec":3915,"Ġcareful":3916,"Ġcomments":3917,"Ġrank":3918,"Good":3919,"Ġbench":3920,"'.":3921,"Ġetc":3922,"Ġwitness":3923,"ruption":3924,"Ġended":3925,"Ġcross":3926,"Ġdistrib":3927,"Ġpra":3928,"Ġimpact":3929,"ĠSur":3930,"Ġhanded":3931,"jriwal":3932,"Ġ300":3933,"Ġjobs":3934,"Ġaddition":3935,"ikanth":3936,"Ġfat":3937,"Ġfourth":3938,"Ġopp":3939,"Ġdang":3940,"vt":3941,"Ġleads":3942,"Ġdirection":3943,"Ġrates":3944,"Ġestim":3945,"Ġwel":3946,"ĠMedical":3947,"ĠBha":3948,"Ġtesting":3949,"Hence":3950,"acy":3951,"Farmers":3952,"ĠAmb":3953,"oned":3954,"Ġhearing":3955,"Ġarrangements":3956,"Ġkids":3957,"Ġappeal":3958,"Ġspiritual":3959,"Ġwis":3960,"Ġachieve":3961,"Ġstrength":3962,"Ġfacilities":3963,"ĠSw":3964,"ĠInstitute":3965,"ĠTemple":3966,"Ġeld":3967,"ĠCC":3968,"Ġdiscip":3969,"ĠJay":3970,"crib":3971,"ptoms":3972,"Ġdestroy":3973,"ĠInst":3974,"Follow":3975,"Ġborn":3976,"IR":3977,"hib":3978,"Ġtitle":3979,"Ġsouth":3980,"Yet":3981,"ohar":3982,"Ġye":3983,"lling":3984,"cient":3985,"Ġ...":3986,"Ġtransport":3987,"achal":3988,"Ġceremony":3989,"erved":3990,"ĠLt":3991,"Ġtraffic":3992,"Ġexpl":3993,"ga":3994,"Ġknowledge":3995,"Ġtalks":3996,"Ġsite":3997,"Ġpack":3998,"ighb":3999,"antha":4000,"Ġeight":4001,"Ġgrand":4002,"Ġsearch":4003,"22":4004,"Ġopened":4005,"rav":4006,"ĠKolkata":4007,"know":4008,"Ġdepartment":4009,"Ġcongratul":4010,"Ġstatus":4011,"Under":4012,"ĠAllu":4013,"lick":4014,"Ġcarried":4015,"Each":4016,"Ġplayers":4017,"Sec":4018,"13":4019,"IP":4020,"iers":4021,"asim":4022,"Ġmem":4023,"Those":4024,"Ġallegations":4025,"Ġrecom":4026,"Ġrequire":4027,"Ġgar":4028,"Ġnumbers":4029,"Ġfacing":4030,"ĠDevi":4031,"Ġoffering":4032,"pat":4033,"ici":4034,"ayan":4035,"ivity":4036,"action":4037,"ĠJapan":4038,"Ġbuy":4039,"iy":4040,"mohan":4041,"ening":4042,"Ġfulf":4043,"Ġcy":4044,"ĠGB":4045,"Ġcharges":4046,"75":4047,"Ġimprove":4048,"Ġsilver":4049,"Ġ35":4050,"nagar":4051,"Ġtransf":4052,"racy":4053,"otees":4054,"Ġconv":4055,"ĠAdity":4056,"Ġlaws":4057,"Ġhair":4058,"Ġmist":4059,"asan":4060,"icro":4061,"Ġattention":4062,"Ġsuffering":4063,"Ġseems":4064,"Ġpub":4065,"Everything":4066,"eshwar":4067,"Ġrule":4068,"ĠJoh":4069,"itamin":4070,"ĠBrit":4071,"ĠJune":4072,"Ġdepend":4073,"ĠPre":4074,"Ġ150":4075,"erjee":4076,"Ġsession":4077,"wise":4078,"lease":4079,"Ġsugar":4080,"miss":4081,"Ġcondol":4082,"ĠComp":4083,"yle":4084,"ĠReg":4085,"alled":4086,"Ġprincip":4087,"Ġ32":4088,"Ġbats":4089,"Ġcateg":4090,"ĠBa":4091,"Ġrespectively":4092,"Ġencoura":4093,"aximum":4094,"ixel":4095,"Ġfunds":4096,"EO":4097,"Ġbill":4098,"Ġrear":4099,"inikanth":4100,"atform":4101,"Ġreportedly":4102,"ĠArticle":4103,"Ġvol":4104,"Ġdocu":4105,"Ġri":4106,"Ġkept":4107,"ugg":4108,"Ġexpress":4109,"rial":4110,"ĠDil":4111,"apt":4112,"ĠMet":4113,"Ġloan":4114,"overy":4115,"Ġmassive":4116,"ĠSr":4117,"Ġrights":4118,"Ġextremely":4119,"Ġcharge":4120,"road":4121,"ĠSud":4122,"Ġchairman":4123,"Ġdri":4124,"Ġaccess":4125,"Ġtraining":4126,"Ġbar":4127,"Ġplans":4128,"aur":4129,"Ġlower":4130,"Ġdifference":4131,"Ġstaff":4132,"ĠElection":4133,"Ġphase":4134,"ĠNath":4135,"Ġterms":4136,"Ġveget":4137,"mercial":4138,"venue":4139,"Ġwaiting":4140,"light":4141,"Ġviolence":4142,"Ġflo":4143,"Ġministry":4144,"Ġordered":4145,"ĠCricket":4146,"Ġwid":4147,"Ġclar":4148,"Ġfreedom":4149,"Ġ370":4150,"orage":4151,"Ġenter":4152,"Ġgroups":4153,"ĠSpecial":4154,"Ġ29":4155,"Ġcricketer":4156,"Ġspace":4157,"ĠOffic":4158,"Ġmas":4159,"Ġphotos":4160,"State":4161,"Ġidea":4162,"Ġnorth":4163,"oting":4164,"alli":4165,"Ġoutside":4166,"ĠOn":4167,"Ġqual":4168,"after":4169,"ĠEntertain":4170,"ague":4171,"ĠJr":4172,"SP":4173,"aging":4174,"aper":4175,"Ġprotect":4176,"set":4177,"Ġnames":4178,"hik":4179,"ological":4180,"Ġsuspect":4181,"DA":4182,"Ġvillages":4183,"gment":4184,"Ġvia":4185,"ĠHeg":4186,"Ġski":4187,"alem":4188,"Se":4189,"rastructure":4190,"ĠIT":4191,"Ġneighb":4192,"ĠBangalore":4193,"ĠBangladesh":4194,"Ġdenied":4195,"Apart":4196,"Ġremained":4197,"Ġ31":4198,"Ġvictims":4199,"Ġapproved":4200,"Ġespecially":4201,"ĠTri":4202,"Ġtests":4203,"Ġenvironment":4204,"ounds":4205,"Spe":4206,"gap":4207,"Ġremember":4208,"Ġcommunity":4209,"Ġdom":4210,"UV":4211,"Ġabs":4212,"ogle":4213,"ĠHegde":4214,"IN":4215,"Ġsurvived":4216,"ĠBanerjee":4217,"Ġtrou":4218,"Ġscient":4219,"?\"":4220,"Ġscore":4221,"Ġusers":4222,"jit":4223,"Ġjail":4224,"ĠFacebook":4225,"Besides":4226,"Ġunits":4227,"Ġmark":4228,"oted":4229,"ips":4230,"ĠMoham":4231,"Ġpurpose":4232,"estic":4233,"Ġdie":4234,"Ele":4235,"Ġjustice":4236,"Ġinside":4237,"Ġstra":4238,"Ġlooked":4239,"ox":4240,"ira":4241,"ĠWe":4242,"Ġsafety":4243,"Ġmessage":4244,"ott":4245,"Ġconsidered":4246,"Ġcontain":4247,"ĠBach":4248,"Ġfocus":4249,"ĠCre":4250,"ecause":4251,"Ġrout":4252,"Ġappreci":4253,"rees":4254,"mad":4255,"ĠIC":4256,"ĠChandr":4257,"Ġ$":4258,"Ġdisapp":4259,"Ġbreak":4260,"ĠMond":4261,"ĠPe":4262,"ĠGopal":4263,"Ġcapac":4264,"ĠPol":4265,"Ġinquiry":4266,"Rohit":4267,"Ġintroduced":4268,"Ġborder":4269,"Ġdi":4270,"ĠGerman":4271,"Ġapplication":4272,"ĠAut":4273,"ech":4274,"ĠNa":4275,"Ġwedding":4276,"Ġdedic":4277,"Ġdecisions":4278,"ese":4279,"imately":4280,"agram":4281,"Ġsurpr":4282,"Ġthee":4283,"Ġbillion":4284,"Ġrefused":4285,"litre":4286,"Ġattempt":4287,"ĠVarma":4288,"RR":4289,"ĠHim":4290,"Ġspent":4291,"Ġessential":4292,"ĠCity":4293,"Ġdrug":4294,"akrishna":4295,"Ġtrains":4296,"Ġargu":4297,"ĠBachchan":4298,"ades":4299,"ardhan":4300,"ĠRag":4301,"ĠSus":4302,"Ġplant":4303,"oman":4304,"'m":4305,"ique":4306,"Ġresc":4307,"Ġcancer":4308,"Ġsit":4309,"Read":4310,"Ġgives":4311,"Ġgre":4312,"ief":4313,"Ġgrowing":4314,"Ġevidence":4315,"Ġaware":4316,"Ġlad":4317,"asekhar":4318,"ĠEducation":4319,"Ġexamination":4320,"Ġforest":4321,"Ġlif":4322,"Ġyes":4323,"Ġmultip":4324,"Ġreligious":4325,"Ġloved":4326,"ĠCP":4327,"vendra":4328,"ĠCan":4329,"Ġsafe":4330,"Ġir":4331,"Ġadditional":4332,"Ġindepend":4333,"Ġstudent":4334,"Ġdoubt":4335,"China":4336,"Ġdiscussion":4337,"ĠDeep":4338,"ĠZeal":4339,"ĠDeputy":4340,"win":4341,"Ġairport":4342,"Ġplatform":4343,"Ġrural":4344,"Ġclim":4345,"Ġconditions":4346,"aps":4347,"Ġfamous":4348,"roid":4349,"Ġtorque":4350,"Ġalloc":4351,"Ġresident":4352,"JD":4353,"Ġmatches":4354,"Ġ2017":4355,"Ġconference":4356,"ĠIt":4357,"akshmi":4358,"ĠLtd":4359,"Ġcomment":4360,"ĠGroup":4361,"Therefore":4362,"Ġnor":4363,"Ġcover":4364,"Ġcivil":4365,"Does":4366,"bing":4367,"dule":4368,"Ġsin":4369,"Ġconnect":4370,"ĠMotors":4371,"ĠSithar":4372,"Ġslow":4373,"Ġprepared":4374,"Ġsea":4375,"Ġ:":4376,"gapixel":4377,"Ġcentre":4378,"ĠCCTV":4379,"Ġadj":4380,"Best":4381,"Nothing":4382,"akonda":4383,"ĠRavind":4384,"Eng":4385,"Ġavoid":4386,"Ġcontinu":4387,"Ġgain":4388,"Ġgreen":4389,"Ġremake":4390,"shi":4391,"thy":4392,"AI":4393,"FC":4394,"ĠHow":4395,"oj":4396,"Ġjudge":4397,"Ġfestival":4398,"ĠArvind":4399,"ĠMaruti":4400,"oming":4401,"Ġverdict":4402,"ograph":4403,"disha":4404,"ĠBar":4405,"Pawan":4406,"iri":4407,"sec":4408,"kshay":4409,"ĠStar":4410,"Did":4411,"Ġstands":4412,"ĠMam":4413,"ĠSanjay":4414,"Ġcongregation":4415,"Ġrupe":4416,"Ġcrime":4417,"Loc":4418,"ĠAjay":4419,"Ġfile":4420,"Mo":4421,"Ġfre":4422,"ED":4423,"produ":4424,"Ġticket":4425,"uz":4426,"ĠJanata":4427,"Ġcinema":4428,"Very":4429,"icial":4430,"alm":4431,"Ġagriculture":4432,"acted":4433,"Ġreturned":4434,"inch":4435,"ĠJer":4436,"Ġstage":4437,"Ġpen":4438,"Ġruling":4439,"ĠMarch":4440,"rising":4441,"iranje":4442,"Ġtalking":4443,"ĠZealand":4444,"ĠLanka":4445,"Ġgirls":4446,"ĠRajnath":4447,"garwal":4448,"ĠExp":4449,"ĠMahindra":4450,"eared":4451,"irmala":4452,"Five":4453,"ially":4454,"ĠRajput":4455,"ĠDha":4456,"ĠKejriwal":4457,"ula":4458,"Ġresponsible":4459,"ĠChinese":4460,"ems":4461,"Ġbooks":4462,"Ġsubject":4463,"opic":4464,"Ġaf":4465,"Ġpun":4466,"Ġnote":4467,"deep":4468,"Ġdetained":4469,"Ġdispute":4470,"Ġmovement":4471,"Produ":4472,"ĠInstagram":4473,"SC":4474,"Ġexec":4475,"Ġsoft":4476,"ĠRailways":4477,"Ġforth":4478,"ĠBen":4479,"Ġserve":4480,"pen":4481,"Ġevening":4482,"ĠKore":4483,"Ġagreed":4484,"Ġteaser":4485,"bit":4486,"Ġwish":4487,"ĠSP":4488,"Fin":4489,"Ġtur":4490,"ĠHD":4491,"rect":4492,"Look":4493,"risis":4494,"Ġpage":4495,"ĠMat":4496,"Ġmotorcy":4497,"ĠHy":4498,"Ġyourself":4499,"Ġmethod":4500,"vention":4501,"Ġcrucial":4502,"ĠSte":4503,"Ġut":4504,"'re":4505,"Con":4506,"Ġpat":4507,"Ġworship":4508,"ĠAz":4509,"ĠJuly":4510,"pic":4511,"aches":4512,"ĠTir":4513,"Ġarticle":4514,"Ġwhether":4515,"Recently":4516,"Ġbroke":4517,"Ġdraw":4518,"Ġrepe":4519,"Ġrange":4520,"Just":4521,"Ġtrave":4522,"ĠAsia":4523,"Ġnations":4524,"ĠMonday":4525,"anga":4526,"Heavy":4527,"Ġsoldiers":4528,"raft":4529,"Ġskipper":4530,"Ġcapacity":4531,"ler":4532,"raj":4533,"ĠKart":4534,"Ġrally":4535,"Ġarrived":4536,"Ġfresh":4537,"ĠAug":4538,"Ġlevels":4539,"inary":4540,"Ġinflu":4541,"Ġmaximum":4542,"osh":4543,"angal":4544,"Ġago":4545,"Ġunit":4546,"President":4547,"Ġstorage":4548,"Ġtherefore":4549,"ĠDal":4550,"Ġdemocracy":4551,"Doctors":4552,"Ġaverage":4553,"ĠRaje":4554,"ero":4555,"Ġculture":4556,"Ġwasnt":4557,"Ġmanagement":4558,"ĠTrans":4559,"Ġcauses":4560,"Ġwebs":4561,"ĠVish":4562,"Ġoption":4563,"co":4564,"ĠFore":4565,"Ġbirthday":4566,"ĠResearch":4567,"Ġscene":4568,"uman":4569,"Ġroom":4570,"eer":4571,"aving":4572,"aring":4573,"ukh":4574,"Ġrunning":4575,"Ġpriced":4576,"inger":4577,"Ġdro":4578,"Ġexercise":4579,"pended":4580,"Ġvisited":4581,"ĠLal":4582,"Ġbattle":4583,"Ġnormal":4584,"Ġplayer":4585,"ashing":4586,"ĠAward":4587,"ĠNav":4588,"ensive":4589,"Ad":4590,"Ġball":4591,"Ġclos":4592,"24":4593,"gend":4594,"Ġurged":4595,"Ġfal":4596,"Ġprimary":4597,"AR":4598,"ken":4599,"ography":4600,"Ġstress":4601,"sequently":4602,"enty":4603,"Ġwinning":4604,"ĠNand":4605,"hildren":4606,"Ġoperation":4607,"ĠCEO":4608,"Ġwonder":4609,"isgarh":4610,"ĠAmerica":4611,"Ġment":4612,"megapixel":4613,"Ġreligion":4614,"Ġjoy":4615,"Ġprotests":4616,"Tra":4617,"vision":4618,"Ġproviding":4619,"Ġliter":4620,"ĠAnand":4621,"Ġste":4622,"ume":4623,"Ġcheck":4624,"Ġsports":4625,"ĠCreations":4626,"Ġmilk":4627,"Ġspeaking":4628,"ĠAnushka":4629,"Ġcosts":4630,"Ġexact":4631,"ĠEngine":4632,"eous":4633,"Ġcop":4634,"Ġprior":4635,"Home":4636,"isf":4637,"hattisgarh":4638,"ĠSitharaman":4639,"ota":4640,"ocks":4641,"Ġholy":4642,"Ġopposite":4643,"En":4644,"Ġcreat":4645,"Ġobject":4646,"Ġextended":4647,"Ġpropos":4648,"Ġdamaged":4649,"iranjeevi":4650,"ĠNCP":4651,"Mahesh":4652,"Ġconfidence":4653,"hari":4654,"Ġitself":4655,"omb":4656,"Because":4657,"rage":4658,"Ġinteg":4659,"Ġaccounts":4660,"araj":4661,"Ġsched":4662,"Ġinterview":4663,"endul":4664,"ĠGST":4665,"Ġcondem":4666,"Actor":4667,"lies":4668,"lims":4669,"Ġbeat":4670,"ĠScience":4671,"Ġfig":4672,"Andhra":4673,"Ġlooks":4674,"Ġnotice":4675,"Ġtested":4676,"Following":4677,"ĠRoad":4678,"avati":4679,"ĠNarasim":4680,"Trump":4681,"ĠOpposition":4682,"God":4683,"Ġemployment":4684,"Ġfelt":4685,"Ġreceive":4686,"yan":4687,"Ġcomfort":4688,"ailed":4689,"ples":4690,"ĠSchool":4691,"ĠTechnology":4692,"Ġaccompan":4693,"MK":4694,"Ġmodern":4695,"Ġreality":4696,"gg":4697,"maz":4698,"Ġcoach":4699,"rate":4700,"ĠDefence":4701,"ball":4702,"ĠKan":4703,"Ġleadership":4704,"Ġpolling":4705,"oured":4706,"ented":4707,"oday":4708,"ĠOdisha":4709,"Ġsacrif":4710,"Ġbrand":4711,"harged":4712,"Ġrising":4713,"ita":4714,"nces":4715,"Ġfavour":4716,"SS":4717,"Students":4718,"ela":4719,"ifty":4720,"untur":4721,"%.":4722,"Ġstrike":4723,"time":4724,"Ġ2016":4725,"Ġapost":4726,"ĠPal":4727,"akul":4728,"Ġteachers":4729,"Ġsustained":4730,"GB":4731,"Ġtouch":4732,"Ġcooperation":4733,"Ġdegree":4734,"Ġhelmed":4735,"Ġcrisis":4736,"hips":4737,"Ġbegins":4738,"cepted":4739,"Ġsales":4740,"Ġresigned":4741,"ĠAI":4742,"Ġconstituencies":4743,"ĠOct":4744,"arsh":4745,"Ġremaining":4746,"ocial":4747,"Chandra":4748,"Ġbra":4749,"Ġhelped":4750,"Ġshows":4751,"ĠSidd":4752,"Ġpartners":4753,"35":4754,"Hes":4755,"Ġcars":4756,"riving":4757,"ĠDi":4758,"Ġaccompanied":4759,"ĠAssoci":4760,"aiah":4761,"opra":4762,"ĠHaasan":4763,"Women":4764,"mpions":4765,"Ġcapt":4766,"Ġvoice":4767,"Ġcontesting":4768,"Ġpred":4769,"hange":4770,"iddle":4771,"Special":4772,"pite":4773,"Ġcreate":4774,"Ġconcerned":4775,"Ġtemperature":4776,"Ġcup":4777,"though":4778,"ineni":4779,"Ġjourney":4780,"Ġmentioned":4781,"Ġtom":4782,"ĠEd":4783,"Ġbecomes":4784,"formation":4785,"usion":4786,"Ġbail":4787,"ertific":4788,"Further":4789,"Ġinaug":4790,"Ġnearly":4791,"Ġheaven":4792,"Ġresponded":4793,"Ġdoesn":4794,"Ġsources":4795,"Ġindic":4796,"Ġimmediate":4797,"Ġsought":4798,"uesday":4799,"Ġoperations":4800,"ĠOff":4801,"juna":4802,"Ġwarm":4803,"astic":4804,"iles":4805,"Ġimplemented":4806,"ednes":4807,"iring":4808,"Ġreduce":4809,"ĠUr":4810,"iling":4811,"ception":4812,"eful":4813,"Health":4814,"ashes":4815,"ĠVice":4816,"Ġdiseases":4817,"Ġterrit":4818,"off":4819,"ials":4820,"Ġovers":4821,"Ġcustomers":4822,"KCR":4823,"ĠJD":4824,"rog":4825,"Ġparliament":4826,"ĠLaw":4827,"Ġnone":4828,"Ġvacc":4829,"Ġwat":4830,"Ġproduce":4831,"ĠTendul":4832,"ĠLim":4833,"ĠRaja":4834,"ĠRajam":4835,"Ġbag":4836,"Ġhasnt":4837,"oved":4838,"Ġwithdra":4839,"Ġrainfall":4840,"Ġcelebrated":4841,"iger":4842,"Ġchoose":4843,"ednesday":4844,"Act":4845,"PF":4846,"Wor":4847,"Ġarmy":4848,"Ġsignificant":4849,"Ġfalse":4850,"Ġacting":4851,"45":4852,"ĠPower":4853,"ĠMamata":4854,"Ġmid":4855,"Ġdevotees":4856,"Ġsuspended":4857,"Ġentered":4858,"Ġ33":4859,"Ġfaced":4860,"ca":4861,"adhaar":4862,"ĠSept":4863,"Ġforget":4864,"Ġvegetables":4865,"Ġsoul":4866,"gency":4867,"Ġmatters":4868,"YSR":4869,"Ġmisha":4870,"ĠVin":4871,"za":4872,"raid":4873,"ĠSpeaker":4874,"Cur":4875,"Ġcredit":4876,"ĠLeg":4877,"ĠAmerican":4878,"Ġ90":4879,"See":4880,"Ġsecret":4881,"Ġthroughout":4882,"Ġorders":4883,"idelines":4884,"Ġcold":4885,"Ġscheduled":4886,"Ġworry":4887,"andeep":4888,"Ġmig":4889,"Ġsides":4890,"Ġpowder":4891,"ĠPul":4892,"Ġattacked":4893,"ĠForce":4894,"Ġestablished":4895,"ĠTuesday":4896,"ervation":4897,"riday":4898,"Offic":4899,"Ġmissing":4900,"ĠSalman":4901,"Ġgas":4902,"ĠRailway":4903,"Ġmultiple":4904,"ursday":4905,"Among":4906,"Ġsmartphone":4907,"Shi":4908,"Ġsuc":4909,"Senior":4910,"ĠChopra":4911,"Ġinfrastructure":4912,"Ġdepart":4913,"Ġcollege":4914,"che":4915,"ober":4916,"Red":4917,"Shri":4918,"Ġstrict":4919,"Ġloans":4920,"Which":4921,"Ġpie":4922,"WhatsApp":4923,"NE":4924,"Ġdescrib":4925,"Ġsolution":4926,"Ġreduced":4927,"Ġfinally":4928,"Ġrapid":4929,"cher":4930,"90":4931,"Ġsomet":4932,"Ġthus":4933,"Ġplanning":4934,"Ġfeet":4935,"ĠMS":4936,"Ġcra":4937,"Ġcommission":4938,"Ġbeginning":4939,"ĠWednesday":4940,"Ġboost":4941,"ĠCap":4942,"Ġnotification":4943,"ounder":4944,"Ġsave":4945,"harge":4946,"Ġfix":4947,"Thus":4948,"Ġcontroversy":4949,"rel":4950,"Ġpresence":4951,"Ġchallenge":4952,"Che":4953,"Ġaccepted":4954,"Ġheroine":4955,"Ġcorruption":4956,"ĠKal":4957,"Ġbaby":4958,"ĠRel":4959,"quar":4960,"Ġheaded":4961,"Ġpregn":4962,"RC":4963,"sp":4964,"iber":4965,"Ġlose":4966,"Ġ45":4967,"Ġsupported":4968,"Minister":4969,"ider":4970,"ĠSiv":4971,"ĠIran":4972,"loyed":4973,"Ġafraid":4974,"rad":4975,"Ġnut":4976,"Around":4977,"Ġacqu":4978,"Ġversion":4979,"Ġsigned":4980,"rivikram":4981,"Ġprominent":4982,"ĠNirmala":4983,"Ġtypes":4984,"Ġpil":4985,"Ġcommercial":4986,"Ġcaught":4987,"Ġconc":4988,"Ġrose":4989,"Ġdebate":4990,"Ġstood":4991,"TRS":4992,"khand":4993,"De":4994,"ĠTendulkar":4995,"Total":4996,"oples":4997,"uals":4998,"Ġvice":4999,"Ġancient":5000,"Ġcancell":5001,"AB":5002,"yer":5003,"usalem":5004,"Out":5005,"Ġsymptoms":5006,"ĠKamal":5007,"Cl":5008,"Ġsn":5009,"based":5010,"ĠBest":5011,"Ġestimated":5012,"Ġinvited":5013,"Ġremar":5014,"ovind":5015,"Ġplea":5016,"Virat":5017,"ille":5018,"ube":5019,"Keep":5020,"ny":5021,"anced":5022,"ĠThursday":5023,"ensation":5024,"tained":5025,"tery":5026,"Ġassistance":5027,"ĠSche":5028,"Ġjournal":5029,"ĠRama":5030,"Ġspokes":5031,"ĠThis":5032,"Ġexpand":5033,"craft":5034,"Ġthinking":5035,"ault":5036,"Ġpiv":5037,"Ġpublished":5038,"ĠDo":5039,"Pet":5040,"eks":5041,"ĠSure":5042,"ĠGoa":5043,"ĠFriday":5044,"Ġspeech":5045,"Ġexperi":5046,"Ġprofession":5047,"room":5048,"anath":5049,"Ġtoss":5050,"ply":5051,"Ġmishap":5052,"Ġsucceed":5053,"Rel":5054,"Ġfish":5055,"ĠODI":5056,"Ġchance":5057,"son":5058,"Ġbelieved":5059,"ĠPandey":5060,"ouli":5061,"ĠRec":5062,"Ġdismiss":5063,"ĠSol":5064,"Ġeffort":5065,"aying":5066,"Ġshocked":5067,"IS":5068,"Ġevents":5069,"Ġchallenges":5070,"Fans":5071,"ony":5072,"ĠPriyanka":5073,"ĠDhawan":5074,"ĠRussia":5075,"rim":5076,"Ġstations":5077,"Ġmeetings":5078,"Ġaffect":5079,"Ġsatisf":5080,"ĠAc":5081,"cember":5082,"ĠAndroid":5083,"Ġimposed":5084,"Ġwelfare":5085,"Ġdestroyed":5086,"itt":5087,"Ġgradu":5088,"Ag":5089,"ĠKings":5090,"Ġneither":5091,"Ġdisplay":5092,"Ġentertain":5093,"ĠJerusalem":5094,"ooth":5095,"Ġdoor":5096,"Ġpivotal":5097,"Ġnature":5098,"Ġreb":5099,"Ġterrorists":5100,"atures":5101,"orters":5102,"Ġ400":5103,"Ġcircum":5104,"Ġblock":5105,"usiness":5106,"ĠBoss":5107,"Ġschedule":5108,"Ġcompared":5109,"hapat":5110,"Ġrighteous":5111,"Ġinsurance":5112,"appy":5113,"Ġdram":5114,"Ġdivided":5115,"ĠPublic":5116,"Ġwhite":5117,"Ġentry":5118,"ĠOne":5119,"eral":5120,"Ġfacility":5121,"Chandrababu":5122,"ped":5123,"Ġ--":5124,"ĠMovie":5125,"ultane":5126,"ĠRajiv":5127,"Ġcolours":5128,"ground":5129,"box":5130,"ĠAugust":5131,"prit":5132,"Ġfirm":5133,"ĠMur":5134,"agers":5135,"ĠOf":5136,"Ġdomestic":5137,"ĠVikram":5138,"Ġpath":5139,"Ġlin":5140,"rench":5141,"Ġsomeone":5142,"Ġstories":5143,"bhp":5144,"ĠAssam":5145,"Ġawards":5146,"Ġproperty":5147,"known":5148,"ĠJohn":5149,"Ġwebsite":5150,"lect":5151,"Ġrepl":5152,"Any":5153,"AS":5154,"ondon":5155,"ĠBritish":5156,"65":5157,"Ġlies":5158,"Ġban":5159,"ĠDhar":5160,"Ġdepos":5161,"Ġstarred":5162,"ĠRBI":5163,"ĠBCCI":5164,"Gold":5165,"Ġhappiness":5166,"Ġtemples":5167,"Ne":5168,"mazon":5169,"ĠChhattisgarh":5170,"Ġprovides":5171,"ancy":5172,"Ġallegedly":5173,"Ġforg":5174,"Ġmarks":5175,"Ġdry":5176,"Ġmilitary":5177,"Ġ198":5178,"Ġsection":5179,"ĠCPI":5180,"lands":5181,"ĠDever":5182,"Ġattacks":5183,"Ġrelief":5184,"Ġposts":5185,"Ġinvestigated":5186,"pta":5187,"Ġimportance":5188,"rises":5189,"Ġworried":5190,"ĠBab":5191,"lig":5192,"Thank":5193,"ĠCar":5194,"aitley":5195,"ĠAssociation":5196,"maker":5197,"Ġdream":5198,"Ġphysical":5199,"ĠMr":5200,"awar":5201,"Ġraped":5202,"ba":5203,"Ġinstitutions":5204,"Ġdouble":5205,"Ministry":5206,"ĠWelfare":5207,"undai":5208,"chayat":5209,"uff":5210,"asi":5211,"Ġlink":5212,"Ġthousands":5213,"Ġgen":5214,"Heres":5215,"ĠSik":5216,"oking":5217,"Ġsituated":5218,"election":5219,"ĠSeptember":5220,"ulated":5221,"Ġinaugur":5222,"ĠSin":5223,"Ġwrite":5224,"ĠAuto":5225,"Ġpresented":5226,"ĠAshok":5227,"Ġinfection":5228,"Ġdefin":5229,"ĠOrgan":5230,"Ġchaired":5231,"Ġblast":5232,"anya":5233,"ĠNarasimha":5234,"Ġburn":5235,"ĠMahe":5236,"Maharashtra":5237,"Ġcontains":5238,"ĠKovind":5239,"ĠLaun":5240,"Ġcell":5241,"Love":5242,"ĠFrance":5243,"ĠKul":5244,"Nm":5245,"ĠMod":5246,"Ġweak":5247,"ĠGuntur":5248,"Ġfighting":5249,"Ġsource":5250,"Ġinvestigations":5251,"Ġnom":5252,"ximately":5253,"harkhand":5254,"ĠPrabhas":5255,"Ġbecoming":5256,"atiya":5257,"ĠSunday":5258,"ĠMeg":5259,"Ġestablish":5260,"Ġweeks":5261,"Ġappeared":5262,"Sri":5263,"ope":5264,"Ġresignation":5265,"gypt":5266,"ĠElect":5267,"aced":5268,"Ġdistance":5269,"ensex":5270,"ĠShiva":5271,"ĠVijayawada":5272,"ols":5273,"ĠRepublic":5274,"Ġexcell":5275,"ructed":5276,"estern":5277,"Ġdeliver":5278,"ĠChiranjeevi":5279,"Ġsimultane":5280,"Ġrum":5281,"Ġadministration":5282,"Ġspecific":5283,"Ġrecovery":5284,"Please":5285,"ancing":5286,"arh":5287,"ĠMuslim":5288,"riya":5289,"Ġspoken":5290,"ĠSachin":5291,"ĠCro":5292,"oke":5293,"Ġtype":5294,"Ġdrinking":5295,"Sub":5296,"Ġtable":5297,"ĠKrish":5298,"ĠChandrasekhar":5299,"ilarly":5300,"Ġrape":5301,"Ġseeking":5302,"Ġremoved":5303,"Ġdeterm":5304,"Ġbusy":5305,"eras":5306,"ushan":5307,"ĠRana":5308,"Ġgranted":5309,"Jehovah":5310,"Kohli":5311,"stances":5312,"loyment":5313,"rer":5314,"avi":5315,"standing":5316,"quarters":5317,"awa":5318,"Ġanimals":5319,"MS":5320,"eries":5321,"ighter":5322,"Ġ75":5323,"Ġfully":5324,"Ġongoing":5325,"urday":5326,"Ġprepar":5327,"hapatnam":5328,"Ġlimit":5329,"Ġlegal":5330,"ghan":5331,"Ġshock":5332,"ĠRajinikanth":5333,"Ġdemon":5334,"Ġperformed":5335,"Ġnegative":5336,"oring":5337,"ĠSUV":5338,"ĠMunicipal":5339,"iram":5340,"Ġsend":5341,"Ġlands":5342,"Ġaim":5343,"EL":5344,"iced":5345,"hai":5346,"ils":5347,"Ġwarned":5348,"da":5349,"Ġperfect":5350,"ratic":5351,"uddin":5352,"ĠLead":5353,"Ġpostmortem":5354,"Rem":5355,"ĠGoogle":5356,"ĠLimited":5357,"Ġbound":5358,"upathi":5359,"ĠDecember":5360,"Ġhat":5361,"ĠSC":5362,"Ġamaz":5363,"havan":5364,"Ġholds":5365,"Ġanswered":5366,"ĠFund":5367,"ĠEmp":5368,"Ġcorrect":5369,"Ġsurr":5370,"uter":5371,"urch":5372,"Ġ2015":5373,"Ġreply":5374,"erted":5375,"Well":5376,"Ġadvant":5377,"cast":5378,"oles":5379,"ĠAadhaar":5380,"Ġhumans":5381,"Ġpractice":5382,"ĠLegisl":5383,"Ġviews":5384,"ĠNove":5385,"ĠJanuary":5386,"Water":5387,"Ġdecide":5388,"ĠJew":5389,"ricultural":5390,"ĠFeb":5391,"fortun":5392,"?\"\"\"":5393,"Ġmurd":5394,"Ġbal":5395,"Ġinternet":5396,"Ġrecover":5397,"ining":5398,"emor":5399,"ĠServices":5400,"Ġgreet":5401,"Ġquestioned":5402,"Ġlack":5403,"23":5404,"ĠAkshay":5405,"ME":5406,"Up":5407,"Ġpros":5408,"ĠEgypt":5409,"Ġkingdom":5410,"ĠDeverakonda":5411,"hered":5412,"Chennai":5413,"ora":5414,"ĠRadha":5415,"istic":5416,"Ġconfident":5417,"Ġtitled":5418,"ĠGur":5419,"ĠPooja":5420,"nament":5421,"Ġfort":5422,"chi":5423,"ults":5424,"Ġequal":5425,"ĠSaturday":5426,"ĠGad":5427,"Ġshut":5428,"ctory":5429,"Ġsummer":5430,"Ġdefeat":5431,"Ġscared":5432,"Ġproposed":5433,"Ġlegend":5434,"Ġenhan":5435,"Ġcoal":5436,"ĠAmitabh":5437,"Today":5438,"ĠSo":5439,"ulted":5440,"TI":5441,"ĠWord":5442,"Ġcontact":5443,"Ġwins":5444,"Ġexamples":5445,"Ġchanging":5446,"Ġsad":5447,"esters":5448,"ĠShetty":5449,"Ġdigital":5450,"ateral":5451,"Ġproud":5452,"Ġstrugg":5453,"Ġround":5454,"ĠInt":5455,"Ġsurf":5456,"Ġcas":5457,"Ġ48":5458,"Ġlived":5459,"Ġdedicated":5460,"Ġcameras":5461,"Ġservants":5462,"pet":5463,"Ġrevenue":5464,"Everybody":5465,"Ġachieved":5466,"Ġwalk":5467,"ĠAdityanath":5468,"Ġnumerous":5469,"Ġlonger":5470,"urnool":5471,"aina":5472,"Ġschemes":5473,"fl":5474,"Ġlimited":5475,"ĠNovember":5476,"Sm":5477,"uster":5478,"Ġhousehold":5479,"oi":5480,"Ġfaithful":5481,"Ġmill":5482,"Cont":5483,"ĠMotor":5484,"Coronavirus":5485,"Ġsun":5486,"Ġextra":5487,"hone":5488,"Ġthank":5489,"Ġpowerful":5490,"Ġanswers":5491,"Ġsense":5492,"Ġdangerous":5493,"Ġcabinet":5494,"Ġcompensation":5495,"National":5496,"Ġtwice":5497,"Ġtheres":5498,"Ġanaly":5499,"Ġselected":5500,"poon":5501,"Ġtrouble":5502,"run":5503,"Ġund":5504,"Ġshown":5505,"ĠPune":5506,"Gu":5507,"Ġhurt":5508,"Ġposter":5509,"999":5510,"adium":5511,"Ġgames":5512,"ask":5513,"gal":5514,"vant":5515,"Ġcertific":5516,"arily":5517,"Ġeffective":5518,"law":5519,"under":5520,"Ġcommunic":5521,"ĠSum":5522,"Ġclash":5523,"ĠBhatt":5524,"Ġconcern":5525,"reak":5526,"arnt":5527,"akhapatnam":5528,"Ġleaves":5529,"ĠHonda":5530,"Ġdelive":5531,"Ġvideos":5532,"Ġtheat":5533,"right":5534,"Ġoath":5535,"Ġunique":5536,"kur":5537,"ahub":5538,"Ġ37":5539,"Ġlearnt":5540,"Ġproperties":5541,"Six":5542,"ĠMuslims":5543,"hane":5544,"apati":5545,"Ġdamage":5546,"Ġcorpor":5547,"ĠWith":5548,"Ġtrees":5549,"Ġcancelled":5550,"ĠJaitley":5551,"ĠOfficer":5552,"ĠCompany":5553,"ahubali":5554,"yn":5555,"isher":5556,"Ġnine":5557,"Ġfinance":5558,"Current":5559,"Ġmanual":5560,"aswamy":5561,"ĠTax":5562,"Ġsett":5563,"Ġmotorcycle":5564,"well":5565,"Ġdele":5566,"ta":5567,"ĠNeh":5568,"Ġgrief":5569,"Ġmanufacture":5570,"Ġbatsman":5571,"Ġremarks":5572,"ashmika":5573,"ĠOctober":5574,"Never":5575,"wat":5576,"\"\",":5577,"ĠShr":5578,"Children":5579,"Ġhor":5580,"Ġmoving":5581,"Ġmission":5582,"Ġaspect":5583,"Ġchoice":5584,"CM":5585,"Ġfruits":5586,"Ġopin":5587,"ilit":5588,"Ġdelivered":5589,"Ġscience":5590,"Ġworlds":5591,"Ġmanner":5592,"Ġpromises":5593,"ĠTeam":5594,"Get":5595,"Ġheat":5596,"Ġassured":5597,"ĠPakistani":5598,"ĠVams":5599,"Ġapproval":5600,"lymp":5601,"Ġseparate":5602,"Ġvent":5603,"Ġmanaged":5604,"mendment":5605,"Fire":5606,"emy":5607,"olution":5608,"idevi":5609,"Ġapproach":5610,"Ġfruit":5611,"Ġproposal":5612,"Ġsale":5613,"ĠSeth":5614,"ĠFl":5615,"Ġflag":5616,"Ġmanufacturing":5617,"Ġindividual":5618,"production":5619,"Ġeasily":5620,"Ġopening":5621,"Ġquickly":5622,"Karnataka":5623,"ius":5624,"emp":5625,"iversary":5626,"ĠAbd":5627,"Ġtast":5628,"Ġkil":5629,"Ġaircraft":5630,"Ġamb":5631,"Ġcompetition":5632,"Ġsimultaneously":5633,"Polit":5634,"cles":5635,"Ġnomin":5636,"ĠAcc":5637,"ĠInter":5638,"ĠSushant":5639,"athan":5640,"Ġorigin":5641,"II":5642,"ĠSind":5643,"Ġresources":5644,"Ġallocated":5645,"wari":5646,"Ġwhose":5647,"Ġindeed":5648,"ĠTrivikram":5649,"ĠCorona":5650,"Ġtourists":5651,"Ġfled":5652,"Ġcongratulated":5653,"Ġimage":5654,"Ġpremi":5655,"Ġpleas":5656,"Ġok":5657,"ilateral":5658,"Ġknew":5659,"ĠManmohan":5660,"Jesus":5661,"Ġlay":5662,"oda":5663,"Ġstarring":5664,"Cons":5665,"Ġconstructed":5666,"Power":5667,"Ġopposed":5668,"Ġsound":5669,"ĠMir":5670,"etha":5671,"ĠPhil":5672,"Ġlady":5673,"Ġreform":5674,"Ġdefence":5675,"Speaking":5676,"een":5677,"Ġgoal":5678,"merce":5679,"Ġdark":5680,"Ġ34":5681,"Ġbeauty":5682,"Des":5683,"rolled":5684,"CS":5685,"cker":5686,"ĠYogi":5687,"West":5688,"ĠFather":5689,"Ġsubmitted":5690,"ĠJharkhand":5691,"Ġju":5692,"Ġseek":5693,"Ġplaced":5694,"nu":5695,"Ġcentres":5696,"Ġfollows":5697,"Ġminimum":5698,"ĠBaj":5699,"Ġfinished":5700,"Ġspecies":5701,"Ġkid":5702,"mark":5703,"ĠVer":5704,"Ġ36":5705,"Ġtransl":5706,"Ġguidelines":5707,"Click":5708,"nav":5709,"ĠAgriculture":5710,"Ġwonderful":5711,"otted":5712,"Ġexcept":5713,"icted":5714,"Ġfee":5715,"Ġtournament":5716,"Ġcool":5717,"Ġgarlic":5718,"xy":5719,"Ġflights":5720,"ĠAdvani":5721,"300":5722,"Ġeast":5723,"ĠIN":5724,"Ġriv":5725,"Ġgearbox":5726,"Ġcondolences":5727,"su":5728,"ĠAnt":5729,"ĠPuri":5730,"Ġvariants":5731,"ĠTollywood":5732,"Ġlaid":5733,"Ġchair":5734,"Ġnoted":5735,"ĠKorea":5736,"icha":5737,"Ġdemanding":5738,"Ġdual":5739,"ĠBrah":5740,"ĠDas":5741,"Ġtext":5742,"wami":5743,"Us":5744,"Ġpostp":5745,"Ġquit":5746,"salm":5747,"Ġresolution":5748,"ĠAmbani":5749,"Ġteach":5750,"ĠSai":5751,"athy":5752,"Ġalert":5753,"2020":5754,"Ġbuses":5755,"Maruti":5756,"Shiv":5757,"Ġcriticised":5758,"Ġaw":5759,"IA":5760,"Ġcollabor":5761,"ĠLeague":5762,"ashington":5763,"ĠInf":5764,"Ġdischarged":5765,"Super":5766,"Ġcarry":5767,"ocking":5768,"Whos":5769,"Ġfrequ":5770,"Ġcult":5771,"epal":5772,"Ġscript":5773,"Ġorganised":5774,"Ġmeaning":5775,"ĠEngineering":5776,"ĠBudget":5777,"Ġcircumstances":5778,"idamb":5779,"Ġstone":5780,"Ġdefeated":5781,"Ġfuel":5782,"Ġdegrees":5783,"Officials":5784,"Ġbird":5785,"ĠAnant":5786,"ila":5787,"Ġnab":5788,"ĠIslam":5789,"Ġfif":5790,"Ġmodels":5791,"acha":5792,"',":5793,"May":5794,"Ġloving":5795,"Happy":5796,"ĠICC":5797,"Others":5798,"ĠMoses":5799,"ĠDan":5800,"Ġresidence":5801,"ĠDesam":5802,"odhya":5803,"Ġlog":5804,"Ġwicked":5805,"obile":5806,"Ġphones":5807,"Ġcrim":5808,"ression":5809,"Ġstandard":5810,"Moreover":5811,"sid":5812,"ĠRajamouli":5813,"Ġcalls":5814,"Ġsurprised":5815,"alitha":5816,"Mr":5817,"Ġfeeling":5818,"Ġresidents":5819,"efore":5820,"more":5821,"MP":5822,"Ġtree":5823,"Ġcoast":5824,"ĠLakh":5825,"Ġstake":5826,"ĠFamily":5827,"ruary":5828,"Ġproceed":5829,"ĠBSP":5830,"Ġclaims":5831,"ĠSwar":5832,"ĠArab":5833,"Ġsystems":5834,"ĠAmar":5835,"ĠBharatiya":5836,"Ġwont":5837,"iter":5838,"ĠOlymp":5839,"ĠAdd":5840,"Ġsize":5841,"Ġlisten":5842,"Ġsexual":5843,"ĠFormer":5844,"ĠSunil":5845,"Ġinitiated":5846,"ĠSant":5847,"Ġrob":5848,"Ġunve":5849,"Ġbiopic":5850,"Ġtough":5851,"Ġelder":5852,"keep":5853,"Ġliqu":5854,"Ġproduces":5855,"Ġtrend":5856,"Ġgun":5857,"Ġbooked":5858,"ĠSom":5859,"Ġsections":5860,"Ġsell":5861,"47":5862,"ayalalitha":5863,"AC":5864,"hur":5865,"ĠPers":5866,"lying":5867,"Ġadvised":5868,"Ġimplementation":5869,"ĠNay":5870,"Ġrecommend":5871,"Whe":5872,"Ġinternal":5873,"ads":5874,"ĠAfghan":5875,"Ġshares":5876,"Ġfeatured":5877,"ICI":5878,"Ġcontent":5879,"Ġflu":5880,"ĠMor":5881,"Ġsectors":5882,"ĠSinha":5883,"actions":5884,"Ġconsult":5885,"ĠPawar":5886,"ĠLakshmi":5887,"Ġbran":5888,"Ġapproximately":5889,"Ġreading":5890,"inner":5891,"Ġcollected":5892,"Ġindividuals":5893,"ĠControl":5894,"Ġrare":5895,"coh":5896,"ĠKha":5897,"Tata":5898,"ĠDutt":5899,"Ġapproached":5900,"Ġbasic":5901,"Ġstock":5902,"Ġvariant":5903,"Ġautomatic":5904,"Ġevil":5905,"ĠSection":5906,"Ġeager":5907,"Ġhonour":5908,"ĠEconom":5909,"Once":5910,"SE":5911,"Ġca":5912,"ĠSrik":5913,"ĠMission":5914,"oung":5915,"ĠGermany":5916,"Ġmarry":5917,"Ġdocuments":5918,"abet":5919,"Ġcouldnt":5920,"rices":5921,"Ġstudies":5922,"Ġcelebrations":5923,"Ġgreater":5924,"cohol":5925,"Ġprotection":5926,"Ro":5927,"Ġfair":5928,"iture":5929,"ĠHard":5930,"Ġnobody":5931,"Ġhomes":5932,"ĠLondon":5933,"Ġnetwork":5934,"Ġpermission":5935,"Ġliked":5936,"ĠProductions":5937,"Ġvision":5938,"Av":5939,"Work":5940,"ĠScript":5941,"Ġpowered":5942,"hir":5943,"ĠJana":5944,"ĠWh":5945,"ounter":5946,"ĠInvest":5947,"Ġvoters":5948,"Based":5949,"Ġpayment":5950,"Ġargument":5951,"28":5952,"ĠSir":5953,"Ġonion":5954,"ĠVisakhapatnam":5955,"ĠBudd":5956,"Ġdeployed":5957,"riate":5958,"Check":5959,"Ġexactly":5960,"Pr":5961,"Your":5962,"Ġaddressed":5963,"Ġmunicipal":5964,"Australia":5965,"apers":5966,"Ġoccup":5967,"Ġinterested":5968,"Ġlearning":5969,"ĠAhmedabad":5970,"wadi":5971,"Ġangry":5972,"Ġsurp":5973,"oe":5974,"Ġmiddle":5975,"Ġusually":5976,"ĠGan":5977,"ront":5978,"lt":5979,"Ġcultural":5980,"ĠTra":5981,"Ġpotential":5982,"Kerala":5983,"ĠKis":5984,"Ġheadquarters":5985,"tha":5986,"ĠPandya":5987,"ĠSurender":5988,"48":5989,"Bengal":5990,"Ġpeaceful":5991,"Ġtables":5992,"itable":5993,"Ġtoward":5994,"Ġmakers":5995,"captain":5996,"ĠVid":5997,"Ġadvice":5998,"ĠAshwin":5999,"Ġupset":6000,"Ġundert":6001,"Ġpolitic":6002,"ĠPatna":6003,"Ġstrongly":6004,"uls":6005,"Ġsuperstar":6006,"ĠNet":6007,"ĠLad":6008,"Ġthanked":6009,"Ġdismissed":6010,"nan":6011,"ĠBand":6012,"ju":6013,"Ġtransmission":6014,"Ġbear":6015,"Ġadop":6016,"Ġprin":6017,"Ġdevice":6018,"Ġdirectly":6019,"kes":6020,"Col":6021,"ĠPer":6022,"Ġconte":6023,"ava":6024,"ensions":6025,"Ġcove":6026,"Ġurban":6027,"Currently":6028,"gery":6029,"26":6030,"Ġduty":6031,"Ġfellow":6032,"iment":6033,"ĠKish":6034,"Ġequip":6035,"ĠService":6036,"Ġpeak":6037,"Ġ197":6038,"Ġemerged":6039,"ĠGupta":6040,"aji":6041,"ĠAsian":6042,"ĠKaran":6043,"bir":6044,"ference":6045,"Ġhighly":6046,"Ġrequested":6047,"England":6048,"Ġfame":6049,"Ġdiscussions":6050,"Ġ250":6051,"Ġfarm":6052,"Ġrecords":6053,"Ġpace":6054,"ĠAuthor":6055,"Sa":6056,"Son":6057,"pa":6058,"Ġdoll":6059,"Ġitems":6060,"addha":6061,"chit":6062,"Ġscale":6063,"Ġemotion":6064,"Life":6065,"ashi":6066,"Cent":6067,"arayana":6068,"ĠAam":6069,"pex":6070,"Last":6071,"Tamil":6072,"thern":6073,"rashe":6074,"ON":6075,"ivek":6076,"Ġauto":6077,"Similarly":6078,"Petrol":6079,"care":6080,"Ġhath":6081,"ĠNDA":6082,"ĠYork":6083,"ĠPeter":6084,"Ġcategory":6085,"Finance":6086,"hakar":6087,"Ġalt":6088,"haps":6089,"Ġdeputy":6090,"Ġasking":6091,"Ġexisting":6092,"Ive":6093,"eler":6094,"Ġwelcom":6095,"Ġdiet":6096,"Ġmouth":6097,"Ġnice":6098,"Ġexception":6099,"Ġgeneration":6100,"verse":6101,"ĠMLC":6102,"Ġtravelling":6103,"Ġexcellent":6104,"outhern":6105,"ĠGree":6106,"ĠVal":6107,"Ġbroad":6108,"Mix":6109,"Ġdrama":6110,"ammed":6111,"Ġcharged":6112,"ellig":6113,"ĠOs":6114,"Ġparticularly":6115,"uj":6116,"veer":6117,"oked":6118,"Ġinjury":6119,"Bank":6120,"emoc":6121,"Ġcriticism":6122,"Ġagreement":6123,"Ġid":6124,"Ġegg":6125,"ĠAgarwal":6126,"ĠGaut":6127,"Ġprotesters":6128,"Ġattra":6129,"Ġcomplex":6130,"Ass":6131,"orge":6132,"Rep":6133,"Ġaltern":6134,"Ġtrial":6135,"Ġindustrial":6136,"illa":6137,"Ġwash":6138,"Ġwriter":6139,"Ġawarded":6140,"Ġresulted":6141,"lobal":6142,"Ġpromised":6143,"Ġapostle":6144,"cked":6145,"Ġprison":6146,"World":6147,"Ġdial":6148,"Ġelectricity":6149,"Drink":6150,"PC":6151,"lal":6152,"ĠKa":6153,"Ġcolleges":6154,"Ġanniversary":6155,"Thous":6156,".,":6157,"Due":6158,"Ts":6159,"akar":6160,"Med":6161,"Ġabroad":6162,"Ġamazing":6163,"vious":6164,"Ġinnov":6165,"27":6166,"Qu":6167,"astern":6168,"ĠSk":6169,"ĠMas":6170,"ĠFar":6171,"Ġdecre":6172,"iction":6173,"Ġdropped":6174,"Ġgovern":6175,"Ġnotes":6176,"agon":6177,"Ġcenturies":6178,"Ġworldwide":6179,"ĠJudah":6180,".'":6181,"pay":6182,"ĠPrincip":6183,"elect":6184,"rang":6185,"Ġseeds":6186,"Ġactivists":6187,"Ġproved":6188,"Ġgarn":6189,"Ġsitting":6190,"zz":6191,"Prot":6192,"Ġharass":6193,"ĠEuropean":6194,"Ġmus":6195,"ĠAdvis":6196,"Ġarriv":6197,"ĠFebruary":6198,"High":6199,"ĠNifty":6200,"Ġplanned":6201,"ĠRajesh":6202,"Ġanywhere":6203,"Ġparticipate":6204,"Ġfalls":6205,"Ġfacts":6206,"yas":6207,"oga":6208,"IPL":6209,"Ġrescue":6210,"ĠVa":6211,"Ġweather":6212,"rupted":6213,"Ġplants":6214,"roc":6215,"ĠItal":6216,"Ġclot":6217,"Allu":6218,"Ġ125":6219,"Ġquarter":6220,"hern":6221,"ĠNitin":6222,"ĠChall":6223,"Ġmyself":6224,"Ġhavent":6225,"Inc":6226,"HI":6227,"Time":6228,"Ġlosses":6229,"ux":6230,"Ġconsec":6231,"ĠBas":6232,"aru":6233,"ĠPart":6234,"Ġprogrammes":6235,"ĠAyodhya":6236,"eter":6237,"Ġdisciples":6238,"Ġphotograph":6239,"ĠRiver":6240,"'ve":6241,"ĠPort":6242,"raz":6243,"ĠEl":6244,"ĠMohammed":6245,"chitect":6246,"37":6247,"Ġcards":6248,"Ġlikes":6249,"Ġspend":6250,"Ġmeets":6251,"Ġsurvey":6252,"ima":6253,"Ġcarrying":6254,"bsp":6255,"ĠSethupathi":6256,"ĠAirport":6257,"ĠRavindra":6258,"Phone":6259,"ajal":6260,"Otherwise":6261,"itely":6262,"Ġlearned":6263,"Ġcounter":6264,"rative":6265,"ĠSecurity":6266,"ĠThakur":6267,"ĠRoyal":6268,"Ġmedicines":6269,"Ġmistake":6270,"ĠPark":6271,"omi":6272,"Ġanger":6273,"Ġkg":6274,"ĠChandrashe":6275,"Ben":6276,"HY":6277,"Ġnort":6278,"Ġgoods":6279,"Ġattract":6280,"GP":6281,"ture":6282,"ĠKot":6283,"Invest":6284,"Ġproc":6285,"wali":6286,"Ġruled":6287,"Ġspokesperson":6288,"mas":6289,"Ġconsequ":6290,"ĠOffice":6291,"ĠMedia":6292,"enger":6293,"ĠTom":6294,"Ġconvers":6295,"Ġ38":6296,"hens":6297,"Ġdifferences":6298,"ĠHarish":6299,"idambaram":6300,"ĠFrench":6301,"Ġbase":6302,"ĠCons":6303,"ronic":6304,"ym":6305,"aded":6306,"Ġpasses":6307,"ĠTej":6308,"hana":6309,"Ġstyle":6310,"ĠChampions":6311,"ĠSmith":6312,"izam":6313,"Ġrelatives":6314,"ĠTests":6315,"cers":6316,"vert":6317,"Ġsharing":6318,"Ġrestrict":6319,"Ġeverybody":6320,"Ġwatching":6321,"ĠBlack":6322,"Tal":6323,"Ġfootage":6324,"DER":6325,"ĠEm":6326,"half":6327,"ĠNagarjuna":6328,"Ġbul":6329,"Ġeffects":6330,"ĠKurnool":6331,"ĠVardhan":6332,"Ġincreases":6333,"hus":6334,"AA":6335,"ĠFIR":6336,"ĠTer":6337,"Ġkilling":6338,"ĠImran":6339,"ĠRavip":6340,"Ġemergency":6341,"ĠUN":6342,"Along":6343,"ĠRev":6344,"ĠBad":6345,"Ġ64":6346,"ĠWhatsApp":6347,"Ġwise":6348,"Ġ195":6349,"ĠKhanna":6350,"Ġcommits":6351,"uild":6352,"atra":6353,"ĠIndustries":6354,"ĠOpen":6355,"Ġrom":6356,"iti":6357,"ĠAAP":6358,"Ġsometimes":6359,"Ġeye":6360,"Ġwide":6361,"Ġshowed":6362,"ES":6363,"equ":6364,"ĠKom":6365,"Ġgovt":6366,"'ll":6367,"ĠMakers":6368,"Ġpretty":6369,"Ġep":6370,"Ġdelayed":6371,"Ġregularly":6372,"Ġfan":6373,"ĠUp":6374,"Ġconnected":6375,"Ġshortly":6376,"wor":6377,"oward":6378,"Ġ2021":6379,"Ġgather":6380,"Ġregul":6381,"Ġuncle":6382,"rivate":6383,"Ġmagn":6384,"ckeray":6385,"EC":6386,"inations":6387,"akhand":6388,"Ġexperts":6389,"ĠMukesh":6390,"Ġrupee":6391,"Ġfra":6392,"orrow":6393,"lict":6394,"Ġdeclined":6395,"ABAD":6396,"ĠMahendra":6397,"Ġfifth":6398,"Make":6399,"ĠTal":6400,"ĠSamaj":6401,"Ġtim":6402,"Ġbrid":6403,"Ġrivers":6404,"hoto":6405,"ĠScheme":6406,"ĠSuk":6407,"anguly":6408,"Ġtechnical":6409,"Use":6410,"hatma":6411,"ithi":6412,"Ġfle":6413,"ĠMall":6414,"Ġtrack":6415,"Int":6416,"ĠPremi":6417,"Ġunknown":6418,"Ġanybody":6419,"Ġsupporting":6420,"Ġfit":6421,"Ġdriving":6422,"Ġapex":6423,"Ġsort":6424,"ĠFin":6425,"Ġsamples":6426,"ĠPict":6427,"Ġstarts":6428,"Ġindependent":6429,"Theyre":6430,"Ġhandle":6431,"ĠTransport":6432,"Ġkn":6433,"ĠPay":6434,"Ġcondemned":6435,"400":6436,"Ġgram":6437,"Ġhistoric":6438,"ĠCivil":6439,"ĠAp":6440,"ishra":6441,"onding":6442,"Ġregister":6443,"Ġpriority":6444,"igned":6445,"Ġannual":6446,"ĠHyundai":6447,"Ġlaugh":6448,"Ġcrops":6449,"Ġfarmer":6450,"enn":6451,"eless":6452,"Ġpeoples":6453,"rupt":6454,"Ġunderstanding":6455,"ength":6456,"Ġvaccine":6457,"Ġbey":6458,"ĠUK":6459,"dden":6460,"ĠEntertainment":6461,"thri":6462,"Ġ44":6463,"kari":6464,"DERABAD":6465,"Ġpaper":6466,"ĠRTC":6467,"ĠGold":6468,"ossible":6469,"ĠVas":6470,"pura":6471,"Ġbeyond":6472,"36":6473,"Pun":6474,"Ġ{":6475,"ĠRat":6476,"Ġvs":6477,"Ġclimate":6478,"Ġfighter":6479,"Ġmonitor":6480,"Ġmurdered":6481,"Thousands":6482,"Ġign":6483,"ĠRead":6484,"udu":6485,"Ġlabou":6486,"Ġpartnership":6487,"aken":6488,"Ġconclud":6489,"ihar":6490,"rep":6491,"Ġdrugs":6492,"Ġflight":6493,"raph":6494,"umrah":6495,"Ġrice":6496,"Ġunf":6497,"Ġreferred":6498,"ĠGop":6499,"HYDERABAD":6500,"oons":6501,"Ġgri":6502,"Ġmicro":6503,"chol":6504,"ĠBhag":6505,"Ġdrive":6506,"Ġsight":6507,"ĠQu":6508,"ij":6509,"izing":6510,"95":6511,"ayalalithaa":6512,"Ġpicked":6513,"Ġeventually":6514,"ĠSwaraj":6515,"Ġsimply":6516,"Ġstatue":6517,"Ġtank":6518,"Ġsport":6519,"ĠAmazon":6520,"Ġpending":6521,"ĠThackeray":6522,"ĠVenkatesh":6523,"Ġperman":6524,"Ġdeveloping":6525,"Ġpieces":6526,"ĠManohar":6527,"Ġactivity":6528,"Ġcounsel":6529,"YSRCP":6530,"Ġpostponed":6531,"HO":6532,"mosp":6533,"Ġnar":6534,"umber":6535,"Ġacres":6536,"ifest":6537,"Ġcat":6538,"Ġapprop":6539,"Ġrather":6540,"Ġwear":6541,"Ġchem":6542,"ĠHimachal":6543,"Ġclarity":6544,"ayya":6545,"cks":6546,"Ġdub":6547,"Ġge":6548,"ĠMaha":6549,"Ġton":6550,"ĠDig":6551,"Ġencounter":6552,"Ġmut":6553,"ĠPrincipal":6554,"Parents":6555,"ĠSandeep":6556,"Ġtradition":6557,"ĠAra":6558,"Ġtro":6559,"Ġfiring":6560,"ĠGoyal":6561,"hases":6562,"Ġcertainly":6563,"ĠSang":6564,"ĠRukh":6565,"rities":6566,"reams":6567,"ĠFirst":6568,"32":6569,"Ġhighlight":6570,"icit":6571,"ĠWomen":6572,"Ġdesire":6573,"Ġprayers":6574,"igarh":6575,"Ġreviews":6576,"Ġtbsp":6577,"ĠHeb":6578,"Ġnovel":6579,"ĠAkhil":6580,"Ġpepper":6581,"Ġsquad":6582,"Ġsubsid":6583,"mended":6584,"Ġbroken":6585,"kumar":6586,"ĠMag":6587,"eph":6588,"atha":6589,"onds":6590,"Ġseverely":6591,"ĠGh":6592,"isted":6593,"Ġinstead":6594,"adda":6595,"pired":6596,"arya":6597,"apore":6598,"Priyanka":6599,"Ġforms":6600,"Ġcovered":6601,"Reg":6602,"Ġbike":6603,"abled":6604,"Ġtelevision":6605,"Sc":6606,"ometimes":6607,"Ġcertificate":6608,"Ġwelcomed":6609,"oti":6610,"Ġappears":6611,"ato":6612,"Ġballs":6613,"Ġallotted":6614,"Ġjudgment":6615,"Ġwest":6616,"ĠMishra":6617,"Ġalcohol":6618,"Ġmedal":6619,"ireddy":6620,"Ġconstitution":6621,"illing":6622,"Ġweb":6623,"Ġbreath":6624,"Ġfixed":6625,"Ġequipment":6626,"Ġdownload":6627,"sy":6628,"Ġwisdom":6629,"OS":6630,"Although":6631,"Ġkeeping":6632,"ellore":6633,"Ġindustries":6634,"match":6635,"va":6636,"ĠDiv":6637,"Amit":6638,"hek":6639,"ili":6640,"Ġwriting":6641,"akumar":6642,"ĠRavipudi":6643,"ĠCitizens":6644,"ĠKi":6645,"ĠArts":6646,"ruck":6647,"Ġsubsequently":6648,"ĠSBI":6649,"ĠPrad":6650,"Ġbed":6651,"Ġtot":6652,"etails":6653,"ĠJe":6654,"Ġstarting":6655,"Ġjuice":6656,"edy":6657,"ĠRAM":6658,"SRO":6659,"Ġmemory":6660,"Ġabsol":6661,"ĠRang":6662,"ĠAnn":6663,"Ġpunish":6664,"Ġgained":6665,"Ġwaste":6666,"gram":6667,"ĠTim":6668,"ĠCoronavirus":6669,"ĠMandanna":6670,"Ġexplained":6671,"Ġble":6672,"Ġhur":6673,"ĠTour":6674,"ategy":6675,"Ġstrategy":6676,"Ġbanned":6677,"ĠODIs":6678,"Ġkilomet":6679,"Ġtaught":6680,"Ġteaching":6681,"HE":6682,"Ġworse":6683,"kara":6684,"Ġguest":6685,"Ġvirt":6686,"Ġorganis":6687,"orry":6688,"ĠPost":6689,"ĠKon":6690,"Ġwhats":6691,"Ġsmooth":6692,"Ġsuspic":6693,"Ġyounger":6694,"Ġoriginal":6695,"Still":6696,"SBI":6697,"Ġdemands":6698,"49":6699,"Were":6700,"Ġmal":6701,"ĠCal":6702,"oram":6703,"Ġcommence":6704,"Ġsky":6705,"ni":6706,"rough":6707,"ears":6708,"early":6709,"ĠPlay":6710,"Before":6711,"VV":6712,"Ġinitiative":6713,"ĠLegislative":6714,"Ġ!":6715,"Ġwishes":6716,"ĠMon":6717,"Ġtransferred":6718,"Dep":6719,"inated":6720,"Ġisn":6721,"Ġtruck":6722,"Ġbackground":6723,"ĠPreet":6724,"Ġsisters":6725,"Family":6726,"van":6727,"ĠMeh":6728,"ĠGen":6729,"Ġboys":6730,"Ġunion":6731,"Post":6732,"Ġ\"\"\"\"":6733,"ĠProf":6734,"ĠVenkates":6735,"Bl":6736,"Ġhits":6737,"Ġarchitect":6738,"Ġaffairs":6739,"Ġbapt":6740,"udh":6741,"ĠNitish":6742,"ray":6743,"adnav":6744,"Ġatmosp":6745,"Ġapolog":6746,"Ġharm":6747,"Ġpatient":6748,"ĠNepal":6749,"Ġ65":6750,"Ġsymb":6751,"Ġseeing":6752,"Ġcollaps":6753,"Ġdescribed":6754,"reg":6755,"Ġassociated":6756,"Ġmental":6757,"Inst":6758,"Ġjoining":6759,"Ġtalked":6760,"Ġwounded":6761,"Ġdiscount":6762,"Ġbatting":6763,"ĠIndepend":6764,"Ġalongside":6765,"ami":6766,"Ġfollowers":6767,"Ġresolved":6768,"adnavis":6769,"Ġbilateral":6770,"Ġear":6771,"antic":6772,"abetes":6773,"Ġunderst":6774,"Ġ49":6775,"Ġwelcome":6776,"ster":6777,"Ġweap":6778,"Ġtea":6779,"Ġburnt":6780,"Salman":6781,"CB":6782,"Meg":6783,"Ġregions":6784,"andidates":6785,"Ġsanction":6786,"Ġille":6787,"Ġfiles":6788,"Ġadvis":6789,"Ġiron":6790,"Ġconsecutive":6791,"Ġmeant":6792,"ipl":6793,"uses":6794,"anthara":6795,"Ġprem":6796,"Ġsetting":6797,"Ġamid":6798,"ĠEntertainments":6799,"ĠCapital":6800,"Ġsudden":6801,"ĠUttarakhand":6802,"Ġresolve":6803,"ĠSystem":6804,"ĠSindhu":6805,"Per":6806,"Supreme":6807,"Ġmach":6808,"Ġattitude":6809,"Ġelig":6810,"Ġappealed":6811,"Ġappoint":6812,"Ġvillagers":6813,"Ġcasual":6814,"lights":6815,"ĠPV":6816,"ĠJohar":6817,"Air":6818,"Ġserving":6819,"Ġterritory":6820,"istory":6821,"Ġpollution":6822,"Has":6823,"ĠMu":6824,"Ġmixture":6825,"38":6826,"Ġder":6827,"ĠII":6828,"Ġanx":6829,"ĠDhan":6830,"essor":6831,"akshi":6832,"Ġholding":6833,"ĠMetro":6834,"Ġinfluence":6835,"ients":6836,"Ġvalues":6837,"Ġflour":6838,"ĠCy":6839,"Ġyield":6840,"ressive":6841,"Ġdiss":6842,"Ġparliamentary":6843,"Ġourselves":6844,"Ġpriest":6845,"Ġoverse":6846,"Ġfactors":6847,"Ġpremium":6848,"ĠActor":6849,"Ġrequires":6850,"Ġearned":6851,"Ġsoftware":6852,"Sometimes":6853,"Ġshr":6854,"Ġsuffer":6855,"ĠExpress":6856,"Mad":6857,"ching":6858,"Ġdemonst":6859,"ĠWhy":6860,"Ġprayer":6861,"Ġroute":6862,"ĠHDFC":6863,"ocon":6864,"Ġintens":6865,"Ġdelight":6866,"Ġbrief":6867,"Ġalive":6868,"ĠAdminist":6869,"Ġinstance":6870,"inar":6871,"elled":6872,"Ġproced":6873,"Ġhundreds":6874,"ĠAfghanistan":6875,"Ġdu":6876,"ounding":6877,"ĠInformation":6878,"ushma":6879,"Ġpoet":6880,"Cle":6881,"ĠAre":6882,"rows":6883,"TM":6884,"Ġcomputer":6885,"Ġplease":6886,"ĠKishore":6887,"Social":6888,"alg":6889,"Ġshops":6890,"Ġfloor":6891,"keeper":6892,"wd":6893,"Ġcharacters":6894,"Ġrepresentatives":6895,"ĠPaduk":6896,"ĠICICI":6897,"Ġapart":6898,"Ġsuccessfully":6899,"Ġuser":6900,"Ġcelebrities":6901,"Ġcourage":6902,"arant":6903,"Ġglory":6904,"Ġpregnant":6905,"atoes":6906,"Ġlocation":6907,"board":6908,"Ġapplications":6909,"ĠAuthority":6910,"ĠForeign":6911,"Ġast":6912,"Ġisol":6913,"icals":6914,"Ġmillions":6915,"Ġ42":6916,"iller":6917,"Ġmode":6918,"Ġeagerly":6919,"ĠAar":6920,"Ġdog":6921,"Ġforever":6922,"64":6923,"NTR":6924,"rigation":6925,"ideo":6926,"ishw":6927,"Though":6928,"ĠWhite":6929,"gi":6930,"chant":6931,"ĠSav":6932,"hank":6933,"Ġvital":6934,"Ġmedium":6935,"ords":6936,"Ġwarning":6937,"Ġprovisions":6938,"Ġformation":6939,"Ġescap":6940,"IL":6941,"usive":6942,"ĠProject":6943,"Ġeating":6944,"ĠUnder":6945,"Prab":6946,"Ġluck":6947,"Ġwilling":6948,"ĠStation":6949,"ipped":6950,"inse":6951,"Ġfought":6952,"rary":6953,"Ġpit":6954,"Ġtourist":6955,"AL":6956,"ĠAjit":6957,"Ġthereafter":6958,"ĠPadukone":6959,"Ġfilled":6960,"ruit":6961,"Ġcrash":6962,"ĠGanguly":6963,"ĠWilli":6964,"ĠMahatma":6965,"ĠIndustry":6966,"hishek":6967,"Ġvalid":6968,"Punjab":6969,"San":6970,"Ġlength":6971,"Ġgains":6972,"mania":6973,"Ġpackage":6974,"member":6975,"Ġcourts":6976,"Bengaluru":6977,"Ġfoods":6978,"Ġstandards":6979,"ĠRanjan":6980,"gred":6981,"Ġagricultural":6982,"ĠWarn":6983,"Ġrumours":6984,"Ġstayed":6985,"ĠNir":6986,"Ġvitamin":6987,"adeja":6988,"ologies":6989,"Ġmasks":6990,"Ġopinion":6991,"Ġactions":6992,"Ġpraise":6993,"Ġcountrys":6994,"ĠLeader":6995,"Watch":6996,"ene":6997,"ĠBhu":6998,"Le":6999,"Ġmated":7000,"ovies":7001,"Ġscientists":7002,"Ġstraight":7003,"Ġbattery":7004,"39":7005,"Amar":7006,"Opposition":7007,"Ġcollect":7008,"uction":7009,"Ġbread":7010,"iagn":7011,"ĠNarayan":7012,"Ġterrorist":7013,"Ġappropriate":7014,"Ġwhatever":7015,"ria":7016,"ĠBhushan":7017,"Ġdistributed":7018,"RBI":7019,"field":7020,"Ġlie":7021,"Ġstable":7022,"ĠTrib":7023,"Ġwitnessed":7024,"Ġgovernor":7025,"ĠSim":7026,"ĠSensex":7027,"Ġchallenging":7028,"Ġgarnered":7029,"ĠAmendment":7030,"ĠBumrah":7031,"Ġcomplained":7032,"Sp":7033,"Ġdiver":7034,"Ġstudied":7035,"PS":7036,"Ġremove":7037,"Finally":7038,"Ra":7039,"inals":7040,"Ġemphas":7041,"Ġstrateg":7042,"Ġclothes":7043,"Like":7044,"gin":7045,"Ġcatch":7046,"ĠNizam":7047,"Ġrespective":7048,"ĠGow":7049,"Ġchildhood":7050,"Ġpromise":7051,"ĠReserve":7052,"ĠVivek":7053,"ellow":7054,"penditure":7055,"Ġrow":7056,"Telugu":7057,"Ġthreatened":7058,"Ġcriminal":7059,"ullah":7060,"29":7061,"Ġkings":7062,"orders":7063,"Ġpromote":7064,"Ġunveiled":7065,"bha":7066,"Ġprobing":7067,"ĠHol":7068,"ĠJames":7069,"Ġmostly":7070,"Ġsacrifice":7071,"Ġties":7072,"aho":7073,"rers":7074,"ĠMemor":7075,"ĠCollector":7076,"Ġfloods":7077,"Ġmort":7078,"ĠAv":7079,"ĠRai":7080,"ishing":7081,"Ġ120":7082,"ocate":7083,"chase":7084,"Ġplane":7085,"Ġterrorism":7086,"ĠDec":7087,"Ġprovision":7088,"Ġgrown":7089,"Ġcenter":7090,"Ġdesigned":7091,"Ġrepeated":7092,"Ġgift":7093,"Ġmilitants":7094,"ĠSriram":7095,"ĠThey":7096,"ĠDis":7097,"Ġends":7098,"Ġpm":7099,"ĠPadma":7100,"Ġreact":7101,"Ġunfortun":7102,"Eat":7103,"ĠManagement":7104,"ĠGautam":7105,"Ġcul":7106,"ibilities":7107,"ĠLED":7108,"ĠShami":7109,"Ġmere":7110,"unk":7111,"Ġwidely":7112,"Ġcaut":7113,"Ġcrossed":7114,"ĠGovernments":7115,"Ġuntoward":7116,"Ġobserved":7117,"ĠYoga":7118,"ĠReliance":7119,"Ġpreaching":7120,"Ġlitre":7121,"Ġexchange":7122,"Ġbehalf":7123,"Ġconcept":7124,"Ġagg":7125,"Ġselection":7126,"ĠNot":7127,"Ġauthority":7128,"85":7129,"Ġbeha":7130,"ĠFa":7131,"Ġfailure":7132,"ading":7133,"mm":7134,"ĠRashtra":7135,"Ġaudiences":7136,"Ġdoubts":7137,"Ġquant":7138,"Ġtraditional":7139,"Ġsubmit":7140,"Ġcontested":7141,"Ġassociation":7142,"Oh":7143,"Ġconven":7144,"ĠFadnavis":7145,"logans":7146,"33":7147,"Jag":7148,"Ġinstall":7149,"ĠHindus":7150,"Ġatmosphere":7151,"ĠMant":7152,"ĠKat":7153,"Ġjump":7154,"Ġsworn":7155,"ĠShraddha":7156,"pre":7157,"ourses":7158,"lication":7159,"ĠBlue":7160,"Ġpenal":7161,"ĠPradhan":7162,"ĠMin":7163,"Pooja":7164,"Ġlosing":7165,"ĠPant":7166,"istics":7167,"Ġscoot":7168,"ĠShikhar":7169,"Shah":7170,"Ġleaving":7171,"Cong":7172,"gen":7173,"quake":7174,"MT":7175,"Ġstorm":7176,"Ġmainly":7177,"Ġarm":7178,"uke":7179,"Ġloves":7180,"Ġprophet":7181,"\"\"\"\"":7182,"anti":7183,"Ġrelax":7184,"Ġfathers":7185,"Hel":7186,"rogation":7187,"essions":7188,"Ġprepare":7189,"icies":7190,"terday":7191,"Ġstore":7192,"Ġstead":7193,"ĠTur":7194,"Ġfoundation":7195,"ĠNarayana":7196,"Ġdocument":7197,"Ġdebt":7198,"ores":7199,"Ġprob":7200,"Ġmixed":7201,"ĠMukher":7202,"Ġunivers":7203,"Ġengines":7204,"ĠNews":7205,"cel":7206,"ĠMohammad":7207,"chers":7208,"Ġservant":7209,"Ġjudicial":7210,"Ġamend":7211,"Ġ55":7212,"remend":7213,"Ġhopes":7214,"ĠClass":7215,"Ġencourage":7216,"Film":7217,"Ġtips":7218,"Ġinfected":7219,"ĠWarangal":7220,"Ġfulfilled":7221,"wing":7222,"ĠJack":7223,"ĠFed":7224,"Ġbanking":7225,"ĠGadkari":7226,"razil":7227,"hin":7228,"ules":7229,"cape":7230,"Ġoffices":7231,"ĠMythri":7232,"ĠBaahubali":7233,"Ġrapidly":7234,"Ġ144":7235,"NEW":7236,"eness":7237,"ĠBajaj":7238,"ilms":7239,"Ġcontract":7240,"Ġhelping":7241,"ĠVamsi":7242,"Tube":7243,"Heat":7244,"Ġretire":7245,"Ġregional":7246,"42":7247,"onom":7248,"omas":7249,"Ġexplos":7250,"Ġcautious":7251,"whe":7252,"ĠGang":7253,"Ġ350":7254,"Ġprotesting":7255,"ĠPur":7256,"acter":7257,"aveen":7258,"Net":7259,"eline":7260,"ĠPremier":7261,"Food":7262,"linder":7263,"ole":7264,"Ġtruly":7265,"ĠIf":7266,"unal":7267,"ĠChidambaram":7268,"Ġtrading":7269,"ription":7270,"ĠHan":7271,"ctoral":7272,"DR":7273,"ĠRaf":7274,"Indias":7275,"Ġphases":7276,"Ġ39":7277,"Ġcreation":7278,"Ġdubbed":7279,"with":7280,"orough":7281,"Ġstructure":7282,"Ġbelief":7283,"Dis":7284,"Ġengineering":7285,"Answ":7286,"Wash":7287,"Ġhast":7288,"Ġprove":7289,"hans":7290,"aved":7291,"Ġtask":7292,"ĠMer":7293,"ĠJas":7294,"rene":7295,"Security":7296,"adh":7297,"unior":7298,"ĠIndies":7299,"ĠIns":7300,"gredients":7301,"ĠNab":7302,"ĠJadeja":7303,"ĠFire":7304,"tel":7305,"Ġce":7306,"Ġeligible":7307,"Ġclashes":7308,"porary":7309,"Ġextend":7310,"uvan":7311,"bon":7312,"ĠKiran":7313,"astar":7314,"Ġuniversity":7315,"ĠAnantapur":7316,"Ġdialog":7317,"Ġsegment":7318,"ĠParliamentary":7319,"atography":7320,"ĠDEL":7321,"Ġaccidents":7322,"Ġbagged":7323,"erate":7324,"erals":7325,"ĠChan":7326,"Ġselect":7327,"thew":7328,"ĠNaga":7329,"Ġpermanent":7330,"ĠMen":7331,"Ġcrowd":7332,"inee":7333,"imal":7334,"Ġideas":7335,"ranc":7336,"Ġdivision":7337,"Ġpassing":7338,"ĠRajendra":7339,"ĠOsmania":7340,"77":7341,"CBI":7342,"Ġwa":7343,"Ġagency":7344,"Ġclin":7345,"Ġconducting":7346,"like":7347,"ĠChe":7348,"ĠJagann":7349,"Ġmulti":7350,"water":7351,"Ġonwards":7352,"Ġarent":7353,"ĠBigg":7354,"ache":7355,"Ġdistribution":7356,"Ġwaters":7357,"Already":7358,"met":7359,"inate":7360,"ĠBhavan":7361,"ĠIndira":7362,"ĠHer":7363,"Ġsurely":7364,"ĠDELHI":7365,"ĠEarth":7366,"jection":7367,"ucknow":7368,"appa":7369,"Ġfields":7370,"Ġsanct":7371,"ĠJoseph":7372,"ĠMural":7373,"Ġonions":7374,"ĠDin":7375,"Ġpolicemen":7376,"Ġflesh":7377,"Ġdespite":7378,"ĠKuldeep":7379,"Ġconsequences":7380,"Ġdifficulties":7381,"aling":7382,"ĠUm":7383,"Rajasthan":7384,"Ġsurface":7385,"ourned":7386,"avaram":7387,"Ġbenefici":7388,"Ġbuildings":7389,"Ġappreciated":7390,"apa":7391,"Ġprophe":7392,"ĠPsalm":7393,"ĠKo":7394,"elsius":7395,"Ġlabourers":7396,"ylish":7397,"level":7398,"lets":7399,"ĠCR":7400,"ĠAad":7401,"Ġnewly":7402,"Ġcounting":7403,"ucle":7404,"Ġmandal":7405,"ipp":7406,"Ġexcited":7407,"ertil":7408,"Ġpanel":7409,"Ġdepends":7410,"arm":7411,"iders":7412,"Ġneighbour":7413,"Ġdefinitely":7414,"amal":7415,"Ġhom":7416,"Ġvoting":7417,"ustralian":7418,"Ġrecommended":7419,"ĠDeepika":7420,"Ġmale":7421,"ĠKapil":7422,"Ġliterature":7423,"ander":7424,"anta":7425,"Ġoverall":7426,"Ġ196":7427,"Think":7428,"Ġbirds":7429,"dess":7430,"ĠVishnu":7431,"Ty":7432,"nov":7433,"Ġinvestments":7434,"iyush":7435,"Ġdecades":7436,"Ġedition":7437,"Ġthoughts":7438,"IMS":7439,"force":7440,"Ġhill":7441,"Ġconsist":7442,"Ġinspir":7443,"itamins":7444,"pro":7445,"Ġtremend":7446,"Ġseed":7447,"ressing":7448,"Ġenjoyed":7449,"break":7450,"Ġ46":7451,"Ġreleasing":7452,"Ġoperating":7453,"ĠPeople":7454,"!\"":7455,"55":7456,"Americ":7457,"Ġheight":7458,"aces":7459,"\"\"\",":7460,"Ġhealthcare":7461,"Techn":7462,"Ġsustain":7463,"Ġmountain":7464,"rier":7465,"ĠDMK":7466,"Ġshalt":7467,"Ġbrings":7468,"Ġimpossible":7469,"Ġreplied":7470,"habad":7471,"ĠSil":7472,"Ġpolicies":7473,"Ġsed":7474,"Ġmeasure":7475,"Ġhistorical":7476,"South":7477,"lor":7478,"ĠAj":7479,"cean":7480,"Ġcoord":7481,"Ġcontinuing":7482,"Bang":7483,"minton":7484,"what":7485,"ĠJon":7486,"Ġpartner":7487,"Soon":7488,"ishwarya":7489,"gic":7490,"edia":7491,"Ġhall":7492,"ĠCelsius":7493,"raham":7494,"Ġofficially":7495,"Ġcalling":7496,"Ġpriests":7497,"Narendra":7498,"itage":7499,"nergy":7500,"Ġprofit":7501,"Seven":7502,"Ġtickets":7503,"Dev":7504,"Education":7505,"Ġpark":7506,"Ġmanifest":7507,"Ġengaged":7508,"MR":7509,"Ġcode":7510,"Ġstun":7511,"Ġvisiting":7512,"Ġlines":7513,"ĠGog":7514,"Chand":7515,"Sun":7516,"Ġimag":7517,"ended":7518,"Ġsalary":7519,"Ġchopped":7520,"Ġrupees":7521,"46":7522,"life":7523,"Ġgrew":7524,"urg":7525,"Ġraise":7526,"Poll":7527,"School":7528,"mam":7529,"said":7530,"Ġpal":7531,"cious":7532,"Ġgat":7533,"resp":7534,"ighters":7535,"Ġfeed":7536,"ĠExternal":7537,"Prabhas":7538,"Thanks":7539,"Ġsick":7540,"Ġradi":7541,"None":7542,"ĠSundar":7543,"ĠRegion":7544,"ĠJews":7545,"Ġtotally":7546,"Ġcollapsed":7547,"reens":7548,"Ġpension":7549,"ilty":7550,"Ġstocks":7551,"ĠManipur":7552,"Ġconcerns":7553,"Ġholid":7554,"Superstar":7555,"ĠMatthew":7556,"ĠJayalalithaa":7557,"Ġtransfer":7558,"Ġ>":7559,"utely":7560,"ĠBag":7561,"Ġgreatest":7562,"Ġpurchase":7563,"ĠLax":7564,"Ġmos":7565,"Ġgoals":7566,"ĠLife":7567,"Ġkinds":7568,"Ġmethods":7569,"Ġrace":7570,"Local":7571,"ĠNehru":7572,"uhan":7573,"asc":7574,"Ġimproved":7575,"ĠSecret":7576,"ĠVijayas":7577,"harshi":7578,"Ġsensor":7579,"key":7580,"Ġdates":7581,"Ġsinger":7582,"ĠMovies":7583,"Ġpossibility":7584,"Ġdevices":7585,"ĠJoshi":7586,"olic":7587,"ĠBaby":7588,"autions":7589,".)":7590,"Ġcontribution":7591,"Ġcreating":7592,"ndered":7593,"ola":7594,"Ġsucc":7595,"ĠPran":7596,"Ġblue":7597,"ĠSiva":7598,"Mal":7599,"Ġstones":7600,"ĠRamakrishna":7601,"ĠTMC":7602,"ounced":7603,"kind":7604,"vation":7605,"Ġemb":7606,"ET":7607,"eren":7608,"Ġpref":7609,"Ġremand":7610,"Art":7611,"Ġskills":7612,"kineni":7613,"ĠOrganisation":7614,"Ġthorough":7615,"ĠBJPs":7616,"ashion":7617,"Ġemotional":7618,"ki":7619,"Ġmeat":7620,"enses":7621,"Anil":7622,"Imp":7623,"Ġslogans":7624,"Ġclearly":7625,"ĠPanchayat":7626,"emies":7627,"Ġric":7628,"Ġnomination":7629,"Ġ47":7630,"Ġafford":7631,"Ġvariety":7632,"NG":7633,"Ġcollection":7634,"ĠKarim":7635,"Ġyesterday":7636,"Ġupto":7637,"Ġbankrolled":7638,"wama":7639,"eta":7640,"ĠJio":7641,"ĠLat":7642,"Ġcrop":7643,"Ġsubst":7644,"Ġkeeps":7645,"Ġsweet":7646,"Ġassault":7647,"Ġadvance":7648,"Ġprinciples":7649,"ĠSports":7650,"imb":7651,"Ġdisappointed":7652,"alu":7653,"Ġinstalled":7654,"rophy":7655,"Ġadvantage":7656,"Ġwinter":7657,"uit":7658,"Ġaid":7659,"upati":7660,"Ġremark":7661,"Ġslammed":7662,"ojana":7663,"Same":7664,"UP":7665,"Ġpick":7666,"aked":7667,"ĠPrashant":7668,"ĠDiwali":7669,"vis":7670,"Ġillness":7671,"ĠGreek":7672,"ĠChitt":7673,"poll":7674,"Ġfounder":7675,"Ġstre":7676,"Ġplenty":7677,"ĠLab":7678,"ĠMarket":7679,"ĠHebrew":7680,"ĠMukherjee":7681,"heast":7682,"hapur":7683,"estion":7684,"Ġcomedy":7685,"Ġprotein":7686,"Ġdomin":7687,"Ġelders":7688,"Gujarat":7689,"ifying":7690,"Arjun":7691,"ĠYouTube":7692,"aths":7693,"Ġpremises":7694,"Ġcomprising":7695,"ĠMark":7696,"Ġfallen":7697,"Ġconstituted":7698,"Ah":7699,"poons":7700,"ĠInternet":7701,"ĠHead":7702,"Ġspreading":7703,"owing":7704,"Ġstruck":7705,"Ġsuggested":7706,"Ġgang":7707,"cium":7708,"Ġbringing":7709,"ĠKarthik":7710,"ĠJac":7711,"Thereafter":7712,"Ġ43":7713,"Ġult":7714,"Ġinhab":7715,"Ġfacilit":7716,"Try":7717,"Ġbesides":7718,"anasi":7719,"ĠSingapore":7720,"Ġslight":7721,"Ġsurprising":7722,"iplom":7723,",...":7724,"uting":7725,"Vis":7726,"ĠSushma":7727,"acle":7728,"Ġshocking":7729,"ĠManish":7730,"Ġpurc":7731,"lon":7732,"Ġschol":7733,"ĠWater":7734,"Should":7735,"Amaravati":7736,"ĠRural":7737,"Ġwild":7738,"ĠNaw":7739,"Ġarms":7740,"Ġescaped":7741,"night":7742,"Ġginger":7743,"harm":7744,"Ġfalling":7745,"Ġprosper":7746,"ĠSukumar":7747,"Ġec":7748,"Ġdiscl":7749,"Ġguilty":7750,"Ġanimal":7751,"Ġillegal":7752,"ichand":7753,"using":7754,"ĠHis":7755,"ĠAlia":7756,"Ġaddressing":7757,"ĠNaresh":7758,"ĠDub":7759,"Ġexpensive":7760,"ĠSpace":7761,"udge":7762,"ĠFood":7763,"ĠMit":7764,"Ġscam":7765,"ĠPak":7766,"ĠVad":7767,"Ġlic":7768,"ura":7769,"Ġconfirm":7770,"Ġapproves":7771,"Ġsolutions":7772,"Ġcultiv":7773,"Min":7774,"ĠApple":7775,"Ġcommunication":7776,"Ġalternative":7777,"Ġ2013":7778,"ĠRashmika":7779,"ĠMadras":7780,"Ġwindow":7781,"elligence":7782,"Ġcouncil":7783,"hist":7784,"ĠGlobal":7785,"Ġsup":7786,"Ġrepresented":7787,"sha":7788,"Ġdispl":7789,"awahar":7790,"YS":7791,"Ġtab":7792,"Ġtight":7793,"ĠSamantha":7794,"Ġsanctioned":7795,"BCCI":7796,"ĠSS":7797,"istant":7798,"Ġstruggle":7799,"Ġ2009":7800,"Ġreforms":7801,"ĠVenkateswara":7802,"BC":7803,"Mus":7804,"ivery":7805,"Ġfilmmaker":7806,"ffee":7807,"Ġlawyer":7808,"usted":7809,"Ġreduces":7810,"ĠIPC":7811,"ĠBy":7812,"ĠKor":7813,"ĠKad":7814,"ĠTele":7815,"Ġexpenditure":7816,"ĠShak":7817,"ĠAbhishek":7818,"mod":7819,"alling":7820,"ĠRahman":7821,"Ġformal":7822,"Ġbought":7823,"ĠEV":7824,"Ġadequ":7825,"Ġstudying":7826,"oil":7827,"wag":7828,"ĠBhat":7829,"Ġdisput":7830,"Ġhonor":7831,"rations":7832,"aland":7833,"Ġreacted":7834,"Ġyouths":7835,"Ġrescued":7836,"Come":7837,"ĠThere":7838,"Ġwall":7839,"Ġcomposing":7840,"Ġblockb":7841,"Ġokay":7842,"Ġpac":7843,"ĠGre":7844,"Ġimages":7845,"Ġ52":7846,"Ġinspired":7847,"Nearly":7848,"rapped":7849,"ĠGrand":7850,"Ġdepartments":7851,"Ġnominated":7852,"harya":7853,"Ġslated":7854,"Ġfestiv":7855,"Ġdiabetes":7856,"Ġstanding":7857,"asa":7858,"ĠStadium":7859,"Ġconnectivity":7860,"Ġtaste":7861,"ĠHardik":7862,"osen":7863,"ĠNat":7864,"Ġcompon":7865,"Ġhotel":7866,"orted":7867,"ĠHC":7868,"ecutive":7869,"ĠDevendra":7870,"Ġfriendship":7871,"Ġcontroversial":7872,"Elections":7873,"Ġfever":7874,"aired":7875,"ĠUrban":7876,"Ġunderstood":7877,"600":7878,"ares":7879,"ĠDemoc":7880,"Ġunemp":7881,"Ġshowc":7882,"Ġnewsp":7883,"ĠThomas":7884,"Ġupdate":7885,"Ġtension":7886,"Ġsituations":7887,"43":7888,"Ġdisrupted":7889,"Ġwinner":7890,"ĠAravind":7891,"Could":7892,"Top":7893,"nic":7894,"Ġelements":7895,"Ġartist":7896,"ĠYes":7897,"Ġpanic":7898,"Ġspect":7899,"ĠArunachal":7900,"Ġpunishment":7901,"zy":7902,"uda":7903,"ocol":7904,"ĠiPhone":7905,"ĠVarun":7906,"Ġaspects":7907,"rency":7908,"Ġassets":7909,"Ġhighway":7910,"Ġwake":7911,"ĠRos":7912,"ĠGovt":7913,"Ġminerals":7914,"Ġla":7915,"Would":7916,"apuram":7917,"Ġsettled":7918,"ĠEconomic":7919,"mal":7920,"Ġproof":7921,"Ġawareness":7922,"Ġcomfortable":7923,"....":7924,"Ġcontext":7925,"amuri":7926,"oli":7927,"unch":7928,"izes":7929,"Know":7930,"role":7931,"ĠAx":7932,"Ġapps":7933,"Ġconflict":7934,"Ġutil":7935,"pter":7936,"alle":7937,"Ġtrigg":7938,"Ġacts":7939,"Ġsuspected":7940,"Ġgathered":7941,"ua":7942,"ĠPiyush":7943,"Ġjew":7944,"Ġkills":7945,"icon":7946,"ĠID":7947,"Ġroll":7948,"Ġdemise":7949,"Ġcoin":7950,"areddy":7951,"ĠAditya":7952,"ĠPulwama":7953,"Ġlinked":7954,"ĠAng":7955,"Ġsolid":7956,"ections":7957,"ule":7958,"Ġtally":7959,"Ġhike":7960,"ĠJust":7961,"Ġexecutive":7962,"Answer":7963,"friend":7964,"Ġuses":7965,"Ġkindness":7966,"Ġlimits":7967,"ĠRussian":7968,"ĠRanaut":7969,"Ġrestrictions":7970,"ĠKaur":7971,"Tell":7972,"Ġculprit":7973,"Sam":7974,"sar":7975,"ML":7976,"heer":7977,"ĠOb":7978,"ĠUSA":7979,"Ġunable":7980,"itizen":7981,"Ġinitially":7982,"ĠSoc":7983,"ĠRRR":7984,"ĠAR":7985,"Ġhoney":7986,"ĠKL":7987,"avour":7988,"ĠScriptures":7989,"term":7990,"Ġsaved":7991,"Start":7992,"oyota":7993,"ĠShahid":7994,"rants":7995,"asked":7996,"ademy":7997,"ĠGood":7998,"iciency":7999,"Ġsouthern":8000,"Ġsurprise":8001,"uclear":8002,"Har":8003,"Ġpion":8004,"Ġdiagn":8005,"Avoid":8006,"reprene":8007,"Ġingredients":8008,"Dhoni":8009,"ĠSaw":8010,"ĠTiger":8011,"Ġhearts":8012,"Ġwalked":8013,"Ġtheatres":8014,"Ġ}":8015,"Ġrelative":8016,"phones":8017,"Ġenemies":8018,"Ġspar":8019,"earing":8020,"Ġbehold":8021,"Ġapplicable":8022,"erves":8023,"Ġcry":8024,"Ġextent":8025,"Ġpassenger":8026,"Ġteaspoon":8027,"Ġtroops":8028,"ĠDevgn":8029,"Deep":8030,"ĠSen":8031,"akk":8032,"Ġupdates":8033,"Ġcollaboration":8034,"amson":8035,"ulu":8036,"Ġwealth":8037,"Despite":8038,"Ġrival":8039,"ĠGames":8040,"hary":8041,"Ġgearing":8042,"apalli":8043,"Ġtremendous":8044,"ĠNani":8045,"ivetha":8046,"ĠLokesh":8047,"ĠSaf":8048,"Second":8049,"ĠVik":8050,"Ġsuccumb":8051,"illage":8052,"ehold":8053,"Ġrej":8054,"Ġstages":8055,"Ġplus":8056,"Ġaccord":8057,"Ġdanger":8058,"ida":8059,"ĠNations":8060,"Ġidentify":8061,"order":8062,"omon":8063,"Ġconsists":8064,"Ġfootball":8065,"word":8066,"Ġmine":8067,"ĠTar":8068,"Ġsevent":8069,"rick":8070,"ĠBhas":8071,"ica":8072,"ether":8073,"ĠWarner":8074,"bally":8075,"Ġswit":8076,"Ġmir":8077,"ĠSunkara":8078,"ĠSteel":8079,"Sing":8080,"Ġresur":8081,"Ġindex":8082,"Ġturns":8083,"ronics":8084,"Ġcaste":8085,"ĠVerma":8086,"District":8087,"nap":8088,"Ġtack":8089,"Ġloyal":8090,"Ġchosen":8091,"Ġclasses":8092,"Ġmistakes":8093,"Ġcarefully":8094,"olester":8095,"Ġbranch":8096,"Prices":8097,"Ġbott":8098,"Ġdance":8099,"idhi":8100,"aint":8101,"amps":8102,"uing":8103,"agg":8104,"Ġregistration":8105,"44":8106,"Gr":8107,"ĠBob":8108,"ĠFort":8109,"Ġstatements":8110,"Ġolder":8111,"hit":8112,"arden":8113,"Ġfray":8114,"Ġjournalist":8115,"west":8116,"Ġselling":8117,"verbs":8118,"asting":8119,"Ġherself":8120,"icken":8121,"Ġreturns":8122,"Ġrequirements":8123,"Ġfavourite":8124,"ĠCitizenship":8125,"roleum":8126,"Ġstir":8127,"Ġoutbreak":8128,"puram":8129,"ĠSatan":8130,"arest":8131,"ahu":8132,"ĠVijayan":8133,"TD":8134,"ĠPTI":8135,"Ġcomprises":8136,"Ġ2022":8137,"ĠChow":8138,"Ġsquare":8139,"hs":8140,"ĠBalakrishna":8141,"Ġmandatory":8142,"Ġbridge":8143,"ĠParam":8144,"ĠAfrican":8145,"ĠSer":8146,"Locals":8147,"Financial":8148,"ĠVinay":8149,"Ġlake":8150,"ĠKeer":8151,"Ġji":8152,"overty":8153,"Ġpowers":8154,"Ġdollar":8155,"ĠGreat":8156,"Ġfaces":8157,"Ġvisitors":8158,"Ġseemed":8159,"olesterol":8160,"Ġquarant":8161,"Ġrooms":8162,"Ġdetailed":8163,"Ġbelongs":8164,"agonist":8165,"Ġincl":8166,"apse":8167,"anning":8168,"Ġflat":8169,"Ġexperienced":8170,"nis":8171,"ĠGar":8172,"Ġsets":8173,"Ġchurch":8174,"Ġtribute":8175,"Ġstreets":8176,"ĠGogoi":8177,"Ġmaster":8178,"ĠDar":8179,"Ġreporters":8180,"Ġlabour":8181,"Ġdetermined":8182,"Major":8183,"Ġability":8184,"Ġcelebrate":8185,"Ġheroines":8186,"Ġcategories":8187,"ĠAaron":8188,"ĠAishwarya":8189,"abir":8190,"ĠHarsh":8191,"Ġcausing":8192,"Ġconversation":8193,"Ġorganisations":8194,"awati":8195,"Ġprincipal":8196,"Ġclosely":8197,"Ġprofessional":8198,"Ġ41":8199,"Business":8200,"Ġmechan":8201,"Ġslowly":8202,"uties":8203,"Ġuseful":8204,"Ġ800":8205,"ĠRafale":8206,"rina":8207,"adhav":8208,"ĠBhe":8209,"Ġveter":8210,"Ġtrip":8211,"ping":8212,"Ġfool":8213,"ĠCinem":8214,"ĠIncome":8215,"oconut":8216,"Ġinvestors":8217,"certain":8218,"ĠSharad":8219,"Ġmotion":8220,"Ġsilent":8221,"den":8222,"ĠVaranasi":8223,"Ġmercy":8224,"ĠChallengers":8225,"ĠBusiness":8226,"Ġmedicine":8227,"Ġanticip":8228,"Ġhyd":8229,"ĠCare":8230,"ĠPen":8231,"umble":8232,"Ġpraised":8233,"ĠNizamabad":8234,"live":8235,"Ġ2000":8236,"fficient":8237,"Ġsigns":8238,"ĠAggarwal":8239,"Ġinstructions":8240,"Fore":8241,"IF":8242,"ĠBook":8243,"Shes":8244,"Ġexamined":8245,"Co":8246,"agiri":8247,"itya":8248,"ĠBrazil":8249,"ĠWatch":8250,"Ġcaptured":8251,"Ġconcent":8252,"File":8253,"ĠGl":8254,"OR":8255,"turn":8256,"Cast":8257,"Ġpair":8258,"ĠSet":8259,"ĠMiz":8260,"izens":8261,"rehens":8262,"algonda":8263,"Som":8264,"yam":8265,"ĠTy":8266,"ogether":8267,"Ġreflect":8268,"ddhav":8269,"Ġfeelings":8270,"Ġhonest":8271,"DC":8272,"ĠSank":8273,"ĠBel":8274,"umed":8275,"Ġscientific":8276,"HMC":8277,"Ġpapers":8278,"ĠSwamy":8279,"Ġthanks":8280,"ĠCommerce":8281,"Ġshowing":8282,"ĠBet":8283,"ĠCrore":8284,"Ġeducational":8285,"ĠChem":8286,"Ġvitamins":8287,"Ġdivor":8288,"Ġbalance":8289,"34":8290,"cul":8291,"lot":8292,"ĠKod":8293,"ĠFord":8294,"Ġlots":8295,"Ġinterests":8296,"Ġwished":8297,"Ġpump":8298,"ĠSocial":8299,"ĠPaid":8300,"ombay":8301,"ĠElectric":8302,"Ġblockbuster":8303,"Selection":8304,"ĠAwards":8305,"uram":8306,"ĠGal":8307,"ĠJob":8308,"Ġunited":8309,"Ġpron":8310,"Ġscenes":8311,"Ġillust":8312,"Ġglass":8313,"Russ":8314,"Ġrock":8315,"tend":8316,"Ġprecautions":8317,"eting":8318,"Ġvisible":8319,"iscal":8320,"86":8321,"Ġelim":8322,"ĠSciences":8323,"Subsequently":8324,"ĠDanayya":8325,"sis":8326,"Ġfake":8327,"Ġdirectors":8328,"Ġlocations":8329,"Ġforgot":8330,"ĠLadakh":8331,"Ġchances":8332,"Ġrighteousness":8333,"ĠFilms":8334,"fully":8335,"ĠAlla":8336,"akulam":8337,"Ġcoalition":8338,"Ġbeneficiaries":8339,"ourav":8340,"ĠMantri":8341,"Cap":8342,"Ġcoup":8343,"apathi":8344,"Ġcalcium":8345,"31":8346,"Woman":8347,"haz":8348,"ING":8349,"long":8350,"lex":8351,"Ġvan":8352,"Ġmankind":8353,"Ġdrop":8354,"Ġaside":8355,"Ġgrat":8356,"Ġsurgery":8357,"Ġamongst":8358,"Ġcritics":8359,"Ġblessed":8360,"asam":8361,"ĠDisc":8362,"Ġven":8363,"Ġescape":8364,"Play":8365,"Ġadequate":8366,"Ġguard":8367,"useum":8368,"pal":8369,"Ġpill":8370,"Ġstarrer":8371,"Ġsixth":8372,"reddy":8373,"ĠSitaram":8374,"ĠSamajwadi":8375,"Ġunfortunate":8376,"ĠKarimnagar":8377,"Was":8378,"igious":8379,"ifications":8380,"Ġinitiatives":8381,"Open":8382,"pm":8383,"ĠSea":8384,"ĠEp":8385,"Ġbeneficial":8386,"Ġearthquake":8387,"ĠRanveer":8388,"ĠPS":8389,"Ġresear":8390,"Ġfrequently":8391,"Star":8392,"Ġplatforms":8393,"ĠSho":8394,"ĠDVV":8395,"Ġdecline":8396,"Ġcomplaints":8397,"Ġdelivery":8398,"Ġscooter":8399,"Cho":8400,"aja":8401,"Ġdelay":8402,"Ġsolve":8403,"Ġlabs":8404,"comm":8405,"rison":8406,"Ġaccompl":8407,"ĠCanada":8408,"Ġabsolutely":8409,"Ġ128":8410,"Ġinher":8411,"Ġmarty":8412,"ĠGreen":8413,"ĠEastern":8414,"Ġvoted":8415,"ĠQual":8416,"Ġfavor":8417,"urement":8418,"ĠCoop":8419,"ĠGul":8420,"ĠPaidip":8421,"Ġdign":8422,"ĠGDP":8423,"Ġremov":8424,"ĠModis":8425,"Ġmaintained":8426,"ĠItaly":8427,"Ġsand":8428,"Ġstrange":8429,"Ġcompos":8430,"Ġcharging":8431,"uilding":8432,"lar":8433,"Anushka":8434,"Ġwinners":8435,"otions":8436,"ĠNaveen":8437,"Ġwheels":8438,"Ġduo":8439,"Ġcens":8440,"ĠVol":8441,"itendra":8442,"Ġsheep":8443,"Ġframe":8444,"ĠNellore":8445,"ĠHero":8446,"ĠWashington":8447,"Ġtributes":8448,"NU":8449,"Want":8450,"Ġawa":8451,"76":8452,"Ġisland":8453,"ĠRak":8454,"ĠAkkineni":8455,"ĠPolicy":8456,"Ġparam":8457,"uma":8458,"ĠLand":8459,"Ġconspir":8460,"Ġinterven":8461,"ĠKishan":8462,"Ġmonitoring":8463,"Ġ51":8464,"vn":8465,"Ġnam":8466,"essed":8467,"Ġtend":8468,"Ġeverywhere":8469,"SD":8470,"bel":8471,"wicket":8472,"ĠCreat":8473,"ĠRom":8474,"Ġspeaks":8475,"Ġexpanded":8476,"Set":8477,"Ġborders":8478,"uded":8479,"Ġcommanded":8480,"Ġmemor":8481,"ĠPa":8482,"riti":8483,"ĠChait":8484,"ushing":8485,"Ġcholesterol":8486,"Ġthin":8487,"cience":8488,"Repe":8489,"Ġchallenged":8490,"Candidates":8491,"Ġcommitment":8492,"di":8493,"ales":8494,"Ġmotiv":8495,"Ġrecommendations":8496,"Ġeggs":8497,"Kumar":8498,"Ġflick":8499,"hash":8500,"Ġmaterials":8501,"Ran":8502,"Ġbot":8503,"lications":8504,"Ġmanufacturer":8505,"achandra":8506,"Ġprotestors":8507,"ĠBharti":8508,"ĠExpo":8509,"ishi":8510,"yanarayana":8511,"Ġpilgr":8512,"urag":8513,"Ġprocedure":8514,"Ġhun":8515,"ĠJawahar":8516,"Ġworst":8517,"ĠFrom":8518,"Ġ59":8519,"Ġprivile":8520,"AF":8521,"ĠFe":8522,"Ġnorthern":8523,"ĠLet":8524,"ĠGopi":8525,"Ġreaching":8526,"ĠActive":8527,"Ġsymbol":8528,"how":8529,"kart":8530,"ĠCS":8531,"Honda":8532,"fast":8533,"Ġguarant":8534,"Ġinaugurated":8535,"ishabh":8536,"ĠYojana":8537,"Ġeastern":8538,"Ġinstructed":8539,"rd":8540,"Ġpa":8541,"ĠMicro":8542,"ĠBR":8543,"Ġjaw":8544,"Ġtheme":8545,"Ġcourses":8546,"Ġreign":8547,"ĠDGP":8548,"Ġreserved":8549,"ĠSrinagar":8550,"Rajinikanth":8551,"Ġchairperson":8552,"uce":8553,"Ġwhereas":8554,"Ġeasier":8555,"ĠSridevi":8556,"ĠNort":8557,"Ġheadl":8558,"CPI":8559,"Ġpractices":8560,"ĠOut":8561,"Ġexcl":8562,"hta":8563,"ups":8564,"Ġsupports":8565,"Comp":8566,"Ġgreeted":8567,"Young":8568,"eva":8569,"Ġ2008":8570,"Ġfigures":8571,"):":8572,"Car":8573,"Ġbrain":8574,"Ġgate":8575,"ĠLucknow":8576,"Ġ2012":8577,"ĠMadhav":8578,"Ġmetres":8579,"okes":8580,"Ġ67":8581,"Ġreward":8582,"ĠConference":8583,"Ġinvolve":8584,"ĠSaul":8585,"Ġhour":8586,"Ġwheat":8587,"ĠAdditional":8588,"Rail":8589,"Ven":8590,"bles":8591,"empted":8592,"ĠVaj":8593,"ipkart":8594,"ĠProgram":8595,"Ġmagaz":8596,"Ġsusp":8597,"ĠElections":8598,"Ġobjective":8599,"ĠST":8600,"ĠChin":8601,"Ġfeels":8602,"Ġbright":8603,"Ġcurrency":8604,"Ġindependence":8605,"Cabinet":8606,"Ġexams":8607,"05":8608,"ico":8609,"Ġkit":8610,"alla":8611,"payee":8612,"vneshwar":8613,"ystem":8614,"ĠChak":8615,"ĠBSE":8616,"Ġhik":8617,"ĠSecond":8618,"Ġimmunity":8619,"ĠRoyals":8620,"Ġshel":8621,"Ġfactor":8622,"aria":8623,"Producer":8624,"ĠSenior":8625,"ĠThat":8626,"ppa":8627,"ĠIndra":8628,"Ġstring":8629,"ĠJadhav":8630,"ĠMoU":8631,"Ġpaying":8632,"ĠAN":8633,"Ġmeal":8634,"Congratul":8635,"umin":8636,"Ġshout":8637,"Ġcrude":8638,"Apply":8639,"Ġlabor":8640,"Ġfigure":8641,"Ġfraud":8642,"Ġcitizen":8643,"Ġreaction":8644,"Ġeth":8645,"Ġagencies":8646,"Ġtourism":8647,"ĠMB":8648,"Ġlying":8649,"ĠAustralian":8650,"assium":8651,"ĠKumaraswamy":8652,"Ġcolor":8653,"Ġpurchas":8654,"iar":8655,"ĠSard":8656,"irt":8657,"ĠHon":8658,"arshan":8659,"ĠAbraham":8660,"Ġcitizenship":8661,"ĠDh":8662,"Ġneck":8663,"Ġdistin":8664,"Ġsecure":8665,"Ġdetail":8666,"rates":8667,"Ġcred":8668,"irudh":8669,"ĠTi":8670,"ĠFound":8671,"ĠYash":8672,"Ġentering":8673,"ĠUSD":8674,"Ġlisted":8675,"Ġdeterior":8676,"gon":8677,"was":8678,"Ġhasn":8679,"Ġexport":8680,"Ġblocked":8681,"rection":8682,"itate":8683,"ĠCard":8684,"ĠRen":8685,"Ġasks":8686,"Ġcommunities":8687,"Dil":8688,"Ġpic":8689,"ĠKaif":8690,"Ġorganization":8691,"Ġsword":8692,"Ġduties":8693,"Ġcorona":8694,"Similar":8695,"Ġtong":8696,"Ġsle":8697,"Ġspeaker":8698,"Ġoperated":8699,"NCP":8700,"itra":8701,"Ġlarger":8702,"Ġmigrant":8703,"ĠRakul":8704,"uts":8705,"ĠKas":8706,"chal":8707,"Ġwood":8708,"Ġwheel":8709,"Ġarrives":8710,"noon":8711,"Ġunc":8712,"Ġvalley":8713,"ĠForest":8714,"days":8715,"Ġhang":8716,"holders":8717,"Ġattempts":8718,"Sat":8719,"Ġforced":8720,"Ġconstantly":8721,"Ġblessings":8722,"88":8723,"born":8724,"Ġtransactions":8725,"Kar":8726,"Ġtense":8727,"ananda":8728,"ĠBro":8729,"ĠEnergy":8730,"Ġaband":8731,"Ġadvanced":8732,"undreds":8733,"ĠLaksh":8734,"ĠManoj":8735,"Ġattending":8736,"ĠDeepak":8737,"ĠSolomon":8738,"Ġhatch":8739,"km":8740,"ĠPAN":8741,"Ġcrew":8742,"Ġglad":8743,"Ġexpression":8744,"Repeat":8745,"charge":8746,"Ġpul":8747,"Ġanointed":8748,"ĠHous":8749,"Ġdistur":8750,"Ġgenerally":8751,"Ġharassment":8752,"imate":8753,"ĠPass":8754,"Ġtragic":8755,"ĠAkhilesh":8756,"ĠAdministration":8757,"ĠNote":8758,"ĠLove":8759,"ĠWhen":8760,"raining":8761,"Ġsharp":8762,"Ġcaution":8763,"ĠAdvisor":8764,"rig":8765,"Ġera":8766,"ĠRSS":8767,"Trans":8768,"ĠChittoor":8769,"Ġsites":8770,"state":8771,"ĠRJD":8772,"ĠHollywood":8773,"Ġmoon":8774,"ĠLy":8775,"Ġtrials":8776,"Ġvolume":8777,"Political":8778,"hew":8779,"Ġ)":8780,"haran":8781,"Att":8782,"Ġpure":8783,"cription":8784,"ĠIS":8785,"asts":8786,"ĠPlus":8787,"Ġbatsmen":8788,"Ġcells":8789,"ĠSantosh":8790,"bhar":8791,"uters":8792,"ĠIr":8793,"reement":8794,"ĠMarathi":8795,"ĠExecutive":8796,"Ġirrigation":8797,"fit":8798,"Ġairl":8799,"Ġconver":8800,"soon":8801,"Ġsoil":8802,"Ġhonoured":8803,"Ġprobably":8804,"ĠDinesh":8805,"ureau":8806,"ndering":8807,"Ġheads":8808,"rint":8809,"Ġconsumption":8810,"Oil":8811,"ĠJal":8812,"Ġerror":8813,"ĠBabylon":8814,"Mother":8815,"OU":8816,"gent":8817,"Ġmuseum":8818,"Ġ56":8819,"Ġspotted":8820,"Ġbigger":8821,"Ġmetro":8822,"Bhar":8823,"Ġqualities":8824,"NB":8825,"Ġpad":8826,"ĠStat":8827,"Ġindices":8828,"Ġjudges":8829,"Ġcrying":8830,"Ġrid":8831,"ikunt":8832,"Ġlegs":8833,"Ġorganisation":8834,"Ġproperly":8835,"she":8836,"ĠThir":8837,"Ġentirely":8838,"Ġcalm":8839,"Ġupdated":8840,"Traffic":8841,"ĠAccount":8842,"Ġfed":8843,"Ġsequ":8844,"Team":8845,"Whether":8846,"Ġconvey":8847,"Ġrounds":8848,"Ġallows":8849,"ĠMSME":8850,"ĠGowda":8851,"79":8852,"oyal":8853,"Ġbowling":8854,"Ġfatal":8855,"Ġvel":8856,"hard":8857,"ĠIndependence":8858,"Details":8859,"rition":8860,"Ġ#":8861,"Ġnearest":8862,"Ġtaxes":8863,"ĠInsurance":8864,"Ġ2011":8865,"Ġtells":8866,"Ġweapons":8867,"Ġequipped":8868,"idden":8869,"Ġgrams":8870,"ĠPedd":8871,"owed":8872,"ifies":8873,"ĠWho":8874,"Ġskill":8875,"ĠAcademy":8876,"ographer":8877,"Ġstranded":8878,"oxid":8879,"Hundreds":8880,"Ġshortage":8881,"ĠGanesh":8882,"ĠCRPF":8883,"Sus":8884,"eswar":8885,"ĠMary":8886,"istry":8887,"ĠNalgonda":8888,"ĠYour":8889,"Ġclub":8890,"Ġbutton":8891,"ĠNayanthara":8892,"ĠJasprit":8893,"ĠJacob":8894,"Ġoutstanding":8895,"Ġdeeply":8896,"ranged":8897,"ikh":8898,"ichael":8899,"ador":8900,"Ġstret":8901,"Ġenable":8902,"Jana":8903,"Sho":8904,"ĠNavy":8905,"ĠHall":8906,"Ġmountains":8907,"ĠLaunch":8908,"Ġcoffee":8909,"Ġdestination":8910,"Ġtriggered":8911,"Select":8912,"endra":8913,"ĠGa":8914,"ĠChandigarh":8915,"Ġpurposes":8916,"Interest":8917,"Ġpenalty":8918,"Pat":8919,"umala":8920,"Ġsuspects":8921,"ĠHuman":8922,"Ġapplied":8923,"Ġ58":8924,"Ġfiscal":8925,"asons":8926,"Ġsaith":8927,"Ġpossession":8928,"Ġpattern":8929,"Ġretirement":8930,"Ġscreens":8931,"weets":8932,"Ġrelevant":8933,"agaram":8934,"NL":8935,"Ġicon":8936,"iesel":8937,"Ġupro":8938,"Ġ99":8939,"rity":8940,"Ġreplace":8941,"ĠBheem":8942,"ĠBut":8943,"Ġinitial":8944,"marked":8945,"Ġencouraged":8946,"Count":8947,"Main":8948,"osis":8949,"ĠRahane":8950,"Ġ54":8951,"ĠSatyanarayana":8952,"Ġgods":8953,"Ġgriev":8954,"zes":8955,"older":8956,"ĠPrat":8957,"Ġ600":8958,"Step":8959,"halaya":8960,"ĠTeja":8961,"Ġpurs":8962,"ĠValley":8963,"List":8964,"Ġperhaps":8965,"Ġremind":8966,"ĠRamana":8967,"Ġlaunches":8968,"Ġminutes":8969,"Ġnorms":8970,"Ġtennis":8971,"Ġhabit":8972,"ĠEr":8973,"ĠWind":8974,"ĠPaidipally":8975,"thi":8976,"struction":8977,"estyle":8978,"ĠNadda":8979,"Ġupper":8980,"Ġoutput":8981,"Ġwomens":8982,"theless":8983,"ĠGeetha":8984,"ĠSagar":8985,"izations":8986,"Ġpotassium":8987,"Ġconvict":8988,"roll":8989,"ĠVitamin":8990,"amental":8991,"Ġorganized":8992,"Ġtouched":8993,"erencing":8994,"800":8995,"Author":8996,"Ġinfections":8997,"Ġveloc":8998,"Ġdwell":8999,"Ġ130":9000,"ĠDire":9001,"iva":9002,"ĠSrinivasa":9003,"Ġarguments":9004,"Agriculture":9005,"Ġship":9006,"ental":9007,"ĠProcess":9008,"ĠChandrashekhar":9009,"Big":9010,"Ġtsp":9011,"ĠKS":9012,"Kamal":9013,"Sr":9014,"ĠIyer":9015,"ĠChahal":9016,"ishermen":9017,"tings":9018,"Ġmortem":9019,"enth":9020,"stri":9021,"Ġaspir":9022,"Ġretail":9023,"Ġpaste":9024,"150":9025,"CA":9026,"emand":9027,"ario":9028,"Ġfulfill":9029,"Ġcloser":9030,"Polling":9031,"Fl":9032,"ĠJain":9033,"Ġaffair":9034,"ĠTripura":9035,"Protests":9036,"Ġsuccumbed":9037,"Ġconvention":9038,"Ġvast":9039,"Ġlegislative":9040,"ĠMurali":9041,"Ter":9042,"ipe":9043,"amma":9044,"herry":9045,"ĠMalik":9046,"Ġbooth":9047,"ĠPri":9048,"Ġrang":9049,"Ġexists":9050,"ĠVi":9051,"ĠAnj":9052,"Disc":9053,"ĠSwami":9054,"ĠIndones":9055,"Ġcompletion":9056,"Devi":9057,"Justice":9058,"Ġbreaks":9059,"ĠSamithi":9060,"Ms":9061,"Ġreserv":9062,"Cases":9063,"Stay":9064,"ĠActress":9065,"Show":9066,"Ġborrow":9067,"ĠMid":9068,"iation":9069,"Ġbath":9070,"Ġpoverty":9071,"orious":9072,"hati":9073,"egree":9074,"Ġglobally":9075,"ĠKarun":9076,"Ġsatell":9077,"cts":9078,"Pra":9079,"Party":9080,"Ġcub":9081,"etic":9082,"arted":9083,"Ġbowled":9084,"Ġpreviously":9085,"Ġcondoled":9086,"ĠTourism":9087,"Congratulations":9088,"cal":9089,"Ġpregnancy":9090,"Ġphotographs":9091,"Mod":9092,"free":9093,"Ġtow":9094,"omach":9095,"ĠBid":9096,"erences":9097,"Ġacad":9098,"Photo":9099,"erative":9100,"ĠJam":9101,"ĠHass":9102,"Ġtransform":9103,"Ġimper":9104,"Ġturning":9105,"Ġimproves":9106,"Ġtyp":9107,"ĠJaipur":9108,"ĠAbdullah":9109,"AY":9110,"Ġgross":9111,"ockey":9112,"ĠSummit":9113,"but":9114,"Ġsir":9115,"Ġcured":9116,"Ġexit":9117,"Ġspending":9118,"Ġliquor":9119,"ĠSid":9120,"ĠLo":9121,"Ġquiet":9122,"Ġzones":9123,"Vijayawada":9124,"ĠOlympics":9125,"Medical":9126,"ĠPrivate":9127,"Ġsurvive":9128,"Great":9129,"Ġvary":9130,"ĠWestern":9131,"Ġtowns":9132,"Incre":9133,"ĠCAA":9134,"htar":9135,"Ġsuspicious":9136,"Ġhatchback":9137,"Gand":9138,"VS":9139,"ulous":9140,"Ġ1000":9141,"ĠJy":9142,"Ġoutcome":9143,"Ġcook":9144,"Ġbrilli":9145,"Ġcritically":9146,"Ġhosted":9147,"Ġreservation":9148,"Ġproducers":9149,"Ġneglig":9150,"PP":9151,"Ġexceed":9152,"Ġanymore":9153,"Ġexciting":9154,"Hy":9155,"ĠMount":9156,"ĠDel":9157,"Ġafternoon":9158,"Ġ85":9159,"Ġdirecting":9160,"Ġinstitution":9161,"Ġcombination":9162,"ĠMizoram":9163,"ĠBureau":9164,"igen":9165,"ĠGovind":9166,"Ġ72":9167,"ĠAdam":9168,"Ġimproving":9169,"eor":9170,"uration":9171,"Ġfault":9172,"ĠPictures":9173,"whel":9174,"Ġwestern":9175,"ĠTrin":9176,"Ġmetal":9177,"Ġmask":9178,"Consider":9179,"ĠVaikunt":9180,"DI":9181,"Ġscoring":9182,"Ġsecured":9183,"Ġidentity":9184,"Ġcommissioner":9185,"Ġenhance":9186,"osys":9187,"quired":9188,"Ġchannel":9189,"ibly":9190,"Ġtechnologies":9191,"Ġexperiences":9192,"41":9193,"Utt":9194,"atala":9195,"Ġoccasions":9196,"Ġsolved":9197,"Ġturb":9198,"Central":9199,"Ġwine":9200,"ocal":9201,"ĠProte":9202,"ĠAirtel":9203,"osop":9204,"Ġtreas":9205,"show":9206,"kim":9207,"ĠSA":9208,"irty":9209,"Ġadults":9210,"ewise":9211,"Ġdistancing":9212,"Ġflowers":9213,"Ġbeds":9214,"icious":9215,"ĠBombay":9216,"Ġcompass":9217,"Ġtelling":9218,"Bihar":9219,"Ġband":9220,"ĠBengali":9221,"Ġheavily":9222,"Ġprecious":9223,"Ġquarantine":9224,"Es":9225,"ĠAtt":9226,"ĠOper":9227,"Ġpersec":9228,"Remember":9229,"underabad":9230,"66":9231,"Emp":9232,"Ġdil":9233,"Ġyoga":9234,"asty":9235,"Ġglobe":9236,"Ġdrawn":9237,"Ġculprits":9238,"Ġawaited":9239,"Give":9240,"Ġlights":9241,"irms":9242,"Ġmanage":9243,"Ġobvious":9244,"ĠSaudi":9245,"Ġcontribute":9246,"ĠAnup":9247,"Additional":9248,"Ġreveal":9249,"Ġconcerning":9250,"Ġparking":9251,"Ġbowlers":9252,"Ġventure":9253,"ĠRoshan":9254,"Fe":9255,"ania":9256,"Ġreject":9257,"Ġrecoveries":9258,"ĠAamir":9259,"ĠFinancial":9260,"ĠLa":9261,"Ġthereof":9262,"ĠSociety":9263,"250":9264,"Lead":9265,"Writ":9266,"Ġ180":9267,"Ġsmaller":9268,"78":9269,"Ġsemi":9270,"Ġvig":9271,"ĠOil":9272,"Going":9273,"Ġwalking":9274,"Sur":9275,"president":9276,"Ġinput":9277,"iments":9278,"ĠNara":9279,"efits":9280,"Ġcomprehens":9281,"Ġsubsc":9282,"Price":9283,"Ġconcluded":9284,"ĠSourav":9285,"Ġhes":9286,"Ġplastic":9287,"Ġabund":9288,"Ġadding":9289,"kaiah":9290,"Ġjawans":9291,"Friend":9292,"MB":9293,"fare":9294,"avas":9295,"ĠUddhav":9296,"aniel":9297,"Being":9298,"Ġcontributed":9299,"Ġtel":9300,"ĠRoman":9301,"ĠStand":9302,"Ġshape":9303,"ruitment":9304,"repreneurs":9305,"ournal":9306,"ĠOver":9307,"Ġthriller":9308,"Ġretired":9309,"Ġstrengthening":9310,"Ġbeaten":9311,"eft":9312,"ĠStudi":9313,"Ġsignificantly":9314,"IB":9315,"Key":9316,"Pay":9317,"ĠCount":9318,"ĠIsaiah":9319,"ĠUmesh":9320,"Ġconspiracy":9321,"ĠPas":9322,"Ġaccur":9323,"Ġpatience":9324,"Ġclarified":9325,"Ġlifted":9326,"Ġadjourned":9327,"Ġnative":9328,"urious":9329,"Ġstressed":9330,"bert":9331,"Ġsettle":9332,"loyees":9333,"Ġimmense":9334,"--":9335,"GST":9336,"Section":9337,"Ġfired":9338,"ĠCr":9339,"Ġappearance":9340,"Moham":9341,"Ġgradually":9342,"Ġfestivals":9343,"MW":9344,"ĠMil":9345,"istance":9346,"ĠHaz":9347,"ustom":9348,"Ġlegendary":9349,"Ġbaptized":9350,"cation":9351,"Ġnuclear":9352,"Actress":9353,"Ġearmarked":9354,"Ġvelocity":9355,"imala":9356,"ĠBC":9357,"ĠDam":9358,"Cut":9359,"Find":9360,"Srin":9361,"Ġrenew":9362,"acing":9363,"ĠRawat":9364,"Ġmanager":9365,"Ġprize":9366,"Ġadopted":9367,"ĠChaitanya":9368,"Mah":9369,"ĠStart":9370,"Ġinvestigate":9371,"Ġpayments":9372,"ĠUPA":9373,"Ġromantic":9374,"Eff":9375,"Ġphil":9376,"ĠIsraelites":9377,"Pres":9378,"Ġfib":9379,"Ġsav":9380,"Ġdreams":9381,"unction":9382,"ĠProverbs":9383,"ĠWork":9384,"Ġsurrounding":9385,"ĠMirza":9386,"Action":9387,"Ġriding":9388,"ĠFest":9389,"Ġadvocate":9390,"Ġrestaur":9391,"Ġsuggestions":9392,"Ġvalu":9393,"Ġsupposed":9394,"Ġadvantages":9395,"ĠKiara":9396,"Sachin":9397,"Ġenthus":9398,"ĠSubhash":9399,"ĠFoundation":9400,"Hind":9401,"Ġreplaced":9402,"ĠLaunched":9403,"ĠNRC":9404,"Ġsentence":9405,"Ġ2004":9406,"Google":9407,"bas":9408,"Ġfaster":9409,"othy":9410,"ĠKajal":9411,"Ġconcl":9412,"Ġtransp":9413,"Ġarrive":9414,"Ġelderly":9415,"Ġjewell":9416,"Ġtall":9417,"Ġbond":9418,"areena":9419,"Ġarise":9420,"ĠEdition":9421,"ician":9422,"viour":9423,"Aut":9424,"IV":9425,"Ġnoticed":9426,"ailable":9427,"ĠHam":9428,"harma":9429,"ĠPrice":9430,"Ġdistress":9431,"Ġchilli":9432,"Ġinstrument":9433,"Ġforthcoming":9434,"ĠBig":9435,"harth":9436,"Ġsucceeded":9437,"prises":9438,"iny":9439,"isi":9440,"ĠPh":9441,"Ġabsc":9442,"Ġasserted":9443,"Ġordinary":9444,"ĠMayawati":9445,"Ġwithdraw":9446,"Ġexhib":9447,"oba":9448,"ĠDemocratic":9449,"Ġoverwhel":9450,"Produced":9451,"Ġ+":9452,"Ġyellow":9453,"ĠNivetha":9454,"Ġreleases":9455,"Ġveteran":9456,"Diff":9457,"Ill":9458,"ĠSand":9459,"erent":9460,"Bal":9461,"Qual":9462,"rible":9463,"ĠWill":9464,"Youre":9465,"Ġconstant":9466,"ĠJais":9467,"Ġdeposits":9468,"ĠTomar":9469,"anas":9470,"ĠMusic":9471,"rics":9472,"vernight":9473,"Ġremade":9474,"ĠJapanese":9475,"Sk":9476,"krit":9477,"Ġmild":9478,"Ġgrab":9479,"ĠED":9480,"Ġscal":9481,"Ġ2007":9482,"ĠPranab":9483,"Sar":9484,"ayam":9485,"Ġmedals":9486,"Ġtomorrow":9487,"Defence":9488,"Ġoutrage":9489,"risers":9490,"Ġswing":9491,"achers":9492,"ĠRishabh":9493,"Ġrefer":9494,"Ġfriendly":9495,"Ġideal":9496,"una":9497,"ĠHas":9498,"ĠLake":9499,"Ġconsideration":9500,"Ġtribal":9501,"Ġpunished":9502,"Ġundertaken":9503,"Ġramp":9504,"Ġowner":9505,"lasting":9506,"taining":9507,"do":9508,"ĠBirth":9509,"Ġmargin":9510,"ĠShre":9511,"ĠSteve":9512,"Ġsatisfied":9513,"ĠTerrit":9514,"''":9515,"Par":9516,"ĠMG":9517,"liant":9518,"Ġlegislators":9519,"RE":9520,"Ġinterf":9521,"Without":9522,"Ġsubsidy":9523,"Ġseventh":9524,"ĠUV":9525,"ĠChou":9526,"Ġaudio":9527,"Ġforests":9528,"iant":9529,"lin":9530,"Ġincon":9531,"aduate":9532,"puter":9533,"ĠPrabhakar":9534,"Chan":9535,"Tour":9536,"arian":9537,"ĠVed":9538,"Ġcricketers":9539,"hammam":9540,"ĠVenu":9541,"otton":9542,"Ġwr":9543,"ĠSain":9544,"Ġmoves":9545,"ĠChris":9546,"Ġacid":9547,"Ġtalent":9548,"amsung":9549,"chell":9550,"ichandran":9551,"idance":9552,"ĠBre":9553,"Ġincor":9554,"Ġly":9555,"venant":9556,"weep":9557,"Ġcelebration":9558,"ĠSardar":9559,"PCC":9560,"Ġrub":9561,"Ġoperational":9562,"Ġbowler":9563,"ĠGeorge":9564,"Bigg":9565,"yers":9566,"Ġ|":9567,"Ġotherwise":9568,"Ġfarming":9569,"Ġsupporters":9570,"Ġroutes":9571,"Ġinhabit":9572,"Ġalerted":9573,"andum":9574,"ĠLank":9575,"Ġinteract":9576,"Ġdeposit":9577,"Kolkata":9578,"Ġpointed":9579,"Ġappointment":9580,"Sym":9581,"icient":9582,"Through":9583,"Ġsolar":9584,"Ġexplosion":9585,"96":9586,"General":9587,"UTs":9588,"Ġexports":9589,"Ġjudgement":9590,"Ġarchitecture":9591,"Green":9592,"Ġfranc":9593,"ĠViz":9594,"Ġpresidential":9595,"amanna":9596,"Ġwatched":9597,"bag":9598,"Ġexcess":9599,"Ġbusinesses":9600,"Ġkilometres":9601,"ĠKes":9602,"Ġkne":9603,"ĠAnurag":9604,"Ġseconds":9605,"Ġsymp":9606,"ĠTrust":9607,"ĠAbhi":9608,"Ġparticipation":9609,"Ġreducing":9610,"Ġslightly":9611,"sed":9612,"Ġretal":9613,"ĠPoll":9614,"ĠKak":9615,"Ġpermitted":9616,"Ġmessages":9617,"ĠRakesh":9618,"Need":9619,"Ġvess":9620,"Ġrulers":9621,"ĠHel":9622,"Ġsentenced":9623,"bedkar":9624,"ĠVijayasai":9625,"Vitamin":9626,"olen":9627,"iral":9628,"Ġkeen":9629,"Christ":9630,"Ġgolden":9631,"Ġprofile":9632,"ĠMayor":9633,"Ġgenerated":9634,"Ġbelonging":9635,"Ġuniversities":9636,"PG":9637,"Ġmaid":9638,"ĠTirupati":9639,"Ġambul":9640,"ĠPil":9641,"odes":9642,"Ġsplit":9643,"ansion":9644,"Ġpartys":9645,"Ġdirectorial":9646,"Ġtopic":9647,"ĠVinod":9648,"xygen":9649,"Ġmutual":9650,"Ġlashed":9651,"auses":9652,"Ġbelieves":9653,"Ġtablespoon":9654,"ĠDivision":9655,"History":9656,"wini":9657,"zer":9658,"urally":9659,"Isnt":9660,"Ġbuying":9661,"Ġinterrog":9662,"Ġdevast":9663,"Ġadministrative":9664,"gments":9665,"Ġaims":9666,"Ġrinse":9667,"Ġcapable":9668,"Ġ95":9669,"Ġcasualties":9670,"Ġtongue":9671,"hor":9672,"efin":9673,"ĠRamachandra":9674,"72":9675,"urappa":9676,"Ġcompar":9677,"Ġelectoral":9678,"pective":9679,"Ġviolent":9680,"ertiliz":9681,"cket":9682,"Ġbutter":9683,"Ġheavenly":9684,"ĠInvestigation":9685,"Ġtoler":9686,"anthi":9687,"ĠChair":9688,"Ġtrained":9689,"hee":9690,"Ġfant":9691,"outs":9692,"pty":9693,"opsy":9694,"utta":9695,"Ġmidst":9696,"related":9697,"Ġprocurement":9698,"Ġstaged":9699,"Ġowners":9700,"ĠTrip":9701,"Next":9702,"ĠBhaskar":9703,"Washington":9704,"ailing":9705,"Ġbron":9706,"Ġpleasure":9707,"Ġresearchers":9708,"showroom":9709,"Ġtoil":9710,"ĠBoy":9711,"hang":9712,"Ġdoors":9713,"Ġovercome":9714,"Ġscuff":9715,"Ġdivine":9716,"Ġwalls":9717,"itri":9718,"org":9719,"Ġgreatly":9720,"NA":9721,"inter":9722,"intend":9723,"atar":9724,"ĠIIT":9725,"anskrit":9726,"Ġparticipants":9727,"Ġpercentage":9728,"Ġimmune":9729,"Ġrankings":9730,"ĠNik":9731,"ĠJoint":9732,"evan":9733,"rence":9734,"Ġprest":9735,"Ġexpenses":9736,"Ġtemporary":9737,"aiting":9738,"Ġmoral":9739,"Ġportion":9740,"BSP":9741,"Ġdiscipline":9742,"amannaah":9743,"Ġstab":9744,"Ġwasn":9745,"Ġwearing":9746,"ĠChurch":9747,"Ġcovenant":9748,"ĠMadhu":9749,"ĠVaikunthapur":9750,"Nag":9751,"Paul":9752,"Ġease":9753,"cedes":9754,"ĠAssistant":9755,"Ġchose":9756,"ĠThaman":9757,"Ġsummit":9758,"lock":9759,"ĠNan":9760,"ĠNars":9761,"iaomi":9762,"Ġrememb":9763,"inkya":9764,"Ġarticles":9765,"Ġpilot":9766,"berg":9767,"Ġacknow":9768,"Ġpreparations":9769,"Ġsparked":9770,"Change":9771,"Pass":9772,"hag":9773,"Ġolive":9774,"ĠKangana":9775,"BSE":9776,"ĠSrikanth":9777,"DRF":9778,"chen":9779,"Ġcargo":9780,"Ġavailability":9781,"Ġlowest":9782,"ĠNandamuri":9783,"Ġmachine":9784,"ĠChat":9785,"Ġshop":9786,"Ġworker":9787,"tenance":9788,"ĠSwift":9789,"Ġmad":9790,"anguage":9791,"Ġpetitions":9792,"Ġensuring":9793,"ĠJohns":9794,"Ġwithdrawn":9795,"Upon":9796,"ilder":9797,"Ġassess":9798,"Ġmonthly":9799,"umm":9800,"ocation":9801,"Ġagit":9802,"ught":9803,"Ġimpressed":9804,"Ġequity":9805,"Ġgratitude":9806,"makers":9807,"Ġmang":9808,"Ġhouseholds":9809,"oration":9810,"alin":9811,"Ġworshi":9812,"Ġletters":9813,"ĠBhuvneshwar":9814,"ĠAfter":9815,"Ġpositions":9816,"Ġexperiment":9817,"Ġparticipating":9818,"Ġantagonist":9819,"ĠArabia":9820,"Os":9821,"Ġrenow":9822,"ĠInnov":9823,"Ġquestioning":9824,"viation":9825,"ĠSmall":9826,"Ġinspiration":9827,"Tem":9828,"utch":9829,"ema":9830,"Ġstronger":9831,"Ġstrang":9832,"Ġburden":9833,"ayaan":9834,"Ġentertainment":9835,"Ġinherit":9836,"uja":9837,"tees":9838,"ĠSuje":9839,"Ġputting":9840,"Ġintroduce":9841,"ĠOlympic":9842,"Dec":9843,"icing":9844,"ĠKed":9845,"okia":9846,"ikar":9847,"ĠEli":9848,"reatment":9849,"Ġ2006":9850,"ADMK":9851,"ĠAzad":9852,"Ġterritories":9853,"fox":9854,"Ġhate":9855,"ĠRanbir":9856,"Ġappreciation":9857,"ĠAB":9858,"Ġcircuit":9859,"Ġstaying":9860,"Deputy":9861,"Ġalthough":9862,"Ġformat":9863,"ehlot":9864,"Ġvacant":9865,"Ġrecognition":9866,"acterial":9867,"97":9868,"ĠTimes":9869,"ĠFarmers":9870,"ĠStreet":9871,"ĠPatil":9872,"ĠAgreement":9873,"Ġoldest":9874,"ĠReview":9875,"Ġsacred":9876,"Clean":9877,"Ġdim":9878,"ĠMT":9879,"ĠAlex":9880,"Ġobtained":9881,"uzvendra":9882,"68":9883,"ĠMun":9884,"Ġstadium":9885,"Ġharvest":9886,"Ġfactory":9887,"ĠEnfield":9888,"ĠPhilipp":9889,"sych":9890,"Something":9891,"itled":9892,"Ġnurs":9893,"Ġpride":9894,"Ġ71":9895,"Ġgathering":9896,"oir":9897,"Ġthick":9898,"ĠBhopal":9899,"Ġpaise":9900,"ĠVaikunthapurram":9901,"ishes":9902,"ĠMahan":9903,"Ġsearching":9904,"nels":9905,"ĠRath":9906,"cylinder":9907,"Ġcombat":9908,"ĠAbdul":9909,"Types":9910,"acles":9911,"Ġclick":9912,"Ġgovernance":9913,"erving":9914,"arimala":9915,"ĠMex":9916,"urved":9917,"ĠVideo":9918,"Ġassign":9919,"ĠSecunderabad":9920,"rected":9921,"andal":9922,"Ġfunctions":9923,"ambhir":9924,"Ġrevised":9925,"Sonia":9926,"98":9927,"ĠRay":9928,"ĠPall":9929,"ĠShastri":9930,"Ġavo":9931,"Ġguidance":9932,"Ġelabor":9933,"Ġtonnes":9934,"Lo":9935,"Ġautopsy":9936,"screen":9937,"Ġfunctioning":9938,"Ġanxiety":9939,"jar":9940,"Ġsnow":9941,"Ġpages":9942,"Ġcontrolled":9943,"Ġcopy":9944,"Budget":9945,"ultan":9946,"Ġharmony":9947,"Ġgrains":9948,"ĠAmaravati":9949,"Ravi":9950,"Ġfashion":9951,"Ġstreet":9952,"endar":9953,"Ġrefuge":9954,"Ġpursu":9955,"Exp":9956,"ĠKatrina":9957,"Ġsuspension":9958,"Part":9959,"ĠPO":9960,"Ġstream":9961,"Ġfundamental":9962,"Ġactual":9963,"Ġsteel":9964,"Instead":9965,"700":9966,"Real":9967,"ĠKong":9968,"ĠGanga":9969,"ĠSharif":9970,"ĠShow":9971,"Ġempower":9972,"Tech":9973,"Ġrequirement":9974,"Lear":9975,"Ġ53":9976,"arnath":9977,"Ġ68":9978,"aughter":9979,"Ġgif":9980,"ulate":9981,"Ġknowing":9982,"Ġlistening":9983,"emon":9984,"International":9985,"Ġdisb":9986,"Ġdisaster":9987,"velation":9988,"ĠSupport":9989,"Ġreviewed":9990,"inthi":9991,"Ġturmeric":9992,"Ġaltar":9993,"ĠVajpayee":9994,"Cinem":9995,"Ġwives":9996,"asy":9997,"Ġunity":9998,"ariat":9999,"Ġreduction":10000,"Ġbadly":10001,"ĠProduction":10002,"ĠBrahm":10003,"Ġtun":10004,"ĠMiss":10005,"ugs":10006,"icky":10007,"ĠActs":10008,"Ġranked":10009,"Rashmika":10010,"ĠCenter":10011,"hala":10012,"Election":10013,"Ġrenowned":10014,"anim":10015,"ĠYear":10016,"Ġeveryday":10017,"ĠMalays":10018,"ĠCorinthi":10019,"Ġreturning":10020,"Ġchampions":10021,"Ġanalysis":10022,"rior":10023,"ĠVall":10024,"ĠOm":10025,"Ġ74":10026,"works":10027,"ĠDubai":10028,"Ġfranchis":10029,"58":10030,"David":10031,"kg":10032,"ĠTwo":10033,"Ġweigh":10034,"Init":10035,"Ġblessing":10036,"Ġsometime":10037,"ĠMel":10038,"Ġarg":10039,"ĠKadapa":10040,"Ġ62":10041,"Ġsupplies":10042,"ĠNawaz":10043,"ĠTiwari":10044,"Ġsessions":10045,"Ġpaired":10046,"Ġobey":10047,"ishad":10048,"Ġrisen":10049,"Ġmerged":10050,"Ġtransportation":10051,"Ġidol":10052,"Money":10053,"arpur":10054,"ĠSury":10055,"Ġ108":10056,"ĠMeghalaya":10057,"Ġliquid":10058,"Ġfacilitate":10059,"Japan":10060,"ĠIndore":10061,"Ġ105":10062,"ĠAla":10063,"Ġgrace":10064,"ĠAadmi":10065,"ĠMore":10066,"abilities":10067,"Short":10068,"Ġantioxid":10069,"Ġrecognised":10070,"Ġgreetings":10071,"Gandhi":10072,"bi":10073,"iest":10074,"ĠToyota":10075,"unte":10076,"Ġsear":10077,"ĠUs":10078,"Ġheritage":10079,"Ġexpert":10080,"Ġpractical":10081,"Ġsmartphones":10082,"ĠBib":10083,"ĠGehlot":10084,"Ġsufficient":10085,"Ġemployee":10086,"ĠNagaland":10087,"Jammu":10088,"pher":10089,"pread":10090,"Ġsins":10091,"ĠAK":10092,"ĠGovern":10093,"Ġdiplom":10094,"ĠKim":10095,"Ġsuit":10096,"Ġdirections":10097,"issan":10098,"ĠTirumala":10099,"ĠPatnaik":10100,"Lok":10101,"hamed":10102,"Ġ175":10103,"Ġmighty":10104,"ĠParv":10105,"ĠChowd":10106,"Akshay":10107,"esha":10108,"arika":10109,"Ġstruct":10110,"ecess":10111,"Ġcriticized":10112,"Ġsensation":10113,"Ġsubstant":10114,"Symptoms":10115,"illies":10116,"ĠGor":10117,"ĠMahab":10118,"Ġ160":10119,"Ġnamely":10120,"Ġpool":10121,"amool":10122,"ĠMD":10123,"ĠEnvironment":10124,"ĠMuse":10125,"Ġnationwide":10126,"Ġexplan":10127,"anthapuram":10128,"Sensex":10129,"ĠMake":10130,"Ġchicken":10131,"rapy":10132,"Ġfielded":10133,"uvraj":10134,"ĠTan":10135,"estions":10136,"ĠName":10137,"ĠInc":10138,"Ġattrib":10139,"idespread":10140,"ĠVenkaiah":10141,"Ġperforming":10142,"ĠMoto":10143,"ĠSubram":10144,"ĠJoe":10145,"udent":10146,"Ġconstruct":10147,"Ġartists":10148,"Ġcustomer":10149,"Ġepis":10150,"edi":10151,"Ġthrow":10152,"Ġcompr":10153,"Politics":10154,"Public":10155,"Ġfly":10156,"Ġho":10157,"Ġprohib":10158,"Audi":10159,"olved":10160,"ĠRate":10161,"Ġstolen":10162,"itionally":10163,"ibrary":10164,"ĠProv":10165,"ĠDesh":10166,"Ġcarbon":10167,"turned":10168,"ĠPratap":10169,"ĠTime":10170,"ĠDaniel":10171,"Ġspr":10172,"Ġenemy":10173,"place":10174,"ĠNagpur":10175,"waisi":10176,"Netizens":10177,"Uttar":10178,"ĠSujeeth":10179,"onna":10180,"Ġliber":10181,"ikip":10182,"Ġscholars":10183,"ĠISRO":10184,"Ġfinalised":10185,"ĠMandal":10186,"Ġfloors":10187,"rut":10188,"Ġwrapped":10189,"Ġfurn":10190,"Ġblog":10191,"rian":10192,"Ġbomb":10193,"otes":10194,"ĠXI":10195,"Ġportr":10196,"Ġprimarily":10197,"estone":10198,"ande":10199,"Ġupgr":10200,"ĠYuzvendra":10201,"Ġdivide":10202,"Import":10203,"ĠCode":10204,"ĠDur":10205,"Things":10206,"Ġpersonality":10207,"ĠKomaram":10208,"Stylish":10209,"Ġsurre":10210,"Ġforgotten":10211,"Choose":10212,"ĠIndonesia":10213,"Ġphilosop":10214,"MA":10215,"lu":10216,"Ġfill":10217,"organ":10218,"Ġpersonally":10219,"ĠSaif":10220,"ĠBaba":10221,"ĠSikkim":10222,"rooms":10223,"ĠMart":10224,"ĠMichael":10225,"ayi":10226,"Ġfiling":10227,"ĠExam":10228,"Ġreligions":10229,"ĠObama":10230,"Ġbronze":10231,"rum":10232,"Ġdyn":10233,"icks":10234,"ĠCam":10235,"Ġprayed":10236,"Ġcovering":10237,"Ġinconven":10238,"wala":10239,"Ġsem":10240,"Ġregime":10241,"Ash":10242,"Ġsecondary":10243,"Ġhousing":10244,"ĠCorinthians":10245,"56":10246,"sters":10247,"ileru":10248,"Facebook":10249,"RL":10250,"Royal":10251,"oral":10252,"ingu":10253,"Ġblind":10254,"Ġprograms":10255,"Ġpanchayat":10256,"Ġzone":10257,"can":10258,"ĠJav":10259,"Ġevident":10260,"Ġbreast":10261,"Ġsignificance":10262,"ĠKeerthy":10263,"cont":10264,"itis":10265,"ĠRS":10266,"india":10267,"Ġapparent":10268,"ĠMahara":10269,"ĠAIIMS":10270,"Ġpoliticians":10271,"tra":10272,"yyal":10273,"iveness":10274,"Ġentrance":10275,"Ġbrut":10276,"hava":10277,"Ġquantity":10278,"Ġnegligence":10279,"ford":10280,"Ġbehaviour":10281,"ĠSaj":10282,"acc":10283,"Ġchain":10284,"ĠPlan":10285,"Ġsubjects":10286,"Ġabsconding":10287,"Ġcorner":10288,"Ġ110":10289,"ĠTimothy":10290,"itors":10291,"Ġreaches":10292,"Ġ2005":10293,"ĠInfosys":10294,"Bangladesh":10295,"miah":10296,"gedy":10297,"ĠAnirudh":10298,"Ġimprison":10299,"Ġfastest":10300,"Ġladies":10301,"ĠSrikakulam":10302,"ĠMess":10303,"Ġprocessing":10304,"ĠMehta":10305,"hemat":10306,"Ġpredicted":10307,"orter":10308,"ĠSad":10309,"ĠMember":10310,"rome":10311,"Ġintention":10312,"ĠStore":10313,"Ġchapter":10314,"RO":10315,"fighters":10316,"lad":10317,"Ġhab":10318,"ĠNaz":10319,"ĠVeh":10320,"Ġrelation":10321,"Ġheavens":10322,"Ġfocused":10323,"Ġnabbed":10324,"ĠJere":10325,"Ġeverlasting":10326,"ĠJudge":10327,"Mega":10328,"Ak":10329,"Ġdress":10330,"Ġtools":10331,"iraj":10332,"iander":10333,"Ġarranged":10334,"Ġobjection":10335,"month":10336,"Ġstrategic":10337,"pherd":10338,"ĠMuseum":10339,"Rest":10340,"ishe":10341,"Ġescal":10342,"Ġtwenty":10343,"Ġaccommod":10344,"Ġhung":10345,"igher":10346,"Ġcooking":10347,"chayats":10348,"Elect":10349,"ĠKorean":10350,"Ġsuddenly":10351,"inton":10352,"olid":10353,"elve":10354,"Ġheated":10355,"umes":10356,"Inter":10357,"Ġcomprehensive":10358,"ĠSeries":10359,"Ġsovere":10360,"Ġexpansion":10361,"Ġelectronic":10362,"Ġspecified":10363,"Ġzero":10364,"Reliance":10365,"ĠSavitri":10366,"ĠJitendra":10367,"ĠStudents":10368,"Ġbrown":10369,"Ġangel":10370,"ĠCommunic":10371,"Ġcorporate":10372,"Ġbullet":10373,"Impro":10374,"SI":10375,"writ":10376,"Ġpays":10377,"Ġpip":10378,"otic":10379,"ĠKaus":10380,"acific":10381,"Ġcloud":10382,"Ġvisits":10383,"Ġempty":10384,"Ġdestruction":10385,"Ġsensitive":10386,"Ministers":10387,"Back":10388,"Ġcore":10389,"Ġhaven":10390,"Ġgarden":10391,"soft":10392,"Ġrecalled":10393,"Ġmarketing":10394,"ĠAzhar":10395,"Ġshrine":10396,"ĠMemorial":10397,"mpion":10398,"Ġblamed":10399,"Market":10400,"ĠGHMC":10401,"Ġsurve":10402,"Ġopener":10403,"Ġhiked":10404,"Ġjewellery":10405,"iforn":10406,"ĠManaging":10407,"Ġdemocratic":10408,"ĠVijaya":10409,"ĠAlluri":10410,"Ġlatter":10411,"Ġdrivers":10412,"Ġinnovation":10413,"odh":10414,"ĠDrav":10415,"ikes":10416,"Ġstrengthened":10417,"Ġsexually":10418,"ĠRavindran":10419,"Ġaffordable":10420,"Pers":10421,"ĠLev":10422,"ĠChristmas":10423,"Ġofferings":10424,"Ġholiday":10425,"Ba":10426,"ĠRem":10427,"ĠHills":10428,"Ġexped":10429,"aulted":10430,"Ġconsumers":10431,"Saaho":10432,"ĠDigital":10433,"Ġthoroughly":10434,"Ġscuffle":10435,"CL":10436,"Ġagitation":10437,"ĠWrit":10438,"Ġmomentum":10439,"Ġcombined":10440,"ĠSudhakar":10441,"Ġadjust":10442,"Ġmotorcycles":10443,"Job":10444,"ĠPud":10445,"Ġadm":10446,"aramaiah":10447,"Ġimprisonment":10448,"VP":10449,"ĠMos":10450,"Ġexamine":10451,"ĠParis":10452,"ĠNeek":10453,"Ġmaintaining":10454,"Ġpreparing":10455,"Ġpolitician":10456,"Keer":10457,"Ġded":10458,"ISRO":10459,"ĠGay":10460,"Ġupload":10461,"ĠOcean":10462,"ridhar":10463,"Ġscenario":10464,"ĠFlipkart":10465,"HA":10466,"Tur":10467,"ĠTrophy":10468,"ppers":10469,"Ġcoverage":10470,"fti":10471,"Ġpossess":10472,"aze":10473,"Ġruler":10474,"Ġconsidering":10475,"Ġconnections":10476,"ĠHyd":10477,"ĠNavdeep":10478,"Ġburning":10479,"Nevertheless":10480,"aser":10481,"ulations":10482,"achi":10483,"hua":10484,"Ġassistant":10485,"ĠFactory":10486,"Ġprosperity":10487,"Name":10488,"Nagar":10489,"Ġindu":10490,"Ġimpressive":10491,"ashtriya":10492,"Ġcirculation":10493,"ĠCoast":10494,"house":10495,"ww":10496,"want":10497,"Ġsung":10498,"rie":10499,"Ġexternal":10500,"assed":10501,"ĠMax":10502,"venture":10503,"Ġplanet":10504,"Ġfunding":10505,"Ġnegoti":10506,"ĠAllahabad":10507,"Ġmagazine":10508,"Ġwave":10509,"qual":10510,"Ġwors":10511,"ĠDesign":10512,"Ġchemical":10513,"uvananthapuram":10514,"khara":10515,"Ġcough":10516,"icians":10517,"ĠMi":10518,"osystem":10519,"Ġabrogation":10520,"ĠUd":10521,"ĠTrade":10522,"Ġtraditions":10523,"ĠElectronics":10524,"Ġproceedings":10525,"Ġbrilliant":10526,"Friends":10527,"ikipedia":10528,"Put":10529,"ĠRaman":10530,"Ġintegrity":10531,"Ġdisputes":10532,"nda":10533,"Ġ69":10534,"Ġconvin":10535,"stery":10536,"ĠRaa":10537,"ĠYoung":10538,"Ġcamps":10539,"Exper":10540,"ĠNeel":10541,"ĠOfficers":10542,"Ġlifestyle":10543,"ĠNeekev":10544,"top":10545,"ĠMatch":10546,"ateful":10547,"Ġrough":10548,"aimed":10549,"ĠSatish":10550,"Ġcampus":10551,"Ġexistence":10552,"ĠMother":10553,"Ġtriple":10554,"Ġrevolution":10555,"Again":10556,"Ġfibre":10557,"ifornia":10558,"abha":10559,"Ġannually":10560,"Ġcommenced":10561,"Ġpromoting":10562,"Ġrelationships":10563,"ange":10564,"Ġrent":10565,"ĠSpir":10566,"Ġpassword":10567,"Ġsedan":10568,"ĠAxis":10569,"Must":10570,"Ġvine":10571,"ĠCentres":10572,"Ġpiece":10573,"Ġpurchased":10574,"Ġreverse":10575,"Ġnotified":10576,"Ġunex":10577,"Ġ57":10578,"licated":10579,"cheduled":10580,"Ġvillain":10581,"ĠAgency":10582,"Ġprinciple":10583,"Ġdialogue":10584,"ĠShreyas":10585,"Book":10586,"Ret":10587,"giri":10588,"hri":10589,"Ġovernight":10590,"Ġmour":10591,"ĠSaina":10592,"Ġattendance":10593,"Ġcinematography":10594,"Ġbreathing":10595,"ĠIra":10596,"Ġlovers":10597,"Ġheading":10598,"ĠResp":10599,"ridor":10600,"change":10601,"Jan":10602,"Ġyoure":10603,"venues":10604,"Ġmothers":10605,"hadra":10606,"09":10607,"67":10608,"Ġdinner":10609,"ĠYouth":10610,"Ġrecip":10611,"Ġevac":10612,"enault":10613,"Devotees":10614,"varu":10615,"ĠSport":10616,"Ġrot":10617,"Ġhospitalised":10618,"Ġsurge":10619,"Ġlinks":10620,"Ġlucky":10621,"Ġsuprem":10622,"ĠRomans":10623,"ĠTripathi":10624,"irbhar":10625,"ĠManj":10626,"ĠAmrit":10627,"ĠRavichandran":10628,"Road":10629,"Ġward":10630,"Ġfab":10631,"Ġdy":10632,"ĠKabir":10633,"Ġcollapse":10634,"RRR":10635,"ĠIslamic":10636,"Ġisolation":10637,"Ġtap":10638,"eding":10639,"atically":10640,"ĠSnap":10641,"ĠKh":10642,"Ġ119":10643,"Ġplun":10644,"Ġarrests":10645,"ĠCourts":10646,"Ġdepth":10647,"ĠSector":10648,"gely":10649,"Ġdrown":10650,"ĠRef":10651,"ĠOwaisi":10652,"Ġconfusion":10653,"Ġprompt":10654,"Ġpromotion":10655,"Ġguests":10656,"eteran":10657,"Ġconfirmation":10658,"ĠAtal":10659,"ĠAudi":10660,"ĠPress":10661,"ĠBer":10662,"ĠEst":10663,"Ġraids":10664,"Ġviolation":10665,"Free":10666,"ĠAM":10667,"llers":10668,"Ġannounces":10669,"Ġdisclosed":10670,"Ġhumanity":10671,"Apple":10672,"Ġattraction":10673,"American":10674,"Ġacademic":10675,"Ġbull":10676,"Ġphen":10677,"Ġ2010":10678,"Ġdesce":10679,"Ġguide":10680,"Ġembar":10681,"Ġtired":10682,"cedented":10683,"Ġexaminations":10684,"Ġinteraction":10685,"Ġoperate":10686,"Ġeffectively":10687,"Shr":10688,"ĠEmpire":10689,"Kajal":10690,"iga":10691,"Ġthine":10692,"Ġopted":10693,"Ġorganizations":10694,"ridge":10695,"Ġmerely":10696,"precedented":10697,"Captain":10698,"Harsh":10699,"Ġ_":10700,"aturally":10701,"Ġbills":10702,"omens":10703,"adise":10704,"Ġstro":10705,"Ins":10706,"hyam":10707,"Ġpoetry":10708,"ĠMitchell":10709,"Bel":10710,"Ġpull":10711,"iland":10712,"ĠGram":10713,"ucherry":10714,"dragon":10715,"Ent":10716,"will":10717,"hish":10718,"unist":10719,"ĠLine":10720,"ending":10721,"ĠFestival":10722,"ĠNeekevvaru":10723,"TS":10724,"rith":10725,"ĠSMS":10726,"rive":10727,"ĠVan":10728,"ĠGoddess":10729,"Ġabandoned":10730,"ĠStudios":10731,"hvi":10732,"vijay":10733,"Ġtears":10734,"Ġcouldn":10735,"Ġwindows":10736,"ĠAjinkya":10737,"intendent":10738,"Gov":10739,"Ġwidespread":10740,"Ġpresently":10741,"ĠAmbedkar":10742,"Ġsixes":10743,"Ġtargeted":10744,"ĠCrores":10745,"ĠNehwal":10746,"uous":10747,"Ġobst":10748,"ATI":10749,"ĠLalu":10750,"ĠMufti":10751,"AAP":10752,"Ġfinger":10753,"ĠKhammam":10754,"ĠPetroleum":10755,"Ġtemperatures":10756,"Ġcontainment":10757,"ĠSomesh":10758,"Mahindra":10759,"rikar":10760,"ĠNad":10761,"lla":10762,"Ġunions":10763,"Ġassigned":10764,"ĠReport":10765,"wi":10766,"Ġmeals":10767,"Ġcomprom":10768,"Ġunless":10769,"atio":10770,"Ġprovince":10771,"Ġ96":10772,"Ġdifficulty":10773,"ĠNaik":10774,"Article":10775,"Ġsli":10776,"Inf":10777,"Ġefficiency":10778,"Ġselfie":10779,"Various":10780,"Ġ700":10781,"Ġextension":10782,"Ġrecognized":10783,"Ġecosystem":10784,"Indeed":10785,"Ġremote":10786,"Ġhardship":10787,"Sil":10788,"Ġalter":10789,"odia":10790,"Ġunanim":10791,"Ġchannels":10792,"Ġbatt":10793,"Ġinhabitants":10794,"Having":10795,"Rain":10796,"from":10797,"icides":10798,"Ġencouraging":10799,"Ġneighbours":10800,"Ġdecreased":10801,"ĠVadra":10802,"Ġgraph":10803,"Ġhub":10804,"abb":10805,"ĠNT":10806,"mediate":10807,"ĠSpain":10808,"Neither":10809,"DS":10810,"Ġdiscrim":10811,"ĠPrak":10812,"clone":10813,"Ġprestigious":10814,"Europe":10815,"Ref":10816,"kha":10817,"Ġcad":10818,"umer":10819,"Ġcorresp":10820,"Ġlargely":10821,"Ġstepped":10822,"Ġresurrection":10823,"East":10824,"ĠRic":10825,"ĠPut":10826,"SRTC":10827,"Ġobserve":10828,"Ġx":10829,"ĠSeh":10830,"Ġadvert":10831,"Ġelement":10832,"Ġprocessor":10833,"ICS":10834,"Ġbadminton":10835,"Ġbones":10836,"ĠReal":10837,"ĠIndo":10838,"Ġraising":10839,"Ġmarked":10840,"Ġ63":10841,"Ġende":10842,"Ġdeliber":10843,"iratory":10844,"ĠConst":10845,"ĠMeeting":10846,"Ġmerger":10847,"Ġbreat":10848,"ĠRad":10849,"ĠVeer":10850,"Ġassaulted":10851,"Ġweakness":10852,"Ġtranslated":10853,"Cond":10854,"ĠGambhir":10855,"Ġroped":10856,"Ġfees":10857,"Ġmissile":10858,"Ġremembered":10859,"hent":10860,"ĠChildren":10861,"quer":10862,"Ġroyal":10863,"allya":10864,"Unfortun":10865,"ĠAgra":10866,"Ġgenerations":10867,"Ġintensified":10868,"cro":10869,"Ġstability":10870,"Ġmoist":10871,"ĠRajan":10872,"Ġhelpful":10873,"ĠHarris":10874,"ĠVishal":10875,"Ġcoastal":10876,"Ġfranchise":10877,"Kashmir":10878,"hani":10879,"achel":10880,"panish":10881,"Ġseparated":10882,"Ġdarkness":10883,"ĠHousing":10884,"ky":10885,"Ġshed":10886,"Ġbother":10887,"ĠChild":10888,"aki":10889,"Ġlemon":10890,"Ġcontra":10891,"Youth":10892,"Amazon":10893,"Bo":10894,"assador":10895,"Ġdiscovered":10896,"ammatory":10897,"Ġpersonalities":10898,"Ġoverseas":10899,"eorological":10900,"Ġrendered":10901,"ĠTamannaah":10902,"ĠList":10903,"rich":10904,"Maharshi":10905,"Ġgenu":10906,"Ġneighbouring":10907,"Ġpulled":10908,"Ġcompassion":10909,"rithik":10910,"ĠMic":10911,"Ġhills":10912,"ĠBose":10913,"ĠJP":10914,"ĠJi":10915,"Ġrall":10916,"Ġowned":10917,"ĠConf":10918,"ĠSaty":10919,"Ġunemployment":10920,"fts":10921,"Ġtag":10922,"Ġlift":10923,"ĠMul":10924,"Ġshoulder":10925,"Ask":10926,"ĠSabarimala":10927,"Ġtwist":10928,"Di":10929,"rose":10930,"Ġplate":10931,"Ġcontrast":10932,"lihood":10933,"Ġblow":10934,"Ġfrust":10935,"ĠIndustrial":10936,"Ġcontinuously":10937,"Ġpronounced":10938,"EN":10939,"Voting":10940,"ĠRet":10941,"ĠBr":10942,"Ġarrangement":10943,"idela":10944,"Ġvirtual":10945,"Ġtackle":10946,"87":10947,"Ġfold":10948,"ĠPhys":10949,"ppy":10950,"ĠSudeep":10951,"ĠMexico":10952,"Ge":10953,"Ġtool":10954,"ĠSanskrit":10955,"Ġarmed":10956,"Ġdecade":10957,"ĠSmart":10958,"ĠCooperation":10959,"hentic":10960,"kat":10961,"Ġspin":10962,"rators":10963,"Ġhosts":10964,"ĠRavicha":10965,"ĠJohnson":10966,"ilderness":10967,"Ġma":10968,"ĠAay":10969,"Ġconvicted":10970,"ĠLabour":10971,"ĠCase":10972,"Ġlocked":10973,"Ġinterim":10974,"Ġdisplayed":10975,"held":10976,"ĠMangal":10977,"Ġsty":10978,"riors":10979,"Ġnotices":10980,"Ġtragedy":10981,"Ġcovers":10982,"Ġslams":10983,"ĠHimal":10984,"Ġdelighted":10985,"ĠJustices":10986,"ĠJeremiah":10987,"Bu":10988,"Bet":10989,"Ġwage":10990,"Ġfitness":10991,"ĠDegree":10992,"ainment":10993,"aceut":10994,"Ġspiritually":10995,"ĠBritain":10996,"Ġaffects":10997,"Jagan":10998,"ĠSaini":10999,"Ac":11000,"PR":11001,"Sit":11002,"sts":11003,"ĠMani":11004,"ĠQue":11005,"ĠBiden":11006,"Unfortunately":11007,"anian":11008,"Ġstomach":11009,"adekar":11010,"Ġyourselves":11011,"Ġcommonly":11012,"Ġtenure":11013,"Ġfantastic":11014,"Ġhence":11015,"ĠFr":11016,"Ġintense":11017,"Ġachiev":11018,"ĠCalifornia":11019,"Perhaps":11020,"chanta":11021,"harmaceut":11022,"lected":11023,"ĠCath":11024,"ĠPhoto":11025,"ĠHill":11026,"Ġrecruitment":11027,"rishnan":11028,"Ġallowing":11029,"Ġbanners":11030,"Ġachievement":11031,"Ġdelegation":11032,"Ġhorse":11033,"fan":11034,"hak":11035,"Ġhandling":11036,"Ġperformances":11037,"ĠUttam":11038,"Ġconsumer":11039,"ĠIrani":11040,"Girl":11041,"Ġwilderness":11042,"opular":11043,"ĠEnd":11044,"Ġministerial":11045,"Ġdepression":11046,"Ġspeedy":11047,"Ġsleeping":11048,"Ġvolunte":11049,"Schools":11050,"69":11051,"inating":11052,"Ġhell":11053,"Ġath":11054,"Ġquoted":11055,"ĠChahar":11056,"Ġwaterlog":11057,"Ġinteracted":11058,"ĠJagannadh":11059,"ĠProtection":11060,"bu":11061,"ĠPush":11062,"Ġmanaging":11063,"Ġmiles":11064,"booba":11065,"ĠSwed":11066,"Ġqualified":11067,"ĠAchanta":11068,"asted":11069,"ducational":11070,"ĠMurug":11071,"Ġhighlighted":11072,"ĠKonidela":11073,"Ġimagine":11074,"Ġcomponents":11075,"Authorities":11076,"GS":11077,"roz":11078,"ĠGuru":11079,"Ġapplies":11080,"ĠProt":11081,"Ġpopularity":11082,"Ġflooded":11083,"Ġcrazy":11084,"Death":11085,"Ġcotton":11086,"Ġfel":11087,"Ġparent":11088,"Ġunprecedented":11089,"Ġtermed":11090,"Ġmaintenance":11091,"Ġsalvation":11092,"Assembly":11093,"Ġft":11094,"asks":11095,"Ġreiter":11096,"ĠPrem":11097,"Ġstuck":11098,"ubnagar":11099,"Ġemail":11100,"Ġnutri":11101,"Ġboundaries":11102,"ĠPicture":11103,"ĠJackson":11104,"ĠTrinamool":11105,"Ant":11106,"Ġnav":11107,"Ġlux":11108,"Ġgap":11109,"ulam":11110,"ĠLuke":11111,"Ġmyth":11112,"Ġsetup":11113,"Ġconveyed":11114,"Behold":11115,"ĠNE":11116,"Ġmonsoon":11117,"Ġinstances":11118,"Application":11119,"Ġadministered":11120,"ĠRevanth":11121,"ĠGhosh":11122,"Ġevacu":11123,"OC":11124,"hr":11125,"mood":11126,"aren":11127,"Ġ73":11128,"Ġemotions":11129,"USH":11130,"Test":11131,"pati":11132,"Ġinund":11133,"ĠNam":11134,"Ġnep":11135,"Ġbacked":11136,"North":11137,"hun":11138,"oji":11139,"ĠBroad":11140,"asekhara":11141,"Salary":11142,"Ġpush":11143,"Ġlunch":11144,"ĠBMW":11145,"ĠNil":11146,"ĠLeft":11147,"Ġroof":11148,"Ġenquiry":11149,"Ġserves":11150,"Ġairports":11151,"Ġcheap":11152,"ursed":11153,"Ġaccordingly":11154,"Ġmosque":11155,"ĠJawaharlal":11156,"1000":11157,"ĠCommon":11158,"Ġgrateful":11159,"ĠMoon":11160,"Ġusage":11161,"owned":11162,"Additionally":11163,"Ġtelecom":11164,"Ġphysically":11165,"Ġtomatoes":11166,"ĠChandrashekar":11167,"Hard":11168,"phant":11169,"heb":11170,"ĠThan":11171,"Ġ78":11172,"Ġconferencing":11173,"Ġwriters":11174,"Ġchillies":11175,"chae":11176,"Ġhalted":11177,"Ġradio":11178,"Initially":11179,"jid":11180,"atre":11181,"ingly":11182,"Ġcontem":11183,"Ġforecast":11184,"Ġrisks":11185,"ĠAkhtar":11186,"Shooting":11187,"PV":11188,"ĠCB":11189,"ulf":11190,"ĠAIADMK":11191,"Ġoxygen":11192,"ĠMug":11193,"ĠPon":11194,"ugopal":11195,"beat":11196,"Ġthrown":11197,"Ġtender":11198,"ĠMao":11199,"alaxy":11200,"Ġjoins":11201,"Ġutter":11202,"Ġapostles":11203,"Benefits":11204,"Ġexplanation":11205,"Mass":11206,"ĠRub":11207,"ĠHem":11208,"ussain":11209,"Ġdedication":11210,"Ġintegrated":11211,"Ġlandsl":11212,"51":11213,"Ke":11214,"mun":11215,"ĠBeg":11216,"ĠKane":11217,"Ġabuse":11218,"ĠArora":11219,"arib":11220,"Ġtribe":11221,"ĠBagh":11222,"Bh":11223,"dev":11224,"ĠPot":11225,"Ġsuitable":11226,"Ġpermit":11227,"mph":11228,"ĠJaganmohan":11229,"Ġzeal":11230,"ĠRani":11231,"Ġadvers":11232,"Ġpleasant":11233,"Ġdistinct":11234,"Ġtons":11235,"Ġrans":11236,"ĠFront":11237,"Ġregret":11238,"ipat":11239,"ashid":11240,"ĠAshwini":11241,"Ġelaborate":11242,"rating":11243,"Ġtear":11244,"Ġsadd":11245,"ĠABS":11246,"ĠIAF":11247,"Ġ2003":11248,"Ġbottom":11249,"ĠPriy":11250,"Ġride":11251,"quently":11252,"oused":11253,"ĠEnt":11254,"Ġcoriander":11255,"Ġhandled":11256,"Ġwithdrawal":11257,"OT":11258,"fight":11259,"Ġice":11260,"Ġgut":11261,"ĠKnight":11262,"ĠGhat":11263,"ifur":11264,"ĠVenkata":11265,"Railway":11266,"Cricket":11267,"Causes":11268,"IJ":11269,"Method":11270,"Ġfirms":11271,"Ġlord":11272,"Ġload":11273,"Ġ66":11274,"Ġblame":11275,"Ġranks":11276,"Ġenhanced":11277,"Ġnominations":11278,"Ġphenomen":11279,"Ġtied":11280,"ĠChauhan":11281,"ushman":11282,"ĠZP":11283,"ĠAgain":11284,"ĠBhut":11285,"Sridevi":11286,"AV":11287,"istans":11288,"ĠGaj":11289,"Ġvul":11290,"eneration":11291,"Ġlesson":11292,"ĠChouhan":11293,"Ġcommod":11294,"Ġtribes":11295,"Ġportal":11296,"finals":11297,"Ġcord":11298,"Ġbes":11299,"eling":11300,"orms":11301,"Ġexplo":11302,"Ġbreaking":11303,"Ġcyber":11304,"Ġsanctuary":11305,"Bat":11306,"Ste":11307,"sal":11308,"release":11309,"Ġindul":11310,"Ġhighlights":11311,"inistries":11312,"Ġresponsibilities":11313,"ĠSamuel":11314,"infl":11315,"haman":11316,"Ġox":11317,"Ġretained":11318,"ĠTik":11319,"ĠHoly":11320,"Ed":11321,"ĠATM":11322,"ĠProm":11323,"ĠKK":11324,"Ġque":11325,"Ġwitnessing":11326,"ĠRavichander":11327,"57":11328,"83":11329,"KL":11330,"var":11331,"oub":11332,"etary":11333,"ĠVe":11334,"ĠOur":11335,"ĠStaff":11336,"aib":11337,"Ġattached":11338,"Ġcrack":11339,"isition":11340,"ĠHindust":11341,"ĠWorking":11342,"Ġinvolves":11343,"Ġjournalists":11344,"Minimum":11345,"ĠGreater":11346,"ĠBirthday":11347,"name":11348,"cture":11349,"ĠCredit":11350,"ĠBat":11351,"ĠBul":11352,"ĠBoney":11353,"Ġthrone":11354,"Ġtalented":11355,"Ġguy":11356,"ĠShivraj":11357,"Ġgenerate":11358,"Ġinnoc":11359,"ĠJyot":11360,"Cant":11361,"Gar":11362,"uet":11363,"wad":11364,"ĠSara":11365,"Ġsees":11366,"eff":11367,"Ġintelligence":11368,"ordinary":11369,"Ġversions":11370,"Ġmiser":11371,"Ġexplains":11372,"Ġtablespoons":11373,"Tax":11374,"War":11375,"ĠPok":11376,"urthy":11377,"Ġminus":11378,"Ġequival":11379,"Ġcycle":11380,"ĠRaghur":11381,"SCO":11382,"Ġrepeat":11383,"Ġpredict":11384,"Ġconstitutional":11385,"Taking":11386,"encing":11387,"Ġhide":11388,"ĠJord":11389,"Ġattempted":11390,"Ġimports":11391,"Ġbuzz":11392,"Ġmembership":11393,"Ġheroes":11394,"Ġbelonged":11395,"Enter":11396,"Ġstringent":11397,"Ġretali":11398,"ĠSnapdragon":11399,"59":11400,"sk":11401,"ye":11402,"hika":11403,"Whatever":11404,"Ġadmit":11405,"Ġdevelopments":11406,"Ġnewspaper":11407,"ĠPuducherry":11408,"!\"\"\"":11409,"LD":11410,"Ġislands":11411,"Ġstick":11412,"Ġedge":11413,"AE":11414,"Sl":11415,"inth":11416,"Ġbifur":11417,"olt":11418,"Ġpropag":11419,"Ġsilence":11420,"Ġbranches":11421,"ĠFederation":11422,"Ġwards":11423,"ĠNow":11424,"ĠChampionship":11425,"Ġunexpected":11426,"cript":11427,"ĠAry":11428,"ĠKen":11429,"ĠNic":11430,"ĠNov":11431,"ĠDad":11432,"inking":11433,"Ġimplementing":11434,"Ġemerge":11435,"ĠCommand":11436,"iya":11437,"esis":11438,"aming":11439,"odaf":11440,"ĠIslands":11441,"Ġsupplied":11442,"Ġmeasured":11443,"Ġclinical":11444,"ĠSR":11445,"Ġenvironmental":11446,"Ġvenue":11447,"Till":11448,"ĠMc":11449,"ĠEC":11450,"mergency":11451,"Ġbitter":11452,"Ġaimed":11453,"ĠProgramme":11454,"Full":11455,"Pad":11456,"ĠHere":11457,"Ġplot":11458,"inda":11459,"Ġassemb":11460,"Ġfounded":11461,"Ġlanded":11462,"Ġcommented":11463,"ĠNirav":11464,"Ġpalace":11465,"Ġaccurate":11466,"ĠRedmi":11467,"ĠParrikar":11468,"ĠWilliamson":11469,"Ġsustainable":11470,"Ġvigil":11471,"Ġsupremo":11472,"odafone":11473,"jam":11474,"ĠRob":11475,"ĠRashtriya":11476,"ĠOther":11477,"Ġinvitation":11478,"Ġdecor":11479,"Ġpoison":11480,"ĠMalaysia":11481,"istor":11482,"ĠDav":11483,"ĠVanga":11484,"Ġsham":11485,"Ġagenda":11486,"iranjan":11487,"Ġantib":11488,"Ġsacrifices":11489,"Remove":11490,"isk":11491,"Ġpin":11492,"Ġindigen":11493,"Ġfinish":11494,"Ġpassion":11495,"comp":11496,"ĠDeaths":11497,"Ġrises":11498,"Prote":11499,"class":11500,"Ġadopt":11501,"Law":11502,"ĠSridhar":11503,"Ġlung":11504,"ĠJagapathi":11505,"Ġsatellite":11506,"power":11507,"aga":11508,"oughts":11509,"Ġangles":11510,"arajan":11511,"Ġrivals":11512,"Ġmanifesto":11513,"Ġrejoice":11514,"Rev":11515,"Var":11516,"dul":11517,"ĠBis":11518,"Ġsho":11519,"ahs":11520,"look":11521,"Governor":11522,"Ġenjoying":11523,"Ġcuts":11524,"Fi":11525,"Viol":11526,"aduddin":11527,"resents":11528,"ques":11529,"teen":11530,"Ġminds":11531,"ĠHaarika":11532,"Ġopposing":11533,"ĠSehwag":11534,"fire":11535,"mund":11536,"ĠMac":11537,"ĠRup":11538,"ĠHari":11539,"persons":11540,"Ġdivorce":11541,"Ġfatalities":11542,"Ġdynasty":11543,"Keerthy":11544,"Nand":11545,"kot":11546,"ĠMaj":11547,"ĠNoid":11548,"ĠVire":11549,"ieve":11550,"ĠIshant":11551,"Ġcrashed":11552,"iverse":11553,"Ġscreening":11554,"Ġfluid":11555,"Ġsavings":11556,"ĠVit":11557,"Indust":11558,"Ġentrepreneurs":11559,"Ġcorrupt":11560,"Ġhalt":11561,"Ġcombine":11562,"Ġprofessionals":11563,"Ġregulations":11564,"Hyundai":11565,"ĠKnow":11566,"Ġgrass":11567,"Ġprevention":11568,"iel":11569,"ker":11570,"blems":11571,"ĠCoal":11572,"ĠCapitals":11573,"Iran":11574,"aution":11575,"rounder":11576,"ĠRich":11577,"ĠAviation":11578,"Ġcleared":11579,"aksha":11580,"ĠIPS":11581,"ĠPadm":11582,"Ġspecifications":11583,"Ġauction":11584,"Ġdw":11585,"ĠPrices":11586,"Ġhug":11587,"Ġimmig":11588,"ĠIraq":11589,"Mon":11590,"Nay":11591,"Ġteen":11592,"ĠMaur":11593,"ĠShal":11594,"Strict":11595,"Ġpossibilities":11596,"Ġsatisfaction":11597,"Ġoccupied":11598,"wheeler":11599,"900":11600,"HD":11601,"tower":11602,"ĠMajor":11603,"ĠRaina":11604,"Ġcompact":11605,"ointing":11606,"luding":11607,"Ġshepherd":11608,"Ġbrig":11609,"rasad":11610,"Ġtwin":11611,"ĠiOS":11612,"ĠSurvey":11613,"Ġdiam":11614,"ertilizers":11615,"Far":11616,"rors":11617,"ĠSultan":11618,"ĠMis":11619,"ĠBho":11620,"Ġashamed":11621,"Ġshouldnt":11622,"Ġvisa":11623,"Ġdeclare":11624,"Ġfinding":11625,"ĠMedic":11626,"True":11627,"Ġpotatoes":11628,"ĠPrakasam":11629,"ĠTHE":11630,"ianagaram":11631,"ĠUyyal":11632,"Ġreservoir":11633,"rpm":11634,"Ġwrest":11635,"Ġbeach":11636,"ĠKav":11637,"ĠAlliance":11638,"Ġinvolving":11639,"53":11640,"anmar":11641,"ĠCPM":11642,"Ġaged":11643,"Ġdisag":11644,"Ġdesired":11645,"Ġslave":11646,"Ġboundary":11647,"forcement":11648,"ĠVikas":11649,"Mov":11650,"Mohan":11651,"Ġ@":11652,"etime":11653,"Ġadds":11654,"Ġ77":11655,"Ġequally":11656,"Ġcondemn":11657,"Ġacquit":11658,"ĠCreator":11659,"EE":11660,"UL":11661,"Ġtweets":11662,"Ġpour":11663,"ĠKumble":11664,"ĠNm":11665,"Ġflames":11666,"Ġshift":11667,"ĠAbout":11668,"Ġaddresses":11669,"ĠSushil":11670,"ĠRajender":11671,"ĠKrishnam":11672,"91":11673,"ĠCong":11674,"ĠPolit":11675,"ĠTam":11676,"Internet":11677,"rific":11678,"Ġcalories":11679,"62":11680,"Ġbid":11681,"Ġally":11682,"Ġoccurs":11683,"Ġcompetitive":11684,"des":11685,"ls":11686,"inity":11687,"ĠMaster":11688,"uris":11689,"Ġbypoll":11690,"ĠDC":11691,"ĠJo":11692,"Ġ190":11693,"Ġconscience":11694,"Ġ140":11695,"Ġdeadly":11696,"Ġdealing":11697,"Ġprophets":11698,"ĠAayog":11699,"ĠNoida":11700,"Ġtie":11701,"ĠMallya":11702,"iman":11703,"Ġhect":11704,"Ġthro":11705,"Ġdefined":11706,"ĠHighway":11707,"Ġestate":11708,"Ġweekend":11709,"Kumaraswamy":11710,"63":11711,"ĠRiders":11712,"uten":11713,"ĠNiranjan":11714,"Ġrepresents":11715,"conf":11716,"Ġwarrant":11717,"Ġcongregations":11718,"Ġventil":11719,"point":11720,"Ġtort":11721,"ino":11722,"Ġsake":11723,"ros":11724,"ĠHistory":11725,"Ġinvite":11726,"ĠTech":11727,"Ġsingles":11728,"Fort":11729,"Ob":11730,"Ok":11731,"onder":11732,"olf":11733,"ĠBay":11734,"Ġritu":11735,"upted":11736,"Ġ2001":11737,"ĠHighways":11738,"Ġstrikes":11739,"Ġacceptable":11740,"Ġerupted":11741,"Eight":11742,"Sw":11743,"gov":11744,"icate":11745,"Ġrealised":11746,"Ġsanitation":11747,"ĠRatna":11748,"Em":11749,"ancies":11750,"ĠGhaz":11751,"ĠNation":11752,"Ġcolon":11753,"Ġintegral":11754,"Ġvaluable":11755,"lings":11756,"ilas":11757,"ĠIM":11758,"Ġconsumed":11759,"Banks":11760,"Ġmuscles":11761,"Ġfelicit":11762,"Human":11763,"Ġdouse":11764,"Ġlorry":11765,"ĠNob":11766,"ĠJournal":11767,"Ġsole":11768,"Ġamounts":11769,"Ġdepending":11770,"Actually":11771,"Ġestablishment":11772,"ĠJordan":11773,"Sug":11774,"agues":11775,"ĠHussain":11776,"arliest":11777,"ĠSubba":11778,"Ġarrival":11779,"Nagarjuna":11780,"NS":11781,"Ġbom":11782,"ĠNex":11783,"Ġsuicides":11784,"Ġconscious":11785,"Ġreceives":11786,"Ġcontinuous":11787,"ĠChairperson":11788,"Dig":11789,"RI":11790,"ĠMang":11791,"owered":11792,"Ġeditor":11793,"stitutional":11794,"Centre":11795,"Ġinvolvement":11796,"61":11797,"Ġdecent":11798,"ictory":11799,"Ġdetected":11800,"Ġseeks":11801,"egu":11802,"Ġmilestone":11803,"Chinese":11804,"Ġemerging":11805,"Ġinflation":11806,"Ġgrave":11807,"Ġflee":11808,"ĠMemorandum":11809,"Ġwing":11810,"ĠKur":11811,"andan":11812,"Ġcrown":11813,"Ġdispers":11814,"Ġprofessor":11815,"Ġlivelihood":11816,"ĠThailand":11817,"ategory":11818,"Ġcampaigning":11819,"Ġtheatre":11820,"Ġmachines":11821,"ĠDravid":11822,"El":11823,"post":11824,"Ġcure":11825,"Ġgiant":11826,"ipal":11827,"ĠOrganization":11828,"Amitabh":11829,"ĠCyber":11830,"Ġpioneer":11831,"ĠBRICS":11832,"Ġpaddy":11833,"Court":11834,"Ġtodays":11835,"Ġearliest":11836,"ĠBur":11837,"plete":11838,"Ġprotested":11839,"Ġcheating":11840,"haraoh":11841,"oult":11842,"ĠNabi":11843,"Ġtensions":11844,"Ġexem":11845,"ĠWeb":11846,"ĠYed":11847,"Ġdevotion":11848,"Ġpleased":11849,"Prof":11850,"Chandr":11851,"ĠHebrews":11852,"Presently":11853,"Veh":11854,"Ġwars":11855,"Ġcoconut":11856,"veen":11857,"ĠRu":11858,"ethi":11859,"aints":11860,"jeev":11861,"ĠSahib":11862,"Ġangels":11863,"Ġallocation":11864,"ĠUnderstanding":11865,"print":11866,"RDO":11867,"ĠSarath":11868,"wahati":11869,"Prepar":11870,"Ġpeacefully":11871,"Ġpacer":11872,"Deepika":11873,"yl":11874,"Ġbold":11875,"ĠAY":11876,"ĠWal":11877,"Ġuns":11878,"Ġ104":11879,"Ġsmile":11880,"Ġsubur":11881,"ĠRevelation":11882,"ĠPrabhu":11883,"Roads":11884,"German":11885,"Ġsam":11886,"Ġgonna":11887,"ĠImp":11888,"Ġkits":11889,"Ġcenters":11890,"ĠBihari":11891,"Ġstores":11892,"Ġburied":11893,"Ġteachings":11894,"Ġstunning":11895,").\"":11896,"52":11897,"Ġdeity":11898,"Ġratio":11899,"ĠEv":11900,"ruits":11901,"Ġsincere":11902,"Ġmoments":11903,"Ġprivilege":11904,"polit":11905,"Ġmm":11906,"elift":11907,"idents":11908,"Ġrailways":11909,"Ġmissed":11910,"Ġpatri":11911,"Ġsurrounded":11912,"judge":11913,"lers":11914,"Ġbab":11915,"Ġwashed":11916,"Heart":11917,"ĠEve":11918,"Ġcommitting":11919,"Ġlawyers":11920,"Ġ2002":11921,"Small":11922,"inflammatory":11923,"ument":11924,"imp":11925,"illance":11926,"Ġsyn":11927,"ĠMald":11928,"Ġengineer":11929,"Ġensured":11930,"Ġdrag":11931,"Ġoverwhelming":11932,"Shar":11933,"Saf":11934,"erg":11935,"lend":11936,"Ġnaturally":11937,"Ġsecular":11938,"ourable":11939,"CSO":11940,"ĠWatchtower":11941,"Ġcensor":11942,"Ġinundated":11943,"71":11944,"82":11945,"ĠMach":11946,"Ġgall":11947,"Ġboat":11948,"Ġposed":11949,"ĠUyyalawada":11950,"felt":11951,"waram":11952,"Ġrad":11953,"ĠVenugopal":11954,"ĠSrinu":11955,"ĠScient":11956,"English":11957,"AG":11958,"ais":11959,"who":11960,"Ġpink":11961,"uloo":11962,"ĠGO":11963,"Ġdear":11964,"acular":11965,"Ġsharply":11966,"Movie":11967,"Ġcounterpart":11968,"Foreign":11969,"ĠPrize":11970,"Private":11971,"amation":11972,"ĠPayal":11973,"airy":11974,"Ġreference":11975,"Ġrealize":11976,"Ġsafely":11977,"ĠLaxman":11978,"Ġcouples":11979,"Ġpillars":11980,"!!":11981,"Conse":11982,"waj":11983,"Ġcomplicated":11984,"ĠOber":11985,"Ġdraft":11986,"ecessary":11987,"uetooth":11988,".\"\"":11989,"father":11990,"kal":11991,"esome":11992,"Ġascer":11993,"Ġsending":11994,"iece":11995,"Ġmeters":11996,"Ġcollections":11997,"Ġexchan":11998,"Ġimprovement":11999,"ĠShalini":12000,"Ġascertained":12001,"Off":12002,"ĠPrince":12003,"hotra":12004,"Russia":12005,"Ġpursue":12006,"Ġmaiden":12007,"Ġinheritance":12008,"Ġuncertain":12009,"Ġconfused":12010,"ĠAdil":12011,"Ġprizes":12012,"Looking":12013,"Ġrepeatedly":12014,"Donald":12015,"Ext":12016,"Leg":12017,"that":12018,"Ġloud":12019,"ĠTown":12020,"apu":12021,"Ġquake":12022,"mediately":12023,"Govt":12024,"Lik":12025,"Men":12026,"rovers":12027,"ĠMain":12028,"Ġwouldnt":12029,"ĠMahal":12030,"Ġautonom":12031,"Ġtitular":12032,"Ġfulfil":12033,"Ġappreciate":12034,"Af":12035,"Ġdying":12036,"roff":12037,"ulla":12038,"nela":12039,"Ġtraders":12040,"Ġabsence":12041,"Madhya":12042,"ĠSecretaries":12043,"ĠSound":12044,"ĠKia":12045,"nty":12046,"ĠJin":12047,"ĠVir":12048,"Ġrestored":12049,"Ġgifts":12050,"ĠJavadekar":12051,"bre":12052,"this":12053,"atories":12054,"Ġrein":12055,"ĠAction":12056,"ĠBhav":12057,"ĠLah":12058,"ighth":12059,"Ġshame":12060,"Ġcrimes":12061,"Ġlaunching":12062,"Ġjumped":12063,"Aam":12064,"Haryana":12065,"Rather":12066,"hadur":12067,"ĠSmriti":12068,"ĠCaptain":12069,"54":12070,"Ye":12071,"Ġtail":12072,"avar":12073,"ĠSheikh":12074,"Ġmanufacturers":12075,"ĠDigvijay":12076,"Ġharmful":12077,"wheel":12078,"Mohammed":12079,"Ġvulner":12080,"Treatment":12081,"Ġstern":12082,"ĠGT":12083,"Ġsoldier":12084,"Ġtariff":12085,"Ġprogressing":12086,"Ġpreparation":12087,"ĠPhilist":12088,"wh":12089,"Ġsorry":12090,"Ġfishermen":12091,"ĠHong":12092,"Ġdisqual":12093,"Ġflows":12094,"ĠDevil":12095,"ĠParishad":12096,"Getting":12097,"Er":12098,"Ġcow":12099,"Ġfet":12100,"ĠPP":12101,"Ġprocl":12102,"Ġkick":12103,"Ġsmoke":12104,"Ġobed":12105,"Ġsimpl":12106,"ĠAtl":12107,"ĠKoratala":12108,"Ġconvicts":12109,"Ġwages":12110,"Ġdesp":12111,"Ġobjected":12112,"Ġchoices":12113,"Ġguarantee":12114,"Ġcried":12115,"ĠDen":12116,"ĠRaashi":12117,"adev":12118,"Corp":12119,"Ġdigest":12120,"Ġneighbor":12121,"brand":12122,"igin":12123,"ĠShroff":12124,"Ġmanufactured":12125,"ĠFeatures":12126,"84":12127,"Ann":12128,"Ġaffection":12129,"Ġchest":12130,"ĠForces":12131,"Ġshowcased":12132,"Efforts":12133,"onia":12134,"Ġwai":12135,"Ġpsych":12136,"Ġlamb":12137,"ĠDist":12138,"ilee":12139,"Ġpreach":12140,"Ġextensive":12141,"ĠSiddharth":12142,"ĠJewish":12143,"Especially":12144,"Ġscalped":12145,"ĠVizianagaram":12146,"89":12147,"Met":12148,"Right":12149,"Ġheed":12150,"ĠKarn":12151,"ardens":12152,"ĠEk":12153,"Ġfunny":12154,"Ġangle":12155,"Ġessaying":12156,"Ġconclusion":12157,"Ġroot":12158,"aundering":12159,"Ġmentally":12160,"Ġopinions":12161,"Ġinnovative":12162,"Ġisolated":12163,"Ġdogs":12164,"MI":12165,"reland":12166,"Ġlaug":12167,"ĠPos":12168,"urse":12169,"Ġtrem":12170,"Ġstakeholders":12171,"Amendment":12172,"ĠSpanish":12173,"ĠPDP":12174,"ums":12175,"Ġ1999":12176,"Ġwrites":12177,"Ġsalaries":12178,"ĠDevar":12179,"amaha":12180,"ITI":12181,"Ġwinds":12182,"Ġspokesman":12183,"ĠKisan":12184,"ĠMughal":12185,"ĠCa":12186,"ĠHot":12187,"Ġscar":12188,"Ġtrek":12189,"nesium":12190,"Ġattractive":12191,"Ġunclean":12192,"ĠSpirit":12193,"ilk":12194,"ĠNair":12195,"ĠHave":12196,"ĠLMT":12197,"Ġinconvenience":12198,"Ġnutrients":12199,"no":12200,"ĠPrith":12201,"Ġresulting":12202,"Adv":12203,"ĠOberoi":12204,"Xiaomi":12205,"stream":12206,"Ġstuff":12207,"ĠHen":12208,"Ġviewed":12209,"Ġquarrel":12210,"ĠMasjid":12211,"ĠMehbooba":12212,"Ġapologise":12213,"Ġbrigade":12214,"NO":12215,"Ġhailed":12216,"ĠId":12217,"Ġhors":12218,"ochi":12219,"hyd":12220,"Thoughts":12221,"Ġswim":12222,"Questions":12223,"Singh":12224,"citation":12225,"tered":12226,"inely":12227,"uraj":12228,"Ġrecon":12229,"Ġsomewhere":12230,"ventions":12231,"Ġconservation":12232,"Ġbusinessman":12233,"ĠRevenue":12234,"ĠSyria":12235,"Ġpenned":12236,"Ġransom":12237,"Ġtheory":12238,"Ġbeings":12239,"ĠIndus":12240,"Ġjunior":12241,"Ġengage":12242,"Ġprotected":12243,"Ġteaspoons":12244,"missions":12245,"Ġtroub":12246,"uzz":12247,"Ġpilgrims":12248,"ĠAYUSH":12249,"Veteran":12250,"Ġarose":12251,"Ġchat":12252,"Ġoven":12253,"ĠPink":12254,"istrate":12255,"Ġexha":12256,"Ġcoaches":12257,"ĠMalhotra":12258,"Comm":12259,"ĠTVS":12260,"Ġnominee":12261,"inarayi":12262,"hematics":12263,"ĠNobel":12264,"Ġunn":12265,"napped":12266,"Conf":12267,"ĠMotoCorp":12268,"Ġhabits":12269,"Ġmel":12270,"Ġretain":12271,"Ġunus":12272,"ribe":12273,"Ġactivist":12274,"ĠMandir":12275,"gaon":12276,"ĠmicroSD":12277,"ĠJonas":12278,"Ġhanging":12279,"Rinse":12280,"Ġwond":12281,"ĠIAS":12282,"sore":12283,"Ġalloy":12284,"being":12285,"ĠSunrisers":12286,"ĠBuddhist":12287,"ĠAnjali":12288,"73":12289,"74":12290,"owers":12291,"Ġorange":12292,"Ġtimely":12293,"Cy":12294,"Father":12295,"Luck":12296,"TH":12297,"nders":12298,"Ġgates":12299,"Ġfeaturing":12300,"Ġdealers":12301,"Ġgainers":12302,"Ġcattle":12303,"Help":12304,"Cost":12305,"ocus":12306,"Ġdonated":12307,"Ġconsume":12308,"Ġprospect":12309,"Ġignored":12310,"Ġambulance":12311,"Ġavoided":12312,"ĠCatholic":12313,"Pan":12314,"UR":12315,"ricted":12316,"peror":12317,"dyurappa":12318,"ĠPunjabi":12319,"Ġangu":12320,"ĠLeela":12321,"ieties":12322,"Development":12323,"Ġmagnitude":12324,"Technology":12325,"Ġhunger":12326,"Child":12327,"rolling":12328,"ignty":12329,"Ġauthentic":12330,"ĠUrdu":12331,"ĠRadhak":12332,"Ġcoordination":12333,"Phot":12334,"Search":12335,"Yoga":12336,"Ġbonds":12337,"ĠBah":12338,"ĠLing":12339,"hadi":12340,"Ġcompete":12341,"ĠSurya":12342,"Ġshouted":12343,"ĠVaikunthapurramuloo":12344,"Ġepisode":12345,"ĠMM":12346,"ĠPCC":12347,"Ġincred":12348,"Ġmining":12349,"havior":12350,"panies":12351,"Baahubali":12352,"IG":12353,"konda":12354,"eru":12355,"itaries":12356,"Ġdish":12357,"Ġhidden":12358,"ĠKos":12359,"ĠGas":12360,"Ġcomeback":12361,"ĠKumari":12362,"Ġlessons":12363,"spector":12364,"ulses":12365,"Ġlaughing":12366,"ĠFirefox":12367,"Ġcomposer":12368,"ĠBrother":12369,"Ten":12370,"Ġdeals":12371,"Ġafterwards":12372,"ribution":12373,"Ġraining":12374,"Ġentertainer":12375,"bhajan":12376,"Ġcops":12377,"Ġpushed":12378,"ĠMobile":12379,"ĠNathan":12380,"ĠDef":12381,"acharya":12382,"uban":12383,"Ġconferred":12384,"Ġdiverse":12385,"ICC":12386,"Ġacceler":12387,"ĠStory":12388,"Ġrelating":12389,"ftware":12390,"Stop":12391,"Ġefficient":12392,"Ġrealise":12393,"Ġresigns":12394,"Direction":12395,"Ġintroduction":12396,"Corona":12397,"araju":12398,"Ġsettings":12399,"Ġgenuine":12400,"Yahweh":12401,"Ġowing":12402,"ĠSee":12403,"ste":12404,"udy":12405,"umped":12406,"Gods":12407,"Ġthinks":12408,"Nit":12409,"cribed":12410,"ĠPulsar":12411,"ĠMLCs":12412,"Ġdecrease":12413,"Ġvessels":12414,"ĠRichard":12415,"Brit":12416,"Rav":12417,"ĠPinarayi":12418,"ĠGV":12419,"ĠUk":12420,"ĠYuvraj":12421,"ĠStalin":12422,"Ġsinging":12423,"ĠSonakshi":12424,"uttler":12425,"ĠVamshi":12426,"ĠMarketing":12427,"Consequently":12428,"Prom":12429,"liness":12430,"ĠCamp":12431,"Ġresume":12432,"Ġimpress":12433,"Ġappearing":12434,"Ġcups":12435,"Ġreiterated":12436,"Bas":12437,"Ġtheft":12438,"active":12439,"Ġdemol":12440,"Islam":12441,"ĠAsaduddin":12442,"Ġpositively":12443,"Ġviolating":12444,"ĠSye":12445,"ĠSiddaramaiah":12446,"Lar":12447,"Ġpsalm":12448,"Ġdust":12449,"illions":12450,"Ġconce":12451,"thu":12452,"Ġ61":12453,"eves":12454,"ĠJoshua":12455,"ĠInvestment":12456,"Ġrichest":12457,"aggub":12458,"Krishna":12459,"eria":12460,"ĠMembers":12461,"ifically":12462,"ounce":12463,"Ġcontroversies":12464,"Ġdollars":12465,"wani":12466,"Ġsib":12467,"ĠKu":12468,"ĠKareena":12469,"unar":12470,"Ġvom":12471,"Ġ81":12472,"ĠSuperstar":12473,"Ġpredomin":12474,"Ġnutrition":12475,"Ġsurround":12476,"FI":12477,"FS":12478,"Ġbrows":12479,"ilitation":12480,"irts":12481,"ĠPharaoh":12482,"urred":12483,"Ġengagement":12484,"Ġallegation":12485,"ĠMyanmar":12486,"Resp":12487,"casting":12488,"ĠLegislature":12489,"Ġremarkable":12490,"largest":12491,"Ġshopping":12492,"col":12493,"Ġli":12494,"race":12495,"ĠNatural":12496,"ĠJNU":12497,"ĠCommercial":12498,"Ġsubmer":12499,"ĠBanks":12500,"Ġlitres":12501,"Ġlaughed":12502,"Ġgorge":12503,"imul":12504,"ĠNSE":12505,"ĠOld":12506,"oints":12507,"ĠShant":12508,"Ġconfessed":12509,"lessly":12510,"Ġswearing":12511,"Ġsuperb":12512,"Ġmigrants":12513,"Ġattractions":12514,"ĠGenesis":12515,"Starring":12516,"Ġsovereignty":12517,"Ġhav":12518,"Ġgro":12519,"ĠCross":12520,"ĠNG":12521,"amped":12522,"Ġlocality":12523,"Ġclaiming":12524,"ĠForum":12525,"Ġtargets":12526,"Jehovahs":12527,"Ġprinces":12528,"uis":12529,"ĠFC":12530,"ĠEco":12531,"Ġabdom":12532,"ĠShakti":12533,"Ġethnic":12534,"Number":12535,"kh":12536,"illy":12537,"ĠPoon":12538,"ilead":12539,"echan":12540,"Ġbasically":12541,"Ġqualify":12542,"Long":12543,"MM":12544,"Muk":12545,"Pak":12546,"Serv":12547,"uments":12548,"Ġmap":12549,"ĠIndex":12550,"ĠRaut":12551,"Ġenabled":12552,"ĠShardul":12553,"they":12554,"Ġsigning":12555,"ĠAkbar":12556,"Ġmagnesium":12557,"Ġhyp":12558,"Ġcongratulate":12559,"ĠBahadur":12560,"Ġflagship":12561,"Ġanxious":12562,"ocolate":12563,"Ġpione":12564,"ĠBethel":12565,"ĠWindows":12566,"Ġenthusi":12567,"imm":12568,"osure":12569,"esty":12570,"ĠGalaxy":12571,"Ġmans":12572,"Ġ94":12573,"Ġcream":12574,"ĠItalian":12575,"Ġdiverted":12576,"Different":12577,"Custom":12578,"Day":12579,"Save":12580,"ĠMek":12581,"ĠChet":12582,"eti":12583,"urai":12584,"Ġcompuls":12585,"Ġundergo":12586,"Ġdefault":12587,"Immediately":12588,"ĠPeace":12589,"Ġcivilian":12590,"Nar":12591,"rous":12592,"umul":12593,"Ġcluster":12594,"ĠMaharshi":12595,"Ġknock":12596,"ĠMenon":12597,"Mot":12598,"Ġ..":12599,"Ġintern":12600,"Ġheres":12601,"ĠTit":12602,"ĠGoud":12603,"ĠNC":12604,"Income":12605,"Ġhopeful":12606,"ĠDirectorate":12607,"ĠSilver":12608,"mates":12609,"Ġears":12610,"Ġprobed":12611,"ĠDw":12612,"Ġtracks":12613,"endran":12614,"Ġcommittees":12615,"Ġdealt":12616,"Ġacquitted":12617,"Village":12618,"jah":12619,"Ġrolled":12620,"Ġqueries":12621,"mendra":12622,"Ġindefin":12623,"Ġmystery":12624,"Ġindicate":12625,"ĠMotorcy":12626,"Ġdisbursed":12627,"92":12628,"Sum":12629,"oz":12630,"Ġtrick":12631,"Ġages":12632,"adeep":12633,"ĠRajkumar":12634,"Ġdiscont":12635,"Ġvoter":12636,"ĠFilmfare":12637,"Ġdriven":12638,"Ġacquired":12639,"Ġsteadily":12640,"Ġtypically":12641,"odhpur":12642,"hriyal":12643,"aggubati":12644,"rists":12645,"Ġaud":12646,"inning":12647,"otainment":12648,"ĠPriya":12649,"cho":12650,"Ġinstant":12651,"Ġabsor":12652,"Learn":12653,"Ajay":12654,"bands":12655,"Ġseasons":12656,"Trad":12657,"ishers":12658,"Benz":12659,"Ġultimately":12660,"Ġrelatively":12661,"rot":12662,"irect":12663,"Ġdeficit":12664,"Ġdesignated":12665,"Ġcares":12666,"European":12667,"Kejriwal":12668,"Id":12669,"TE":12670,"__":12671,"Ġsounds":12672,"Ġdating":12673,"aditya":12674,"ĠMars":12675,"ulpt":12676,"Ġtheyre":12677,"ĠOF":12678,"ographical":12679,"Ġbrave":12680,"Wheres":12681,"ĠPallavi":12682,"COVID":12683,"Ġsq":12684,"nds":12685,"ĠTraining":12686,"ago":12687,"agraph":12688,"ĠStep":12689,"ownload":12690,"Ġchampion":12691,"Ġpresidents":12692,"Ġcircles":12693,"spec":12694,"Ġdigestion":12695,"ĠAmarinder":12696,"ĠMallikar":12697,"Ġconvinced":12698,"ĠRichter":12699,"bour":12700,"preet":12701,"inash":12702,"ĠBack":12703,"Ġelephant":12704,"issions":12705,"Ġ82":12706,"Ġ88":12707,"ĠDeve":12708,"Ġviewers":12709,"Ġproposals":12710,"Ġremanded":12711,"Ġswitched":12712,"ĠHassan":12713,"ĠNexon":12714,"ĠMaldives":12715,"Bar":12716,"drop":12717,"inada":12718,"ĠScheduled":12719,"Ġresource":12720,"Ġenters":12721,"Almost":12722,"Hero":12723,"ĠJagannath":12724,"Ġnose":12725,"ĠMayank":12726,"Ġprecaution":12727,"Ġthankful":12728,"viously":12729,"ĠKotak":12730,"Ġconverted":12731,"ĠBhutan":12732,"Cr":12733,"Much":12734,"Tollywood":12735,"zek":12736,"Ġ*":12737,"iser":12738,"Ġfond":12739,"ĠKir":12740,"ĠKTR":12741,"umn":12742,"ĠJai":12743,"Ġspring":12744,"Weve":12745,"ĠManager":12746,"ĠReels":12747,"IMIM":12748,"ĠBuddha":12749,"Listen":12750,"otive":12751,"erson":12752,"hia":12753,"Ġ76":12754,"Ġnationals":12755,"liminary":12756,"Ġexecution":12757,"Ġtomato":12758,"Ġawaiting":12759,"ĠLatin":12760,"Ġacknowled":12761,"Ġships":12762,"Ġwitnesses":12763,"ĠPvt":12764,"ĠDetails":12765,"Ġleague":12766,"ĠOmar":12767,"Ġammun":12768,"Ġassass":12769,"puri":12770,"Ġgodly":12771,"Ġextraordinary":12772,"ĠRab":12773,"ĠIreland":12774,"ĠGandhis":12775,"Ġdeadline":12776,"ĠAirways":12777,"Ġcelebrating":12778,"Ġtraveling":12779,"ĠInfrastructure":12780,"Ġachieving":12781,"ĠHindustan":12782,"Ir":12783,"oop":12784,"ĠRights":12785,"abs":12786,"iac":12787,"ocket":12788,"ĠVillage":12789,"aste":12790,"Ġraw":12791,"Ġintervention":12792,"ĠSania":12793,"cellor":12794,"Ġcooperate":12795,"Ġlegislation":12796,"Results":12797,"Class":12798,"Smart":12799,"ĠJeevan":12800,"Ġaccomplish":12801,"Ġdignitaries":12802,"ĠPokhriyal":12803,"Prin":12804,"ĠShyam":12805,"utation":12806,"udes":12807,"Ġdelicious":12808,"ĠRobert":12809,"Ġautomobile":12810,"ĠCinema":12811,"crore":12812,"Baj":12813,"selling":12814,"Ġlos":12815,"ĠTaj":12816,"Expect":12817,"ĠBox":12818,"ĠMeteorological":12819,"ĠBench":12820,"ĠKanpur":12821,"Ġstrictly":12822,"Ġbalanced":12823,"ĠProfessor":12824,"Ġsubmerged":12825,"Mobile":12826,"oters":12827,"ĠCur":12828,"ĠBhans":12829,"Ġtrillion":12830,"ects":12831,"ĠSeason":12832,"Ġpainful":12833,"ĠMercedes":12834,"Ġnewspapers":12835,"zza":12836,"ĠKol":12837,"ĠGir":12838,"Ġsaving":12839,"Ġshell":12840,"Ġthrong":12841,"Ġnowhere":12842,"ĠAICC":12843,"Ġmartyred":12844,"Discuss":12845,"Important":12846,"Ġcave":12847,"ional":12848,"raw":12849,"Ġsmoking":12850,"ĠSaaho":12851,"Ġ1990":12852,"Ġequivalent":12853,"Ġaer":12854,"ĠMiddle":12855,"Ġrespected":12856,"Ġannum":12857,"Ġ84":12858,"Ġ'%":12859,"Ġeaten":12860,"Ġestablishments":12861,"Ġidols":12862,"ĠDevarakonda":12863,"Bab":12864,"RJD":12865,"mukh":12866,"wk":12867,"ĠMost":12868,"Ġtrace":12869,"rivast":12870,"Ġhoped":12871,"Ġprofits":12872,"Ġindigenous":12873,"Case":12874,"hast":12875,"Ġbere":12876,"ĠJog":12877,"ĠRamya":12878,"Goa":12879,"Ay":12880,"brid":12881,"Ġfu":12882,"ĠPacific":12883,"arding":12884,"Ġendure":12885,"Ġinspe":12886,"United":12887,"Ġresponding":12888,"Ġresidential":12889,"Ġlyrics":12890,"NC":12891,"Sud":12892,"bl":12893,"hea":12894,"Ġmaker":12895,"ĠRashid":12896,"Ġsegments":12897,"oval":12898,"Ġinterior":12899,"Ġrepresenting":12900,"Ġtelephone":12901,"ĠNorthern":12902,"Event":12903,"fection":12904,"Ġdoused":12905,"Ġhus":12906,"resa":12907,"ĠNIA":12908,"avan":12909,"Ġpresenting":12910,"Ġinfotainment":12911,"dea":12912,"ĠVivekananda":12913,"ĠPrashanth":12914,"ĠMSMEs":12915,"Econom":12916,"ĠTCS":12917,"iki":12918,"ĠStokes":12919,"Anand":12920,"Ġdrunk":12921,"Ġprofound":12922,"Ġdoubles":12923,"Ġdisappoint":12924,"Ġoriginally":12925,"Ġfrequent":12926,"Ġdynam":12927,"GF":12928,"ĠMSP":12929,"ĠEPF":12930,"Ġemployed":12931,"Place":12932,"Ġminorities":12933,"Ġnuts":12934,"ĠSchedule":12935,"Ġcomparison":12936,"Def":12937,"si":12938,"Ġtherapy":12939,"ollo":12940,"Ġalar":12941,"Ġlooted":12942,"Ġ89":12943,"ĠIsland":12944,"Ġsentiments":12945,"Arun":12946,"Addressing":12947,"ĠBluetooth":12948,"Ġlegislature":12949,"uzaff":12950,"ĠPerson":12951,"ĠChampionships":12952,"Ġmemorial":12953,"Ġkitchen":12954,"Ġassignment":12955,"Ġcommodities":12956,"Non":12957,"Samsung":12958,"Video":12959,"Ġflying":12960,"Ġgm":12961,"ĠNick":12962,"Ġmarg":12963,"Ġdeteriorated":12964,"ĠMahanati":12965,"Ġluxury":12966,"04":12967,"Mer":12968,"das":12969,"lined":12970,"Ġsorrow":12971,"Ġleak":12972,"ĠAmy":12973,"Ġexplore":12974,"ĠSafety":12975,"ĠCrime":12976,"ĠBor":12977,"ĠDatt":12978,"Ġlev":12979,"Ġrestricted":12980,"Whose":12981,"Ġdeleted":12982,"Ġintervened":12983,"OP":12984,"Sport":12985,"itch":12986,"Ġbearing":12987,"ĠCher":12988,"ĠRK":12989,"Ġanyway":12990,"Ġ650":12991,"ĠShim":12992,"Ġreasonable":12993,"Ġdestinations":12994,"picious":12995,"Enjoy":12996,"riminal":12997,"ĠVenkateshwara":12998,"anj":12999,"Ġnod":13000,"Ġlately":13001,"ĠDaggubati":13002,"ĠChaud":13003,"Asian":13004,"Onion":13005,"ĠExchange":13006,"Ġaccomp":13007,"otsa":13008,"Plus":13009,"Investigation":13010,"Ġweapon":13011,"ĠBhatia":13012,"ĠIts":13013,"ĠNis":13014,"pert":13015,"2019":13016,"ĠGuwahati":13017,"Ġrefers":13018,"Ġevalu":13019,"Ġextreme":13020,"ĠMohanlal":13021,"Ġprevented":13022,"Ġaccessible":13023,"Ġbeliefs":13024,"Ġbothered":13025,"Ġinner":13026,"Ġremed":13027,"ĠDip":13028,"Ġfilming":13029,"aza":13030,"Ġdetermine":13031,"Ġprophecy":13032,"ĠPriyad":13033,"Ġvulnerable":13034,"ĠPed":13035,"licop":13036,"Ġrelent":13037,"Ġchase":13038,"Ġwhenever":13039,"Ġflavour":13040,"umping":13041,"ĠKrishnan":13042,"Leave":13043,"Ġunusual":13044,"Ġfer":13045,"Ġdried":13046,"ĠAC":13047,"udra":13048,"Ġcorn":13049,"Ġvacation":13050,"ĠJaish":13051,"Ġbuyers":13052,"ĠRajeev":13053,"Ġamidst":13054,"ĠRaghuram":13055,"Ġtrop":13056,"Ġfasc":13057,"ĠEt":13058,"manuel":13059,"Ġdesper":13060,"Ġrallies":13061,"Sure":13062,"Ġbehavior":13063,"ĠDon":13064,"thren":13065,"ĠYatra":13066,"Ġclothing":13067,"Ġelev":13068,"Ġneedy":13069,"Ġtractor":13070,"ĠArm":13071,"Ġdeclining":13072,"Ġrecognize":13073,"Ġmemories":13074,"Close":13075,"Qualification":13076,"Ġinterrogated":13077,"isheries":13078,"Electric":13079,"anand":13080,"soever":13081,"riced":13082,"Ġhumble":13083,"Ġholders":13084,"ĠDesai":13085,"Ġblasts":13086,"ĠRegional":13087,"ea":13088,"ĠSov":13089,"Ġhockey":13090,"osity":13091,"ĠNissan":13092,"Ġintim":13093,"reta":13094,"Ġrepro":13095,"ĠBiote":13096,"Ġcalc":13097,"Ġranking":13098,"Ġinfluenced":13099,"working":13100,"Ġcomponent":13101,"ĠDurga":13102,"Ġhelicop":13103,"ĠFI":13104,"Ġresumed":13105,"Ġsafegu":13106,"Ġselfies":13107,"1500":13108,"ktop":13109,"atographer":13110,"Ġiniqu":13111,"Ġdrew":13112,"ĠRenault":13113,"avani":13114,"outheast":13115,"Ġcompare":13116,"Ġexposed":13117,"ibet":13118,"ĠAmethi":13119,"ĠCommunist":13120,"ĠAyushman":13121,"Ġhavoc":13122,"ston":13123,"ĠPuj":13124,"ĠBedi":13125,"ĠJail":13126,"Ġrespiratory":13127,"Ġ87":13128,"Ġnetworks":13129,"Ġseparately":13130,"Ġcultures":13131,"ĠQueen":13132,"Ġfelicitated":13133,"Mult":13134,"Ġax":13135,"ouble":13136,"Ġreli":13137,"ĠAw":13138,"Ġrat":13139,"ĠLPG":13140,"Ġserver":13141,"ĠChoud":13142,"Ġconfig":13143,"Ġsensational":13144,"Ġindicated":13145,"ĠEmployees":13146,"Leaders":13147,"Cre":13148,"anidhi":13149,"Ġgrain":13150,"ĠGos":13151,"Ġring":13152,"ĠRamoji":13153,"Ġactively":13154,"atherine":13155,"Ġheartfelt":13156,"limited":13157,"Ġapprehe":13158,"Ġflowing":13159,"ĠSikh":13160,"ĠGhulam":13161,"ĠEphes":13162,"ĠLyca":13163,"03":13164,"Ġreactions":13165,"ĠAur":13166,"uming":13167,"Ġabol":13168,"Ġcontrary":13169,"loved":13170,"Ġviolated":13171,"Black":13172,"Ġamendments":13173,"Ġtreasure":13174,"Ġhungry":13175,"NT":13176,"few":13177,"Ġnerv":13178,"ĠCars":13179,"ĠTTD":13180,"ĠShashi":13181,"Ġ86":13182,"Ġhitting":13183,"Ġfuneral":13184,"Ġmisle":13185,"Nayanthara":13186,"Ġtune":13187,"ĠSis":13188,"Ġrush":13189,"Ġintended":13190,"Ġflock":13191,"Ġinstruction":13192,"Ġcollector":13193,"ĠAbhin":13194,"ĠAbbas":13195,"ĠAutom":13196,"Ġexecuted":13197,"ĠPOCSO":13198,"Garlic":13199,"Tourists":13200,"Oper":13201,"Ġrating":13202,"Ġposters":13203,"Unable":13204,"Ġactresses":13205,"Ġclimbed":13206,"ĠAvinash":13207,"Ġincorpor":13208,"mundry":13209,"just":13210,"mat":13211,"mail":13212,"rape":13213,"Ġheal":13214,"ĠFac":13215,"ĠYV":13216,"Ġcounted":13217,"Ġcreates":13218,"ĠVenky":13219,"Ġportf":13220,"Ġbaptism":13221,"Ġantioxidants":13222,"ĠBibles":13223,"Ġstructures":13224,"pally":13225,"Ġfare":13226,"aried":13227,"Ġnic":13228,"Ġliver":13229,"ĠCle":13230,"odium":13231,"Ġcopper":13232,"Ġbackdrop":13233,"Ġchurn":13234,"Ġrespects":13235,"Ġcaptains":13236,"ĠBuddhis":13237,"Ġwrath":13238,"ivic":13239,"Ġintent":13240,"Ġ450":13241,"emandhra":13242,"Sign":13243,"Ġsar":13244,"arity":13245,"ahmundry":13246,"weight":13247,"Ġhighways":13248,"Ġrevol":13249,"ĠLeaders":13250,"ĠVirender":13251,"93":13252,"Ur":13253,"wife":13254,"rets":13255,"ĠSelection":13256,"Ġepic":13257,"unately":13258,"isting":13259,"ella":13260,"Ġperpet":13261,"Always":13262,"Ġcrushed":13263,"Ġdamages":13264,"ĠXi":13265,"Ġinstitute":13266,"Ġcorporation":13267,"ĠBobde":13268,"Ġmol":13269,"uds":13270,"Ġrepent":13271,"irla":13272,"ĠMadh":13273,"Counting":13274,"lay":13275,"ĠHars":13276,"Ġpled":13277,"ouses":13278,"Ġamended":13279,"Ġlongest":13280,"ickets":13281,"Ġbooking":13282,"sequent":13283,"ĠSmt":13284,"ĠClinton":13285,"ĠAcharya":13286,"Ġammunition":13287,"750":13288,"Blood":13289,"zab":13290,"child":13291,"Ġprocesses":13292,"Ġ256":13293,"Ġexceptions":13294,"ĠPaswan":13295,"utenant":13296,"Bad":13297,"Del":13298,"nut":13299,"Ġbore":13300,"ĠOsc":13301,"Ġrepay":13302,"ĠSuperintendent":13303,"Ġdeparted":13304,"Megastar":13305,"ĠMinor":13306,"Ġsteady":13307,"Ġnephew":13308,"Bre":13309,"Kangana":13310,"yes":13311,"Ġocean":13312,"ĠWell":13313,"Ġterrible":13314,"Ġrepo":13315,"ĠShivakumar":13316,"Army":13317,"Ġapology":13318,"ĠSales":13319,"olitan":13320,"Pregn":13321,"kshaw":13322,"Ġtravelled":13323,"ĠEngineer":13324,"ĠThiruvananthapuram":13325,"avaskar":13326,"front":13327,"Ġsizes":13328,"Ġbikes":13329,"Ġlets":13330,"Ġplain":13331,"ixels":13332,"Ġsmiled":13333,"Ġlandmark":13334,"ĠAlto":13335,"Ġcommandments":13336,"ĠRegister":13337,"ĠChandrayaan":13338,"Ġentertaining":13339,"Ġamendment":13340,"Ġwaiver":13341,"Phys":13342,"ĠHigher":13343,"Ġexh":13344,"harges":13345,"Ġspots":13346,"Ġdesires":13347,"Ġeducated":13348,"ĠSonam":13349,"ĠMahmood":13350,"ĠOrder":13351,"Ġmortality":13352,"Ġapparently":13353,"Likewise":13354,"ĠBhansali":13355,"rivastava":13356,"94":13357,"Jr":13358,"occ":13359,"Ġ`":13360,"ĠMath":13361,"ĠGilead":13362,"Ġrig":13363,"ĠRap":13364,"Ġscope":13365,"Ġflaw":13366,"Ġcylinder":13367,"Ġfishing":13368,"Ġforgive":13369,"Ġcasualty":13370,"ĠVitara":13371,"kaj":13372,"party":13373,"hendra":13374,"Ġpulses":13375,"ĠPeth":13376,"hieves":13377,"arts":13378,"ĠJunior":13379,"arers":13380,"Ġadmission":13381,"Ġguys":13382,"rator":13383,"Talk":13384,"Ġmortuary":13385,"Ġstunned":13386,"Sind":13387,"urities":13388,"ĠBotsa":13389,"haram":13390,"ĠFinch":13391,"ĠWi":13392,"Ġdisin":13393,"Ġcarries":13394,"ibe":13395,"orthy":13396,"Ġcustoms":13397,"Ġvolunt":13398,"ĠIntelligence":13399,"Ġcease":13400,"VSN":13401,"EA":13402,"Ġslain":13403,"Ġdrain":13404,"Ġloses":13405,"Ġlips":13406,"ellect":13407,"Ġaren":13408,"ĠKanna":13409,"Ġjet":13410,"Ġunl":13411,"Ġmoderate":13412,"Ġbelievers":13413,"ammation":13414,"Ġcalcul":13415,"Ġuploaded":13416,"Suresh":13417,"Ġfifty":13418,"Ġinse":13419,"ĠGet":13420,"bery":13421,"ĠAkash":13422,"ĠRanchi":13423,"Hindi":13424,"ĠMedicine":13425,"Lord":13426,"Saina":13427,"ĠEqu":13428,"Ġmultitude":13429,"Ġconsuming":13430,"iciary":13431,"ĠDhanush":13432,"ĠSecretariat":13433,"Ġsurveillance":13434,"ĠLevites":13435,"ĠMaoists":13436,"Pict":13437,"sari":13438,"otics":13439,"riers":13440,"ĠJodhpur":13441,"antra":13442,"Ġuniverse":13443,"Ġscores":13444,"Ġvictorious":13445,"Rajam":13446,"Srinivas":13447,"ĠLankan":13448,"Histor":13449,"ittle":13450,"asion":13451,"Ġeternal":13452,"ĠWHO":13453,"ĠMahad":13454,"Ġchari":13455,"Ġconsent":13456,"Ġending":13457,"Ġachievements":13458,"Bharat":13459,"Ġrestaurants":13460,"emed":13461,"ĠAditi":13462,"Ġempire":13463,"Ġminority":13464,"Ġdemonet":13465,"ĠSkoda":13466,"Ġunclear":13467,"Ġunemployed":13468,"Ġtransparent":13469,"ĠBrezza":13470,"Self":13471,"isive":13472,"Ġsweep":13473,"ĠMala":13474,"ĠRover":13475,"ĠAD":13476,"ĠForm":13477,"Ġimitate":13478,"logy":13479,"Ġambit":13480,"ensus":13481,"manirbhar":13482,"990":13483,"ĠBhup":13484,"starrer":13485,"opichand":13486,"ĠDalits":13487,"Talking":13488,"Ġlauded":13489,"ĠMBBS":13490,"Ġdevastated":13491,"Spend":13492,"Ġmisc":13493,"ĠSouthern":13494,"ĠRun":13495,"uthi":13496,"ĠUTs":13497,"eshwara":13498,"loom":13499,"ureshi":13500,"ĠArmed":13501,"Ġ83":13502,"Ġpassage":13503,"Ġswelling":13504,"Ġchargeshe":13505,"Silver":13506,"Ford":13507,"final":13508,"Ġfolk":13509,"Ġasleep":13510,"Ġ92":13511,"witzer":13512,"Ġcertificates":13513,"ĠMahajan":13514,"ĠCSIR":13515,"Ġinnocent":13516,"kajgiri":13517,"81":13518,"enu":13519,"ĠSel":13520,"Ġaccus":13521,"Independ":13522,"Ġestimate":13523,"Ġholidays":13524,"JS":13525,"xide":13526,"eters":13527,"ĠViet":13528,"plex":13529,"Ġdiffer":13530,"ĠIsa":13531,"ĠGuest":13532,"Ġequation":13533,"ĠMysore":13534,"Ġdraws":13535,"Ġinauguration":13536,"Controvers":13537,"Ġdiscrimination":13538,"ĠChaudhary":13539,"Hon":13540,"RTC":13541,"ded":13542,"Ġwet":13543,"Ġcert":13544,"Ġtox":13545,"ĠCell":13546,"Ġalike":13547,"ĠDa":13548,"ĠFY":13549,"Ġconnecting":13550,"Ġremoval":13551,"Ġunanimously":13552,"Ġnervous":13553,"apped":13554,"ĠSuri":13555,"osition":13556,"agn":13557,"ĠLook":13558,"ĠWild":13559,"Ġ91":13560,"Ġconsiderable":13561,"Ġroutine":13562,"Ġbreakfast":13563,"Ġkidney":13564,"ĠHydari":13565,"Aamir":13566,"'d":13567,"06":13568,"Bro":13569,"Ġfurious":13570,"adoss":13571,"ĠHrithik":13572,"Ġration":13573,"Ġjets":13574,"ogue":13575,"oining":13576,"Ġairbag":13577,"ĠMedak":13578,"Ġcalendar":13579,"Ġvacancies":13580,"Ġforwarded":13581,"Ġmerchant":13582,"ahujan":13583,"Experts":13584,"ĠPutin":13585,"urisdict":13586,"Tok":13587,"Ġark":13588,"orns":13589,"Beaut":13590,"ĠDharm":13591,"Ġaccorded":13592,"Group":13593,"Ġuprooted":13594,"TP":13595,"onic":13596,"Ġfighters":13597,"itored":13598,"arr":13599,"ĠMith":13600,"ĠRishi":13601,"Ġthirty":13602,"ĠVem":13603,"ĠWikipedia":13604,"alaq":13605,"Ġphosp":13606,"Ġ98":13607,"ĠGujar":13608,"Ġgrounds":13609,"wagen":13610,"ĠPethuraj":13611,"BM":13612,"ĠSah":13613,"ĠRoh":13614,"ĠRules":13615,"ĠBall":13616,"ĠBip":13617,"igo":13618,"ĠTai":13619,"ĠNokia":13620,"Ġraises":13621,"ĠThen":13622,"Ġconstable":13623,"iban":13624,"Ġsupple":13625,"ĠSubbar":13626,"ĠPolavaram":13627,"Ġtravellers":13628,"elligent":13629,"Ġshelter":13630,"Ġathlet":13631,"ĠPhilistines":13632,"Tom":13633,"atore":13634,"asw":13635,"omic":13636,"ĠNages":13637,"elli":13638,"Ġnoise":13639,"Ġmustard":13640,"ĠAgricultural":13641,"rified":13642,"Ġfestive":13643,"Ġhotels":13644,"ĠEnterprises":13645,"Furthermore":13646,"ĠDeshmukh":13647,"witzerland":13648,"Parliament":13649,"gor":13650,"hunt":13651,"jj":13652,"rus":13653,"Ġaus":13654,"ĠUAE":13655,"kswagen":13656,"Ġchecked":13657,"Ġassociate":13658,"ilitary":13659,"Ġtabern":13660,"Ġaspirations":13661,"ĠPilot":13662,"ĠSoviet":13663,"OL":13664,"UN":13665,"Ġprosec":13666,"Ġjack":13667,"Ġresort":13668,"ĠWitness":13669,"Ġyoungest":13670,"Ġensued":13671,"Ġobjectives":13672,"Ġrarely":13673,"Ġstretch":13674,"ĠMartin":13675,"ĠRubens":13676,"%,":13677,"02":13678,"tr":13679,"Ġtent":13680,"Ġincent":13681,"ĠResources":13682,"Exerc":13683,"Prov":13684,"Ġlifetime":13685,"Reduce":13686,"Ġrebell":13687,"Ġtranslation":13688,"Ġvomiting":13689,"Ġhails":13690,"ĠRight":13691,"ĠKaz":13692,"quire":13693,"Ġinjustice":13694,"jeet":13695,"jections":13696,"Proper":13697,"Ġrepresentative":13698,"ĠClub":13699,"iques":13700,"ĠPeoples":13701,"Ġindicates":13702,"Ġpilgrim":13703,"Sushant":13704,"Sol":13705,"Ġbon":13706,"asha":13707,"ĠVers":13708,"Ġsculpt":13709,"ĠChrists":13710,"elections":13711,"ĠVennela":13712,"Ġequality":13713,"ĠScindia":13714,"ĠDisaster":13715,"Ġframework":13716,"Prakash":13717,"Ġweighs":13718,"End":13719,"Ġwomans":13720,"Ġbackward":13721,"Ġproteins":13722,"Ġtwelve":13723,"Ġsteering":13724,"ĠPalace":13725,"Ġanticipated":13726,"Ġairline":13727,"gium":13728,"Ġwaves":13729,"ĠIb":13730,"ĠNS":13731,"Ġneut":13732,"Ġoffence":13733,"Ġinvested":13734,"Third":13735,"Ġsmell":13736,"Ġpaintings":13737,"Ġagreements":13738,"ĠEmmanuel":13739,"Ġgender":13740,"Ġvirtually":13741,"ĠANI":13742,"Ġaltercation":13743,"Jet":13744,"iabad":13745,"ested":13746,"Ġvo":13747,"ĠLin":13748,"hyap":13749,"Ġentitled":13750,"Ġminted":13751,"apping":13752,"Ġgoddess":13753,"Ġcivilians":13754,"ĠGayle":13755,"Ġcorresponding":13756,"Ġgutted":13757,"Ġthroat":13758,"Ja":13759,"core":13760,"Ġought":13761,"iven":13762,"Ġclause":13763,"ĠRajendran":13764,"ucks":13765,"Ġcheated":13766,"ĠTrains":13767,"ĠTribunal":13768,"Ġspectacular":13769,"Ġembarr":13770,"Ġbereaved":13771,"falls":13772,"andi":13773,"Ġevol":13774,"Ġdesigns":13775,"Ġbrake":13776,"ĠRashtrapati":13777,"Global":13778,"Say":13779,"Ġdiversity":13780,"ĠSamp":13781,"Ġatroc":13782,"ĠSupp":13783,"Ġlanding":13784,"pring":13785,"Ġbasket":13786,"Ġ1998":13787,"ĠDalit":13788,"Millions":13789,"Old":13790,"Ġdow":13791,"ĠMuzaff":13792,"ĠKV":13793,"ĠLav":13794,"inde":13795,"Ġdistingu":13796,"acts":13797,"Ġ97":13798,"Ġsupervision":13799,"ĠSurat":13800,"ĠVidya":13801,"Ġprefer":13802,"Turmeric":13803,"Tri":13804,"fer":13805,"Ġtrophy":13806,"Ġail":13807,"Ġbare":13808,"Ġdens":13809,"Ġcommend":13810,"ĠHans":13811,"Ġfeared":13812,"umph":13813,"Ġtestim":13814,"Ġmodes":13815,"Ġdebit":13816,"prise":13817,"Ġfindings":13818,"Ġpoems":13819,"Ġargued":13820,"Cook":13821,"Vice":13822,"Ġcake":13823,"stan":13824,"Ġstays":13825,"ĠDate":13826,"Ġflower":13827,"Ġcommemor":13828,"Ġpromoted":13829,"Ġcolleagues":13830,"ĠPrag":13831,"ĠAlt":13832,"Ġprivacy":13833,"Ġinflammation":13834,"Ġregistering":13835,"ĠGolden":13836,"imbatore":13837,"communic":13838,"belie":13839,"ĠMicrosoft":13840,"Ġsubstantial":13841,"aq":13842,"Ġcher":13843,"itary":13844,"ighest":13845,"ĠNor":13846,"Ġreserves":13847,"Hows":13848,"Ġyours":13849,"Ġprint":13850,"ificial":13851,"rowth":13852,"Ġpossibly":13853,"ranthi":13854,"ĠInterview":13855,"Ġgunfight":13856,"ĠTurkey":13857,"Wind":13858,"ĠSib":13859,"ĠEmergency":13860,"annot":13861,"Ġ93":13862,"ĠDeath":13863,"Ġcalam":13864,"ierce":13865,"Ve":13866,"Ġdhar":13867,"Ġonto":13868,"Ġconqu":13869,"Ġtrapped":13870,"ĠShuk":13871,"Ġinterrogation":13872,"Ġformally":13873,"Ġfinds":13874,"Ġdependent":13875,"employment":13876,"Prior":13877,"ean":13878,"isms":13879,"Ġlibrary":13880,"ĠMak":13881,"ĠGun":13882,"reek":13883,"ĠReddys":13884,"Ġbrethren":13885,"Ġyoungsters":13886,"ĠBalak":13887,"ĠCommander":13888,"Ġpilots":13889,"Ġsurfaced":13890,"Ġderived":13891,"Ġroughly":13892,"Massive":13893,"Ever":13894,"Nirmala":13895,"Sleep":13896,"net":13897,"Ġfolder":13898,"Ġpel":13899,"ithya":13900,"Ġsurged":13901,"Ġputs":13902,"Ġcontrols":13903,"Ġcelebrates":13904,"Ġexpecting":13905,"Ġstrive":13906,"ĠDharmendra":13907,"Ġpropaganda":13908,"ĠSubbaraj":13909,"Cal":13910,"Educational":13911,"have":13912,"Ġbars":13913,"alakshmi":13914,"Ġmerc":13915,"ĠIv":13916,"ĠBon":13917,"riages":13918,"Ġdiscounts":13919,"Note":13920,"rug":13921,"ĠTO":13922,"ĠFern":13923,"ĠComputer":13924,"Ġflash":13925,"Ġbenchmark":13926,"MoU":13927,"Ġstruggling":13928,"Ġhomage":13929,"Ġstroke":13930,"umulative":13931,"WHO":13932,"Ġslic":13933,"ĠRio":13934,"herlands":13935,"Ġuncon":13936,"ptions":13937,"Ġforming":13938,"Ġdivisions":13939,"ĠParas":13940,"ropolitan":13941,"ĠAhmad":13942,"Ġemphasis":13943,"Ġcompromise":13944,"Ġhusbands":13945,"gam":13946,"Ġbacter":13947,"chu":13948,"iago":13949,"angle":13950,"Ġdecides":13951,"azar":13952,"Ġ170":13953,"named":13954,"limate":13955,"Ġfunctional":13956,"ĠPauls":13957,"Ġapplying":13958,"Ġburned":13959,"ĠApollo":13960,"Ġwebinar":13961,"Sanjay":13962,"Eventually":13963,"tm":13964,"Ġcos":13965,"amine":13966,"ĠAS":13967,"Ġador":13968,"Ġadul":13969,"Ġfamiliar":13970,"Ġdefend":13971,"Ġfacelift":13972,"Ġforet":13973,"Ġnormally":13974,"Ġdrawing":13975,"Relations":13976,"Maybe":13977,"Samantha":13978,"Ġintervene":13979,"ummins":13980,"enge":13981,"orney":13982,"ĠCeleb":13983,"ĠPradeshs":13984,"Ġdiscoura":13985,"ĠAndaman":13986,"wanand":13987,"rogen":13988,"Ġacquisition":13989,"ĠScriptural":13990,"Popular":13991,"Ġbaking":13992,"eties":13993,"ĠNH":13994,"Ġproven":13995,"Ġregarded":13996,"Ġtreating":13997,"Ġbenefited":13998,"Ġtitles":13999,"Ġprevents":14000,"hattar":14001,"Ġborne":14002,"Ġobserv":14003,"Ġhatred":14004,"King":14005,"fe":14006,"ĠSep":14007,"Ġresent":14008,"elected":14009,"ickey":14010,"Ġcirculated":14011,"Ġobservation":14012,"Ġsuggests":14013,"ĠAyurved":14014,"ĠBaroda":14015,"ĠMurthy":14016,"Ġdefinition":14017,"ĠEmployment":14018,"Ġattracted":14019,"giene":14020,"car":14021,"anam":14022,"ĠSup":14023,"olio":14024,"Ġjurisdict":14025,"Ġpassport":14026,"Ġpublications":14027,"Ġexercises":14028,"hetic":14029,"Ġoppon":14030,"Ġpersecution":14031,"Focus":14032,"ĠSD":14033,"ĠMult":14034,"ĠCana":14035,"urches":14036,"Ġstalled":14037,"Ġlecture":14038,"luded":14039,"Ġsentiment":14040,"Ġfatality":14041,"Ġemphasized":14042,"Ġexclusive":14043,"Ġabundance":14044,"Ġsympathy":14045,"Situ":14046,"lines":14047,"Ġbeloved":14048,"ĠRandeep":14049,"ĠBehold":14050,"ĠFree":14051,"ĠThese":14052,"Ġmonitored":14053,"Ġreceip":14054,"risha":14055,"hammad":14056,"Ġurgent":14057,"changed":14058,"Ġsummon":14059,"Ġwebsites":14060,"ĠBhagwat":14061,"Ġnarrow":14062,"Ġsuspicion":14063,"Ġwildlife":14064,"Ranveer":14065,"Ġdad":14066,"ĠMA":14067,"ĠAst":14068,"astes":14069,"effect":14070,"rama":14071,"Ġgrants":14072,"Stand":14073,"Ġcurb":14074,"Ġmenu":14075,"ĠAbu":14076,"ĠAdilabad":14077,"LE":14078,"olation":14079,"ayas":14080,"ĠBirla":14081,"ĠKharge":14082,"ĠDiesel":14083,"ĠPram":14084,"Ġpolitically":14085,"Ġrestore":14086,"Appro":14087,"Marriage":14088,"Ġinstruments":14089,"ĠSudheer":14090,"Ġcope":14091,"Error":14092,"Ġtabernacle":14093,"ĠDG":14094,"Ġdifferently":14095,"Ġreveals":14096,"Ġmeanwhile":14097,"ĠRange":14098,"Ġcutting":14099,"Ġtroubles":14100,"Ġscientist":14101,"Ġbrands":14102,"hinagar":14103,"Ġanguish":14104,"Ġpredominantly":14105,"Rakul":14106,"rekar":14107,"Ġodd":14108,"Ġbeating":14109,"Ġrevenues":14110,"Ġspare":14111,"uka":14112,"Ġaffili":14113,"ĠJaishankar":14114,"Ġtoilets":14115,"Ġworsened":14116,"Ġsaddened":14117,"Okay":14118,"zed":14119,"ĠKochi":14120,"ĠJu":14121,"Ġincom":14122,"astically":14123,"anned":14124,"Online":14125,"ooq":14126,"ĠNeil":14127,"Ġthreats":14128,"Ġphilosophy":14129,"Kul":14130,"Unt":14131,"hurt":14132,"made":14133,"Ġpoured":14134,"advant":14135,"ersey":14136,"ĠGab":14137,"apat":14138,"comes":14139,"ĠCMs":14140,"Common":14141,"Ġdisciple":14142,"Ġfairly":14143,"ĠFederal":14144,"ĠPakistans":14145,"ĠKaushal":14146,"Maximum":14147,"UC":14148,"UT":14149,"ĠMW":14150,"uli":14151,"ĠLie":14152,"ĠFee":14153,"Ġappe":14154,"Ġdescribe":14155,"Ġdeposited":14156,"ennis":14157,"Sunil":14158,"Ġcomprise":14159,"Huge":14160,"bor":14161,"Ġcogn":14162,"Ġbind":14163,"Ġascertain":14164,"ainted":14165,"avathi":14166,"Ġarises":14167,"Ġfirmly":14168,"Ġkilometers":14169,"Ahmed":14170,"Ġassessment":14171,"ĠKedar":14172,"Ġnurses":14173,"ĠExamination":14174,"Ġaccompany":14175,"VI":14176,"two":14177,"Ġaug":14178,"aration":14179,"ĠTihar":14180,"ĠHand":14181,"..?":14182,"Ġrealized":14183,"ĠAlm":14184,"ĠThree":14185,"hanti":14186,"Ġparadise":14187,"ĠDharma":14188,"ĠBhagat":14189,"ĠHeritage":14190,"Elig":14191,"isers":14192,"ĠSl":14193,"Ġsealed":14194,"identified":14195,"acks":14196,"Ġmeditation":14197,"Ġpersist":14198,"nex":14199,"yaan":14200,"Chiranjeevi":14201,"ĠPlanning":14202,"arency":14203,"ĠSeng":14204,"ĠTw":14205,"ĠTop":14206,"ĠHappy":14207,"Ġ220":14208,"aseema":14209,"Ġmanhunt":14210,"Ġperspective":14211,
[...]
